4565
-13322
-6483
-2834
-4781
-7814
458
-15670
-6622
-4204
5524
-5389
85
-11795
-3067
-941
-3905
-1003
-4359
4572
-8861
-2206
-11099
-9470
-6239
-7936
-12038
-5760
-6995
3146
-3419
-9486
982
1434
-8760
-18430
-7234
8222
772
-8362
140
-7456
-6893
-6462
-3599
-1287
-1202
2364
-3355
5916
-21937
-19250
3235
-2487
-14449
-6598
5424
-4367
2999
5016
-3831
-1049
10132
6740
1267
10662
-7628
-16712
-8188
-6394
1779
7685
3311
4929
-2777
-4454
8440
5159
7456
-2727
-1980
-7034
-14276
-13747
-6912
-5782
-225
-1873
4148
-13014
1390
-1459
303
526
-5263
2848
2081
-4296
437
-68
-2398
-5691
840
3479
-13755
-1690
-3479
-15249
-2841
-15022
4823
-2213
-4365
679
-6053
-13521
3853
-6694
2502
-7361
4729
775
-8244
-841
-3639
-3243
14549
9875
