7
11
-7
9
-5
-10
-7
-16
-5
0
10
10
-16
-14
10
-5
1
-3
5
5
1
-9
1
-1
-5
13
-9
-12
-21
-18
1
45
-5
-4
15
-1
4
-13
-13
-1
5
-9
-4
-5
-20
-2
2
4
-2
5
-4
21
-13
1
7
9
-6
0
-1
3
1
-16
5
-6
-2
-4
-5
-14
1
-3
3
4
6
2
-13
-22
-19
-11
-3
-51
15
-13
3
-17
-22
-34
22
-8
3
4
5
6
-13
3
12
7
-29
-1
3
87
-18
-18
1
127
10
-11
-15
-12
-6
-20
-29
-11
3
-4
-20
-14
-48
6
-8
-19
-13
-8
-7
40
-18
-2
2
-2
12
-12
-6
-13
1
-7
9
-2
4
5
-5
-7
-14
-1
0
6
2
-2
11
2
-8
-12
-4
6
-9
-5
-6
2
-4
-12
7
-9
-3
5
1
0
-4
2
4
-3
-2
-21
11
-18
-2
-19
2
0
9
-15
-16
1
-2
3
14
-2
-2
-1
7
7
-11
12
9
-3
4
-10
10
3
-10
-6
3
18
-2
-6
-12
4
-3
2
1
-5
-8
-1
2
-1
1
9
2
-1
-16
2
4
-30
10
0
-20
29
-14
9
-15
-9
39
3
-7
12
9
18
18
25
-26
-12
-4
-5
5
-22
-2
-25
25
-6
20
27
22
6
-15
-16
-19
17
7
24
21
13
19
5
-4
10
-12
-2
-4
-5
-18
-15
34
-39
15
25
6
10
-8
-11
-14
-13
14
5
0
1
0
-11
-2
8
0
0
-6
-13
8
53
-15
18
-28
92
-30
5
-9
12
39
21
3
11
15
1
20
4
7
-17
-10
-9
-7
-46
-19
113
67
-8
-8
127
-3
14
-24
11
-19
18
-19
11
1
-2
-5
-33
10
-9
-14
0
-11
-32
-6
113
18
-39
19
107
7
11
-19
3
-11
-4
33
12
14
-8
-5
-40
-1
-12
-4
14
7
-15
8
0
-4
16
-24
-24
-36
3
-12
-1
44
17
-9
13
8
-3
10
39
-3
6
-26
-7
-4
-63
-82
-6
42
13
8
-63
44
-15
-5
-22
15
5
25
26
5
-17
9
32
9
-10
-11
48
5
-47
-10
15
16
-9
-1
-18
10
9
-2
-16
12
-9
26
-1
2
-2
-6
-11
14
5
-1
1
-11
-29
15
7
12
-1
-4
82
-2
2
7
-18
-16
21
-1
3
-20
-5
3
-30
1
3
-17
-9
5
-54
-20
18
20
8
23
114
10
19
-5
-8
-17
42
0
31
1
13
14
-48
-4
11
-15
6
3
-37
6
28
7
10
6
67
-9
-12
5
-24
-31
-9
-1
-14
-21
6
-18
-34
2
-2
-1
1
-1
1
34
81
-14
15
15
102
-2
9
4
-1
-4
26
17
-5
-18
7
-7
-21
13
17
-3
-8
10
-33
39
34
5
55
15
127
-7
23
33
11
19
68
27
3
3
39
0
4
27
30
-5
9
3
2
15
82
14
22
16
68
-24
-11
7
-1
-34
6
3
-27
-15
6
-18
-23
12
21
7
-6
-23
-16
4
65
-27
4
-24
32
-27
11
-2
2
-1
27
-3
-1
-8
-19
-9
-53
-7
0
-14
-19
-2
23
45
98
-15
32
1
49
-102
34
-11
1
-34
71
-6
-5
-4
-9
-34
-54
38
41
-16
-31
5
-1
4
84
7
17
3
32
-24
2
-9
9
-25
-11
14
-29
-3
-19
-24
-55
9
18
3
-10
-17
14
0
21
71
24
-33
43
23
10
16
11
10
-29
-50
-32
32
22
-9
-28
-14
-49
7
5
-15
-5
-23
27
17
31
7
49
-39
13
-16
60
76
-78
18
41
-14
5
-2
-33
-25
-65
-16
41
-15
15
-8
8
50
40
-19
-7
25
23
2
5
9
-27
18
6
9
20
0
-29
22
-58
-7
-4
-19
33
-14
-30
57
53
-25
-2
22
24
-6
5
-20
-27
-7
-31
-1
45
-6
11
-24
-9
-7
20
-3
127
13
-40
-34
61
14
-54
27
-4
7
10
45
-70
89
43
2
64
23
-74
-56
30
20
-16
-21
31
-39
-53
22
53
-31
-28
-4
21
10
5
-31
-43
39
18
-8
35
-21
-20
-21
-17
14
5
-2
22
-5
-51
66
56
2
5
1
5
45
1
19
14
-12
3
10
-24
6
5
-10
-24
12
-1
1
-16
24
-98
9
72
5
-57
-28
8
36
18
4
10
-21
27
2
-34
15
14
-32
-15
18
-21
-13
-6
4
-80
50
71
-15
4
-9
29
52
-6
3
11
-13
10
17
-20
24
-12
3
-28
3
-20
0
8
-14
-8
8
-8
5
-20
3
0
7
1
-3
-6
-6
3
11
1
-3
10
-2
-5
3
5
-11
8
-18
-3
8
-11
6
-31
6
10
-4
5
-3
-11
7
4
2
-1
-10
3
-2
-6
-3
2
5
5
-11
-8
9
-15
7
-16
6
-4
6
3
4
-5
-5
-1
8
6
-3
9
-5
-10
2
0
-10
4
-21
-13
15
-16
12
2
-1
19
16
-8
-13
5
23
4
12
-17
4
-16
-5
-4
-1
7
-47
-15
-74
-24
2
-1
25
-50
33
18
-15
-34
-28
-8
47
13
38
-18
-26
-97
-60
-2
-8
-9
-10
1
-9
-15
3
-25
5
-8
-3
16
16
-7
-9
9
20
-1
6
-24
-5
-18
-20
0
7
-1
-8
6
-12
-14
7
-11
-1
8
1
-8
9
19
-21
23
11
-6
-2
0
-13
-16
8
1
-7
-11
12
-41
-83
-1
-3
-9
11
37
54
-30
-25
33
0
17
-55
30
19
-11
25
127
7
-6
-11
16
-4
4
-3
-10
-7
-17
8
-6
-3
-5
-6
18
-12
13
-4
-3
-2
-1
-3
8
-2
5
11
-9
-7
0
0
4
-34
-19
2
-5
2
-14
-8
14
-20
13
16
11
-1
-6
2
-14
5
8
1
-7
-2
-29
13
12
-8
5
-9
44
-8
4
0
5
9
17
-76
-2
-12
6
-7
51
3
-8
-11
2
8
-34
3
-8
12
25
-4
22
3
-15
-19
8
3
8
-54
-18
10
21
1
39
5
-11
0
1
-9
-10
-1
8
-22
-15
-3
-13
4
-16
-1
4
-24
-4
38
0
3
12
-7
-28
0
4
1
-4
-23
-7
24
11
-22
-13
2
-1
-127
25
-20
-23
24
78
-107
-3
6
8
-15
56
-5
2
-64
-10
3
-12
-14
22
22
18
-15
5
-40
-3
-22
-26
-9
-7
-124
-29
4
4
-17
76
66
15
-16
-3
-2
1
5
-11
-14
-5
8
5
-2
-15
-17
4
5
-8
8
5
0
3
-5
-1
3
0
-9
-12
3
-33
-23
-28
-4
-8
18
-6
13
-6
-27
-1
-7
-23
25
10
0
-6
-7
11
2
-11
-4
4
-3
-11
-17
-23
5
-2
4
-17
1
6
-11
3
-1
11
-6
6
4
-1
-3
35
4
4
0
-5
-11
-90
24
-39
9
-1
-50
-27
-46
14
25
-7
-12
78
-83
-41
-19
-30
-10
64
-12
-6
-12
5
8
-107
3
-85
26
29
-40
-67
-59
4
43
-48
-12
40
-127
-39
-49
-17
-7
71
26
-34
-18
27
19
-65
36
-60
-20
23
-34
-20
1
-35
-3
0
-70
80
-62
7
-11
-53
41
17
-9
58
9
-16
-16
-2
39
-16
27
13
-20
-40
-12
9
-9
-35
-38
46
-63
-22
3
34
-27
46
-42
-12
-5
-5
-4
27
91
-55
44
41
1
-67
-30
-16
30
-40
5
-1
-111
-3
-3
53
8
42
33
34
-1
-26
-5
-40
28
-30
-11
6
-9
-29
-34
16
-14
-12
-42
5
-87
2
-30
-10
-11
-6
10
15
4
-9
-1
12
-5
-6
24
-7
-20
-19
1
30
-74
-20
-19
4
-38
-32
7
-38
-14
2
-16
-6
5
1
-13
4
36
-11
33
19
1
-11
-49
19
-48
-24
-9
-2
-86
-5
-5
-33
-15
-1
14
20
0
-10
15
11
1
-6
-14
-2
4
-5
-11
9
-54
-5
-5
-16
-1
49
-6
-20
-6
-1
8
19
-8
11
5
28
-38
-27
-51
-35
-6
2
-3
-13
-13
-28
14
-15
10
2
-9
-16
-2
-3
-20
20
7
-10
-5
15
-38
-17
-3
3
10
25
11
11
-42
-32
47
-81
-8
0
30
2
-18
10
-13
-9
-1
18
-1
26
-43
-26
-51
-55
21
17
2
-13
-21
-28
-3
-23
-7
-10
-17
-15
-17
-9
-18
22
-9
-12
-1
4
2
-5
-100
14
-30
-13
-16
-16
6
10
24
-16
13
-4
-3
20
4
7
1
3
-4
0
53
34
63
12
32
84
35
41
-104
20
55
10
127
-78
65
37
28
69
25
65
31
-26
-22
-10
18
1
-8
-2
-77
46
20
19
-7
-61
-5
-17
-9
-89
25
-47
-6
19
-15
1
21
16
32
6
-1
9
-1
8
-43
-4
-12
-2
-10
-19
-25
-12
8
6
15
18
-10
-14
-10
-5
-7
7
2
4
-9
27
29
1
9
35
5
-15
-43
-45
-29
-23
-2
4
-4
2
8
-5
-5
-9
-8
32
-9
0
1
16
14
-1
-54
3
20
2
-1
-29
-25
-29
8
-24
16
-7
-12
-12
-10
-3
-16
4
-5
1
-6
4
1
-4
2
1
-5
1
1
-6
8
-1
-4
-2
-4
3
-1
0
0
12
-6
-4
1
2
-2
8
0
4
-8
-17
-4
-3
4
6
13
0
-1
7
-9
-2
-4
-10
-4
4
-4
7
-1
-4
-1
6
-2
2
-1
-1
2
-5
1
-2
0
3
-3
-9
-3
-2
-5
-1
-1
12
-2
1
1
3
0
13
-15
-20
23
-34
8
-6
-3
2
6
2
-31
20
-13
-3
8
-20
-2
-10
-2
-9
-5
-6
-10
46
-23
0
-16
-59
13
-44
-3
28
-29
4
-33
29
-61
-7
6
-58
-23
-26
5
-8
-21
-4
-1
14
-11
-9
-2
-48
6
-5
2
20
-2
12
-3
3
-8
-9
7
-20
-6
-12
5
-13
-5
1
-8
-10
-34
6
-31
-19
-13
18
2
1
-2
-11
28
-25
11
2
6
-19
-2
16
-16
-8
-4
-4
19
-59
-127
-20
1
-23
-9
60
41
9
5
0
68
-52
66
21
-1
-12
11
28
24
-49
0
25
-4
-17
-27
10
-27
-30
-1
12
12
-4
-2
-13
11
-37
12
-8
0
-10
-11
10
7
-3
-5
-2
-11
9
-15
-14
-13
-25
-6
16
1
-1
19
-2
-12
13
-15
2
1
7
-8
-9
-9
-10
-8
-11
-23
18
-34
8
-7
-57
-2
-19
-2
23
21
14
-61
5
-64
-20
-13
-36
-25
-32
-25
-32
-13
-10
-24
6
-7
-11
-11
-65
10
1
9
1
4
9
15
-19
9
-4
-2
-5
-15
6
-16
-1
-9
5
-24
22
2
9
-28
-21
-9
24
-20
-11
-10
29
-25
-12
-9
-11
-2
-4
-12
-6
-6
-8
-10
-16
-78
-2
-34
-24
-28
-1
-31
-82
-93
-16
-3
20
-80
-73
-127
-51
-8
-18
-98
-106
-25
-78
-43
-28
-20
16
30
3
-33
-22
-6
40
-3
-8
-10
17
10
-33
15
-6
-7
-10
-15
3
-9
-4
7
-12
-10
-7
11
-13
-2
-11
-17
6
4
4
-16
5
12
1
-11
9
-4
-4
-7
20
7
-1
-6
-10
-30
-16
8
12
-10
-45
5
25
-7
12
-22
22
-12
-25
-36
4
2
-29
-29
-38
-12
-25
-13
-20
-9
-4
42
-1
-11
-37
11
5
-7
1
-24
14
13
-5
2
-10
-8
-19
-15
13
5
4
-12
-16
1
10
-18
-1
-78
9
-10
-13
-3
0
1
-21
49
-39
-17
16
5
4
2
-13
-12
-2
12
-5
-9
-20
-1
1
32
42
12
19
11
20
-10
-7
27
-3
-5
7
14
30
-11
20
-4
-14
7
0
33
-17
-18
12
11
3
5
-28
-16
5
-3
-35
-25
2
-4
-30
1
-2
-6
-31
11
10
7
-2
-9
13
5
10
-34
37
-34
-3
-10
-35
-7
-10
68
-34
-13
41
-9
-1
20
-19
-6
1
9
-6
-9
0
29
14
77
31
28
43
-24
-2
-11
-17
113
64
21
44
18
22
32
50
-5
6
17
8
-7
-57
-25
-9
66
6
-5
-57
-111
57
4
-84
-65
-47
-51
-93
-29
-12
-87
-127
93
1
41
-16
2
14
2
-6
-53
17
-4
6
1
-6
-8
-13
29
-13
-9
21
-11
-24
-1
-18
-5
4
5
-3
-23
15
0
4
38
51
16
8
11
-16
-5
-8
10
28
-1
15
-1
6
-2
-4
-5
-3
3
2
3
-17
-32
19
23
26
7
-6
-7
6
24
-32
-11
-16
-3
-9
5
-22
-10
-14
7
-4
8
-1
0
-9
9
-7
-40
37
10
16
16
-23
32
2
12
-20
-21
55
-16
-23
17
-31
-18
-9
3
-14
-12
-52
10
-4
49
2
-23
-9
-33
69
7
-20
-13
-36
-48
5
-18
24
-10
-29
-7
-33
23
22
11
-28
13
-7
11
-15
-17
3
-24
51
17
-15
-5
-18
-21
-55
4
19
10
-21
-15
-36
-7
17
22
28
42
6
-61
14
7
-2
11
-16
31
-11
55
-3
-28
4
-18
-33
26
-55
5
21
3
-6
25
44
22
-11
38
58
10
-5
46
23
120
-24
-2
72
-25
21
-6
59
45
-8
-14
-38
24
1
4
29
-9
-19
82
49
9
-2
41
1
87
-30
-78
20
-5
-34
28
34
33
21
-9
-24
15
20
13
11
-19
34
-127
-5
-2
-9
-14
-22
-125
-12
-6
-18
1
41
-19
-7
-9
-60
-43
29
-19
7
13
79
-5
-23
-49
69
-36
-30
-19
-59
-41
-24
25
-15
18
12
5
-26
32
-12
2
31
-12
6
6
50
-61
-12
2
74
-6
-19
0
-46
-74
-45
-16
12
9
-44
7
-53
13
-33
8
23
-7
14
-27
44
-23
-65
-16
-60
-9
12
3
10
-75
5
16
-1
15
-16
-18
6
-7
1
10
-10
-17
0
14
35
-30
-74
26
-63
46
-10
40
16
-105
-17
17
10
14
53
-6
-7
-6
28
37
29
-29
6
0
40
-49
-36
-24
-60
5
4
7
4
-43
-6
-32
-20
-5
-23
-24
5
-29
-29
47
-9
-7
-6
-39
-26
-46
28
-15
-105
8
45
-8
25
80
-91
-15
98
-59
15
-31
-81
-25
-78
-49
-29
-40
-45
-83
-98
-36
76
81
-79
36
-28
18
10
89
-127
-24
100
-42
-18
-52
-61
-75
-77
-34
-25
-58
-25
-1
-42
-58
54
38
-58
22
-24
16
27
59
-98
-74
25
-69
-103
-26
-62
-46
-105
29
-29
4
-23
-14
15
-30
18
-58
-80
-2
40
34
-26
13
-5
4
44
-64
2
-32
-55
15
-53
7
-24
-17
6
-54
65
-15
50
54
-33
-2
-48
-12
5
38
-70
-55
78
-72
-36
-19
-51
-28
-98
-12
-18
-36
-24
6
46
-41
43
27
-22
-12
18
25
3
-31
-17
-87
1
-59
-44
2
-74
3
-77
29
-32
3
17
0
32
-22
-3
-6
2
-17
-21
27
-2
-33
-3
28
-29
-49
33
22
18
7
37
-8
-2
19
-1
-13
-5
5
-17
-16
6
1
-53
-30
19
18
-24
27
-51
-59
3
0
7
-17
50
-11
-8
0
5
8
22
-20
-12
8
0
25
-37
21
-6
-21
-3
21
-43
-44
-4
17
7
5
57
-12
-10
-6
-2
-8
33
-10
-22
8
34
-35
-3
-13
17
-13
-2
57
-20
-90
15
-6
16
21
99
-22
-1
-4
7
25
76
-7
-33
-14
21
0
-36
-18
51
39
-27
62
-41
-108
-3
16
19
11
127
9
13
7
4
6
38
-32
-28
19
26
-17
-12
1
27
-3
-14
17
-60
-93
-36
-10
3
-6
86
28
7
18
0
0
48
-10
-16
-20
33
-19
30
-7
3
-39
-6
8
11
-72
24
-10
-23
5
66
-22
25
-8
-2
5
59
4
-18
-19
39
-3
36
-11
11
-23
2
6
-26
-111
11
1
-29
3
91
-20
27
17
-9
1
38
-16
-14
-14
25
18
17
4
4
-37
-15
-24
-20
-67
-11
-19
-19
-12
43
-12
25
10
-7
2
-9
-1
29
-26
-5
-7
16
-4
-11
-3
2
-17
-5
6
-9
4
8
-4
-22
-1
-6
2
-2
8
0
15
33
-14
-14
-10
-47
-8
4
-11
7
3
-6
1
-14
-5
-7
1
11
-2
1
4
2
2
-8
-3
36
-19
-9
-9
-9
-5
-5
-9
4
2
-1
3
1
-6
1
-3
-15
2
0
-1
-1
0
-16
8
39
-51
-13
-14
35
-2
18
6
7
-41
-11
18
-10
-1
14
-4
-14
-6
2
6
-2
11
14
-17
-80
-23
18
4
-127
33
-48
17
-21
23
-5
-13
14
8
25
39
111
-41
21
8
21
10
-14
-13
-48
-22
6
1
-46
18
-10
11
-17
-1
-2
-1
3
-1
12
6
17
8
9
2
6
4
-13
5
24
-30
-10
-2
26
-5
10
-13
-2
-12
-7
6
-8
5
16
-5
3
1
2
-5
3
4
9
38
-39
-15
-12
3
-19
-13
-8
-26
-8
-6
-2
1
-2
-4
3
5
29
-10
21
11
-8
2
-6
-1
-15
-11
-15
4
16
-3
3
-18
-6
-7
0
2
-4
-5
6
-8
-4
-4
2
-2
2
-16
7
0
-63
-21
-18
2
-75
-5
-4
16
-20
6
7
26
8
-7
7
6
21
-10
-4
-13
5
4
5
-4
-48
21
-5
20
-112
34
-4
22
-35
-10
0
32
13
12
19
-1
24
-7
10
-4
0
-8
-8
-8
-38
-7
-18
14
-97
8
-6
12
-28
-14
-34
34
-17
-5
7
-15
6
7
-11
11
11
14
35
22
-116
-7
21
-2
-92
-11
-17
9
-1
34
14
13
8
1
13
37
46
26
9
-9
-7
13
16
8
-110
29
25
24
-127
4
-23
28
-19
36
10
48
17
6
14
13
35
15
19
-9
3
13
18
16
-86
25
19
3
-96
8
-42
5
-16
10
-10
15
1
20
16
7
52
28
5
18
-1
2
-19
6
-60
-12
-1
-7
-27
-10
14
-18
-9
3
19
11
10
0
-10
10
-3
-2
6
-6
-12
8
-11
16
-61
18
13
20
-52
13
5
-2
-39
0
24
29
16
5
-21
-5
-10
12
18
-5
-4
-6
-23
10
-37
5
-10
5
-13
-3
-3
-18
-26
-8
-19
8
-19
6
-16
-9
-1
8
-5
-1
-11
-4
-9
-15
17
3
-16
-12
-10
-9
13
-27
-16
-1
22
2
6
13
7
13
-9
-17
-4
-4
0
-2
-19
2
-1
10
14
9
0
5
30
-24
-25
19
-20
-3
-3
16
25
3
8
-5
-8
-4
6
22
6
-15
15
0
7
15
-14
-13
-15
1
-36
22
-68
-9
-23
13
14
-30
10
-15
1
12
-3
-68
-44
-3
1
3
-9
-76
-10
-127
76
5
-17
36
69
-12
15
1
8
-2
-57
-54
-46
-49
-11
19
-14
14
-5
86
21
10
26
8
20
10
-27
24
-21
-4
29
5
27
40
24
52
-13
-21
11
30
6
9
31
74
37
10
-11
-11
-73
27
-34
36
-101
-6
-49
8
-12
-12
11
4
-1
21
-2
-11
-6
-13
19
0
4
-6
3
-8
17
14
-8
8
34
4
10
11
-30
18
-24
-19
-18
-10
5
-8
27
-9
10
65
64
17
-3
10
10
-7
-9
-14
-9
-10
6
6
3
23
-15
5
5
-8
4
20
14
5
15
14
33
15
-4
-2
-45
-36
-38
34
-55
6
-38
-13
-41
-33
-19
-11
8
11
1
-7
13
-22
-13
8
-24
-16
21
2
0
-4
-31
14
-27
2
4
-2
-17
-6
0
-15
3
-5
-6
0
20
-43
-44
23
-45
11
61
9
20
-56
-9
-30
-69
-4
10
10
-12
1
-2
-12
-1
9
9
-5
12
5
6
8
-68
2
-20
10
25
7
-1
1
14
-2
2
1
-13
9
-3
-17
10
3
0
10
-2
26
-13
-66
-12
-1
37
2
-10
9
-2
23
-30
26
3
13
1
14
32
-12
3
5
12
115
67
45
-9
-23
-32
20
106
107
-18
12
41
-102
-116
120
5
-7
36
50
127
86
36
95
34
-31
-16
12
6
-98
-107
-14
-50
-22
83
12
41
-8
69
-8
-18
20
-22
-6
24
-111
-18
-2
4
-1
3
4
4
-18
-29
-2
6
3
-12
-4
-11
4
-9
20
1
-2
-4
4
-6
8
-2
-5
0
10
18
13
-2
-17
-32
6
-4
-12
-10
-52
-6
-11
-35
33
-2
10
-17
9
21
-8
31
13
-14
-3
-20
13
-9
-16
-64
-3
5
7
23
18
5
6
12
-6
4
2
-24
6
8
3
-17
-7
0
-4
-1
-3
-2
-7
4
0
0
5
-4
1
-1
5
-2
-2
0
-3
8
-3
3
-2
0
-2
-2
2
-2
3
-4
4
6
-1
5
5
5
8
-6
7
-1
16
6
12
7
5
4
1
11
5
-1
-2
0
-4
1
0
9
2
-6
6
-11
0
-8
-1
-9
0
-5
-3
7
-7
-1
2
6
-1
-5
-2
17
7
1
-14
-7
-5
-1
2
-6
-27
-3
-1
-3
5
-12
11
3
1
4
-1
1
-1
-9
19
58
25
12
10
-17
18
9
31
-42
-82
-7
28
11
52
17
22
0
35
32
20
50
6
-6
1
22
3
5
7
-12
1
2
9
-14
-38
-9
5
-17
0
-13
5
3
-2
2
5
9
6
-5
2
-24
6
-14
17
-21
1
14
1
5
-25
12
-4
-8
9
-1
9
-12
-4
12
-1
-9
-2
-6
-6
-127
-3
-28
-9
-56
-3
-2
15
23
-57
18
-6
-3
-8
1
8
-43
-22
15
1
-21
-10
6
-3
-29
15
-25
-10
-37
-3
15
4
11
-28
10
7
-3
7
6
8
-10
-6
3
4
-8
1
-3
-14
9
-37
-23
-3
7
-18
-23
0
23
17
-6
15
-23
8
5
4
11
-11
28
-10
-31
-8
4
27
-5
-7
3
-14
8
-4
-12
-22
21
38
7
0
-22
16
-9
10
16
-1
49
27
-26
6
7
-16
8
-55
-11
7
-5
8
-32
4
-4
5
-7
0
-40
7
-5
11
14
-17
15
-4
-28
-3
10
-10
14
-38
23
0
-5
-1
-20
15
14
64
-12
-32
42
20
-6
-14
-11
10
16
-5
-6
0
-11
40
22
-7
51
0
-9
27
-66
48
11
63
5
-28
53
-80
16
25
-1
18
127
26
31
-14
-6
-9
-3
-34
46
2
-29
20
-19
23
8
60
-9
-31
13
29
-12
-16
-4
-2
-5
-44
-7
-5
0
-6
4
-46
13
-20
-52
6
20
6
-1
58
12
-11
8
-19
5
0
-13
-3
-20
-4
-20
-9
-6
-14
-27
-71
60
-6
-48
18
24
35
31
42
3
-28
18
9
11
-1
-20
-11
-53
-6
-20
-13
17
8
4
-24
32
-19
-55
7
9
2
-8
53
13
-13
3
-18
11
4
-1
3
1
-6
-10
-7
-4
4
-5
6
11
-13
-8
-6
-11
0
-8
-8
2
-24
23
13
-1
-11
1
6
-15
2
3
0
-4
-11
-19
16
20
-2
-24
9
-10
11
-19
-22
-13
-32
23
-3
-7
-5
0
7
-16
-4
24
0
-9
9
-2
2
7
-11
-24
-9
-8
-8
3
-7
5
-13
16
13
0
-8
-6
0
-3
3
6
4
-2
8
-11
8
5
3
-11
2
-18
11
-14
-2
-21
3
16
-19
-8
-1
11
3
26
7
19
4
2
24
-27
12
11
13
-19
-6
-30
-17
26
-4
-43
-23
10
-127
-18
-9
3
-25
97
26
16
-10
4
-7
-9
10
-4
9
-14
8
-6
16
-17
-3
-18
-2
8
23
-3
3
6
5
-9
-39
11
-1
2
2
-16
7
-7
-6
-11
6
3
12
-15
-15
-9
-3
5
8
1
-1
-6
-2
-5
3
1
-2
2
3
-16
17
3
0
-11
4
-6
-1
-7
-15
-21
-6
11
-17
-4
-7
-7
-3
27
-1
19
1
3
0
-13
12
-6
0
-12
4
-6
3
-6
-13
-5
2
6
14
3
4
-6
1
-7
-6
-4
2
2
-25
5
5
7
-97
30
-46
-21
5
33
-29
-34
114
-109
-26
29
9
70
-34
23
-42
-37
3
-5
10
-32
79
-22
33
48
-52
24
-14
-21
20
-46
81
-127
36
-28
42
92
-18
77
-24
-34
19
-8
-6
-9
6
5
-1
41
-12
-18
-2
-26
-7
-55
55
-98
-1
-66
42
73
-46
51
3
-20
4
-27
-10
-18
48
17
-27
52
-24
-16
5
-3
29
16
-15
34
-21
31
-7
32
21
0
-21
-5
7
-4
-18
-7
102
10
6
49
-15
-33
11
-6
60
8
-44
54
-1
-20
-31
40
28
9
4
23
22
-22
-12
-15
25
29
34
73
-6
-23
1
-8
34
17
-61
12
-11
-52
23
13
6
19
-23
-5
19
2
13
-5
14
9
-21
23
-7
30
-10
25
11
-11
-26
28
-1
28
1
-33
20
-17
-28
23
16
-10
-31
-16
37
13
-9
-3
4
-17
-90
48
-10
-29
-43
26
-62
-24
-16
-53
-27
-73
-14
17
-3
-10
14
-16
22
20
-6
29
15
21
-13
26
-9
-7
-8
30
-22
-38
14
-45
6
-17
-15
21
4
-3
-14
-2
45
-6
17
46
-31
-22
-5
-23
25
19
-17
-7
-3
-3
8
9
19
35
16
-22
4
-5
-3
-18
41
6
54
21
5
-33
-29
-25
40
-14
-15
11
5
-16
10
-3
15
51
-23
13
7
3
6
-18
30
-9
41
47
10
-20
-8
-53
34
-9
-33
-2
2
-8
2
-26
9
19
-11
0
19
-1
-16
12
-15
28
15
31
-29
-32
17
10
26
-11
-33
-14
18
-20
-17
10
-10
21
3
9
-6
-5
-27
-9
6
39
9
33
2
-24
-65
32
127
-21
30
-21
25
-6
-113
13
-20
35
-6
-29
-17
14
2
0
-2
55
-15
41
17
-28
9
-9
19
-30
-2
-12
24
-4
-18
-15
-8
-18
-8
31
14
-4
0
14
-3
12
13
30
-22
10
-23
-11
-16
-14
28
-20
50
0
8
9
3
-27
-11
27
-7
-17
13
112
-22
84
-1
41
12
40
46
-54
1
-17
19
-33
86
19
18
27
41
-3
-20
68
31
23
12
9
7
29
-19
12
6
-10
-31
-31
-49
9
16
-46
8
1
-4
-7
-33
-34
-5
29
10
-13
-4
-5
0
13
-10
2
-2
-6
-6
-2
3
5
6
1
20
-1
-4
1
-1
-20
-1
-2
0
-2
-11
-4
4
10
4
6
1
-25
2
7
-6
-6
-5
6
29
-2
4
4
-5
-32
-6
-2
-4
5
-4
-5
3
7
-2
1
0
-4
-1
-1
-1
-1
-5
3
18
-1
-5
-2
0
-26
-1
-1
1
0
-2
-13
0
-4
-16
0
1
-13
-2
-1
0
-5
-3
2
28
-1
0
3
1
-28
-1
3
-8
-3
-10
-5
7
-18
-1
15
22
-48
27
-30
14
-18
7
3
127
10
-3
17
4
-97
-17
9
4
-15
-5
-11
-1
-12
-2
3
3
-13
-4
1
5
-15
-10
2
23
7
0
4
-8
-29
-2
1
0
0
-1
-10
1
-9
-4
-4
-3
3
-9
1
-12
1
9
-3
2
-4
2
2
-2
-8
-1
-4
-1
-2
-3
-8
3
-7
4
-1
0
-8
-15
12
1
-9
8
5
13
-4
3
-4
-11
-21
4
4
-7
-10
-1
-9
-6
-8
0
-8
-1
10
-5
3
-2
-2
3
-5
3
-2
-1
-4
-2
-10
3
-7
-3
3
