// per-channel multiplier (Q31 unsigned, stored as int32)
1198639174
1852482985
1079760529
1556607239
1095075158
1865596488
1495993097
1344952430
1727112822
1914909542
2142825092
1537797013
1940712868
1686601583
1986054860
2021796319
1197749218
1904460749
1157675111
1533844221
1905068923
1921500816
1631568381
1519260610
1241576717
1245640585
1553610421
1830101505
2130353611
2011460508
1237750358
1364639497
1125062395
1158089714
1998132922
1303921341
2037051544
1418450749
1932070661
1417991761
1203105315
1082552343
1941191695
1844503874
1769081054
1739907892
1586935550
2066148376
1180537661
1504127110
1442517877
1590515435
1119282056
2126875612
1885225608
1668261105
1435296349
1148182292
1795114602
1338627022
1962569454
1556676956
1916906001
1954962689
1333013017
1653053405
1707140722
2040023143
1317891286
2116784819
1781181197
1266558123
1934648618
1810085019
1369100707
1549856468
1329457231
1998382199
1913797210
1445244682
1413629634
1617662884
1541002421
1355409181
1684679549
1596166988
2115292070
1297386445
1119737009
1084677812
2099124473
1094378326
1799043408
1649112270
1760144737
1375810343
1270492645
1151596402
1232140389
1312059725
1434515228
1219112854
2137622552
1434254742
2064811874
1397288418
1338852649
1119859631
1292570487
1795350877
1401317651
1265270266
1235612223
1079659652
1357623421
1091651184
1707438083
1433778717
1628401641
1785070212
1498744449
1956907365
1588492300
1081394617
1634314352
1145120352
1240070294
1804113351
