2
-3
-3
-1
-1
-4
-3
6
-2
1
2
1
-3
-1
-1
-3
3
1
0
-2
0
0
-9
-3
1
-1
-2
2
0
0
-1
0
1
0
-2
0
2
2
1
4
0
1
5
4
6
5
-3
1
0
0
-5
-5
0
-3
-1
0
-1
2
-1
2
5
1
3
-3
1
3
-4
0
1
1
-1
0
-1
2
-1
3
-8
-2
1
0
-2
-1
-2
-4
8
-1
0
3
0
-2
-2
-2
-2
-1
3
3
3
0
1
1
-3
-3
-7
5
0
-1
2
4
3
-5
0
0
0
2
-7
-4
4
1
-3
1
2
-3
0
-1
-1
-3
1
2
-2
-5
8
8
-3
-14
-1
1
13
-1
1
4
4
-10
-1
-5
4
-5
-12
-7
5
-1
-36
0
5
-6
3
11
6
-2
0
-9
3
-5
-5
-1
4
6
1
-3
1
-5
-5
1
-3
4
0
-4
5
-3
1
-16
3
-18
-3
-1
7
6
5
-9
-2
-4
-6
5
3
1
-3
0
1
4
8
-6
2
5
-2
-3
-10
2
-1
3
-1
14
-2
-4
19
-4
1
13
7
-2
4
-1
-5
4
-4
11
0
6
-2
1
0
-1
-35
-1
-1
-4
-2
2
-3
-1
-1
1
7
1
0
-13
-12
1
1
0
-2
1
-6
-2
8
-5
5
5
1
-3
-2
-1
1
-6
0
4
3
1
2
-1
3
-4
1
-3
-1
0
-2
1
0
2
-3
-7
1
1
0
1
3
0
-1
3
-1
-2
6
1
4
2
-2
0
-2
3
3
-1
-5
-1
2
2
-1
1
1
-2
1
-1
2
-1
-7
4
-3
-3
-1
-2
5
-2
-2
0
2
-5
-1
-4
0
3
1
-1
3
-2
1
3
-1
-1
-1
0
0
-1
5
0
-1
0
1
-1
2
-2
1
2
-1
-1
-1
0
-1
3
-2
-5
1
0
0
2
3
-1
1
3
2
-3
3
3
-5
-4
-4
2
2
-1
2
-7
2
2
0
-2
2
3
0
3
2
-6
4
-2
-4
-8
3
5
1
-2
-1
0
4
-2
1
-1
0
4
2
-1
-7
-3
-2
4
0
11
-13
-5
8
-6
5
2
-7
6
3
7
2
11
2
0
-2
-3
6
-3
0
6
0
-3
-3
-1
-4
8
-19
-2
3
5
-3
0
-1
-2
-1
-4
2
5
0
-2
2
-2
0
-3
1
1
-5
1
3
-6
-5
0
-6
6
-9
0
-1
12
5
-1
1
-3
6
-33
-2
0
2
3
2
-3
6
3
-1
1
5
2
-4
1
4
-2
5
-8
0
5
-2
-2
-4
8
-6
2
2
0
6
2
-5
3
-3
0
-2
1
1
7
16
-5
-1
-3
-22
-2
0
-3
5
4
5
3
-2
11
6
1
23
10
4
17
40
3
-3
2
5
24
-19
9
-3
17
-5
3
20
8
9
32
1
7
7
-2
6
-3
-1
14
-1
15
0
7
4
22
3
6
-64
3
6
1
4
6
-4
-4
1
-7
26
6
-13
11
-12
0
-4
3
4
-3
4
5
1
-3
-1
-1
-1
25
-7
16
24
16
0
7
24
-4
-6
-58
2
-2
6
9
1
2
6
4
2
5
58
0
-127
4
-4
1
5
-8
-4
1
-8
2
0
-56
14
0
4
0
6
15
-9
-5
0
-14
-3
10
-2
-3
0
-9
3
-5
0
-3
-6
2
1
0
2
7
-2
-3
4
-4
-2
4
3
6
-21
-8
-8
0
-2
10
-12
-2
3
-9
3
2
16
5
-4
-1
1
2
-1
2
-2
0
0
3
2
10
2
-3
7
-2
0
-8
-12
-4
1
1
3
-2
0
-4
0
-2
0
2
4
-4
0
5
0
-1
1
-1
-1
7
-4
3
-7
15
-1
5
0
3
5
-5
4
4
-2
0
0
-32
1
5
-5
1
3
1
9
5
-2
3
2
-5
-7
0
4
4
-2
-4
-2
-5
3
1
-7
10
-6
1
6
1
4
4
0
1
-3
2
-6
5
4
1
-2
-3
-1
-8
2
-1
3
2
0
3
-2
-1
0
3
-7
1
-5
-1
-5
1
-1
1
1
7
2
-6
-8
1
-7
3
-1
-3
-7
4
2
-9
-4
-3
2
6
-5
-4
-1
-4
0
5
0
0
-1
-2
2
1
17
-5
-2
3
-2
-6
-1
-3
-4
-8
0
0
3
-3
4
-1
1
-5
-7
6
1
0
-7
-5
-2
5
-2
3
1
-5
-3
0
-5
-1
5
3
0
2
4
1
2
-19
-6
-1
-7
1
6
-2
3
0
-6
2
7
5
-1
0
1
4
-3
4
4
0
8
1
2
-3
0
7
1
-8
-4
5
-2
2
7
-2
-21
1
0
-7
13
-16
-3
-2
-5
-2
-2
-3
0
-2
-4
-11
3
-2
-12
0
-29
-3
1
-7
-5
-27
-2
-16
-4
2
12
-8
-16
-7
5
-10
1
-7
1
-3
-5
2
-1
-1
0
4
-4
-14
-10
-13
0
-9
53
-8
-6
4
-5
7
-1
4
13
-14
-10
2
2
-2
1
-5
-11
1
-12
-1
-3
-6
-3
0
-2
1
2
-35
-6
-21
-33
-3
-11
-24
-10
-2
-5
11
2
3
2
-13
-4
-5
-1
-3
-6
-7
15
-4
65
-15
-2
-3
-5
5
2
-5
-2
4
3
50
2
-3
15
-3
-1
4
4
-1
3
-4
3
3
2
0
-3
5
2
-11
5
-1
-2
-2
6
-1
2
-3
-1
5
-1
5
-7
4
-1
-7
-3
1
-1
2
2
-8
-5
-5
-3
6
-4
-1
0
8
2
-6
-1
0
-8
4
-5
-1
-9
2
2
4
8
-1
-8
6
-7
0
6
1
4
-6
0
-3
1
-2
-6
-8
1
-2
3
-5
3
-3
-2
-1
-3
2
0
0
2
0
0
-4
-3
1
-1
-4
-3
1
3
-8
3
-4
-6
4
1
-3
6
-16
-7
0
-6
2
7
-5
0
-3
0
6
0
2
1
7
0
0
1
-4
5
-2
7
-1
6
4
3
7
-2
-6
3
3
-4
1
29
5
-8
16
-12
-35
-25
19
-20
-6
10
10
8
-14
-10
-6
9
-8
23
-14
0
-1
-1
46
-41
-7
-11
-16
-18
31
15
-4
-29
14
0
-15
-22
13
-10
-44
-10
-29
-46
42
-5
12
2
8
-10
-1
2
-4
13
-32
-1
22
-14
-21
4
29
-12
15
12
12
-24
-48
-19
-4
-11
-17
44
-23
8
-21
-22
-41
-16
117
-4
-31
-3
-29
3
2
31
1
-18
-21
19
-17
-7
-5
-14
-19
-6
9
-25
6
26
-15
24
-15
-20
-14
11
-20
9
13
-12
42
16
6
-53
-27
-67
-2
-1
-9
3
-5
-25
-21
-17
16
-1
5
-10
20
49
-16
-30
-24
-1
19
-18
35
-30
-26
39
1
24
21
4
10
-23
-3
-10
-28
13
23
12
45
-46
-11
33
6
2
18
-14
42
-36
-15
1
4
33
17
-34
-13
0
-34
-47
47
-29
-9
24
-9
11
0
-23
-5
10
20
9
15
-17
-23
-9
8
7
32
15
19
-16
-37
10
-9
-15
-42
6
-19
2
14
-15
-3
-19
50
48
-16
-19
-33
12
-33
52
21
-12
-12
17
-21
33
-8
-11
2
-21
3
-12
2
18
-12
-9
-24
-19
-10
4
-30
-1
15
6
-15
13
11
-49
-24
-34
18
23
24
6
-2
-9
-21
-37
21
-10
31
-49
21
29
5
3
26
-7
-30
-17
14
0
-7
15
0
-3
-5
12
-4
-10
8
26
-31
14
-7
-6
64
-12
-12
32
-3
-13
25
-5
-14
-26
-28
-18
-4
-3
0
-27
-24
4
-29
-49
37
-2
-31
-13
4
-22
-10
-47
-14
-27
-19
-19
3
-31
3
6
-11
10
27
24
-9
-17
-35
-10
29
-16
-34
59
-28
0
5
-16
1
-25
10
35
-19
-16
-7
45
-46
37
52
-3
-1
10
-35
32
-3
-4
-10
-20
18
-2
-10
39
-4
4
-27
-32
-11
8
-6
-27
29
24
-10
26
55
-45
-4
-58
2
-7
-5
-14
-27
3
-54
-50
8
32
8
8
7
5
-15
29
-1
0
-2
-17
4
7
-30
9
-18
-5
-35
-16
-3
39
-4
29
6
2
-13
-9
14
1
31
-18
-22
-14
8
-16
-29
-18
-5
7
17
-9
23
16
-35
-6
-5
-57
4
-9
-12
-29
9
-14
60
21
50
-4
-62
-9
0
10
-25
7
15
-8
-11
7
-11
-16
-27
-4
31
-20
-8
46
-18
-16
-20
-10
-21
-22
124
-22
-16
11
-56
28
42
8
-32
-28
-13
-8
3
-6
-14
-24
-22
-3
13
-6
-11
22
-30
22
1
20
-16
-21
-19
3
-8
-17
20
-29
19
-42
4
-53
6
-12
25
-7
-10
-58
-24
-12
19
2
1
55
4
39
-45
6
-32
21
24
6
32
-29
-16
20
-9
-47
-4
5
-9
9
-2
1
-21
-12
20
-13
4
-14
16
38
9
16
11
-6
-22
-38
-26
-15
16
-4
10
-28
-17
-4
-28
-36
-17
-42
-58
4
-6
5
5
-16
13
5
-15
15
-67
-26
-49
3
41
-34
29
18
7
-12
-31
25
-17
-5
-15
-8
8
-3
-24
9
-22
0
98
-27
-3
-7
-40
19
22
36
-3
-13
-10
-21
1
32
10
-5
-2
-1
14
31
-12
47
-17
-2
-20
-5
3
-12
-14
10
22
27
-43
-18
-4
-25
14
-15
-10
-4
33
-1
1
-40
-2
-24
66
5
-8
7
-5
62
3
19
20
-21
14
-6
30
63
-16
-2
-38
-45
-21
7
-33
7
49
31
-24
-1
-10
15
27
28
-8
44
-31
-13
1
10
-55
-15
-45
-38
16
43
26
-30
-1
24
-17
-49
-17
0
-44
-16
-9
-45
33
-18
27
-30
-26
-8
-26
-12
17
1
39
33
30
7
-21
-12
-25
-17
7
-26
-13
31
-8
-8
11
-28
-23
-52
76
16
-23
6
-28
9
-20
24
6
-20
-21
-35
-37
1
-18
-21
-6
-23
54
-7
-51
38
-11
11
-14
5
13
-24
32
-9
17
33
-40
46
72
-34
-25
-47
-6
-17
21
-13
-17
-54
-39
-34
24
-10
26
59
-18
-13
-41
21
38
1
-26
-6
-8
-4
-24
-7
7
-22
-8
-8
-16
8
17
6
15
8
-21
2
5
16
26
-22
10
26
31
-29
-10
2
-3
3
5
-27
39
0
-47
6
-13
-45
13
44
23
-13
1
-15
59
8
34
0
-3
-36
15
-5
9
7
40
21
-32
15
-39
-10
-21
-4
4
-34
-3
28
-13
-57
16
-22
4
-16
127
16
-9
30
-35
-21
71
-12
-40
-19
-14
3
18
-23
5
5
-26
-5
-2
11
-12
-5
7
28
-10
2
-41
-21
-31
-26
-2
-13
10
-39
11
-56
12
-42
-6
-18
10
-2
12
-19
-42
-20
11
17
0
33
-9
58
-54
18
43
7
-22
-7
13
-28
-7
-1
-6
-55
-14
11
-15
-4
12
-12
-4
3
4
-24
-6
16
27
22
-9
-19
0
2
-25
-10
-31
-32
-1
-45
-4
-14
-22
-10
-25
-5
-38
6
-56
18
-13
9
-7
-15
9
-8
-36
-24
-16
-17
-30
1
64
-17
0
-10
-20
-7
-36
-19
-42
-6
30
5
14
-14
5
-32
-6
-17
80
-35
-1
7
2
-22
13
-5
-15
-1
-28
3
32
-3
4
28
-8
20
-14
15
-9
12
48
5
-17
-2
3
-18
4
-19
14
-12
-28
-2
-13
-28
25
8
-9
3
-13
-6
-4
-7
-37
-8
34
16
-29
-2
-13
56
-21
18
44
-14
-6
20
1
57
-11
3
-18
-19
-26
22
-27
-14
31
1
-23
-7
-26
35
-6
-8
-7
22
-37
1
16
10
-43
-6
-45
-32
-4
14
65
-2
-41
3
-22
-47
-20
-9
-47
-10
-4
-26
18
-27
3
-12
-46
-23
1
15
-21
-7
66
28
36
18
-39
-4
-33
-20
-13
-28
30
13
11
-3
19
-46
-16
-46
30
-19
-5
19
0
-12
3
-3
-8
-31
-3
-10
-10
-14
11
3
-12
-20
21
-30
38
-13
31
24
-31
-7
29
-15
24
-10
-3
-2
-26
62
93
-34
-23
-3
-3
-21
-2
-20
0
-36
-24
-6
17
-7
29
49
-7
1
-21
1
9
1
5
-16
-7
-13
8
-7
4
-6
9
-2
-11
-3
-8
7
15
0
1
-19
-16
-46
5
-10
11
0
13
0
-17
-2
-7
-4
-7
-14
-11
3
13
3
6
-6
13
-7
1
5
-11
3
16
-9
1
-11
0
22
12
1
-12
-6
-13
-5
3
4
2
6
-11
-16
-5
25
-1
-8
0
-6
-4
4
1
-22
-11
-19
9
7
9
-7
12
-13
16
-4
-4
-10
-8
-30
1
32
-8
7
5
-22
10
11
11
5
-1
-8
-3
6
7
10
-11
-12
-27
8
17
-42
-11
-6
-3
-15
6
5
-10
-6
-1
-17
-5
-7
5
7
12
-19
-6
3
-5
10
0
-41
-1
-24
21
-19
2
-21
17
2
4
-4
-28
10
20
5
15
-4
-2
-44
-18
-47
-12
-6
-23
-4
-25
-12
-19
39
3
-28
-18
-15
1
10
3
-11
-14
14
10
5
-1
2
-34
-12
-15
11
-2
13
11
-11
1
-7
88
8
-3
7
1
29
25
-11
-5
39
-16
-14
0
2
53
9
18
-10
-12
15
12
-5
-13
-1
-2
-57
-6
24
-23
5
-10
-38
-6
42
-6
-9
9
-6
17
12
21
36
-10
15
-22
14
-3
-6
-7
-2
-15
-14
-5
-43
17
10
1
-14
2
11
0
-12
32
-32
-14
1
-5
6
34
-6
-19
-6
10
6
10
-4
-14
-19
15
5
-4
-12
19
-3
12
14
6
-11
-3
-4
-19
6
-17
-45
15
-14
3
6
19
-11
9
-18
-16
25
-3
-11
-9
-11
12
-1
6
-12
5
0
-3
0
-11
-1
20
-19
4
-4
5
16
16
-20
-31
-2
19
4
-1
9
-12
-1
15
-10
-3
43
22
-12
-4
11
-16
-19
-7
-8
-3
-9
2
0
0
2
-18
7
-17
-6
-11
-9
0
-19
1
38
10
1
-6
12
11
16
-17
19
-6
-4
-22
1
9
4
-6
2
12
-12
29
-50
24
-12
-3
4
19
-1
1
-29
-7
-13
-5
-8
16
-4
-6
8
-6
-2
-7
-22
9
3
-6
-8
-13
-6
16
-13
7
6
-5
-9
-5
14
-4
2
-2
5
4
-10
-5
9
8
7
-2
-3
-9
-8
-10
-11
-1
-16
21
14
14
-7
-3
-4
21
-2
9
-2
0
-1
-8
-16
-18
0
35
11
-2
8
-8
3
-6
5
6
-4
1
2
-12
-8
11
-1
5
-16
26
-38
-14
4
10
28
-17
2
12
9
-7
-32
-15
8
17
-17
15
-11
-2
-26
14
15
-8
14
11
-32
-4
-8
38
-1
-4
-11
18
-7
22
5
-8
-7
-20
17
-9
-35
-5
28
6
-26
18
0
1
-18
30
3
24
-8
-8
14
9
-32
-27
24
-26
3
-4
-4
-29
-32
-37
-6
9
3
26
-4
65
-6
-14
5
39
9
-2
-6
3
-6
41
16
-4
0
72
-39
-6
-29
-17
56
10
-49
38
15
-10
4
6
-40
9
-1
8
39
34
-40
-127
-18
-14
6
15
15
-27
8
2
-1
4
18
-43
8
-13
-1
8
3
-5
-12
22
-6
4
-25
51
-1
24
6
-18
10
-4
-42
23
-27
-31
94
2
-26
18
33
-7
-29
17
2
0
35
47
-4
28
8
42
54
0
-16
-20
11
44
0
5
18
-13
35
-32
-34
8
-3
1
41
12
0
5
-82
41
34
28
1
1
16
17
-20
-38
4
-6
34
4
8
-3
-18
0
3
7
9
-45
-17
9
-3
-6
2
-1
-2
-24
-18
-1
0
16
-13
-22
-17
2
-18
-5
-7
-5
-15
4
-15
11
-9
8
2
6
-25
13
-17
-2
-5
5
3
-4
-2
0
3
5
-6
-3
3
28
-13
17
11
-8
4
-21
7
10
-8
-22
28
14
-13
-19
-4
28
-19
4
7
5
4
26
12
-8
-8
-21
-18
-2
-6
-2
13
7
-29
9
25
-9
12
-8
34
20
-4
-8
-2
-9
-9
-2
-4
-5
6
4
7
-8
13
7
-47
42
10
3
-1
-4
2
5
-22
-7
11
16
-11
1
8
13
8
-2
2
-6
-1
-8
-4
3
12
-9
11
1
-12
-5
3
6
9
-3
9
6
8
28
-9
1
4
8
5
-1
5
-3
1
-1
-2
6
-28
-5
2
18
-2
5
9
-7
2
6
-11
1
-5
-3
-3
9
12
-2
-8
16
-5
-6
7
5
2
-5
0
-4
-5
-2
4
-2
-9
4
-23
-1
-7
6
0
-4
12
2
-5
-9
-17
10
7
12
5
-13
1
-25
13
-2
-10
0
5
8
4
-4
-1
6
-11
-3
16
-19
-14
-8
2
-6
-5
15
-5
-1
15
5
4
16
-12
-5
-2
-1
-8
14
0
-3
23
5
5
17
-21
-6
0
8
-33
-13
8
-8
0
3
5
-12
-3
-7
-4
13
-3
-8
0
5
10
4
11
0
9
-2
-23
5
2
8
4
2
10
-48
-8
-9
16
6
-33
-1
11
12
-1
16
9
3
-3
6
0
6
6
-20
-2
18
-13
-14
-5
0
-25
-24
18
13
6
-3
4
5
-5
-13
-18
7
-18
5
8
-5
7
-4
2
12
6
10
-7
8
-1
7
28
4
3
-15
-20
-21
6
8
0
0
-14
12
15
1
1
-16
-17
5
20
-19
-19
5
-5
-2
-25
17
5
-8
17
15
25
21
-20
-10
6
2
-2
7
-2
12
26
-10
22
15
-25
-8
-4
-3
-9
4
-3
-3
-3
-13
-4
9
-7
-18
8
7
11
-7
-1
13
0
-3
9
4
5
4
-1
6
-5
2
-3
-3
0
-14
4
-8
10
3
-3
2
3
21
-4
15
12
-1
-1
-16
-9
9
-2
-14
3
-6
10
-3
-2
-4
-5
2
7
15
-4
-8
-19
2
5
-13
-13
8
-25
9
-5
-8
1
1
-18
11
4
10
-7
1
8
4
10
0
-4
-16
-12
2
26
0
-9
9
-17
17
-17
-19
1
-7
-14
9
18
-18
-8
0
-3
-7
-2
7
6
-9
2
18
15
10
-19
-6
-6
-6
-2
0
3
5
23
13
15
1
-15
-15
1
-2
4
-15
-6
0
-22
7
18
1
12
30
-20
14
1
-10
7
6
-60
14
22
-2
-20
-16
38
47
-15
3
13
28
18
-17
8
-16
18
2
-22
14
-4
45
-47
-27
-14
11
7
-66
-4
-51
6
-20
-19
11
-55
34
-7
-17
0
-42
-63
-9
-12
6
-14
6
-14
-30
16
12
-7
-57
-14
-34
41
-35
-19
4
-1
-28
10
-35
37
-6
-17
38
-7
-7
-17
2
-12
13
23
-2
49
20
-21
42
-12
-2
24
-24
19
2
8
-26
-7
15
27
-21
-1
-12
-9
-42
7
12
5
-42
-75
34
2
10
12
-11
-20
-8
2
3
0
27
-13
-35
-26
-12
47
-24
-34
-5
8
25
55
74
24
9
-11
-19
-3
-19
-12
14
44
-11
-22
23
-5
5
11
-4
-41
-6
-8
-18
-7
-50
17
-4
-15
-40
-17
22
-21
9
0
18
-1
-52
-22
-26
23
-39
-2
-2
-8
28
-18
-27
7
4
94
53
-19
-4
1
-7
-55
-70
3
1
-29
2
5
12
50
-24
-22
38
34
22
3
-43
61
20
-27
-8
-20
-52
-8
-6
10
14
-13
-16
-9
21
12
19
-10
9
18
-10
62
-24
-18
-20
-19
-27
6
2
-2
-34
-12
-27
-30
6
3
4
-42
12
-38
40
-49
0
-31
-22
11
-9
7
-3
53
52
-46
5
-12
-31
-17
-9
-2
49
-20
34
-15
29
4
20
7
27
-16
-5
9
-1
-5
-10
-11
-11
0
28
-5
3
-15
-13
-1
-21
29
13
35
-23
-45
-13
-26
20
-3
8
31
-22
-6
-8
-6
-1
4
21
3
-12
4
-10
-2
13
-1
4
-15
-16
9
-22
2
-32
-3
26
-4
5
3
1
39
3
3
-5
14
-34
1
-18
35
31
2
7
-23
12
8
14
0
-9
-5
-26
-16
16
17
2
-14
6
-9
-1
63
10
25
-12
-7
-5
0
-4
12
30
-18
-39
-20
-32
9
-2
-50
4
-4
15
-13
-1
-21
-6
12
-25
-21
-17
39
23
23
-51
-5
2
3
20
40
-17
-20
33
-22
-39
-8
-27
0
4
-38
-22
-9
-8
-6
-11
13
-26
-24
1
16
20
25
-1
38
-51
0
-18
-18
8
-26
20
-52
-37
6
-10
-29
13
-41
-71
27
-7
12
3
-48
40
-3
-33
27
-62
-14
-41
-9
-9
0
16
29
-36
-8
3
21
-66
0
22
6
-25
-5
-32
4
-25
-26
-24
-14
-11
15
11
-15
17
-7
-27
-24
14
22
-1
26
25
13
-17
3
9
4
13
88
-23
-17
-17
-19
15
10
-52
9
-11
-22
-34
37
-9
-14
-20
-7
22
-13
8
18
-46
-33
-22
23
27
16
24
25
-34
13
-27
37
-6
-28
50
31
-4
41
85
21
-3
24
1
15
-8
22
46
-4
0
-38
31
-36
-72
39
12
-31
-40
-7
-17
30
-54
-12
-14
56
9
7
-18
-15
-32
-6
29
-42
26
-36
-26
67
-9
-38
-41
21
-4
12
-29
-6
16
86
32
5
-12
14
-5
-20
-69
-18
-11
30
4
-13
20
6
-7
-53
51
29
1
-54
-27
50
31
-9
-42
0
-29
-66
3
17
-7
-11
25
4
-21
24
-4
33
-59
5
2
46
-49
-13
11
-16
9
-29
-12
6
-63
19
-28
-9
-27
-18
-32
42
-22
-22
20
-1
0
-64
34
58
11
21
-17
18
41
-6
-10
-18
-22
-5
23
15
-11
-23
42
-14
25
12
31
6
37
-7
-2
1
38
9
-13
-15
-11
31
30
-13
6
-6
-3
-9
-24
24
16
82
6
-27
-4
-24
-2
5
22
-13
-9
-9
-32
41
-6
-11
1
16
-12
-1
3
13
16
-2
50
-17
-29
-16
-42
5
-40
-15
7
16
15
53
-29
2
-2
-20
7
-26
-33
-9
-26
79
28
12
-1
-19
34
-13
2
-15
6
-11
-9
2
-17
8
5
10
0
13
29
35
-21
-1
-11
-14
-39
13
20
-19
15
-1
-34
-5
-40
7
-17
-9
2
6
-22
3
8
-8
7
46
1
16
8
54
11
15
14
-13
13
11
-32
17
-29
-14
-7
-2
-4
-6
-35
10
5
-33
-22
-3
15
-1
-7
14
-8
-12
4
-8
-3
-4
23
33
-27
14
-12
22
3
-20
20
-28
-3
10
27
2
22
-61
-35
22
2
10
-20
-33
23
3
-22
2
-55
12
-19
-18
22
-15
5
10
-22
-29
20
26
-52
-23
20
-3
12
-5
-2
-33
-6
-32
-20
0
15
5
25
-16
-15
3
-51
-34
10
-1
-33
24
-1
10
20
-13
17
-15
11
17
-5
-1
-21
-7
-6
-1
-1
-13
14
0
-25
56
11
-19
13
-8
13
14
33
-11
-8
4
21
18
14
-5
28
35
-19
0
-3
-22
18
7
21
20
38
19
-15
14
-6
58
-16
15
-6
-7
15
-7
27
-18
43
-25
-2
20
14
-36
-26
-56
39
9
-35
4
-15
127
-31
8
-28
-30
-21
20
-1
-13
15
-42
-19
24
53
-36
-35
78
1
-10
-24
-42
-1
36
-17
-3
-23
16
-3
8
-47
-39
-27
49
-17
-45
11
-3
12
-16
38
-10
-15
-27
-2
-39
17
12
-23
1
-10
0
-26
32
-34
-12
-12
-16
-55
-43
22
13
-40
8
-12
-33
-5
-3
2
-19
4
-43
-15
31
-21
50
-29
34
29
-9
-48
29
-69
-18
60
2
24
-31
75
6
-29
-25
3
29
22
0
-44
-14
0
-18
11
1
-63
-4
12
25
14
35
-5
-12
6
11
6
6
28
-8
-11
-45
-10
50
-13
-13
14
3
8
-14
-10
18
-4
-16
-4
10
3
-20
-17
16
8
-9
21
-10
-9
9
-23
-10
19
-17
-10
-1
22
-3
-14
27
7
-28
-8
2
-13
-1
-64
-18
-10
4
-41
14
-17
17
2
-12
17
-53
-38
4
-16
4
22
-1
3
-2
-6
-13
-4
-44
-23
-11
-11
-5
-38
-2
16
7
1
6
9
-47
-19
-6
-12
-16
-3
14
23
-32
16
17
-16
-40
35
28
-8
-12
21
-13
25
2
15
3
9
13
-4
-2
19
8
21
9
8
-2
-4
-3
-26
-8
-21
0
-14
1
-14
-14
-2
5
14
-3
4
-2
-11
15
-11
7
-21
-11
-1
-9
-2
2
-23
-25
-6
9
5
-2
-5
5
11
9
21
-1
1
9
-11
8
-15
-2
-6
-10
10
10
-4
10
-13
-3
-12
-1
-33
14
-6
-14
-6
11
-20
-5
-5
7
-8
-1
-5
21
17
-8
5
-18
10
6
-2
-11
15
2
4
-12
-17
3
0
-9
8
-5
-16
47
8
10
-13
5
5
3
9
-9
13
3
-4
-9
-14
7
-6
-4
-2
-4
-14
-10
1
-21
-4
2
2
7
60
-12
13
-26
24
19
2
-19
16
23
-5
-3
13
-20
-5
-4
-11
-5
-1
14
19
9
-28
-13
1
-10
21
-34
-7
-59
-5
-25
-6
14
-46
6
5
4
23
2
13
-6
17
-33
-43
2
-4
-6
21
8
0
3
-8
4
10
4
-28
-1
-1
16
-23
2
19
0
20
-14
-5
-28
-27
-3
-20
-14
-45
-34
-4
-7
-7
24
4
8
-10
19
-13
3
-2
-36
-1
7
1
-3
19
3
14
-38
-4
31
24
6
18
14
-1
-2
-5
15
-11
-9
14
-3
23
-5
4
-8
0
-67
-14
20
11
-8
4
-31
-29
-8
-3
-27
-4
0
-29
6
79
-15
-1
-26
38
11
7
-12
-17
-8
-1
-6
9
-13
-5
2
-23
0
-4
1
9
7
-6
-4
16
-13
18
5
6
-13
21
-3
-7
11
-20
-32
11
-21
5
-8
-5
3
-16
9
-15
3
-5
-5
21
-14
6
15
-6
7
1
3
-10
12
-6
1
-1
4
-1
-12
3
-5
8
-3
-19
3
0
-12
-4
-6
-9
-9
-3
-3
-7
15
-12
17
8
-13
2
-4
5
-4
11
4
-16
7
-8
-8
-12
15
-1
-4
23
-5
-9
19
-5
11
12
17
-2
-9
12
-2
-4
-6
-10
0
-10
2
12
3
-2
-7
-17
1
-1
-12
-6
8
-10
10
53
-2
-7
-21
15
2
3
-27
-1
-1
-5
8
-23
17
-14
7
-12
1
11
5
23
14
11
-20
-5
-6
-13
-35
-1
24
-29
-1
7
-7
-18
10
21
-21
2
6
-8
17
-1
10
40
8
20
-19
-12
-13
-14
-7
-18
-17
-22
-21
-27
-3
-4
28
-6
26
-21
10
-42
6
-13
-15
2
7
14
-18
-4
1
-8
7
-8
23
-17
15
-34
6
-41
0
-1
-24
-8
-19
-23
-25
14
-21
-10
-42
-14
-1
-15
12
20
15
6
19
-4
25
-16
5
14
14
-6
4
3
21
-5
16
6
-4
27
-7
-28
-46
2
-22
7
34
4
-9
7
29
-12
15
-40
22
-18
1
-6
-8
37
-13
-17
17
-14
-12
-10
-33
-9
-26
-30
-10
-45
-38
26
-36
-29
0
-32
0
90
68
-13
14
-27
-8
-3
-15
4
10
17
14
-40
-31
-28
122
76
-4
-49
-17
16
9
-22
13
14
38
-39
-12
1
-43
-14
-85
4
-21
-9
-31
-21
-19
-24
-50
0
43
-3
6
104
-25
-14
-31
17
-122
-33
4
11
15
-16
-31
-5
7
-20
33
19
-41
-15
35
70
127
-2
-48
-4
-19
-36
91
-37
-23
18
10
11
-15
-3
-14
13
11
3
25
25
80
43
45
13
10
-65
-22
-12
-47
-14
-9
4
12
-24
-19
-3
-71
-21
80
-16
32
-27
-33
-18
27
-15
-13
-15
0
-14
-12
-16
-9
1
-23
11
9
6
-23
-4
16
2
-2
13
12
9
9
-8
-7
-23
8
-8
1
-3
12
-8
12
-2
6
-19
-21
4
0
-21
8
-4
2
-16
-3
-8
-1
-4
-8
-9
-5
-4
27
-3
41
-4
12
-6
-13
-10
4
-10
-11
16
4
-1
-14
-13
5
-11
8
-2
-25
-4
11
7
-5
-13
3
8
-13
30
9
-1
40
-6
9
2
-2
-2
-10
7
11
4
-5
-11
15
10
-30
10
-4
2
3
12
20
0
0
-18
-17
-5
-21
11
-24
-7
9
8
-7
3
-4
-23
-7
19
20
-11
13
-3
-15
15
-1
-6
9
-21
-9
-3
-8
0
-11
8
15
14
-4
7
9
5
0
6
20
-5
-6
-15
-2
14
1
-14
8
20
15
9
5
-1
19
12
-17
18
-9
5
-9
0
-16
-9
-3
-10
10
-4
-14
-21
0
-11
6
-10
6
8
3
-21
-5
-19
-5
1
6
-24
-8
9
-2
7
-2
-9
8
-7
-3
21
3
1
-3
-14
-2
-5
9
-5
3
3
16
-7
1
2
-2
-1
20
7
-3
-1
9
13
12
-23
9
14
4
-6
6
20
12
-22
-3
-14
-3
0
6
-4
-10
11
-14
17
26
3
-9
-4
10
-6
5
-4
-7
-32
0
8
15
22
-5
-9
18
-26
2
-10
-7
4
13
-6
18
9
0
-4
-1
-12
-5
13
14
6
10
-7
3
1
15
7
2
26
-7
-8
-8
1
17
29
-1
10
-21
7
-16
2
-7
4
-15
7
2
3
-13
8
-11
-12
6
4
11
-1
0
-4
4
-6
7
7
-15
-1
17
-8
22
-9
4
15
-10
-38
-12
11
-26
12
-2
1
3
-7
40
-6
9
10
-17
21
-25
12
-8
-1
19
-1
-59
21
1
6
6
-2
33
17
-8
-8
9
22
8
-22
13
-14
-8
11
10
0
38
19
-12
17
14
-2
-14
47
2
-1
18
14
-38
-33
9
11
10
-8
-19
15
2
-2
-10
-1
6
-1
-8
-11
10
10
-3
11
-13
3
-9
3
16
1
1
-5
-7
13
8
-1
2
17
15
-6
2
-12
19
13
0
6
-18
-6
-5
0
6
7
-3
-1
1
0
-4
-9
-2
-7
-4
-5
3
5
5
-1
1
-11
1
-11
-7
5
-4
14
-6
0
7
2
-5
-20
-2
17
-2
2
-8
-20
4
-3
3
3
2
-4
9
1
2
1
4
12
2
-11
6
-2
5
11
-6
-11
13
13
-19
-2
8
8
7
-10
-1
1
1
2
14
-14
4
-3
-4
3
8
11
-6
-1
9
-6
4
-6
-4
-12
10
-5
9
6
-4
-8
-4
-1
3
-9
-3
11
2
5
-4
6
4
-10
20
37
0
14
-2
-4
-9
1
-11
15
12
-5
0
-10
10
-3
-5
22
-8
-4
-9
1
21
1
17
2
-13
14
-2
3
7
-36
-16
2
15
-2
0
2
14
7
1
2
2
3
-13
-5
-4
-4
6
-18
11
5
22
13
-2
-26
13
-7
8
-1
-5
16
2
-3
10
-4
9
5
12
-12
10
-5
25
12
-7
-19
-5
4
-21
2
1
-13
2
0
-2
-6
10
1
-3
9
5
-11
8
-1
10
-2
1
-1
24
-5
-5
12
-10
-1
-10
1
4
-13
12
-10
-21
-8
27
1
-11
12
-14
-19
-12
9
-14
-36
-6
-2
-12
-1
13
-23
-10
13
-9
-4
44
-8
-40
30
36
-22
3
-19
-24
3
-5
8
4
1
5
2
-1
-10
25
15
19
-3
-11
30
-4
12
-13
-19
29
13
2
-11
-1
-17
11
-1
-1
-45
5
16
6
-36
14
-22
35
-47
14
-19
24
-17
16
-19
-2
41
11
26
27
1
3
23
-29
4
-29
5
5
26
-19
12
-23
23
18
7
11
5
-8
-7
13
33
4
16
5
53
0
13
9
-11
-10
-5
14
15
-20
16
-15
-29
-10
-21
-2
5
-3
4
10
-7
9
1
-8
0
-4
-15
-7
-14
13
-6
-4
4
-12
34
13
-23
0
-6
26
3
-15
-13
17
-4
21
-3
-36
11
-15
-16
22
12
-3
7
-22
-6
-12
-13
0
0
-4
-16
-13
-1
-8
34
25
-1
7
-11
6
1
-7
16
18
-8
10
4
-18
-14
-2
0
0
5
4
-5
4
-34
10
11
-11
10
6
17
31
16
-14
-5
-9
24
3
2
6
-8
7
-2
-5
-5
-21
13
-7
31
-3
-4
-23
14
-7
-28
8
-12
-24
-9
-20
-7
8
21
17
0
-19
21
-11
16
-35
9
3
-2
11
2
17
-40
-28
-1
-22
16
-5
-3
-22
-30
23
2
-6
-4
-14
35
25
-30
17
23
-1
-10
-4
14
0
-2
-6
13
4
-5
-17
18
7
-1
3
38
2
20
-3
2
7
23
-6
2
-6
-6
22
4
11
7
27
-2
-14
-4
3
-10
23
0
1
13
8
-11
-13
-62
-52
-24
9
11
7
10
-2
-18
12
-10
9
-15
9
-4
-17
14
4
-7
21
-25
18
-5
13
-43
-14
2
-8
32
15
20
17
5
-5
6
14
16
13
-3
15
23
21
-1
3
-20
-5
8
13
-3
6
-6
-7
5
-3
8
-8
6
-9
24
9
-11
7
1
-6
3
9
-33
30
7
2
-4
-15
6
-9
-1
-8
-4
15
-35
-21
-6
-8
14
-5
8
-4
-25
-50
-22
-64
-54
13
5
-25
4
35
-58
8
0
-11
-46
23
13
-19
5
-40
-52
19
-8
1
-124
44
0
2
-62
8
106
-18
-11
-13
-6
26
-3
11
27
-16
-4
-23
32
40
19
-59
12
-39
-11
-41
-26
13
127
33
-23
6
-45
-34
2
17
-28
14
-14
22
-42
17
-19
23
-9
-10
44
71
-67
-38
-1
50
-11
-34
15
-52
-92
-36
32
51
24
-12
-20
-65
-11
1
-8
3
31
33
19
7
-14
-24
69
3
-14
-23
37
-10
85
-3
105
2
-36
-37
-19
12
38
-27
2
-101
9
-21
-22
-52
-12
15
-36
-77
-18
-12
2
-3
14
9
33
2
-42
12
-21
-3
5
-27
12
-12
23
-3
39
-1
-57
-17
-13
-35
23
20
-8
-63
29
-29
9
4
5
4
-60
-6
-2
67
-11
30
-3
35
37
4
-7
-25
30
24
10
28
32
-34
12
-2
-11
-42
28
7
-4
2
-22
8
16
11
19
25
29
37
3
-45
16
7
-12
-33
4
-6
-8
0
-5
-26
-5
-4
-70
-17
24
9
47
15
16
-25
66
5
3
-32
10
14
-19
-56
16
1
29
-13
-2
-15
1
15
-15
19
-93
13
-41
17
-57
8
-4
-19
-22
12
7
72
-10
13
28
-22
30
6
6
-1
-37
-2
-3
13
-4
7
-10
-5
-4
2
-3
-10
-4
-12
-8
-4
9
1
-6
2
-10
3
2
3
8
1
4
6
-4
0
-8
-1
10
-4
-5
-6
8
11
13
10
1
-6
-7
-3
11
-8
12
-22
-4
-4
-5
-9
3
-8
-12
-3
-16
-19
8
9
21
-3
-4
2
-4
-1
2
11
3
-4
-27
-23
16
-7
-14
7
-3
15
-14
-6
0
-8
10
1
17
1
-9
-6
-4
-1
-2
-20
8
8
6
-19
0
-9
-6
-1
3
1
12
3
21
6
9
1
9
3
24
-27
0
4
-5
-8
1
4
-4
-5
-3
-2
-7
4
2
-14
4
6
10
-2
4
0
-51
18
-40
15
6
3
-28
9
12
-23
2
2
-13
0
-12
1
16
-19
-4
-12
14
-10
-5
18
27
1
-5
3
12
10
-25
-3
0
-9
24
20
-5
-15
-18
-1
5
3
6
-16
-30
0
0
9
-20
1
-36
18
-15
-8
-43
-14
8
7
23
-11
-4
-11
4
-9
-54
17
-33
-15
-2
-5
-20
18
20
-2
9
-1
-21
5
17
26
-21
2
24
2
-6
2
2
1
16
-3
1
2
13
-11
17
18
-8
7
8
13
-9
-6
8
-15
-13
19
-5
1
6
2
-2
11
-2
4
10
16
20
-4
-1
1
-1
-26
13
13
-10
3
5
7
-28
8
-16
7
-12
6
-18
-26
5
16
-5
-25
-13
0
-7
31
5
0
-15
3
-24
-1
4
-7
-11
7
0
-20
9
4
0
-13
-5
-26
4
12
-18
12
19
1
9
-6
6
10
26
3
4
19
4
-18
-16
-4
2
-7
-4
9
-9
-2
24
16
1
-12
-11
8
14
5
-1
27
-11
-5
-3
-9
1
-1
-12
-1
9
-2
10
7
-4
-28
22
12
2
-13
11
-9
15
-27
-6
6
-14
27
17
4
-19
1
0
15
5
-4
6
15
23
-3
2
10
29
-1
-13
-5
15
9
17
-9
2
2
6
-10
-3
-26
4
5
-19
-5
2
-6
14
-28
-11
-5
-52
-12
-40
-12
7
4
-12
38
4
20
-17
23
2
-10
23
17
-10
4
-11
14
9
22
14
-12
-2
-31
1
2
29
5
10
4
-24
-42
-53
7
-7
6
7
38
-8
-5
45
-7
-45
1
21
18
0
-28
-13
-23
-5
3
-19
47
-19
1
-1
7
-10
1
-22
5
-12
-8
-4
-40
-35
-8
-24
18
-4
19
-2
11
18
-28
-27
-18
-17
-27
20
8
12
-42
0
-20
-9
2
17
47
-4
-46
-44
-9
10
-2
-8
16
19
-3
33
-28
2
14
-36
49
-30
-40
11
25
-27
19
-12
7
-48
-12
-10
-1
-89
3
-11
-12
20
-30
5
16
-33
14
-11
16
-12
17
-2
-2
0
29
10
-30
9
-4
6
8
-5
26
18
14
-11
22
-3
-13
12
25
-8
-5
20
-13
-8
-19
-33
-8
-53
21
-28
-17
4
-3
-42
-13
40
-24
-40
-4
-9
-3
-27
-26
-34
-33
-22
36
-46
3
-58
22
-18
7
-24
51
7
-32
53
10
6
-23
-61
3
12
51
31
18
8
-1
55
-28
-22
13
5
-54
29
-1
24
-1
-33
-47
-2
-13
25
42
-14
-40
-48
-21
3
-19
5
-11
-1
-10
3
-30
-1
18
-33
12
10
-34
27
41
-19
38
-4
-10
-51
2
-6
56
-7
51
-22
8
-2
-15
0
0
-30
-8
-53
-4
-13
-36
16
10
-9
14
29
-17
-14
-4
-6
23
-20
-7
0
28
12
7
5
-1
-14
34
8
-21
7
-3
12
7
-48
4
-29
-3
0
-16
11
-25
12
-29
28
-2
-40
-47
-8
-23
3
-12
-16
2
-16
1
-76
9
34
25
5
14
-28
2
-12
-31
18
13
11
16
-61
-10
11
39
-49
4
13
-15
31
-6
-24
-7
31
-40
-8
6
-1
-63
-14
11
3
14
24
-27
-13
-43
-6
-9
-22
-21
-9
-2
15
-21
-4
-8
-56
21
-25
7
-1
-24
14
19
-5
3
-17
12
-37
-4
-18
22
-41
63
-19
-4
-12
-6
-13
-9
-38
-13
-34
-20
-31
-19
13
20
-22
-15
-18
42
7
-20
-10
24
-29
8
42
-22
5
6
7
-1
-11
5
-5
4
5
-3
4
27
19
13
9
-3
-17
-24
0
69
9
-14
61
-12
15
-25
29
5
20
-8
12
18
-31
-55
22
80
4
19
-8
-5
-31
-6
-1
-13
-17
20
-28
-10
-16
25
23
28
31
24
-1
6
4
-4
25
23
-18
-34
-25
15
9
-5
9
-26
7
-38
-11
33
-16
-61
-71
7
-5
-12
-7
28
-19
7
30
57
-18
-11
0
30
-3
-108
0
-5
-8
8
-5
-9
-39
-23
-39
-18
-48
-16
12
-7
40
-11
103
-16
-46
-11
-40
41
-34
-14
16
5
-47
12
12
10
-58
-21
-2
-3
-6
20
73
-40
-35
74
10
0
-49
75
64
-19
35
23
61
15
29
-12
14
-15
-52
-21
68
54
-2
-7
59
-15
-20
-23
-9
15
3
15
41
29
-51
-11
-25
51
-23
1
22
-1
-26
-8
18
26
13
2
-8
8
-89
26
11
50
46
31
37
-7
-19
-31
-13
34
-8
-111
24
-61
26
10
2
-31
-2
-39
-2
56
-23
-36
-127
-36
-19
-3
-13
-5
-30
-13
38
-36
-19
13
-31
-10
16
-92
41
20
10
-28
-11
-17
-102
-52
3
21
-14
10
28
-13
2
7
34
-9
-1
21
-26
81
-31
-29
14
82
-44
9
17
-42
-22
5
-27
7
-2
8
74
-28
-16
-14
-5
-11
-30
35
-81
3
12
54
-1
22
29
-39
-22
-15
2
-36
-15
-40
3
5
56
-45
10
-20
3
-19
-15
10
20
9
-31
1
-44
-17
41
16
-17
-3
-17
-8
-3
-41
-19
52
32
-5
-29
-7
-4
13
1
34
19
7
19
-10
11
-10
9
-32
-12
2
-6
2
-1
9
17
-5
-5
-28
11
-57
13
18
-27
8
2
13
19
-14
-9
8
-67
6
70
23
-28
-107
24
11
18
8
7
12
-60
-43
-13
36
-27
32
32
-35
-34
25
-9
-2
-40
-18
6
18
-20
4
20
15
14
-7
-6
-7
4
-13
-27
12
2
24
24
-13
17
-11
5
34
9
23
-11
2
9
-12
5
3
28
-25
-20
6
-27
5
2
-27
25
5
27
-2
-26
-23
-22
12
-3
-27
-25
-27
17
-18
2
3
-5
-2
-6
26
-38
-2
-20
-21
-16
-13
11
-24
-1
-8
-6
-25
-14
15
6
16
1
-11
-7
0
-29
9
1
-9
1
-12
21
14
-20
-3
-3
14
-18
33
4
6
-9
-12
-1
11
3
7
7
16
-31
-20
-22
42
-32
-37
16
-17
-2
-2
5
6
8
-6
35
-2
-18
-31
42
-4
-2
53
-34
-2
-42
-19
19
-31
-5
22
23
-13
-28
1
-5
18
-21
-11
-19
19
-4
23
35
10
-14
0
-2
-5
-39
59
-26
-16
-1
-28
15
14
36
-32
24
-23
-39
21
6
-29
13
9
44
30
-66
-24
-16
24
-8
-7
-12
-58
-30
0
-12
-18
3
8
-22
-8
-36
-2
6
16
-41
11
-9
-15
-1
-57
21
-24
-16
0
38
33
-16
-3
-18
28
-44
-37
24
19
9
-1
15
35
-22
37
14
27
-11
13
0
-3
-17
-32
-1
28
0
1
4
4
-21
3
-63
18
-7
-19
-1
-24
9
-3
30
-12
-23
-17
28
-6
-25
-35
16
-24
-14
12
-14
-3
-30
-3
25
-28
17
12
-9
-17
-11
25
6
9
-19
7
-27
2
-14
7
24
-10
-8
10
-10
13
-6
35
-30
-16
8
-8
4
-27
47
7
-3
-28
-14
3
-7
-8
18
-28
48
7
-35
-16
-4
11
-19
21
-22
-28
-27
-20
4
-19
2
-10
-22
1
-38
-21
-9
-28
-19
-5
-13
-25
-6
-30
28
-13
1
8
58
11
-22
-3
-5
3
-18
10
15
-13
3
14
30
22
1
34
-4
5
11
25
19
10
-38
1
-8
13
15
-14
-2
2
-41
-49
-4
40
2
-16
-1
-22
-4
-2
-4
5
-2
-19
31
-2
-22
-32
-9
1
-1
-2
12
23
-8
-13
-10
59
-10
-16
1
7
-19
-7
9
-42
-28
27
4
18
53
-20
-40
50
29
20
13
13
5
-14
-23
33
31
-14
15
-17
-5
-31
7
-23
-5
6
-5
-18
-11
6
-4
8
-20
19
-18
18
4
21
-17
-4
-7
-14
-19
-43
29
-8
-14
5
-106
39
-41
16
-19
6
-18
0
35
-25
39
-11
-27
16
18
9
-2
-15
-26
20
5
0
10
23
-14
-48
-5
33
-11
-28
18
29
-6
-2
12
-8
-8
-29
-1
12
-1
-8
-36
2
-32
0
25
21
34
-7
13
-1
-4
26
24
-5
-22
-16
-19
19
-10
-19
39
-5
-4
-10
-5
-34
-44
23
-14
11
4
67
-6
-21
-4
-36
-4
2
25
-1
-38
5
-7
-24
-39
41
-20
44
-14
12
5
9
12
19
-20
-6
-11
2
7
-14
29
13
-43
29
-27
18
33
-29
-7
-1
23
0
-11
-2
-4
1
8
-27
-42
-10
-16
-16
0
1
12
13
35
56
1
14
-16
4
31
-8
-10
-5
5
1
9
-31
0
-2
-4
15
-4
19
11
-4
-1
3
1
-27
-4
-5
-42
14
22
1
-16
19
-5
9
-13
16
0
4
-16
10
14
-44
-10
4
26
25
9
-10
24
-4
-33
1
-19
-26
-11
-36
-1
-57
-7
-53
19
0
23
-5
1
4
-1
-9
-16
11
13
22
6
-12
2
8
11
2
-6
8
28
-16
8
-25
-18
17
5
18
-18
-4
-8
1
-5
14
11
6
-9
21
3
8
-10
9
-6
-12
-25
-10
21
12
-10
7
4
-19
-5
13
-12
-12
10
-12
-41
-17
-16
11
16
-19
-20
8
7
29
4
13
21
-7
21
-4
-16
4
-17
-4
0
-9
-9
12
-5
6
-29
5
3
0
-17
3
-21
2
-21
9
25
-9
-11
-11
-15
-2
-10
-20
-5
-18
-15
4
16
-1
22
-3
-17
0
-4
27
17
-18
0
10
-54
-3
-18
14
-24
6
-6
-11
15
-30
32
0
-23
-5
27
13
20
2
-23
67
18
-26
-9
60
11
-79
81
-35
-20
-11
11
5
127
-22
-51
36
12
50
13
8
18
13
19
12
3
24
-9
15
27
-6
-33
-25
8
27
-13
-45
-40
13
27
57
-35
-15
-5
-14
-62
13
-21
36
-6
31
9
-109
19
0
22
66
-116
10
-63
5
22
-53
-57
29
25
-18
41
-3
-47
-2
25
7
-27
-25
-19
0
-5
4
-13
10
9
-8
11
63
8
-14
-28
48
4
14
23
-13
-9
30
-62
7
14
-113
-49
-38
-70
32
13
28
-17
-39
15
73
-13
39
-6
-22
-22
-17
-18
12
-44
0
-7
-34
-40
-28
-84
13
-40
-60
-20
-6
28
50
-28
4
-36
-28
-109
-33
14
-19
-57
-72
-59
45
-23
46
-80
59
-30
18
53
34
8
-22
24
-68
-3
4
30
-8
8
32
-55
34
-31
-5
8
-49
27
-11
45
6
4
-12
-17
-22
-15
-36
-17
-24
7
-7
14
-13
3
26
24
24
-38
3
9
8
44
-2
-26
7
-22
-4
9
-59
-2
-18
22
16
48
0
12
-30
4
-18
11
-20
4
5
-47
12
25
22
-18
12
12
69
-21
43
56
18
-12
66
63
-54
-42
-65
27
34
106
-20
2
-86
-6
-6
17
-34
-28
-61
-23
-68
-25
-12
26
15
-11
-23
13
29
-12
-20
-44
32
15
43
1
-18
0
63
4
15
31
3
12
-2
-8
-11
-26
9
-3
23
19
-4
33
26
24
21
35
18
10
23
-4
3
-20
18
-5
-8
24
10
42
2
-8
-2
28
-6
17
32
-2
-4
11
-6
-48
17
-15
54
7
-4
-5
58
8
-3
10
-6
33
3
53
20
-18
3
-34
29
34
-4
24
11
-15
-4
2
6
-32
-5
2
21
-9
25
-21
15
32
-6
-9
25
-29
1
-2
-10
6
6
22
8
42
52
30
-8
-6
-12
-18
24
26
-14
8
-4
-53
15
11
-22
-9
4
8
-8
11
-5
14
26
-22
-16
-34
-4
40
-19
1
14
17
-30
-11
37
13
-20
57
4
-35
-12
28
6
68
25
-16
-5
37
-11
3
12
29
9
-14
21
-2
39
-16
32
40
13
9
-37
0
-8
-13
-53
-31
-2
9
32
-25
20
-14
-15
-22
-1
4
-7
-9
17
-23
-41
0
1
27
22
-101
-8
-68
10
12
6
-10
-15
18
3
26
17
-24
-7
27
-19
5
-23
-13
13
2
20
10
3
-17
-10
13
2
9
12
9
10
14
13
12
8
-6
2
-20
11
25
-48
-8
13
-63
-20
1
12
45
5
6
4
4
2
-1
-34
-1
-27
-20
-15
-52
-3
-21
-10
-67
7
-50
-18
3
-9
2
14
19
29
-11
-10
-15
-23
-78
-12
19
6
-49
6
-29
22
-8
-13
-12
0
-28
19
7
6
20
-9
1
-46
19
-23
8
-22
-22
3
-50
23
-10
-4
13
-4
1
-55
-8
30
-6
1
-34
-30
4
-4
-19
-12
29
25
13
-3
9
0
35
4
-23
8
-2
26
23
-44
-10
-10
4
7
15
37
23
-38
23
14
27
16
-17
11
-12
-2
7
-24
-7
14
-40
0
6
8
-29
34
27
42
-59
-18
18
1
24
64
10
-27
-3
-41
-12
37
9
-21
-15
-33
-1
5
-3
-20
29
-62
-12
24
-44
7
10
17
-17
1
-2
-18
-17
-10
-14
39
-13
-9
4
8
-15
-6
-3
10
4
-6
22
-7
-5
38
-8
-9
-12
-15
-8
15
36
33
5
19
19
23
11
7
3
-5
-13
-13
10
-2
8
-9
15
10
13
-14
22
30
7
5
7
-16
18
-15
-28
16
26
54
-4
-14
15
51
18
-7
22
2
21
-4
10
-9
-1
6
-38
-6
27
5
-4
0
-7
-3
16
14
-44
3
-8
29
-24
-21
8
-5
33
0
-3
11
-10
3
-1
6
-12
-10
-22
-6
6
-17
11
-10
-5
-22
6
-11
12
-1
8
24
-15
-5
-10
-17
3
-19
-6
19
-1
-10
15
-23
0
-15
18
-11
-6
8
17
1
19
21
-10
3
-14
-15
-15
-4
6
41
16
7
12
7
-21
-17
0
-14
-15
-24
21
33
-4
6
7
-8
3
-16
-18
-8
-12
-6
-19
-5
-9
2
2
24
7
-4
-33
-2
14
0
0
5
-20
-36
3
16
-54
48
7
7
2
10
-9
-9
4
13
-34
-29
11
0
-13
-3
-13
-9
11
3
6
35
-4
-17
28
-14
2
-8
0
1
-46
-77
-3
-22
-19
33
14
3
16
-14
12
3
-13
-24
2
-10
6
7
-2
-24
0
-15
-3
12
-20
-14
-27
-12
20
30
6
-17
19
-26
-8
24
-87
50
-2
-12
-12
-30
-7
-1
9
-4
12
-12
32
26
-19
25
-36
-17
-14
-11
16
38
2
-19
11
21
-9
43
10
-3
1
-33
-11
7
-28
10
-3
-30
7
-5
-10
-23
-35
7
-23
-14
12
-11
1
45
7
14
-6
16
14
25
29
1
-8
-53
-4
4
-69
-31
6
-38
-11
-24
-26
67
-26
9
-78
-36
12
-11
-5
4
-45
4
40
-45
-8
-11
23
0
32
-25
22
30
19
-8
-12
23
-18
-37
-24
20
-16
-10
-3
-13
9
30
-19
-21
-19
1
-19
-2
-24
-13
13
-29
18
43
-30
-37
-11
-7
38
-7
-10
-51
9
-14
26
12
3
9
-17
-2
-36
-11
-22
-14
2
22
-12
5
37
-7
11
7
-14
8
-1
-5
7
-15
7
-1
-12
16
-6
52
3
37
-7
-5
-14
-8
-11
-2
0
-1
3
26
-10
11
-22
-17
-4
-2
-38
-6
53
18
-5
42
-3
-1
6
7
-4
0
14
-28
-7
-16
-14
-15
8
8
-14
-7
-17
30
-56
33
-20
5
-5
-10
-26
-28
16
18
-14
-34
12
-11
-8
43
15
-3
29
-14
30
17
-2
-9
-2
4
3
11
1
-35
-5
-26
15
-19
-2
-3
8
2
-13
-22
8
-11
28
-15
16
61
-4
-21
-9
-10
16
-44
-4
-41
1
-20
8
-21
50
3
15
-17
-8
-14
-25
-4
-21
-1
-8
-31
14
23
23
2
0
16
-5
49
9
5
22
-12
-32
-10
0
-17
-26
-8
-4
-8
-12
-8
-43
12
-7
15
3
-12
-1
104
30
-8
-2
7
-12
80
-18
22
15
-21
0
11
6
13
-22
17
6
49
-18
-10
-37
-67
2
-13
10
5
-5
7
-1
-22
-39
-42
2
17
7
1
4
11
-6
-16
10
-22
-4
-3
-10
15
-10
-33
7
-19
-26
-83
-16
0
9
12
-12
-28
-2
-35
27
-12
12
0
19
-31
12
5
4
21
-7
-62
-1
24
4
15
-16
-1
-12
-25
25
18
27
-20
-38
-20
-68
14
-19
-37
-27
5
74
-7
-65
4
-1
-34
-33
52
-8
4
-5
-14
-7
59
-11
47
31
-16
-18
-11
-12
-8
-53
46
2
-11
-27
-27
-13
36
-4
-24
-4
-33
2
72
-4
24
-20
-4
16
79
18
45
-9
3
-72
39
-15
32
-19
4
-11
-6
2
-14
-61
-69
-3
-24
3
-35
-13
31
17
31
-67
-49
-26
4
-58
37
14
20
86
-67
-20
23
-10
-30
36
24
67
-44
-14
-8
-23
-24
-13
-38
-7
7
-19
-52
-16
-36
-7
-21
9
-6
11
-19
38
3
-1
1
12
-23
22
20
55
-26
-9
9
-4
15
28
18
24
-45
-3
127
-26
57
-40
31
-70
-51
9
-17
-38
-18
39
-6
-21
21
21
24
10
-6
-8
-11
13
-10
4
-9
2
-21
37
45
-25
-15
9
-22
8
-38
-23
26
14
12
19
55
-52
30
-19
-1
1
-10
-61
-13
44
-43
-20
0
-46
0
22
-48
15
-5
-7
-25
17
-6
-36
-20
16
31
-36
-4
-19
18
-20
12
-20
11
-12
-24
-17
6
40
27
-41
-35
-1
-42
25
19
-31
3
38
-53
-8
23
-20
53
-17
-21
25
10
17
-9
-2
-25
9
-33
-22
-17
7
-3
-9
-33
9
4
25
-27
16
90
-1
-19
-4
12
9
-28
5
20
12
-5
-5
-30
52
0
-6
-34
-27
-15
-15
12
6
-22
-49
-8
17
-10
-11
-11
-12
-6
7
-35
12
1
-11
2
-9
8
-9
-26
2
12
-14
-1
-49
34
-6
9
-33
-3
9
24
5
23
20
-17
-19
-16
-11
-1
-1
-12
-4
13
-1
44
5
9
-12
-4
7
1
-35
-6
-34
11
13
5
-5
2
0
-15
5
-6
-15
-24
-8
-3
-14
46
13
25
2
16
-17
11
-7
-6
5
-12
28
-45
-1
2
-32
12
-20
4
2
-32
8
-33
-5
-2
-14
-23
10
2
13
3
21
16
-24
-10
-27
-51
-18
70
12
3
12
18
-24
24
-8
21
-13
20
-19
-19
-32
-7
-7
10
-34
13
9
5
-40
-28
-8
-35
-11
0
-12
-15
-6
1
6
-39
3
14
-29
1
-29
-8
13
-39
-15
34
-11
-6
-98
-15
12
12
2
-19
5
25
6
32
43
-8
-38
21
-60
8
41
11
13
22
-38
-2
-12
17
6
-18
13
-12
-35
-4
-34
-63
18
8
-12
-35
0
-22
40
25
-37
-22
-26
-5
-37
36
15
25
4
14
2
20
-13
2
-19
22
-1
-75
-7
13
-12
-16
-16
13
-2
-2
1
-31
-23
3
-26
-35
3
-3
11
2
-26
8
-12
-23
0
-14
-47
45
66
-18
2
16
-6
6
7
14
-17
11
21
-21
-64
-20
-19
21
-6
-2
43
8
-49
8
13
-29
-17
21
19
29
2
7
24
-12
4
3
-13
1
-25
-18
14
-15
-9
18
3
-23
-21
-7
5
4
23
16
15
31
-27
26
15
-17
-4
-18
-9
-35
7
6
11
3
-79
13
13
9
18
-24
-6
-17
-11
-14
-52
-36
1
14
-3
-17
-37
20
19
-7
-21
-16
-3
0
-34
11
1
2
-27
33
12
24
1
0
-34
7
-5
-55
-9
14
-23
35
-20
-8
8
-9
5
-26
-18
-13
-41
-17
-33
7
7
32
-11
-14
9
1
-27
57
-28
81
37
-21
6
33
33
15
-5
17
-26
8
2
-13
5
-10
-8
37
37
16
1
7
-75
-18
-18
2
-39
-13
-10
-7
-2
-10
6
42
17
-22
1
-21
-6
14
0
-8
-15
-13
-8
-21
31
-5
-2
22
-11
2
-4
-11
-1
47
-8
43
-22
-37
-16
65
-21
27
1
5
17
20
11
18
5
-8
-12
1
-10
-10
60
56
-15
1
-17
-1
-22
13
1
-9
-63
22
-16
-17
-42
-3
4
-9
119
-10
-24
-18
-19
-7
39
3
2
6
-15
0
-8
-28
-9
-12
-21
-4
8
7
-24
22
-18
5
-24
-6
0
-7
-6
7
51
-12
15
19
33
-39
-16
-81
-6
-7
13
-38
17
-25
-33
1
-7
46
-3
24
40
27
9
-22
16
8
-20
-11
-4
32
-53
-4
8
-13
3
0
28
-4
20
-20
-8
-31
8
45
27
34
-18
30
3
-2
-12
4
-1
25
-36
-1
24
8
14
23
-20
-16
-26
-50
-21
11
4
21
2
1
24
-6
-20
8
17
13
-20
-11
-39
2
58
7
-38
-13
-45
11
-42
27
8
4
37
24
21
-22
-49
-11
36
-15
92
-27
-8
-8
23
13
25
20
59
2
15
-16
-13
24
1
-30
17
-39
35
33
-24
31
-5
-15
-12
-31
18
-10
1
-7
11
22
5
-32
42
-47
13
-80
-12
9
9
-41
-5
-19
-36
-10
-10
10
15
7
49
22
-22
-6
20
11
-63
-16
-29
105
-35
-20
-32
26
-4
5
30
-8
23
22
-5
-29
-12
1
43
54
15
31
-26
-23
7
-10
-31
14
-33
-16
-2
6
-5
-46
-8
18
-3
-30
-16
-1
2
1
-3
-7
30
-20
0
-45
-3
17
-29
33
-16
-13
66
-4
-11
-21
-41
1
5
21
3
-7
16
16
6
1
-78
-20
-7
-32
41
-46
-40
-4
1
5
-34
-8
40
-9
-9
-24
-28
7
-10
-1
5
-18
34
6
-11
34
-1
5
0
-19
16
-14
37
-16
3
7
32
-7
82
-61
-22
-54
-12
-6
3
-20
-11
-24
-19
-3
-21
-26
-5
23
39
9
-4
10
16
21
-32
-20
-26
-9
-37
-47
-9
-16
-23
-8
-13
-16
-10
-20
41
3
-17
-15
-12
24
20
-24
-7
-40
8
-2
10
-3
7
-9
-16
12
-10
-21
7
7
4
-44
26
3
56
-23
15
-17
16
53
22
-4
-19
-17
7
-53
1
7
25
49
16
14
-36
-4
-13
-9
14
-16
-28
46
-12
-9
-1
-10
-2
-29
37
24
-8
31
1
-33
-1
14
-6
-44
-8
-10
22
-24
-37
6
15
-6
38
22
-6
-13
-25
-34
7
17
-23
-13
-10
-4
8
-14
-24
-9
-26
-62
24
-82
23
1
10
11
8
-23
-41
8
-3
-6
-3
14
1
56
-4
-15
25
23
28
-16
33
-21
-29
-15
-24
-28
-15
-5
2
-21
-4
-48
12
-8
-12
1
-32
43
-3
-15
9
-6
0
-19
0
-24
-17
-1
-21
40
-1
-16
-1
-23
-16
-62
-15
6
11
-16
-3
-17
-21
19
-8
-5
5
-1
30
-22
-42
24
32
37
5
10
-36
-5
-15
-41
20
4
-20
41
35
-1
-43
-4
-1
-14
35
1
21
31
12
-18
-19
16
-34
-34
0
-6
37
-69
-20
11
4
-12
64
11
8
3
-19
-30
0
5
8
1
9
-5
-30
-15
-26
17
-58
-62
49
-61
24
4
7
14
-2
-1
-53
15
8
-33
-32
-10
-10
36
-24
0
18
-9
-9
-20
-1
-3
-9
-20
-5
58
-15
-8
9
6
23
-6
-9
-9
-23
-2
-36
-2
-9
-2
-8
-44
-1
-7
-25
-8
-21
-17
-18
43
0
-41
-26
7
12
-25
0
-5
-58
3
10
-27
20
-16
-23
-35
-1
1
5
20
-51
15
37
24
4
-4
-31
-12
-10
-6
2
-11
-14
1
20
12
-34
-12
11
-23
32
11
-6
25
23
3
-35
13
-8
-38
-25
-30
-10
-20
-40
-13
-8
-19
32
-59
-16
-9
-7
12
8
22
3
-13
36
-10
-12
6
-7
55
-29
-46
-29
-58
7
-14
2
17
1
-23
-19
3
3
-40
-17
16
31
15
-45
10
5
7
-57
7
-26
1
-32
-19
14
-7
-51
-31
-20
7
2
-29
-4
-23
-6
1
-20
9
18
-38
19
-8
3
42
-1
1
11
-29
-29
65
-4
-35
-20
-4
-2
-37
13
36
51
20
19
-5
42
13
44
-16
-11
-47
77
-11
-2
10
-45
7
1
10
-32
-17
-17
-5
32
-39
-4
33
-4
-32
27
-19
20
9
8
38
-1
4
-12
-43
-32
7
-33
-47
-11
8
46
-49
-23
3
-9
23
-7
2
-30
-51
-23
-32
-6
-8
-35
-12
1
-9
-21
7
27
12
-32
-34
-11
-82
26
-5
-7
-5
17
-28
-68
-4
9
-22
39
-35
-5
96
-51
2
-27
9
-38
39
6
22
-39
-13
-30
16
-52
-4
-8
11
10
-37
-22
-2
-32
-13
-33
24
10
-23
-7
2
-4
34
-15
-8
0
-36
-29
118
10
-41
2
3
-20
-31
-13
38
10
2
44
8
53
-31
39
-16
-8
-31
127
-8
-19
20
-34
13
23
1
-25
1
-10
-50
47
-43
-11
72
30
-10
-32
-4
21
6
-6
8
-1
27
19
-40
-48
-8
-56
-88
-11
-12
58
-56
-6
10
-3
-2
-15
20
4
-41
-34
-25
-11
-6
-14
-33
12
-14
-7
-18
-1
57
-41
-28
21
-60
4
-6
17
15
11
-19
-77
25
50
-5
20
-55
-7
56
-10
-6
-11
-24
-28
45
15
49
9
11
-24
48
-54
17
-3
-17
12
-2
-25
-27
-39
-1
-1
-16
-5
-27
-16
-6
-7
29
-22
-24
-5
-17
-31
53
11
-25
-33
22
-5
-35
-1
6
-24
9
47
-10
36
-7
20
1
-27
-14
75
21
-34
-6
-15
3
24
-13
-30
4
-9
-19
45
-47
-7
32
26
-11
23
-16
18
-14
-34
9
6
-9
11
-28
-38
22
-37
-55
0
0
8
-8
-33
-9
5
-11
2
-30
-8
-53
-26
-2
-9
-14
-20
-15
20
8
2
12
-35
92
17
-5
2
-66
19
-22
11
-7
1
-24
-48
3
13
-23
13
-26
37
-6
-2
-9
14
-6
-10
-6
1
-3
6
3
-1
-10
14
-9
8
-2
8
11
4
-10
-1
-4
4
-8
-18
-20
-24
6
13
-7
0
-9
-17
-11
9
-14
-5
32
-4
-2
11
-29
22
14
-9
-10
28
8
-12
11
6
8
-14
0
8
19
13
-8
-3
6
13
7
13
-10
-15
-20
19
27
14
-11
5
12
-10
-5
12
-2
17
-12
-2
-7
-14
11
18
12
17
-9
10
-12
-3
-4
6
23
12
26
-12
-17
-6
12
-5
-11
23
5
-12
-14
4
-5
-10
1
2
-5
8
-29
5
-6
-3
-2
-6
-17
27
24
-20
-8
-10
-8
27
3
7
-14
-11
-16
-3
20
-26
-35
-18
-13
-1
-1
-2
-14
14
11
23
-5
14
21
9
-10
-4
-3
23
-19
7
-2
-1
-9
-18
2
10
21
-34
-13
48
-14
-18
12
-11
9
-39
-17
12
10
9
12
13
3
-43
-17
-22
17
9
5
6
0
13
5
25
18
-4
16
23
-21
6
-36
-17
14
10
-12
22
-3
-9
16
-6
0
10
21
-3
9
-6
5
-9
-3
-6
14
12
19
-32
1
-12
16
-30
21
-23
28
-9
1
-3
-12
-24
17
-4
2
33
7
-11
0
-27
-5
10
-30
24
20
-2
11
1
20
0
28
4
-21
-15
-10
-17
-23
6
-12
-12
12
2
1
-19
-9
4
3
3
-2
-7
-9
15
6
14
-1
2
14
-6
-19
4
-1
9
-5
-2
-26
-17
-6
-3
2
-19
9
-32
-16
-3
0
-7
0
7
21
-3
-20
9
-2
-7
21
25
-7
7
-2
7
-17
4
0
19
14
4
2
17
-2
2
-1
2
-5
18
-4
1
14
1
-3
-6
-3
-5
-4
35
-11
7
29
-14
6
-15
8
-10
-9
-17
-4
14
-3
-15
-14
14
23
-1
-17
-9
5
-28
18
-10
-8
-12
-7
-1
-10
9
11
-23
-4
3
-13
32
-19
22
-15
3
1
5
0
-7
11
-6
-7
-16
1
24
24
11
-9
14
5
28
-8
7
-15
17
0
-13
-9
13
-15
4
-17
-12
-18
2
-6
-1
-24
-3
2
9
-15
4
-12
-8
-9
-22
6
-16
-5
-16
-31
2
-21
2
38
6
-19
6
-30
-5
2
-6
-34
15
11
-14
9
-13
-9
-27
8
0
-4
-9
45
10
-6
23
0
13
-17
-20
-25
28
3
6
-10
5
28
-13
17
6
48
9
-11
-11
28
-14
18
44
-8
20
-10
-6
-7
-2
-2
-37
7
7
20
15
-9
-32
4
-28
-23
38
-6
2
-10
-9
-15
-39
-45
-10
-12
2
-26
13
2
6
3
-23
-1
28
27
-23
-10
-13
-5
10
5
-23
-46
17
36
-2
91
-57
11
-36
11
-56
-66
-93
-25
-4
-21
58
15
18
31
26
-33
-16
15
-3
-42
7
99
-39
-30
4
-44
33
61
-10
3
-93
-3
5
16
-16
22
-37
-62
0
4
14
7
41
-26
-64
2
-43
-14
39
-5
-30
-39
-14
-26
63
-4
-31
32
15
-14
30
-51
-23
-47
32
-45
51
0
56
28
-18
56
5
-22
-53
69
46
4
15
43
2
-5
27
90
-52
-31
-40
-29
-32
52
53
11
3
5
38
41
16
80
3
8
125
29
12
-49
-47
-13
-9
-36
44
-48
-9
127
-16
28
0
8
32
19
16
7
-33
15
-24
-21
35
7
12
17
-5
-4
-1
-1
3
-13
-11
-24
25
7
10
8
4
4
-17
-33
-19
14
-15
-18
4
-6
-24
2
-17
-6
-15
-17
-36
-12
6
-10
-1
7
-16
10
-10
-34
2
-13
-17
10
25
-13
-8
30
-7
12
-9
-12
5
17
-4
6
19
5
-11
2
-6
-21
21
-14
6
-2
5
-25
3
5
4
10
9
-3
19
-14
4
12
-9
12
-1
-8
-15
2
-8
4
-8
-28
-28
5
-5
-13
27
3
5
12
-38
-18
5
1
9
-3
-25
14
-5
-15
-9
12
32
-6
22
4
-6
-5
-19
-5
-9
6
8
-7
-5
-14
24
5
3
15
9
2
2
-9
2
-21
-23
8
-5
-11
-31
-5
-6
-6
-8
1
-5
-7
-3
0
12
8
3
12
-12
-11
16
33
13
6
0
-18
-28
-8
-4
4
38
16
-5
-13
6
-19
-10
43
13
-17
-3
9
14
-2
13
-7
6
-2
0
20
-10
-9
16
7
10
1
3
-4
-13
-10
24
-10
-4
3
6
13
-13
2
-2
16
-5
-6
-12
-27
-11
-17
7
-4
2
3
6
-15
20
10
2
17
20
11
-1
-12
-19
-23
-15
-7
20
-8
-6
-5
-28
-6
6
16
14
2
-7
-22
1
-10
-9
0
9
-28
13
-3
-6
-14
-12
-18
2
-6
-4
12
25
7
27
7
-7
-19
-61
10
-5
6
-12
16
39
-15
17
-4
8
-16
6
-19
17
-20
1
-13
20
-26
9
37
-13
10
42
-20
-30
0
5
28
29
24
20
6
-28
-13
23
33
29
4
10
9
8
-5
-17
-14
-3
-6
-12
44
-14
-11
-7
29
-2
-43
16
1
11
-19
-4
-4
-5
-25
16
11
-7
-10
2
21
-10
7
-14
-41
-3
-39
-17
9
-2
-2
11
-69
21
-13
-5
25
-9
9
18
2
-14
-21
-24
-10
-20
-7
2
-13
20
5
-4
-5
9
25
-18
-24
24
-13
23
29
2
-37
-8
-11
-7
-12
-8
-13
-9
-21
9
12
33
3
19
-4
-13
-16
-17
-9
5
9
-13
23
31
-15
-6
-3
2
-1
-10
-11
-13
12
-12
10
4
-9
10
40
-9
-3
8
-11
3
28
6
6
39
3
-8
17
13
-30
-9
-8
-1
17
1
-4
7
14
18
1
-4
-8
4
3
-7
3
0
5
-17
-13
-5
5
4
-9
-5
3
-9
-2
-2
-5
1
5
5
-6
12
-10
-17
-22
-8
-9
7
-6
-7
12
-4
-7
21
-14
0
3
2
-13
-7
12
-16
-19
1
11
7
-10
-2
-5
9
23
7
-8
9
43
11
-15
-21
-23
-6
-5
-3
-18
-7
-6
-13
-21
-2
-2
20
-7
0
12
2
-9
-19
4
-13
-1
-22
28
-1
-3
6
19
-19
16
-2
-3
9
-22
36
16
18
-20
36
20
-3
-7
-14
-4
10
-15
-21
-6
-28
-1
9
5
-8
-4
-1
-28
13
2
2
-20
-20
-19
-4
6
-17
5
19
3
7
-3
-3
17
2
-14
12
6
-7
17
-19
-14
0
-8
17
-15
-16
-7
-2
-25
-2
-22
10
-1
-4
15
-6
-1
10
3
18
11
10
-16
-2
6
-9
6
-1
-8
16
-16
21
9
3
-2
0
-3
5
20
5
2
10
-1
-9
21
5
0
24
2
34
-44
12
14
-43
-9
12
-10
-32
-9
-11
-34
35
19
10
18
47
48
-43
28
-25
-39
-28
16
6
23
8
30
-25
8
31
21
-15
54
46
28
16
-31
35
-17
29
12
-42
7
14
21
4
3
15
31
0
-36
-16
-3
-39
34
-16
-40
53
-22
-6
85
-5
16
-7
-15
-32
24
-19
-19
9
59
10
-24
-25
35
45
5
3
-22
47
-10
31
-31
0
-22
11
-36
-30
-1
0
-3
-5
14
-14
4
-25
-9
56
-2
16
-3
-6
-8
-11
-28
-17
-42
-18
-31
21
2
-13
-39
-28
2
18
2
-8
-20
-1
63
14
5
8
-22
30
-7
29
-76
5
-13
-63
34
1
-9
-36
-32
-4
-20
-21
48
38
-24
-5
-4
-46
-17
29
-10
24
-57
-10
46
9
-3
19
-10
-2
2
-8
-6
29
2
-5
6
-44
-45
11
-23
24
-14
-22
33
-2
-10
9
26
-2
-16
-21
7
2
-23
1
11
-8
-23
-1
26
4
-30
1
33
-12
42
3
-3
-5
1
-17
-5
36
-18
-21
-17
-30
0
-14
44
14
-7
27
-26
-7
-56
27
0
-3
10
1
-49
5
-9
-17
-13
45
2
3
-6
13
-4
2
-38
-3
9
9
-9
6
46
8
-14
32
3
-19
-17
-14
-13
-2
36
5
-4
32
-48
-6
-1
-42
-2
3
33
-54
15
0
-18
-20
-1
12
-44
23
16
3
24
-2
-12
-18
20
-28
12
-31
-32
-4
-17
8
32
-8
14
-7
0
22
-25
26
-14
-2
-15
13
15
1
-28
-18
-21
3
-29
-12
-16
-28
-28
-3
30
11
-8
4
-23
-1
0
-22
-8
20
-27
-6
14
2
-7
43
0
22
-10
4
-1
28
-15
-7
-23
4
1
1
-18
13
-6
-3
-25
-3
-10
4
-7
23
-18
21
-20
-10
5
-15
3
9
1
14
-9
-3
-9
-13
8
-23
25
-11
-21
-7
-9
-10
3
-9
21
-6
-26
-9
17
-7
-4
-12
-18
-6
8
-15
-5
50
-35
25
-36
-5
15
-8
-19
16
-26
-28
0
-26
-6
13
1
-4
12
-11
19
-47
27
-50
-41
-50
-23
6
30
9
12
-26
-18
-28
44
-3
-17
24
-14
-4
9
30
31
-10
-15
-34
-33
-30
-26
5
-46
-1
28
8
23
-22
-3
-15
6
-17
-51
46
-43
19
54
46
14
87
57
20
29
-28
-35
2
1
13
-11
-58
16
-6
-25
9
18
28
-42
26
-42
-18
-8
18
-43
-45
-13
-4
-14
23
-12
12
15
-37
-17
127
-54
-17
-1
3
-13
-48
-37
-46
-19
-31
-32
-2
-8
-10
-8
-65
-27
37
-11
-8
-53
21
-3
-14
-7
-1
-63
19
-30
7
-64
-3
-5
9
-1
31
-44
-35
-27
-34
-29
-17
-19
30
-22
-27
-19
-51
11
6
19
33
-65
28
44
13
-68
39
-30
-25
28
-26
15
21
21
-55
-15
-25
-1
-16
-27
39
1
12
19
-7
-18
-28
-11
3
-68
-4
40
1
-37
-4
39
22
-12
-13
3
7
15
-44
12
0
-17
-33
14
4
-6
-22
-11
27
-10
-34
3
-2
-8
-27
46
11
6
-2
-9
-14
-33
35
-24
-19
22
6
-74
-9
2
-23
-20
4
33
-6
-4
-3
24
-12
15
-15
45
1
9
8
9
-6
-6
63
17
-11
-1
-12
26
27
-33
7
-39
30
-66
-56
32
-19
51
10
14
-3
28
-13
-32
-14
43
18
-11
33
21
-12
-10
-24
-18
18
5
-15
29
-25
-12
5
-35
-20
15
-27
18
-17
7
11
-10
18
-4
-5
-1
-18
-13
-8
-17
-3
5
3
25
-13
-12
-10
-13
3
8
-2
35
-5
-34
24
5
-23
-1
25
-9
28
1
0
-15
15
3
6
6
33
19
-21
-16
17
-36
-9
8
-25
4
-2
-21
-31
-10
-6
6
-2
-24
-4
-14
-4
-9
-20
-25
6
-11
-3
-22
58
-19
2
-6
-22
14
-27
13
-4
19
22
-1
5
1
12
-8
29
-39
-4
9
3
-3
-9
8
11
-15
-35
2
53
-21
12
-17
9
4
-10
-4
10
-2
-18
1
-15
-8
-10
-8
-4
-37
-33
-28
25
11
-5
31
-29
-2
-5
2
14
42
-39
9
6
22
-1
-6
-14
-20
31
51
9
42
-4
-28
-1
26
2
20
14
-20
-2
-14
7
42
0
6
-31
10
-3
-23
-21
-2
20
-14
80
20
91
2
58
-5
-24
3
29
0
1
-19
-9
2
3
-6
7
33
59
-41
10
-42
13
-14
-4
-48
-52
20
-17
-37
-3
-26
-13
-20
32
-29
121
-29
-15
12
6
17
-36
-4
-19
25
-23
-25
40
-2
5
-18
1
-29
-5
11
2
-3
1
10
-9
-10
-5
-26
41
-26
-3
-32
-31
10
-10
-29
16
-8
-44
-5
-5
-1
17
8
-5
-16
-52
5
-13
14
-9
21
-19
-3
22
-4
33
-43
13
10
-21
18
-11
14
10
-3
-17
-23
-16
76
-3
-12
7
-3
16
-6
-17
-3
21
-15
7
-35
-27
18
0
-28
17
24
-6
4
5
11
-13
-2
-11
-20
7
-1
-31
6
32
-2
-13
12
3
10
3
4
9
-10
-1
36
-7
2
-3
12
0
-11
17
-10
-7
20
20
-6
7
-6
-22
-12
-22
-5
3
-18
-37
5
-26
5
-14
33
25
13
-40
-23
-10
13
31
17
-3
8
22
5
-21
4
6
-18
18
-73
-54
7
25
31
25
18
5
2
-5
-35
-10
20
-5
35
32
-7
10
4
1
1
17
-2
-7
1
0
13
-8
7
9
-2
2
6
-11
10
-6
-5
7
10
4
-1
7
-1
-7
3
0
7
0
-4
-2
0
-2
0
-5
0
4
-10
3
-10
2
1
1
2
-1
8
2
9
-5
4
0
3
-5
4
8
11
0
-7
6
-5
1
1
-5
3
17
4
-6
7
12
-2
4
-7
8
2
7
-6
1
10
1
4
-1
-9
2
-4
-2
-3
1
-5
2
-5
-2
3
7
9
-4
11
-8
5
1
0
4
4
-28
-4
2
-4
-5
-1
-5
-5
-3
4
-9
-1
-1
-8
1
8
3
0
0
2
7
24
-5
6
-4
-4
0
13
-11
6
-23
-6
-4
-36
2
-2
-4
4
6
-22
-30
-3
6
7
-2
-9
4
7
-20
24
-8
-4
0
0
-6
-8
7
-9
-2
-13
-2
5
-4
-19
-9
-10
-37
0
-7
-1
8
7
-3
-30
3
-3
-4
31
1
3
2
-13
-1
3
-4
1
8
-5
-24
-14
12
4
3
4
-17
-14
-3
-30
5
-4
5
1
-1
-20
13
-4
-1
-8
-9
14
6
-3
-2
0
17
-3
4
0
34
2
0
1
-4
5
3
3
6
-10
51
3
1
-25
-3
-7
-7
3
-4
3
24
-11
4
-13
-1
4
-7
-10
-1
-2
4
-6
-3
-9
3
4
0
3
-10
9
7
0
-10
-5
-2
2
-5
1
-2
8
-10
-1
4
6
0
0
0
3
-7
1
5
0
-3
1
-3
-2
6
3
1
4
1
0
-1
3
-3
-10
10
-2
-4
-4
-1
3
1
-3
0
-12
1
0
2
-10
2
-2
-6
1
1
1
-1
0
-3
-2
1
-3
-2
-6
6
1
6
-5
-2
6
-1
2
-3
2
2
0
-2
-11
-1
-3
0
2
3
0
4
-8
-7
2
-6
6
2
1
-2
3
4
2
-12
-11
6
3
-1
4
-3
-4
-5
2
-5
3
-2
4
-3
0
-10
0
-4
4
-6
-4
-3
1
1
-5
5
4
14
-18
11
-22
2
8
-4
3
1
2
31
2
21
19
27
2
5
-15
-4
4
11
7
8
-12
-60
19
1
0
-4
1
5
-3
3
5
-5
16
5
-14
12
-2
-1
-5
6
-1
10
7
9
9
3
-3
2
14
6
-3
-5
20
0
5
-2
12
-6
1
9
12
10
1
-12
0
18
-24
16
1
14
8
-2
21
-3
8
11
-4
-1
15
3
14
6
-8
-14
-3
0
3
9
1
12
5
2
0
-2
7
6
-7
10
3
-53
1
-5
-22
20
6
-17
1
1
7
-2
-6
-2
1
-5
-4
18
0
16
8
-5
-9
-6
-2
-8
-8
-18
16
-25
48
-24
-13
17
-17
7
2
-2
19
-14
-51
-113
2
-7
3
7
3
16
-10
-11
29
81
-39
-12
5
6
-25
-15
14
15
-14
5
6
0
-32
-8
-23
-42
3
-12
-10
3
4
-3
-65
0
6
-24
127
-3
1
-11
-1
2
-15
-6
-3
16
3
-27
-17
20
-1
-8
0
1
21
9
-42
-12
-16
1
-36
-1
-13
40
-16
-1
-44
9
-22
4
14
14
8
23
-7
10
-2
50
-14
14
8
0
2
7
25
18
-24
110
5
-5
-47
-5
-4
-16
-10
-3
-8
-1
-14
7
-23
2
8
-32
4
-14
-23
11
-8
-13
-1
4
-2
-7
6
-4
26
7
-1
-1
-6
5
-5
0
-5
0
-4
-27
1
-3
5
16
6
3
4
-11
-19
13
-4
7
-6
12
5
6
4
3
-5
7
-2
2
5
-4
-5
1
-2
-1
-6
2
3
5
-7
7
-4
7
-88
9
-3
-3
-3
-7
4
3
-2
2
2
6
-1
-3
-5
-6
4
0
4
7
-9
-3
-1
2
1
-2
-3
-33
1
-5
-18
0
4
3
1
20
7
7
3
5
9
-10
3
-4
-7
3
-2
6
-3
-23
-13
6
-1
-1
22
-13
3
3
-5
4
-6
9
7
1
8
-9
5
-10
-5
-2
-5
-6
0
0
-5
8
11
-8
3
-18
4
6
-4
0
1
-1
5
-1
3
11
-6
-16
2
4
-2
0
-2
1
5
-2
-4
8
-10
5
-2
8
-6
-1
2
4
11
2
5
6
-8
5
-13
0
-5
2
-5
-5
5
2
1
1
3
5
-4
3
-5
-1
-1
3
-5
1
4
8
-2
1
-2
6
3
-7
-9
-4
-1
-2
5
2
0
2
5
-4
-6
-1
4
3
-12
12
8
6
-1
-3
4
-9
6
-4
-2
15
0
5
-1
3
-3
-4
7
4
-3
-7
2
4
0
-3
-8
-8
-2
4
-8
3
-2
1
3
-5
-4
2
2
2
-5
2
3
0
-4
-3
-5
-19
5
-17
2
-19
0
1
6
-6
-16
-5
-16
-4
-22
-10
5
1
-1
-11
1
-27
-7
1
12
-9
-1
-8
-4
-7
-10
-1
0
1
-1
-1
-14
-2
-14
7
-19
-36
0
-4
-5
0
4
-4
-21
0
-9
-25
14
2
5
0
2
9
1
7
-4
-3
4
-26
-14
12
3
-11
-2
2
-5
9
-19
-8
-7
7
-9
-1
7
7
0
-7
-8
12
-4
-3
-1
8
10
7
3
-1
7
39
-5
12
1
-4
0
4
7
-8
-1
35
-10
2
-24
-1
-10
2
-2
-5
1
-18
0
7
-19
-2
-2
-5
0
1
-17
4
-3
-14
2
-1
-2
-5
7
-9
2
-2
-1
3
-9
0
-2
1
-2
2
13
-10
2
1
-1
7
0
-2
4
2
-2
1
3
-1
5
4
-1
-1
1
2
-2
-2
-3
-1
0
1
-15
6
2
0
-5
2
5
2
-11
3
-1
0
1
0
-6
-1
3
-6
0
0
0
-2
3
-7
0
4
2
-3
-1
-2
3
4
-6
-6
2
5
2
1
-1
-1
2
-1
-6
2
-5
-1
-5
4
-3
-2
-1
-2
8
-6
6
2
4
-3
-2
2
1
-7
1
0
6
-10
17
5
-1
2
-3
-2
4
3
4
-2
-3
1
-5
4
1
-2
-7
-1
-5
3
1
6
8
12
-1
-12
8
-46
-21
-23
2
22
38
18
5
0
-9
21
37
0
9
-2
4
27
0
14
-11
3
0
-12
-22
6
12
-25
5
16
12
8
19
-24
5
13
-11
23
-9
-18
36
-11
-16
-29
-5
2
-29
-17
-1
19
4
9
-21
-2
-13
3
-35
2
8
-7
8
1
-10
-50
-43
25
-1
0
-19
2
29
3
-32
16
16
13
17
2
-5
-23
4
0
16
-13
13
-29
57
-16
-31
13
9
2
-19
-29
-11
3
2
-17
1
-10
-8
18
2
21
12
-45
18
9
-9
4
-39
5
1
-25
15
26
9
-6
-18
-19
-8
-10
-31
70
9
-17
6
-40
-8
-19
-30
-34
35
43
12
-8
0
-58
-3
-19
14
4
17
32
-32
-13
13
127
-1
-51
0
-41
-16
-1
-25
-8
8
-37
-9
-29
50
-17
17
-32
38
27
-69
94
16
8
26
24
30
-15
-13
47
-12
-28
-8
1
121
42
1
-20
-6
8
14
38
-13
12
-35
16
-54
19
-14
-14
36
-30
-13
32
-49
76
53
7
44
-9
21
18
8
-8
34
24
23
-6
-35
-25
-41
11
-36
8
-43
-27
-10
-25
-7
8
6
14
-14
-2
-9
1
-28
-6
-16
71
-41
-19
3
-22
-17
27
12
-18
1
-46
-49
-31
19
-16
7
16
-12
-15
3
-27
5
-29
-5
-31
19
34
-5
8
-16
-12
17
9
17
-21
25
-3
-1
-6
-34
-6
13
17
-3
-11
-25
-16
-16
21
-1
3
19
-1
8
-23
0
-1
21
18
2
20
-23
15
70
-14
-3
-19
-7
-15
31
-3
-2
-14
-16
-19
-17
-23
27
10
14
8
4
44
-27
1
-13
-36
17
-3
-32
-11
19
27
-15
14
-8
3
16
-2
-13
17
4
45
-4
8
16
-24
5
-6
-32
-11
10
-31
-31
5
-53
6
10
-7
-6
-7
-4
7
36
5
2
-35
-39
11
-23
-4
-15
-14
-26
-37
15
0
20
-7
-20
0
14
-9
-25
-5
-5
-27
-20
7
14
-28
1
-32
-14
3
-9
5
26
-20
1
27
1
-18
25
21
-11
6
-4
-44
-6
18
6
1
-22
-17
2
26
2
43
2
8
-29
-24
-33
33
8
21
6
-9
-22
-7
-3
-9
-30
0
45
-5
19
-8
-11
-7
-82
-4
-10
-23
10
-10
22
-25
-25
41
-2
-49
-19
12
-17
-12
-15
2
-23
11
-45
42
0
19
12
8
-9
-6
13
-3
-7
1
19
-34
39
-7
-11
2
-6
-2
-16
-4
9
-13
-7
-30
-7
-8
-20
-20
7
-6
-3
-38
23
-19
-12
-6
-52
-15
14
-12
20
-22
14
-18
4
-21
-13
12
-11
25
59
-6
-10
64
-3
2
19
-76
5
20
-4
-14
-15
-67
9
-28
-23
-6
23
-4
-35
-28
-45
-22
-6
-33
11
-40
4
-33
-15
40
5
-24
-18
7
-6
-59
14
-19
21
35
-3
-61
29
7
-48
-8
-12
-17
61
14
-2
-37
-9
-8
-6
-19
-6
23
-27
-33
-1
9
-59
12
14
-5
-88
-42
-14
-32
5
29
-32
-17
-55
60
-59
36
-12
5
22
-8
-6
-17
23
4
23
22
-21
-22
-26
6
-24
9
-47
-38
-20
-22
0
8
28
29
-3
-13
-18
-8
-27
-23
2
28
-40
-19
-11
-22
8
8
-6
-15
-47
-24
-27
-28
-28
-28
-30
-48
32
-52
-18
20
-14
-39
-7
-30
-1
22
23
27
23
-15
-2
2
8
-3
6
21
-2
-7
7
-37
-19
-3
21
-9
-17
-14
-12
18
1
-2
-7
-7
-20
-7
17
27
0
21
27
-6
-6
2
-21
-7
-14
-9
-13
-14
2
15
14
-27
-61
-41
-6
-29
11
3
15
9
-18
6
5
-24
-11
-36
10
9
-10
-17
-27
-17
-23
-27
-35
14
28
19
11
12
25
6
-12
1
8
-27
25
-6
-12
-1
29
8
-34
-9
-21
-3
5
-25
11
-8
-8
20
4
23
24
-33
-17
-19
-9
-25
-29
-18
-17
-21
24
16
4
-10
11
-23
-28
28
4
3
15
-25
26
-4
10
-15
6
-27
-10
23
15
20
12
-15
16
11
1
4
-6
51
-13
5
-4
-20
10
5
-26
18
12
0
-29
11
-29
11
-17
-4
13
-30
-5
-20
-1
24
-3
3
-19
54
15
0
-1
3
32
-1
26
-22
22
-8
-57
13
10
-14
12
11
-5
-23
-10
39
15
-59
-13
-20
-2
-17
-2
-6
-41
17
-28
4
11
11
4
21
-11
-8
-10
-6
1
-10
-16
-42
34
-4
-13
37
5
2
-33
-6
-22
-12
-14
-9
-6
11
1
-8
24
-9
25
-46
10
24
-46
6
-35
7
12
-13
14
12
12
-35
-1
-10
-2
35
-4
1
91
89
45
3
-14
18
-1
18
29
-16
9
-28
10
8
-1
-7
-26
18
-8
49
-40
-24
-6
-16
4
-31
-22
-18
-32
-14
-45
8
-34
-43
3
-22
84
-52
27
-36
57
14
-34
-55
69
47
15
30
-11
35
69
43
-8
-1
-32
56
-48
5
12
-16
3
5
-41
3
-15
40
27
48
-63
-26
16
-24
31
36
12
7
-49
38
-71
-29
11
5
46
-41
-30
1
53
-16
-20
1
3
-41
-56
24
-9
-42
-44
-28
-48
-28
-28
9
2
5
-23
-10
2
-3
-30
12
57
51
-49
-38
11
-28
-26
-7
7
0
-2
0
-13
-24
-18
-55
-2
-47
25
-52
7
2
-21
-10
4
-26
4
32
29
18
0
-4
25
-4
-10
18
-1
16
-11
12
10
-13
-16
1
-10
5
7
-6
-3
16
-22
-8
-21
-4
19
-17
21
-7
9
10
-7
-5
18
-2
5
25
18
18
19
-26
22
11
12
-20
-46
-19
-3
-23
13
6
-4
-7
6
38
21
-22
-11
-1
18
10
-12
-13
-16
10
-12
-15
-19
-11
-2
13
14
13
0
-13
-6
8
-4
-52
6
3
-44
15
5
7
-11
-12
-14
-13
-18
-6
2
3
-14
17
47
4
21
-3
-21
-10
-15
-22
-35
8
-13
-5
7
16
8
-25
-3
-17
-14
-2
5
18
-24
35
1
-31
27
-16
-37
76
-56
-47
1
1
13
-5
-8
-5
-4
-13
23
4
0
19
-17
-13
-81
-35
-21
-1
-24
18
24
-5
7
-21
10
5
1
-20
21
-74
-18
32
-29
48
-18
-86
50
30
-5
-20
-50
38
5
-14
-21
-26
-24
-5
10
56
11
-7
10
19
-25
-14
-35
12
5
-43
30
-24
-2
-14
-4
19
-13
90
9
-26
11
1
-7
68
-18
35
3
-25
-12
0
35
-4
33
-2
-2
-30
-19
-27
21
-21
-17
4
-18
-8
-11
-6
23
53
-50
51
-8
46
-30
23
-46
-14
11
29
17
21
32
-16
-23
-6
21
84
17
11
-12
32
6
-6
3
-15
-36
50
-53
-31
-7
-14
-60
7
-22
-17
-39
21
39
34
-20
-65
-41
-47
-88
-75
15
26
-11
-25
21
0
37
-17
0
-42
-2
-30
2
-25
7
18
-47
16
-47
-78
-12
44
-20
30
-60
57
-4
10
18
-73
-1
24
9
29
-12
-43
-39
3
-56
4
-46
32
18
12
-24
-33
27
-49
2
16
-22
49
-5
-25
15
3
9
26
31
12
1
-1
1
-19
51
6
5
22
-26
-11
48
0
17
-26
-67
15
-28
-24
9
-1
-13
19
-19
42
-15
19
-43
-24
-24
2
43
7
-32
-18
25
-27
-12
17
0
62
65
-37
-3
-15
-6
-1
31
-12
-45
62
-32
-30
11
-21
-20
-9
10
0
7
13
16
-4
-23
-49
-15
65
-74
-8
-4
-41
-39
-6
3
47
0
-10
-5
13
42
-12
-5
38
22
-2
-37
2
-47
-4
-2
17
-8
24
-45
16
2
13
1
-21
-1
9
-6
8
16
37
3
3
-14
25
-19
31
-29
54
-6
46
21
-36
15
-35
-39
17
30
-26
-21
-14
13
-28
-32
-6
2
-3
-6
-52
110
4
-12
21
-35
-11
-7
20
-28
-8
15
7
-8
-21
-8
13
11
-17
17
4
-41
52
-59
-40
-22
2
51
22
-32
-6
18
-46
-21
5
-24
94
23
-33
-48
1
15
-34
46
-46
14
-27
-59
13
-35
16
9
-41
-25
12
-17
-25
-23
7
-21
17
-41
-37
-60
27
-5
-13
10
-16
32
-31
-5
-22
33
16
-17
-31
29
-30
-12
21
-8
21
-59
-99
78
28
46
-42
19
-7
9
-67
-11
-56
-33
-44
14
24
-8
-23
22
4
-23
-9
32
-10
-57
3
-28
-31
4
-48
-18
13
4
6
-23
2
22
10
-13
44
13
8
-26
0
-28
-13
29
-24
56
-6
7
30
-6
20
-16
-10
-10
5
-8
13
-6
-8
18
45
-71
8
15
17
5
44
-8
25
69
-15
16
-47
-18
-45
-2
-30
-31
4
21
-33
-60
41
16
10
-14
-28
2
15
-44
41
-22
-36
-62
-58
25
-47
-24
-14
-35
0
-44
-54
-57
-65
-103
-62
-36
-48
12
-69
81
-49
-4
21
-29
23
-84
-7
-2
-3
21
24
25
16
6
-90
3
21
-39
-42
-15
-7
-15
-55
-53
-54
11
-7
-1
4
-9
-25
-22
-17
-28
3
34
30
-46
27
-46
-38
-27
-15
-21
2
12
-23
-24
-20
38
-7
-24
11
-52
37
-27
-5
-76
24
34
-9
79
16
-84
32
56
-2
-28
9
-52
17
-21
13
-47
-66
22
1
-38
-15
-12
-67
0
32
28
35
-33
-27
11
-12
-11
-41
7
-38
49
38
73
29
-18
-28
-1
-45
25
-15
-6
-4
-28
31
-30
-30
-50
-66
-2
-7
2
48
12
-5
12
-45
-33
-27
-85
1
33
6
-21
1
31
19
0
13
-49
24
-21
-15
-24
6
45
-9
17
-5
15
-37
3
8
-20
-26
5
-40
-5
92
-18
-29
-15
-17
3
4
27
1
32
-31
11
28
19
23
-16
40
-29
45
-18
-22
-8
-28
9
-5
11
-51
32
19
7
25
23
30
-4
-38
-17
-28
92
-10
6
23
10
42
18
-7
-32
34
36
0
-4
-14
23
13
-6
32
31
-62
-57
7
21
-6
-55
40
3
-47
20
3
-13
-12
-17
-20
2
25
31
-15
-6
-53
-5
44
-19
-54
2
-35
-21
13
-43
35
13
-45
1
-30
-22
-36
-9
17
-37
-13
-1
18
72
-9
-9
-45
-16
9
4
-32
16
-6
-3
7
-47
-10
-1
-30
-6
12
-16
7
-33
-26
21
-22
33
-23
19
38
8
-29
-3
-50
-31
-55
19
40
23
-3
-8
20
-48
-20
-14
42
-61
-20
28
-1
12
-1
-54
-7
-6
28
-13
3
-4
-3
4
47
0
-39
-54
30
20
15
-74
-46
-25
-4
-17
51
11
-1
-33
9
26
16
-31
13
-33
-26
-1
36
-26
91
41
4
13
17
1
-1
9
-23
-6
-16
-19
-69
-19
-24
26
-8
-5
-11
49
-71
-35
42
-13
-60
13
24
-39
22
-4
-17
-33
-21
12
-6
-28
-1
-12
36
-51
-59
-17
10
22
-8
-38
-30
11
30
-3
-34
22
-35
-32
-28
-73
3
-43
-4
57
30
-16
6
-28
-45
-12
-23
23
-127
-8
21
-30
-25
3
-9
-10
-22
7
68
5
-10
-18
6
-82
42
9
6
-60
-10
5
24
42
47
-69
38
20
-12
-23
-37
-52
15
-32
-54
35
-23
-73
12
50
70
-73
-40
42
12
10
55
46
-16
1
37
8
61
-41
17
2
-19
-23
31
14
34
64
-55
98
8
34
17
-24
-29
-28
13
-48
-38
6
17
9
27
-33
35
50
-25
-15
40
15
-32
1
-22
-14
9
-42
-16
-36
-56
16
11
0
6
-16
-8
-10
-38
2
5
15
-26
-26
-7
-21
11
38
-21
4
5
-55
13
-17
-12
9
19
24
-11
1
9
-22
-12
2
-42
1
-22
8
2
-6
11
-9
0
-3
-40
-2
59
35
36
1
-18
-39
-22
9
17
-45
48
4
11
31
0
-37
-7
1
-21
-13
-17
-23
7
7
-1
8
-22
-11
11
27
19
-16
-54
8
44
-26
45
40
-41
-35
-11
14
12
-46
-9
-40
-13
-40
22
23
-28
107
32
81
13
-28
20
-9
-38
-9
-1
-15
-18
-33
5
17
37
-1
-15
12
-6
6
-5
-4
-1
7
-18
17
9
-1
8
11
18
1
18
-28
9
-8
-19
-5
24
6
-12
14
22
2
8
7
16
20
6
-12
20
12
12
1
13
-10
21
9
-30
0
-57
-23
-1
3
-16
5
8
13
-7
11
3
6
-13
-11
8
16
6
-6
20
-11
-1
8
-37
8
-13
16
-17
4
17
0
1
1
4
18
-8
26
20
-18
-17
8
-8
-6
-9
4
-23
-8
9
-24
10
26
-28
11
-9
10
-9
4
9
9
-9
8
2
-1
-13
11
-8
-12
-1
9
-5
-11
-3
-2
13
3
20
-9
15
-11
18
-4
-13
-4
-36
-9
0
0
1
-16
6
-15
-6
14
-6
18
7
-2
0
11
6
4
-10
1
12
-1
-65
9
11
10
0
7
-1
11
7
-7
2
-17
10
-8
6
3
17
-4
3
-22
-2
-5
7
5
1
-18
-13
10
-3
-8
-2
2
-23
7
10
2
-11
2
-9
-4
-19
-1
4
9
-8
-23
37
1
3
-5
11
0
9
-42
2
0
-8
4
13
19
27
-7
9
5
-7
19
-11
-4
5
-3
10
-12
2
-5
-17
7
0
0
-6
-5
5
-6
-12
-14
8
1
-2
-2
-11
6
-11
-6
-9
-6
-13
-20
-10
-4
-3
-1
1
2
-10
-10
-4
1
-8
12
5
-1
-8
-7
-4
-7
-1
-10
-5
-3
9
8
-3
9
-7
5
0
6
-1
3
22
4
5
-1
10
3
9
1
-6
-13
-13
13
-3
-7
-5
-4
17
9
-4
1
-13
-5
6
-8
4
-3
-7
15
7
-9
-7
8
1
2
7
-3
-5
7
-9
-5
-1
1
1
7
-16
3
2
2
-3
5
-5
-12
-4
-24
17
-2
1
-3
16
7
-2
1
-3
-2
18
6
-11
-5
17
1
-2
3
-5
-7
2
5
0
-10
4
-12
4
6
-14
-6
-2
-5
12
9
-1
-7
-5
6
5
-3
2
-3
-8
7
-16
5
-7
-6
-19
-12
15
-3
3
7
10
8
-8
-3
-15
-3
14
5
-4
4
9
-11
-75
12
19
17
23
-36
-4
-10
-14
18
7
-21
-29
24
20
6
28
7
1
2
-5
3
21
19
11
11
-7
-41
-2
9
-38
14
2
-29
-37
-2
-15
-12
39
20
-11
5
14
17
-18
-13
-5
-12
-8
12
-5
2
-21
13
-36
18
-33
9
14
11
-2
27
7
-19
-7
-21
-5
-9
16
12
-14
-14
-7
16
-10
-2
-23
-10
9
-16
23
26
-21
-8
-5
28
2
28
23
-8
3
-17
-22
1
-5
15
18
-57
17
6
-35
-7
-5
-4
15
-30
29
-7
-36
-2
1
9
-1
-11
-34
-8
21
4
-2
-7
24
18
42
22
-9
27
34
-16
11
23
29
22
22
-8
-62
2
-112
16
35
-14
19
-2
14
-38
11
11
-9
15
-71
-42
-27
14
-4
-13
-10
-35
-9
11
4
14
28
-19
-44
56
10
12
-16
-4
-20
0
-53
-2
-17
27
-7
-9
8
-22
32
7
3
5
37
4
8
7
-15
6
-48
-10
6
-21
27
-45
-4
20
-6
-10
-19
4
-9
-29
3
3
27
-6
39
-5
6
4
-18
-22
1
13
10
16
-30
-48
-3
-26
14
12
-127
16
-62
-5
-7
21
-1
4
-6
6
4
6
1
16
-15
8
-6
-16
31
28
-11
-6
-11
-1
-9
14
23
-6
18
12
-4
14
-15
5
-2
29
-16
-3
5
0
-8
-7
26
3
13
-15
25
-2
-7
11
1
3
14
5
-13
-18
3
2
2
13
10
2
-14
8
16
-15
22
-10
-4
24
26
4
-12
16
4
19
-11
-12
5
20
-11
7
-1
-17
14
3
11
6
17
0
-1
7
-26
-9
-5
2
-12
-5
24
-1
10
25
12
11
-4
-9
14
-4
-1
-18
-7
-2
-4
2
5
2
10
5
5
1
7
9
14
1
5
-6
10
3
-10
19
14
8
-2
-5
7
2
-8
10
3
-4
-15
-7
-7
16
1
-23
17
1
16
0
6
7
-4
-4
2
-4
10
7
5
-17
0
20
5
0
4
11
2
-3
4
15
-6
6
5
-6
-15
15
13
4
8
-6
-14
-1
11
-1
3
14
15
-3
-5
-6
2
8
-28
11
4
-30
-3
0
-18
0
5
16
-14
10
-9
14
-1
-4
0
14
-8
1
3
7
1
2
-28
-16
-10
7
3
-2
10
-3
22
-4
4
-10
1
4
17
-1
-6
15
-19
0
-4
-2
-2
1
-10
-5
14
16
-25
-8
11
12
12
13
10
3
0
1
-1
-2
18
4
-4
-49
-9
-4
-19
17
3
15
-4
-5
6
6
-15
23
-9
8
-5
-2
-20
4
2
-4
-7
-12
6
-3
16
3
-2
-5
7
-27
2
0
9
5
-2
9
5
-8
-89
-7
7
-3
7
7
-1
0
-9
4
2
4
-22
-1
-18
-6
-9
-2
-6
-15
11
5
6
-8
-10
-7
-5
-7
-16
-4
-7
-2
-28
-9
-18
7
-5
3
-5
6
-4
-20
-1
11
4
3
44
-10
2
12
1
-15
0
-13
9
6
-8
-5
-7
6
7
18
-2
10
-13
-3
-6
13
-6
11
19
-12
-10
-10
-11
-3
4
-10
7
-8
21
-5
5
-2
13
3
-25
-17
-2
15
-14
-7
-17
5
-6
-1
-6
-11
2
4
20
11
-8
7
-3
1
-15
-1
-12
4
-1
-5
4
2
7
-1
-6
1
-9
5
-11
6
0
-11
-4
-3
0
3
21
-1
2
-5
4
-6
1
-14
8
-5
21
6
23
-9
6
1
-3
-2
0
4
15
7
7
-13
-3
-3
9
5
2
5
6
-4
14
-1
-15
-3
7
-3
-3
-7
-4
0
-1
6
-5
15
16
-3
-3
-1
1
-16
1
2
-2
1
2
1
-6
0
-11
-5
8
-8
11
1
5
-2
1
4
-13
-9
0
8
10
-2
8
-16
7
4
6
-4
-10
-2
6
11
-4
2
13
5
-7
6
-8
-3
3
5
5
0
13
-1
-1
-3
-3
-1
-6
-3
1
7
7
4
1
-19
-26
2
5
-10
23
0
-4
-18
2
0
-16
10
0
7
-4
0
5
-1
11
17
-18
13
17
-7
14
6
18
7
0
6
-4
2
10
-4
-20
-15
2
7
5
-4
-19
-16
-9
4
-5
9
-1
-4
3
-5
26
4
-9
-33
-20
6
16
-1
0
8
-15
-3
7
10
-9
-17
7
-2
12
0
22
-6
7
-12
-15
-19
14
-15
-7
0
4
6
-10
9
0
1
-2
8
14
-20
-9
-11
-3
11
-8
10
0
0
-3
1
0
7
-1
6
5
6
-19
2
-4
-26
3
-43
6
5
2
-11
-5
-1
-9
-4
-11
-6
26
-11
3
8
-12
63
0
8
-26
-45
-10
35
-22
-3
-15
-5
-20
9
2
48
-11
-8
27
-17
35
-30
9
0
-3
20
-14
-2
-31
0
-7
-16
-28
-10
-114
2
-30
1
26
1
13
-47
-18
-16
20
30
8
-3
11
-15
-7
4
-17
-13
10
6
-23
18
17
-8
27
-10
-16
31
27
1
-3
-2
22
-3
15
5
36
-31
20
-36
-8
-12
10
24
-59
17
-5
-21
-6
37
-21
15
15
-40
5
-11
-3
4
-5
1
-23
3
41
18
20
12
1
-3
18
14
30
18
-2
-18
-18
-26
10
-35
4
-24
-9
14
-1
-11
-24
1
1
39
-25
-13
59
5
-7
-23
-20
-7
15
-10
21
7
-5
11
0
-9
-6
5
-6
15
0
3
-2
-1
-2
10
-17
7
0
1
6
8
0
9
-3
11
6
10
0
-13
-14
18
-1
-10
-3
-5
-18
1
-6
6
-10
1
-6
-1
8
19
0
5
-15
-23
-40
0
6
8
-9
4
0
10
1
1
-6
-4
-16
-4
3
-9
7
1
-8
5
-11
-7
17
-4
0
8
23
0
-2
6
4
-5
-4
-20
12
-20
2
3
6
-6
8
12
12
-1
4
12
0
8
-3
4
12
8
9
-13
-21
-19
0
-24
0
4
-11
-4
4
-9
-5
1
-3
-3
8
-8
-3
7
-7
-3
-14
4
-5
12
3
6
8
8
7
-11
3
-5
-2
7
0
-1
6
11
11
-15
-1
-2
11
-6
14
1
-11
1
19
-9
2
0
11
-2
13
-22
-2
3
6
9
-6
-22
1
0
-17
10
-18
1
-16
7
2
9
-29
-14
-7
-3
21
31
5
1
-9
-12
16
-10
-26
3
15
-9
4
3
2
-2
17
15
-9
-8
6
-10
13
-14
-6
5
-3
5
-8
19
-7
23
9
7
1
-1
-2
-4
-3
-5
-5
-1
-11
1
5
-4
-8
-3
4
16
-17
11
11
-20
0
-10
2
5
-12
4
9
-8
-19
-8
1
-4
14
-8
2
2
16
-73
15
-26
11
-9
-3
8
0
13
-8
5
4
3
15
5
6
-26
7
-4
51
29
5
-3
35
-36
1
-11
32
6
44
-37
12
-13
41
-10
6
19
10
-4
8
-12
-35
-28
16
-3
-7
10
23
0
1
-5
-9
4
-14
11
-12
-3
-33
-14
-61
-29
-22
8
5
15
-13
-8
-24
-4
-22
-12
39
-9
-26
23
-12
-34
12
-127
24
-17
30
17
12
9
19
-82
28
-8
-5
-7
6
11
5
15
-7
-41
-49
40
6
3
-4
6
-14
-6
-1
9
-14
-21
15
-32
-27
-10
-30
-15
-16
-23
-7
-40
-16
-29
-10
-21
-12
-59
31
-3
-18
-12
9
-6
-6
12
6
-13
8
3
-4
19
-7
9
-9
24
-1
11
19
7
20
-2
12
0
-3
-11
14
-3
-12
-16
0
5
11
-15
7
-7
21
14
4
-12
7
5
-23
-4
-13
1
-23
4
-19
-9
2
6
7
12
-19
-25
-17
-10
-5
-13
-6
2
-13
4
8
-11
-16
15
-19
-1
0
0
4
16
-8
10
0
-4
-1
8
16
-10
4
0
-4
-4
2
12
-9
5
19
0
17
9
1
16
6
-15
22
4
8
6
6
10
9
-10
-5
10
8
-30
-21
-12
13
-6
2
-4
-13
8
0
-3
0
0
-9
12
18
-4
-10
-8
-7
-11
3
3
-7
2
-2
-1
-2
-7
7
-6
5
-1
-3
0
-1
0
4
9
2
-4
-3
3
-2
2
-8
5
3
-5
14
-8
-7
-8
2
0
4
-10
-3
0
8
4
9
-16
6
-8
-1
5
1
-8
1
4
5
-2
-13
0
-3
-3
3
15
0
6
-9
4
1
4
-19
6
-5
7
7
0
-5
-9
5
11
-2
0
5
0
2
-4
7
2
-3
-10
-3
-12
-1
15
1
11
7
11
-7
-14
15
3
0
2
-4
-6
2
-4
-1
-2
4
18
-8
-3
-1
-12
4
-4
-3
1
2
4
8
2
-6
-9
3
2
17
4
-1
-18
1
-15
-2
-4
3
-7
4
3
-14
1
-7
-2
7
0
11
-6
-2
-14
20
14
17
27
10
-14
-4
-1
-3
-7
34
-16
21
-11
-4
-3
-4
0
-5
-7
-6
-1
17
-2
-4
-8
15
12
28
8
15
-14
9
-7
2
-7
-7
0
-6
-2
2
-3
5
-6
-4
4
16
21
-9
5
-6
-4
-10
-1
-5
4
-11
12
13
-6
-9
-8
5
-5
49
13
29
-3
4
6
-12
-5
3
2
2
10
0
-1
12
1
-4
12
14
-16
0
9
-9
13
12
6
-3
-2
14
-20
-20
8
9
-13
0
-7
5
7
-7
-10
-2
0
-8
9
9
-1
-17
-11
16
-1
-17
-1
6
-4
-1
3
-4
26
-3
12
7
11
-11
-4
7
4
11
2
-1
3
1
-2
-5
-5
12
-5
-7
-10
0
-6
1
-7
0
4
-1
-9
2
1
6
1
-3
2
8
0
-8
-9
-9
5
-2
-8
-22
-6
-19
-3
7
6
1
5
-10
2
6
7
-9
15
-10
-7
-1
-3
-11
5
-4
5
-6
6
-2
4
4
-13
18
7
-5
-6
2
-7
-12
1
5
17
12
-1
-5
6
18
10
1
2
6
-1
3
-6
-5
16
8
-3
18
-12
1
-12
3
1
-6
-3
-6
3
-4
3
3
-2
14
1
-3
3
-1
-2
2
-1
-1
5
1
2
1
0
-2
-4
-1
0
-3
-1
-3
3
-1
8
6
-3
-6
-4
-3
4
1
-1
3
1
2
0
2
0
-1
2
8
5
1
0
-1
2
1
6
4
0
-7
-5
-2
-2
-1
2
0
2
3
-2
2
0
3
5
7
-8
1
5
-2
1
0
0
-1
-1
1
5
-2
-7
-4
4
1
-2
-1
-1
-1
3
-2
2
1
-4
-2
3
-6
1
-5
2
-4
3
-1
-6
6
-4
-2
4
1
-2
2
7
-7
2
3
-3
5
0
2
5
-2
2
-1
-4
3
0
-4
-1
2
6
1
4
-1
1
1
2
-4
0
0
1
2
6
6
5
-1
-5
9
-1
8
-1
1
4
1
3
2
-32
3
-74
0
26
-5
-4
1
-4
6
-9
-7
4
-2
16
4
-1
-71
-3
6
0
6
3
2
-16
6
-7
-4
5
-6
5
7
3
0
2
1
0
1
11
-7
-1
-12
-5
4
5
-8
-4
3
0
-4
-1
-2
5
3
0
6
-6
3
-1
-2
4
8
8
7
9
2
-1
-6
11
-4
6
7
1
-2
9
-2
-10
-17
-4
-19
6
-2
2
2
11
3
-15
0
-3
5
2
1
-1
0
-3
1
-6
8
3
-4
11
1
7
1
-4
1
-2
-3
-10
3
1
1
0
-2
2
1
0
1
4
2
0
-1
-4
-4
3
-2
0
-2
7
6
0
-2
0
1
-3
-3
1
5
4
-2
-2
2
-1
-3
-5
2
2
2
-4
2
3
4
5
1
2
0
4
-2
1
0
-1
1
1
-1
0
-2
2
-5
1
0
0
4
1
-8
3
-2
1
2
1
0
1
-4
2
-4
1
6
-1
2
0
1
3
1
-2
6
-3
0
-1
-3
3
-3
4
-5
2
-4
-2
4
4
1
-1
-1
-2
-1
7
0
1
1
-2
-1
1
5
-5
1
1
6
2
4
-1
-4
6
-1
4
2
3
-1
-1
2
2
-1
4
7
-8
-7
0
3
1
-8
1
-4
-6
15
-1
1
-2
2
-14
5
-2
0
9
10
-3
-17
2
3
3
5
26
1
-5
4
-6
1
-2
7
-4
4
-7
-7
1
4
-8
-14
-13
-1
-9
-1
4
2
7
7
0
2
-7
-6
-3
-3
-8
-6
13
-7
-22
-8
-3
3
-11
-3
-5
20
4
3
-13
-2
1
7
0
-7
-13
4
0
1
17
3
0
5
-5
-2
-2
-2
10
-14
-2
2
-16
2
1
13
16
8
1
-1
2
-4
-3
-6
5
5
-12
-7
1
2
-1
3
-7
6
0
3
-6
-2
-2
1
-1
5
-15
4
-4
-3
3
4
-127
-3
3
24
9
-4
-9
-12
-11
6
-6
3
5
-4
-5
10
20
-5
98
-10
-14
-31
-5
-7
-38
-4
36
-7
-1
10
13
0
-4
111
-4
5
-22
-13
3
-4
6
9
6
8
3
-8
5
-19
-11
11
1
7
-30
-9
-20
-17
0
7
-7
32
-100
-43
-20
-1
-20
6
3
20
4
-1
-24
14
-1
-10
-4
9
-9
-1
89
-18
40
-1
-3
13
-18
-25
65
-12
4
-20
-3
2
-57
9
-2
10
20
23
-4
-1
3
13
-36
-16
-9
10
0
-9
6
8
-5
3
0
-7
6
5
70
-2
4
1
-9
15
20
-8
-3
-11
3
-6
-22
9
-6
5
7
0
-14
2
1
2
2
-4
2
-1
8
-1
2
10
4
-6
0
-25
1
-1
2
4
23
1
1
0
-11
-5
-4
11
2
-1
1
2
3
-1
0
-6
4
0
4
2
9
-4
0
-2
-15
8
-7
-3
1
-28
1
4
-4
0
-17
-12
-6
-2
-4
4
5
-20
-6
3
-19
0
4
-3
-3
1
-3
-13
0
1
1
-2
-1
1
-4
1
4
-7
0
-11
1
2
13
4
-7
1
12
-3
-1
-2
-1
3
-3
3
-9
-5
-4
5
5
2
5
6
-5
7
3
0
15
2
0
2
-1
10
-1
3
-9
-5
1
7
-5
-8
1
1
-1
0
0
-1
3
-1
1
-2
1
-2
4
1
-5
2
0
0
-2
-1
-4
1
-2
2
6
-5
-2
7
4
2
-1
1
-6
5
-5
-3
0
1
1
16
-5
1
-5
1
1
0
-4
2
0
4
7
-1
-2
1
-4
1
14
4
3
-5
-2
1
-1
-1
2
5
-1
6
8
3
-7
1
-3
-2
-1
3
-9
1
-8
-1
2
3
1
1
9
-2
10
-4
4
5
3
2
0
1
-2
3
-1
-1
1
2
-4
8
1
-8
14
-3
-3
2
-2
-5
5
-6
0
0
0
2
5
0
1
-1
3
1
-3
0
-1
12
36
-3
-2
-7
-6
4
21
-1
4
-4
-5
9
-4
-1
6
-5
7
6
12
7
-7
5
-4
6
23
7
-1
4
-15
8
-29
-3
7
17
-1
3
16
2
3
3
-1
2
13
8
4
4
-7
9
-2
-1
1
6
-7
-6
4
4
-5
-4
-12
-19
-3
5
-3
12
7
1
0
-1
-3
-4
20
4
0
-3
0
5
-4
-3
-94
-1
-25
4
0
4
-9
1
-47
-3
-1
3
-8
1
27
15
-4
9
3
2
7
-1
6
-8
21
5
4
-8
4
-8
-7
8
3
-6
8
14
-9
1
-63
1
-5
5
-4
-12
-2
-11
-12
7
-2
-2
1
6
3
-4
-1
3
-5
2
5
-1
4
5
-2
8
-3
-4
0
0
2
9
-4
1
-2
1
2
1
6
-2
-2
5
7
-1
-1
7
2
5
3
-1
-2
3
-2
-1
0
-3
7
3
6
0
-4
0
6
0
2
2
-7
3
-2
-5
-1
2
0
-4
-1
2
-2
1
2
-2
-1
0
7
5
-3
0
0
2
20
6
0
3
2
1
1
-7
-3
2
7
2
0
-7
4
3
-7
-3
3
6
0
5
0
0
-1
2
0
-5
2
4
3
1
-6
1
3
0
1
-5
-2
-2
-17
1
4
2
6
-4
-2
-2
2
3
15
-16
4
-5
7
6
2
17
-15
-13
-43
-13
-19
-10
-10
-4
-17
-1
1
-82
-24
10
-1
18
-13
-11
-20
-3
-2
10
-18
9
0
-19
-10
-17
-2
9
-50
-37
-6
-41
-18
3
-15
-3
-13
18
4
10
2
-56
3
-9
0
-13
12
3
18
10
-18
9
-5
34
-9
-41
-20
25
-14
-30
7
8
27
-1
7
-12
8
21
-22
-34
-10
-6
2
1
10
-16
3
6
0
0
-18
-14
-27
-85
-16
6
-14
-3
9
-14
12
11
22
10
3
-27
0
-13
8
13
-11
34
-24
2
12
5
8
35
-11
7
34
-8
-10
1
7
19
0
-13
17
-7
6
10
-10
-19
9
8
-7
-15
-6
-2
-5
4
-5
19
0
-7
-13
-36
-13
4
2
10
-17
-11
-19
14
-3
-3
-11
16
-1
-5
6
-4
-4
11
-1
1
-11
-22
-11
-17
-19
-15
-12
9
-5
22
2
-2
8
1
0
-8
-15
-12
-5
-10
10
-5
-7
7
0
-43
4
-4
-2
-15
1
12
-3
0
2
-23
7
-4
-5
-12
-8
-2
-15
-2
15
-16
-2
10
8
-27
11
1
-9
-14
-12
1
13
-1
3
-15
-5
-12
-10
-5
3
-3
2
9
9
-11
-1
16
-9
-14
5
20
14
-1
-9
-7
24
1
6
3
-2
26
-11
-7
14
-13
7
2
44
11
13
36
-11
-31
-1
-2
-27
-12
-4
-58
-3
9
-6
-17
-12
-24
-4
27
-29
-1
-15
2
0
17
-18
3
-3
-17
-16
1
-3
8
-6
-6
-112
-49
-31
-32
-18
-37
-12
30
-13
0
-1
-3
-11
-10
1
3
-1
59
5
-2
4
4
4
19
-9
-90
-13
-10
-26
-13
-4
10
-5
-8
6
-85
-3
0
22
-21
-19
-1
7
-18
3
-4
0
15
-1
-6
-7
-9
-12
-5
-13
8
29
-8
27
1
12
8
0
-4
-9
14
-12
-3
-4
-4
10
48
-22
-27
5
-2
10
11
-21
3
36
-12
8
-4
-2
10
-14
-21
-2
8
9
-6
-5
26
16
-4
-7
13
-58
-22
-22
-5
4
2
-16
3
-13
-114
-10
4
2
17
7
-11
-26
-18
10
15
-16
1
-4
-22
-45
11
-2
14
-58
-41
11
-46
-6
0
31
15
-28
26
14
1
-11
-52
3
3
-7
6
15
12
13
7
-20
7
1
1
-13
-38
11
44
0
-19
1
-3
31
3
16
-14
-11
5
-27
-41
-17
-4
33
-17
-16
-4
5
5
1
40
-7
-14
-21
-113
-20
11
13
3
0
-35
11
33
22
10
3
-37
8
-6
-22
38
-12
33
2
-8
27
13
13
33
-7
-2
16
1
-10
6
-8
6
7
-31
-5
5
-7
-6
-13
13
1
-9
-3
-7
-15
10
-23
10
6
-10
11
-20
-29
-46
-4
1
12
17
5
-24
-26
12
2
6
19
12
-9
-20
-28
-1
-17
10
6
-17
-11
-16
2
17
5
1
-9
25
-7
-7
-14
0
20
0
-7
-26
4
-13
4
0
-17
-6
9
2
-3
-41
15
2
8
-9
-6
5
9
-5
19
-26
-9
-3
-3
-4
1
-26
-12
-22
9
-5
0
11
-7
17
5
5
-14
-19
-20
1
16
14
11
-14
-9
20
-2
-4
-2
-11
14
4
0
0
3
1
-7
-9
24
13
-15
-1
9
0
-9
25
5
39
-4
7
-14
-19
8
13
-3
-12
38
40
23
8
-9
-32
-22
-13
-27
1
-32
-86
2
22
-10
-25
-3
-24
-5
-4
-21
-11
-6
-3
-1
16
4
10
5
-17
22
12
-15
0
9
-20
-116
-51
-11
-24
-8
-27
-4
22
-14
-9
-10
15
-23
-27
1
15
6
20
15
-10
9
3
8
19
-17
-127
0
2
-9
-6
-11
6
-5
-11
23
-126
14
12
33
-41
2
-12
2
-25
-4
-6
1
5
-4
26
-11
-11
-14
-8
-9
8
26
-35
14
-10
13
24
-3
-12
-9
23
-12
-2
-26
22
49
34
-15
-26
22
5
-2
34
3
-2
19
17
0
6
-5
-1
2
-30
-10
8
5
13
7
-10
6
-14
-7
-19
-35
-9
-16
-4
-1
4
9
7
-11
-82
-2
-4
5
14
2
-2
-2
-9
-4
6
-17
8
3
-18
-25
-14
-7
17
-60
-2
5
-32
-8
-36
18
4
-4
-6
1
-8
7
-39
7
-15
-10
-1
-4
-3
16
16
-22
9
7
-3
-20
-32
14
41
-33
-8
5
19
6
3
8
-12
-1
7
-9
-31
-10
2
12
-11
-9
-4
-12
-8
9
32
7
-12
-34
-85
-4
5
25
4
-7
-9
13
-7
8
-8
-19
-2
2
-9
-10
26
-9
12
7
-9
-1
-11
10
13
-3
15
10
-12
-11
-6
-3
5
6
-17
-7
14
-5
1
5
-27
0
-25
-1
-21
-19
6
-29
-6
9
-8
1
-6
-4
-60
25
-13
-1
13
-3
-20
-3
-5
-12
4
9
5
4
-13
-14
-1
-13
6
16
-9
0
-9
13
-6
-1
-4
-11
8
-21
-14
-5
2
12
-1
10
-6
-6
-14
2
6
-30
0
9
2
-6
-40
14
-3
-14
-3
-2
9
-12
-2
7
-25
-4
1
4
-6
-7
10
-20
-18
-1
-12
-13
2
7
-2
13
0
-7
-27
-8
-2
1
4
7
-6
-2
-11
-5
-13
-7
11
1
-5
-14
-16
4
-2
3
15
8
-5
-3
0
3
-7
11
-4
3
-1
4
7
-3
-5
-3
52
2
5
50
-10
14
-24
1
-35
-7
-11
-17
4
2
-49
5
-3
-11
-32
-5
-6
-16
4
-7
7
4
-13
-1
-1
-10
0
8
-11
5
-7
6
19
3
-16
-96
-39
-16
-3
-11
-11
-18
-3
-13
-15
12
2
3
-15
17
10
19
-6
9
4
-6
7
-10
8
-20
-86
-2
-12
-43
7
-4
9
-12
5
25
-60
-8
8
1
-26
-6
-8
-5
-17
-12
-5
3
7
0
43
-1
-10
-17
-13
-15
-1
14
-25
-8
-5
7
8
3
-14
-22
20
3
-9
-18
6
27
29
7
10
-1
-1
9
8
-5
1
16
-7
-4
-11
13
15
-11
6
8
-10
4
0
-6
-14
-11
47
-2
-13
19
-21
7
-17
-16
-12
5
-17
-24
5
-7
-13
6
18
-19
-11
-24
9
2
-19
4
-16
14
-17
-36
-1
-21
31
13
10
-14
-10
18
14
13
24
-28
3
3
-9
-41
-9
-18
-28
-20
56
19
-2
13
-2
-40
34
15
37
0
-25
-57
36
-12
1
4
10
23
-16
-67
6
-46
-20
-10
-27
-19
18
13
8
1
-2
-37
34
2
-11
-7
-4
7
24
23
9
17
-23
0
23
8
-8
22
-3
-7
12
20
11
32
-21
31
-12
-28
-3
-60
-9
4
-2
-12
-9
39
-1
-9
-2
-4
-1
18
-4
-3
-6
32
7
-6
-17
-18
12
55
-12
-27
-6
18
-14
-4
-23
12
-14
-27
11
26
0
9
38
-17
-10
-29
22
11
-27
2
-16
9
-15
-10
9
-36
35
-31
-2
-5
-7
4
32
8
45
14
-11
12
-2
-56
2
0
-53
2
39
-13
29
10
37
-6
25
18
54
31
-5
-53
-9
-19
-21
6
-9
-2
-3
-67
12
-41
-3
18
-5
5
4
13
-4
-9
-5
-35
41
20
1
-14
13
-14
10
15
-12
41
-33
7
55
3
0
0
-6
-7
4
26
14
22
-15
17
-13
-9
2
-49
0
-28
2
-3
6
48
9
2
33
18
-39
-27
-1
13
9
3
-2
-13
-5
-13
37
34
-31
-2
-32
1
-25
-15
-8
-33
24
-7
3
-3
9
-2
-16
-20
9
-16
20
17
-21
-22
5
28
-4
34
2
-19
37
-32
5
-16
-10
-18
14
2
-6
-10
-11
7
-8
-3
0
20
-26
14
41
-10
59
1
15
9
-24
-6
8
-2
-14
-28
0
-50
-18
1
4
-11
-16
-59
22
-18
5
13
-2
-8
-11
-3
14
1
3
-7
4
3
-1
-14
18
3
6
-13
-13
34
-36
29
0
2
-1
0
-13
-19
5
10
5
-7
11
7
-13
-34
-7
-64
-8
-3
-17
-1
3
12
-22
-1
25
-6
-18
-3
38
-24
3
2
-11
-1
14
-72
43
2
-14
30
-7
0
3
-12
19
-13
-15
-15
20
20
-11
-26
1
-6
27
-2
-13
1
-48
-2
-23
35
-13
-19
3
-34
-26
29
7
14
4
18
3
40
32
15
6
-23
-21
-41
-14
-8
-59
-16
65
-11
-7
-6
-45
-14
7
-4
-27
14
-12
-12
57
-11
26
-14
35
-20
16
-58
17
-89
-22
-10
-14
-9
-4
-12
4
5
-13
-15
24
4
-22
-5
-9
2
-2
11
-30
-48
-14
30
40
26
11
1
-25
-11
5
33
30
21
-28
16
-56
-60
-55
-65
4
3
-8
7
14
-16
-3
11
26
-24
-12
-13
51
-45
18
-4
-17
15
-7
-127
-28
76
-15
-1
10
0
21
3
15
22
-37
-16
8
19
29
-96
25
-7
23
-6
-33
19
-115
-13
-2
23
-61
-48
-12
-61
-41
18
-4
22
-9
33
-1
51
15
85
-21
14
-14
-70
-5
31
-47
-9
61
-24
2
-9
19
-8
16
0
-7
83
19
31
35
-8
23
-25
30
-12
53
-52
37
-80
-17
4
29
16
-108
-19
-36
-51
-11
20
-8
10
23
24
-14
4
-6
-12
-80
-29
-37
30
100
-9
20
13
-18
-63
2
21
-5
47
-23
-16
-81
-39
1
-38
3
-28
15
37
-3
-24
27
-32
34
26
-40
-40
49
-34
21
-10
-12
4
-5
-59
10
36
-25
22
-20
8
24
-4
18
-22
17
1
16
17
16
14
26
-19
1
-11
8
16
-46
-23
6
34
3
-5
8
-45
2
-11
-24
-3
6
2
-12
8
-22
60
-5
4
-15
-30
13
-10
-2
13
49
-9
34
-5
16
5
-25
2
-23
-9
11
-15
22
-11
-14
14
-8
-13
11
-53
6
-25
-34
15
7
3
-10
-6
19
-1
1
5
-20
-7
1
26
-5
-15
1
16
-14
-41
-33
46
6
-10
0
2
-6
-23
7
25
11
24
-11
4
-45
-48
-3
-48
12
4
-16
10
9
1
-13
16
11
4
-23
-10
62
-44
44
0
3
-6
0
-25
-39
3
-25
28
19
3
-15
5
36
-2
2
-22
-11
12
-35
-16
-3
-18
-6
-16
-2
26
-6
18
34
22
21
0
-23
-11
11
58
16
7
-1
-3
12
37
38
23
15
-24
4
-39
-44
-7
-23
-59
-5
2
6
-31
-26
-19
1
6
-27
51
-9
-14
37
-15
-2
-16
5
-28
-13
-33
21
28
-13
4
5
-6
40
-17
42
-24
79
-25
11
17
-39
-19
5
-11
3
-11
-47
-67
7
-27
-1
42
-25
12
-24
-9
-25
12
5
13
-17
-6
-8
-49
6
-28
-26
29
-14
4
16
6
-17
40
32
-3
-25
-3
25
-81
76
-32
-25
12
3
-49
-30
57
-86
22
1
-2
-4
9
22
28
4
-20
-7
23
45
-23
4
-3
16
-15
-19
-11
116
-15
48
65
28
10
-38
-66
-5
48
-23
-8
-17
12
12
21
46
23
32
-29
-8
-35
-17
8
-13
-116
21
-28
10
-30
-59
-14
-19
7
-61
85
-3
30
4
-55
18
-20
17
-45
24
-50
-3
35
-9
-13
25
-27
25
9
8
-28
63
-41
2
11
-8
-11
-9
-22
4
-25
-80
-36
8
-47
-27
49
-2
45
3
-61
13
1
28
12
-32
-41
-13
-17
9
-53
-118
80
-8
-15
-6
6
5
45
40
5
-26
-52
58
-61
25
7
-25
-1
0
-27
-45
38
-23
-10
-2
-16
-19
-10
-5
5
4
-28
12
17
17
-33
17
-10
-30
-10
-6
5
29
-14
-16
30
12
9
-11
-26
27
19
-43
-9
-8
-3
33
19
7
23
10
-11
-8
-17
-22
5
9
-14
8
-15
36
-23
10
4
-28
24
-49
43
12
-6
-1
6
27
13
4
-5
11
-42
12
-1
-16
7
16
23
5
-15
20
-52
-17
-21
-20
9
-30
-13
1
-18
11
1
-20
15
2
-23
15
-3
-25
-2
19
-9
11
-9
-9
21
-22
-19
-14
-40
-3
-23
-8
23
6
-5
6
17
-17
35
16
0
-22
-11
47
7
1
0
40
-2
-32
35
-3
-15
13
9
-32
25
-3
1
16
11
35
-5
-3
-12
8
8
7
-53
-9
-5
15
-26
2
-22
4
-13
14
24
12
-9
-59
-3
-89
-27
25
-10
23
-38
-22
22
10
-36
-19
41
0
9
31
-32
-9
-60
-27
-9
52
-9
-9
11
-59
-49
12
14
-3
-41
-3
18
-34
-33
3
-47
-16
-35
97
11
-5
25
4
8
25
10
34
-5
-27
21
-11
36
-28
-11
12
-44
14
70
4
-44
-22
13
-5
-36
-5
21
-12
9
-2
9
13
18
-15
22
-30
-77
6
24
-50
23
-26
-26
-34
-29
13
50
-30
20
22
10
-29
20
14
12
17
19
-27
38
22
-43
12
47
-23
6
22
18
20
-31
-5
-3
-15
-18
106
15
-47
-5
0
-18
-11
40
-18
-28
-7
-29
-47
5
-55
8
-84
4
48
-79
25
-58
-3
67
-6
25
36
-28
26
-18
36
-67
-24
-27
-16
16
7
-16
-25
11
-40
-75
-8
114
9
-46
63
24
-11
19
-82
-64
-6
-32
118
11
-35
29
7
10
44
-2
81
20
4
23
14
88
-27
-40
7
-84
31
34
-10
-33
-59
-43
23
-62
15
25
-30
-19
17
2
27
-3
36
45
-10
-101
26
6
-36
3
-25
-11
-76
-42
-54
55
13
71
1
37
-26
4
37
-12
-25
49
-11
14
37
-9
43
-18
-7
-25
-4
-9
-12
18
-13
-30
-31
-36
11
20
-11
34
-3
-36
-29
49
30
5
14
-35
-7
21
-65
-1
-61
11
13
0
23
-21
46
16
-14
-6
-20
2
-21
-10
42
-38
-3
-50
-22
33
21
17
40
-5
-52
-62
33
12
3
0
27
41
0
-9
-53
-54
-24
25
81
-41
-64
-13
30
25
24
1
105
-3
-9
28
14
22
-17
3
32
-14
9
-28
15
-47
-4
16
13
-35
16
36
-19
19
13
-7
1
-19
44
28
-9
-48
11
-16
-15
0
-7
-28
-42
-30
-23
-11
-50
45
-25
70
14
-2
21
46
-21
18
-33
-58
-6
3
-74
-26
-20
-6
20
9
-6
-4
32
8
-22
-15
8
-20
45
-6
-25
-56
-1
-37
-18
22
-2
14
-10
-30
-47
43
-54
15
18
4
42
-2
-26
-6
-22
-5
-52
61
-23
-18
-45
-15
25
-22
-7
-9
49
26
-2
-21
-38
-44
32
8
10
-2
28
28
-52
-16
2
-47
24
-42
113
6
-10
3
17
-15
-28
45
23
-21
-3
21
-14
-39
-68
-11
15
-13
36
35
11
-29
-50
-12
1
-36
-4
14
-34
31
5
-13
50
5
-3
-33
25
-45
28
51
5
14
-13
-51
-62
3
-30
10
-22
38
6
1
14
-30
41
20
47
-59
-68
81
8
-13
-1
-7
-73
-27
-76
3
-55
-23
-6
24
-29
-47
88
24
-52
-26
-86
-44
52
34
-77
-118
-71
-34
2
-67
-101
67
-1
23
41
-97
-20
-1
-21
12
-59
5
-127
-1
-28
-38
-11
-62
4
33
-18
26
37
-43
-3
-3
-4
-43
41
103
36
8
45
-66
-20
19
-40
-33
-14
-52
55
-8
4
-9
-119
-31
-61
9
66
4
-31
-102
25
-12
-87
-116
-8
-92
115
45
-33
-16
-102
-34
28
-16
-26
-32
-96
-5
-12
-8
12
1
44
-46
-3
-85
-5
-72
46
12
-18
-101
-57
-39
-18
37
45
63
27
35
-35
8
11
-54
-1
15
-21
13
-3
-3
31
-12
-22
-70
-23
-18
30
4
-19
6
-23
-9
-29
28
11
-5
-13
-64
-24
5
7
18
8
-54
-16
-22
-61
11
5
21
5
-19
4
1
-25
-1
-33
8
-45
0
1
-22
57
-23
2
27
-26
-1
17
45
10
-36
-14
-33
40
22
13
-10
-41
26
20
19
4
-36
1
3
83
-24
-74
-2
8
-18
-10
27
33
-9
-51
9
-34
-37
-60
-27
2
-1
23
-34
-12
-35
-10
-11
3
-7
-22
11
20
1
11
-2
-34
1
4
-9
-18
-52
37
-37
50
0
-3
-44
-37
-29
-30
-25
-12
17
17
86
-6
28
36
22
-18
8
-34
5
-3
-19
14
-29
-43
-9
-9
0
-1
-5
15
4
-64
11
-7
32
3
-11
-25
-17
5
-57
-21
18
-2
-6
-10
-10
-13
15
-31
1
38
3
30
61
65
8
2
-8
12
24
31
7
13
-54
61
11
-31
-20
-2
23
8
-23
1
-39
41
-3
-47
-32
1
66
-38
-36
32
-29
31
-50
82
10
-29
-5
-1
-31
-2
4
-20
-27
-19
23
-32
26
-22
6
57
-37
11
1
1
-40
-11
7
-17
-29
0
-3
-4
1
-5
11
20
6
48
-38
48
-62
-5
11
-39
-14
-8
-28
-64
3
-29
-11
45
-1
-1
81
19
31
102
19
9
50
-62
77
-22
-56
-17
73
-115
-5
-12
26
9
-8
-12
29
-44
63
15
13
-20
-5
-38
-38
-31
19
-34
24
0
-5
15
116
9
0
-1
2
39
-36
-6
55
9
7
5
32
117
18
120
-26
34
-76
66
63
-61
1
-40
62
15
-14
18
-4
-24
-21
-41
-43
2
42
-18
27
-30
-37
-34
-48
45
-23
5
21
-57
-16
-4
-32
0
-34
28
21
-21
25
-29
-23
47
-71
3
-7
-27
-50
-81
18
22
19
6
-99
1
-5
14
-20
-25
84
115
-46
32
-92
-60
7
-12
-21
9
-62
-83
-15
-13
-6
50
-30
38
56
-24
12
23
-38
7
20
2
64
-8
22
14
114
-58
-17
-10
-3
40
33
-17
16
-41
64
-6
28
-18
-26
16
2
-49
15
-38
-4
-7
-17
4
9
10
8
-36
34
-6
-14
36
-4
-24
12
25
-9
20
24
23
0
2
-6
68
19
-45
7
-29
37
31
-11
6
-31
20
-1
-15
-57
-6
31
27
20
13
-15
-4
-11
37
-21
-35
1
-13
-11
25
-6
-25
-20
30
-5
-85
-23
-21
3
25
5
37
-68
14
-57
-8
14
-9
3
24
9
10
1
-5
-6
-24
-2
64
-25
23
-83
13
-17
36
-19
20
-46
-28
-20
-13
-28
44
-9
21
-1
4
5
-19
-2
-5
10
-21
-2
4
-36
22
-7
-2
1
-14
-17
16
15
11
-8
28
12
63
-13
17
6
12
8
18
9
4
-14
4
11
14
-15
5
-20
4
19
-1
17
-62
2
-16
13
-12
-9
33
-38
7
9
24
-13
3
-40
26
-14
19
0
-11
4
-21
19
-13
-8
-47
-12
-6
-7
-21
5
8
54
-6
-3
15
4
12
-5
-15
3
15
0
12
17
-19
0
14
-36
9
-8
-3
-2
-21
18
-22
32
12
11
-9
-1
-2
5
5
9
33
5
12
2
35
-11
-19
-36
-5
-16
44
-7
17
18
-3
17
-20
20
9
-41
3
0
6
-9
-20
-2
7
15
-43
19
14
-32
17
9
-3
5
15
3
16
18
5
-41
9
7
56
16
-1
25
8
-2
10
-24
-12
-8
0
-4
-7
-24
-4
-24
15
9
-15
27
-34
7
-33
7
-22
2
0
-41
3
-4
1
-9
19
-42
-10
-25
0
14
14
-23
4
-8
-24
-21
-26
-3
-39
13
-3
-15
-34
37
24
-5
6
-38
15
-25
-17
-9
0
17
-3
3
-16
-26
27
-50
6
-36
6
-2
-14
11
-1
0
-14
15
-28
6
-6
-1
-10
-7
32
24
47
-7
39
16
32
-37
2
7
31
-6
9
6
-24
13
-39
46
19
-40
-19
-18
-30
-8
-9
25
0
5
-14
-23
18
14
4
4
-2
21
-4
3
-2
4
1
-10
-22
11
9
1
2
5
-14
-2
24
-33
2
7
-12
10
5
-12
16
18
27
10
-14
21
-3
13
17
9
-11
11
14
-16
4
18
-20
-13
35
-36
-67
-10
1
12
1
4
-5
-11
-4
-15
-3
19
-15
9
2
-10
-22
10
-35
-3
10
-103
7
-7
-8
-4
-5
7
30
4
-2
-1
15
-32
17
-3
5
-2
-9
-7
35
3
19
11
-26
8
6
1
5
-8
16
9
12
-6
36
6
-33
5
5
8
10
-3
-1
16
-4
12
-32
12
2
-35
-1
-7
-9
35
-22
18
-10
23
19
-10
2
-37
23
-6
-9
-1
-12
4
-2
35
0
-7
19
-13
3
-32
4
-19
-9
-1
2
18
-25
-16
-7
5
-2
1
10
-29
-7
5
6
-23
76
-21
-9
43
-20
7
-15
-11
-19
3
-2
18
12
-15
-32
-3
-52
17
25
-3
-40
4
-10
9
2
7
-7
-36
41
11
-45
28
5
-24
27
-11
13
48
8
-24
5
9
4
-29
-21
-13
-35
-32
-2
21
-16
-13
11
-15
18
28
26
-3
7
4
0
-10
-10
29
-18
10
-13
-21
-24
-28
-13
41
9
-9
15
19
-4
-7
-39
-12
49
-8
9
18
6
7
-15
32
-30
-48
-12
43
43
9
44
-17
-37
-9
36
-43
1
-11
-37
-27
16
25
-20
-12
2
-37
-46
-48
-23
8
-24
-29
-2
-34
-9
3
-21
-5
19
-41
-54
-8
-22
-2
36
18
4
-66
1
-3
-70
-46
-12
14
5
-18
31
-37
-32
-22
-24
8
15
-19
-25
-20
-3
13
21
41
7
-11
-21
35
-59
55
14
-48
-21
17
-16
83
-28
-7
-15
-15
4
-15
-32
-31
-8
21
3
-8
-5
-16
6
13
42
17
96
-49
-16
-4
-20
-24
2
17
-41
-7
-26
3
-45
-1
-86
-22
-7
-53
-35
21
-15
-37
18
-2
127
-74
32
13
-11
1
-31
20
-19
10
-23
42
39
3
40
6
-12
-33
23
25
20
-5
-1
-7
-20
17
-20
-3
37
-26
-16
7
-12
-3
1
-65
-42
-22
3
40
-26
-4
29
-15
-33
-19
1
-16
-50
5
-3
-25
-10
-19
-32
-53
-19
5
-13
-9
7
-28
3
-7
97
-5
-7
1
-27
-11
-10
-12
21
83
10
5
-28
7
-14
48
31
-27
-24
64
-49
14
9
70
-34
12
-35
-40
-33
22
-16
44
6
0
3
16
-6
24
35
31
-42
-40
2
-19
1
4
-47
-19
-12
32
-28
13
-39
-5
66
25
3
40
-33
-10
16
-47
4
5
75
0
0
25
3
12
2
-2
-29
-2
-11
3
7
0
-3
45
-7
-2
-1
10
-11
1
-3
20
7
4
-11
-23
-21
-34
-6
20
-4
-2
-15
-10
-8
-13
13
12
-5
-6
14
31
35
-5
-2
-3
23
12
-1
0
-2
0
-27
-24
-30
6
10
20
-12
-9
-15
-12
-20
32
3
-21
-11
-21
-12
16
41
12
-4
-20
18
-26
-22
15
-7
-2
-11
-5
17
-11
13
-20
-31
-12
11
-28
-18
-14
-1
-14
3
11
-18
34
12
-25
4
3
-20
-3
0
-7
22
-9
29
0
-26
24
-8
23
-29
0
-29
37
-6
-7
9
12
1
1
4
-22
19
3
-32
18
-28
-14
53
8
-58
-2
13
-1
-8
-3
-13
28
-23
9
2
-13
4
-7
-17
7
0
-4
-13
-28
-28
-34
-23
15
-7
-11
5
-23
-16
-1
-2
43
-10
-26
5
19
9
11
-2
16
-14
27
6
7
-7
-2
-44
-55
-15
-19
3
21
-6
-11
29
-14
-10
3
16
-15
-38
7
10
8
24
18
-3
-20
2
-11
-9
33
10
3
-32
2
-5
-50
14
-1
-11
24
29
-43
-32
-7
-3
4
3
-22
1
7
48
3
6
-13
-18
18
10
9
30
15
8
-4
5
-13
-19
5
-23
-3
-8
9
30
23
-16
-6
11
-13
11
-9
22
19
-19
18
-22
-12
12
19
-59
-4
-8
-11
-3
18
3
-16
-1
-38
18
19
18
7
2
10
-17
7
38
-22
-2
-11
22
8
-15
10
10
-28
-12
-1
14
34
11
-10
18
4
-6
19
-4
5
4
26
11
-13
-14
-31
-17
-24
-16
-1
3
1
-31
-17
85
-8
-42
0
-10
6
-34
6
16
-4
-2
22
2
0
-3
-6
6
33
-10
-12
-16
13
9
-6
5
-5
-25
-7
8
-40
-18
-19
23
-4
4
-13
-3
-15
8
16
42
-3
7
-15
3
-8
8
22
-15
33
9
4
-9
-9
-27
-6
9
3
-11
8
-19
-9
-13
-32
8
-11
15
3
-40
18
-15
-4
-3
1
2
3
-12
-4
0
0
1
-3
0
-2
-13
-4
0
8
0
-3
0
4
2
4
4
-2
4
-2
-5
-7
-1
-6
-1
-5
-4
-2
-6
5
3
0
-1
7
13
1
-9
-9
-4
-4
0
0
1
5
4
1
-3
-2
0
-5
-4
1
0
-7
2
4
-3
-1
-1
3
-9
3
9
-1
-2
-18
6
-8
1
-10
-11
8
11
3
2
2
4
0
4
-6
6
2
0
5
1
0
-4
2
0
1
11
-1
10
3
-4
-28
4
-2
0
7
-5
1
-7
-3
1
1
4
-5
5
3
-1
9
2
-3
0
-1
1
2
6
-2
0
-3
-2
5
-21
2
-16
-4
-1
-18
1
0
-21
-17
-2
-4
-8
-15
1
-24
4
7
-8
6
-34
15
-16
-9
9
4
2
-6
-5
2
-17
-18
-4
-7
2
-6
3
3
23
8
-15
-8
9
-4
-4
2
4
6
12
8
14
1
-5
-25
-19
2
0
-5
2
-11
1
-15
0
5
0
6
-25
4
-6
-20
11
-5
-21
4
-6
-6
7
-6
-1
-2
2
11
1
-9
-3
17
-2
-6
0
13
-10
0
3
7
-1
4
-7
1
-6
5
3
5
-5
6
5
5
5
0
1
6
27
-16
-1
-2
3
-2
-3
-1
14
-3
-8
4
1
18
-7
0
-6
12
11
11
7
-7
6
10
-2
2
6
-1
-1
1
4
17
-7
-10
-4
2
4
-1
-5
-6
6
4
-1
8
-1
-7
1
-6
4
5
11
-2
-1
-2
8
-6
9
3
-2
3
-5
7
-8
-4
-6
1
3
-4
-2
9
-3
-1
-20
6
8
-3
5
-6
11
1
13
-7
9
-1
4
2
4
0
2
0
7
1
1
-9
-3
3
-4
5
-5
6
-4
-2
10
-3
6
-2
-7
1
18
-3
0
1
2
-3
4
-4
0
14
14
0
3
2
-5
-1
8
5
-2
10
-5
2
1
5
4
2
-3
-2
9
10
3
10
3
1
3
-2
12
-14
20
19
-19
-13
-15
-16
2
-6
48
-5
0
20
-78
4
-76
-8
11
2
-29
-16
14
-8
-7
-23
-6
3
-10
-8
-4
-17
20
-3
-2
6
6
-2
14
6
25
1
4
2
10
7
-10
-86
-2
-8
6
1
9
-5
-4
10
-2
86
-6
2
-1
-7
8
6
-6
-13
-13
4
30
15
22
-32
-8
-15
-7
45
-5
6
-19
-16
-24
31
10
-11
10
0
8
-26
-6
17
-1
-1
-4
-20
1
5
-2
12
10
-9
1
-55
23
-7
-24
4
-15
23
-23
2
6
6
11
8
2
-28
-11
3
47
-21
9
-2
-5
-12
4
-8
6
-3
-31
2
-18
127
-22
13
1
28
20
-7
-6
2
-2
32
61
-24
-40
-30
11
10
20
-23
-24
11
-45
-3
-13
6
-8
-25
-34
-3
14
4
-2
9
-4
-20
4
7
26
-1
-28
-25
-15
-5
1
39
4
26
15
-39
-47
-7
-25
9
-15
104
-1
-23
-19
-11
6
-6
3
10
-8
-2
-36
-17
-45
-70
14
-14
-31
7
-13
-7
-43
-6
-16
-6
8
-13
-3
12
19
1
-5
-11
10
8
4
-39
2
7
2
15
-18
0
-1
31
30
3
-28
110
-31
-1
-10
-15
1
14
58
-16
-3
23
9
12
27
-9
-13
-15
-22
10
-6
17
-6
7
-1
8
-1
-39
6
15
10
3
-1
5
-17
-30
-10
-37
29
29
69
1
10
11
15
6
-13
3
22
27
0
1
4
6
34
21
10
-13
4
-1
1
0
18
-16
0
6
-12
16
-5
-3
-1
48
6
7
-1
9
8
1
-13
4
-21
-72
5
8
-4
0
17
-3
-9
5
1
10
1
7
-1
2
1
17
-3
-12
-4
-18
3
5
17
-9
8
6
5
-4
-5
25
11
1
11
-10
14
37
2
16
-1
12
2
21
-6
33
5
10
31
-38
12
-10
-2
-19
-10
1
-41
-6
-1
24
-10
6
-44
1
-11
2
1
13
8
5
5
-7
16
8
-3
5
-5
-2
-7
2
-3
-4
-10
2
8
5
-15
-2
-2
2
4
4
-10
-5
-1
3
-2
-2
-3
3
2
-5
11
2
0
9
-1
-3
0
-5
9
5
13
2
0
-2
4
2
6
-13
-9
1
-4
-2
-4
6
2
-5
-9
8
1
-2
6
0
0
2
-5
12
-13
3
-1
-4
-4
-11
1
-12
1
22
-5
-1
1
4
-8
-7
2
4
2
8
0
11
5
7
8
7
2
-7
3
4
7
-3
2
9
4
0
8
2
-8
2
-2
6
-1
-1
3
0
0
-4
0
2
-1
6
0
-11
-4
2
-8
2
-2
5
3
-7
-36
-7
-36
10
5
-3
2
7
2
4
-4
10
1
-4
13
13
1
-7
1
4
7
5
-2
7
0
-5
-7
4
0
2
-12
0
-5
5
0
9
-7
-1
-4
-10
16
-4
-6
-12
-22
-7
3
15
13
8
-7
-10
-15
-8
-8
-2
-9
9
2
-8
6
-2
5
-11
-5
3
-10
-5
7
4
16
-15
3
1
-33
-2
-7
-9
3
2
3
-4
16
-11
-1
15
8
-8
-2
0
-2
10
-6
-2
2
10
8
-4
3
2
-9
0
9
-6
2
31
0
-12
3
-11
-8
1
-13
-2
-3
-4
12
0
8
-1
-6
-26
-5
-11
-7
3
-3
5
-12
5
-10
-5
10
0
1
5
0
-8
7
-17
-2
-4
10
7
2
4
-6
2
2
7
1
1
5
-11
-3
-2
-3
9
7
-6
1
0
9
-7
-2
-8
4
-9
0
2
0
2
1
11
-7
3
3
-1
-1
15
5
1
-17
3
-7
-6
2
-4
4
-1
16
-2
2
5
-3
4
-1
-9
-2
3
4
5
0
6
3
0
-7
-4
7
0
3
10
4
-5
-2
-4
13
9
4
-6
10
1
11
-2
-5
0
-3
0
-5
-1
7
-5
-5
-21
-3
3
0
-7
4
3
4
6
4
5
0
2
-4
-3
-5
-7
8
4
6
3
-3
-1
10
1
4
-9
3
1
4
-1
-9
1
1
1
-7
0
9
-4
-3
4
0
-2
9
-3
-14
5
-4
-1
1
3
-1
-6
9
1
5
4
6
-1
-1
-8
-5
4
-3
2
-9
-2
-6
0
-7
-1
0
13
-3
5
7
4
-11
-8
-11
-4
3
-1
4
4
-12
-2
5
2
-11
6
-6
4
-6
9
3
-6
7
15
-10
0
8
11
-14
-9
3
1
-2
3
-3
1
-2
10
-3
-2
-4
3
-7
10
-12
2
5
-7
-3
10
-3
0
3
-1
4
-15
1
7
-2
2
10
-9
8
-1
4
2
-2
5
-1
15
-7
10
8
-12
5
-1
1
3
-16
-8
-19
-24
0
-5
0
-13
-9
-6
0
3
-15
-3
-18
5
12
-6
-2
-6
-24
0
1
6
7
2
8
12
14
-3
-1
-5
14
-5
0
-3
6
9
15
-7
-20
-7
-2
-21
0
14
-12
8
0
1
-2
5
-8
-27
-4
12
6
4
-15
-11
-16
-6
-2
-3
-8
5
-5
0
-3
2
8
-7
-4
-11
-7
-21
8
2
-9
17
-3
3
4
-16
-4
4
-3
1
1
8
-33
-3
2
-2
13
4
0
11
-21
10
0
9
-4
3
-15
-1
2
-4
-6
4
-8
4
1
24
7
-11
9
3
3
0
-12
-1
-1
16
-5
-6
2
4
-3
2
-6
1
-5
-2
-2
7
0
1
3
4
-4
1
-7
-3
0
6
1
4
-22
1
7
-6
-1
-1
1
4
-9
-3
-8
0
-12
1
-2
-6
-9
7
1
4
1
1
-1
1
1
-4
5
-2
2
-3
-4
-3
-3
-5
-15
8
3
2
4
3
-12
-4
-3
6
-14
1
10
9
2
2
10
-3
-9
-1
-8
-8
-1
-5
2
5
1
1
-4
-1
-5
-5
-6
1
-3
2
12
7
2
5
2
4
2
-8
-2
-5
-1
2
-3
9
2
-3
-3
-9
-8
4
6
-9
-1
-2
4
10
-2
4
17
4
2
1
0
-1
9
5
1
16
-3
-11
-11
13
15
14
2
12
-37
6
-2
-97
27
-12
38
7
-7
9
18
-3
-19
15
58
9
1
4
7
4
12
11
-5
6
9
-7
8
-16
-6
2
-6
8
-9
-19
-5
10
0
46
-5
5
-8
-28
-31
-3
-18
-1
-4
-103
-9
2
36
1
-7
10
3
8
-15
7
-9
6
-29
23
3
-9
-4
-99
-14
-9
22
-5
17
-49
0
4
9
6
-4
35
3
17
7
11
-1
17
6
13
5
17
-14
3
-16
21
11
6
23
-50
9
-11
-6
9
-8
-8
8
-8
-6
46
2
12
-117
19
-20
-5
-5
13
7
-8
-2
18
-13
8
-30
-52
-47
5
9
-1
-36
-13
-16
-23
-23
-49
-40
8
-7
13
3
4
-20
-12
2
-29
-5
28
21
-13
17
-4
27
63
-1
-36
-5
6
6
15
-17
0
18
0
-28
15
-15
-39
2
81
22
-49
-20
-23
-12
-8
-28
10
-14
127
4
-14
-78
-12
-41
-2
-2
-26
-14
-17
-27
9
11
21
-20
12
-32
91
0
-27
-12
3
-5
87
31
23
-2
-2
-64
27
-25
5
-2
6
-10
0
4
-9
-17
14
9
31
30
20
34
15
98
3
-25
15
-16
-47
-11
3
-14
5
7
34
-2
3
126
7
-23
-2
-20
-26
-21
-1
-13
-9
-9
-22
5
62
-20
-2
-17
-10
4
10
5
6
-2
74
6
12
-34
-10
-9
-4
-8
-9
-9
9
-56
-5
-26
3
6
3
-30
-36
16
-3
4
-4
5
-3
3
9
0
3
3
-10
3
24
0
-92
-6
31
-1
71
-9
10
1
7
-17
34
-3
-9
-2
-3
-13
0
3
-8
-22
7
-8
-25
15
7
14
2
-7
7
1
-10
-5
-5
-7
12
13
-22
2
10
26
-42
-5
-14
1
3
-1
-22
-7
0
10
-7
-1
-29
32
-20
-20
-8
-115
28
4
-13
-18
-5
-6
22
27
-2
-1
-40
-7
5
33
-18
14
6
1
10
11
13
4
-3
-6
-8
-15
-8
-1
6
-2
2
-11
5
-5
1
2
6
2
2
1
-1
-7
2
6
0
-2
3
-9
2
7
5
4
-7
13
-6
-3
0
2
2
-1
6
6
-2
5
1
9
-1
-2
-1
1
-4
0
-2
1
10
-4
2
0
4
-9
3
-4
-9
-12
2
-13
2
-5
1
-10
0
4
-1
6
11
6
-3
-2
-2
-4
0
1
-6
-2
-5
11
0
0
-6
-4
-10
-9
15
3
4
-1
13
-1
-1
3
4
-9
-3
4
1
-3
-5
2
-3
6
-4
6
0
0
-3
3
5
3
7
-3
-1
9
1
-4
0
1
0
9
4
0
8
-37
4
-25
-6
-5
15
0
-2
-1
-3
-2
-7
-5
10
-8
-5
-8
-4
-4
-4
-10
-11
2
13
2
-4
-19
4
2
0
-40
10
-1
-11
-4
-7
-3
6
-4
-4
1
1
-6
16
-27
0
4
14
-2
20
-16
10
-14
-10
2
-8
0
-2
-1
-14
9
6
-5
-13
-15
9
-21
6
7
6
4
7
13
-12
6
1
-6
5
12
11
-1
-4
14
-6
-2
9
1
-4
4
12
-11
13
-12
-21
-2
5
-3
0
12
8
-9
3
-5
-12
-10
5
2
3
4
-3
8
10
3
-5
-5
-5
-1
8
-7
1
1
-11
-2
7
-1
-1
-1
1
-12
3
-2
12
-3
-3
-3
8
-2
11
9
-11
-4
-3
-1
-1
-4
-7
-9
0
-1
-2
0
4
1
4
5
8
6
15
15
1
0
-13
-1
-8
0
0
10
10
5
1
-3
-6
-3
4
4
3
4
9
1
-11
8
9
-5
3
-6
-1
3
5
1
-1
-2
9
5
8
-23
7
5
1
-4
8
7
-4
5
7
-2
5
-7
7
-3
-8
8
1
1
8
0
9
1
-6
1
7
5
-5
0
-4
0
-6
-5
0
0
-8
3
0
13
3
1
-4
10
-7
-5
1
7
-8
2
5
-13
4
-7
-1
-7
6
-5
5
3
-3
-8
4
-3
-8
-2
7
-15
-3
-11
9
-7
9
5
1
0
4
-14
13
-1
-8
-11
5
-2
-4
13
7
6
-5
9
-2
7
13
1
-2
15
-6
-2
5
-11
6
3
-2
-6
-2
-11
-1
0
-2
-10
8
9
-1
-7
5
-6
-4
-10
0
-20
-3
-3
8
0
-9
1
0
0
19
-16
-1
-13
16
10
-4
-8
-4
1
-12
0
-9
19
-4
3
-17
-4
3
-4
-9
-4
7
6
7
1
8
-8
4
3
-6
-5
-10
-8
12
-8
-10
0
13
0
-9
-4
9
-1
-3
4
9
-3
6
10
1
-8
-2
10
2
-3
-8
-11
-5
6
-6
-2
2
7
10
-5
-3
-13
0
10
8
0
11
4
0
-8
1
-4
22
-15
-7
-5
36
14
-7
16
15
-17
-12
-15
-14
12
5
7
-17
14
28
11
8
-11
-9
2
2
2
-3
0
24
19
-8
-20
-13
-16
9
-10
3
17
-8
-5
9
4
0
12
30
13
-1
-8
-8
-4
10
-23
-9
-6
17
2
-10
17
10
3
-2
-4
0
8
11
5
-11
-17
-46
4
-9
-22
-4
1
-11
2
-7
-8
-17
6
-2
-3
-8
17
7
-5
-2
0
2
1
2
-14
-9
-10
-7
4
-10
12
4
-1
-12
-7
15
0
-11
42
-10
-6
-15
-3
25
11
-6
-4
-7
-10
0
-12
4
-21
4
-7
9
8
5
-8
1
2
13
-3
-13
9
3
12
-8
9
13
9
1
-1
2
9
13
-4
-2
-4
7
-1
1
-1
-13
-2
5
-7
0
-3
-9
-2
-5
-12
10
10
-10
-7
14
-2
2
-21
-3
3
2
-6
7
6
-4
4
-12
-4
12
-14
5
-7
4
-7
1
5
-10
3
12
2
5
25
1
5
-6
5
-3
-4
-5
-6
-1
3
-10
-3
3
-4
-4
0
1
4
-13
2
14
-2
6
4
9
-8
8
9
-8
3
-13
10
15
12
0
1
1
-3
-1
0
-8
-3
-9
6
-20
15
-6
0
0
8
-7
-6
11
-4
11
5
24
-7
1
4
-3
-7
5
1
-4
-3
3
-9
3
13
-8
2
4
10
-3
12
-15
-5
-25
-1
-6
6
-14
9
7
-4
11
11
-11
8
1
-22
7
-26
6
-3
-2
3
7
-5
10
2
-8
8
-2
-14
2
20
-3
-4
1
-6
-6
2
5
-16
12
-24
28
-3
-11
0
-11
-20
-16
15
-2
16
5
-8
-13
-11
-5
-4
14
12
-3
0
-8
-8
-9
-5
9
2
12
2
-11
-12
-1
4
0
2
15
8
-9
4
21
8
-11
-8
24
5
1
14
6
-7
14
7
5
4
-28
-20
8
12
-4
-4
16
-1
31
-32
-1
-15
91
38
2
26
5
12
-6
-7
29
34
-4
34
0
31
20
22
26
4
0
45
-33
37
-4
-125
-25
14
-25
1
59
12
20
5
-13
7
2
22
-10
-13
33
21
20
4
-10
-28
30
-10
10
50
14
3
10
-18
15
0
-4
-7
11
-3
-33
12
-28
-19
8
-21
-58
21
-4
3
19
8
8
7
-5
18
13
-33
-1
-25
110
12
24
6
28
-18
-30
-16
10
-14
25
5
-9
-8
-25
43
-127
25
-21
10
-1
49
23
17
24
-4
22
-12
8
5
27
4
12
-5
27
16
-12
56
-71
-42
-54
-10
4
-3
-2
-5
-5
-18
-2
0
13
2
6
-4
-4
9
0
-11
-5
-5
20
-4
5
2
8
-17
-23
-1
4
20
13
11
-9
-30
11
-5
-3
-8
7
0
3
-5
-4
-3
7
-7
-9
-6
11
16
-17
-7
-2
3
-5
-2
15
1
-5
-2
-2
-11
8
-5
-1
18
-1
-12
-7
-3
-3
-10
1
1
-16
-2
0
-9
1
-14
18
4
-5
37
7
3
-6
-21
-8
8
19
-9
-1
-15
-19
-8
5
-9
2
1
-32
-5
-9
6
27
12
8
2
9
0
10
11
-19
-8
-17
5
4
-9
3
10
3
-2
16
-1
-2
5
-30
-3
-17
14
3
-19
13
4
-7
11
4
-18
20
6
8
3
-6
1
14
-15
-2
1
15
-1
-4
-10
0
3
-7
-5
9
1
0
6
-4
5
-15
-4
-3
-8
-2
-5
-9
-5
8
-10
3
3
3
-5
-9
-6
2
-1
4
2
-5
0
-4
-13
-11
-2
-3
-6
-1
14
-12
3
4
-4
-1
-5
1
-4
15
3
5
-8
1
8
-20
-6
-15
2
-20
9
-4
-1
4
-6
5
-8
11
13
3
11
5
-8
4
-7
-2
5
7
4
-16
-5
3
-8
1
-6
14
8
-9
13
-8
9
4
7
12
8
-5
0
-2
1
1
-10
-7
-10
-9
-3
4
-11
-9
4
2
-13
-8
-12
-5
-25
1
10
2
-6
-5
0
-9
-6
3
-8
1
-6
8
20
1
-8
6
-3
-2
7
10
-4
2
-26
-8
-14
21
-11
18
-3
-1
5
-2
-9
-3
8
11
0
7
-6
0
0
-6
0
7
-5
-3
5
9
-12
-23
-6
14
17
-10
2
13
16
-6
8
3
-11
11
0
12
-15
8
8
-16
-13
-10
4
0
6
4
-9
10
7
4
-8
25
3
-4
5
-5
-5
-16
4
6
14
-4
-4
-10
1
1
4
-9
-1
-12
-1
8
-12
-2
1
9
-3
-10
-4
-10
3
-17
7
6
3
-2
-15
-26
-1
4
-24
-12
-15
4
0
-11
-6
-5
-20
11
7
11
-12
-7
-4
-1
-1
-9
-4
4
6
-2
-2
5
-15
1
-2
-7
0
7
12
-8
-18
14
7
-3
-4
-15
-6
3
-5
2
-1
-2
-8
0
-19
1
21
-3
-1
3
-2
-4
7
-4
-4
-3
-6
-1
-6
17
3
6
7
-2
-4
-6
-8
-2
-7
11
-5
-3
7
0
9
-6
-2
14
1
7
7
-5
-10
-4
1
1
-1
-2
0
8
8
-9
-4
6
-3
-5
0
-11
-7
-13
5
15
1
0
-5
-6
2
-6
1
-15
10
-7
14
-9
-8
2
1
-6
-9
-2
-3
-12
-10
-7
-3
1
-6
-5
-6
-8
9
29
-21
-11
36
-9
-34
32
6
14
5
15
9
-26
-33
-20
21
19
-1
-12
12
-30
-80
11
-3
-31
10
-18
-6
-4
-8
12
18
-22
37
-14
-4
-12
32
-7
6
23
-31
10
-41
28
-12
-17
-4
24
-38
20
-20
24
-21
-39
-29
0
-7
-49
23
-62
-49
-15
28
44
-49
32
-59
14
-26
-5
14
28
8
0
-5
-33
-7
-4
12
-6
-28
-2
-32
-29
-40
-20
-25
-3
-7
31
7
7
-17
25
-16
0
-39
-4
4
-7
4
-14
-24
5
-6
-19
13
-21
8
-27
10
14
21
1
3
-24
2
-13
-47
-3
-15
-10
54
0
38
-17
49
10
-5
-1
1
5
-12
-28
-5
7
-5
-17
25
-45
-13
19
18
-45
-12
-81
-38
2
-127
2
-32
1
12
-22
49
32
-9
12
8
-23
-27
-27
-9
9
29
-14
28
28
-55
40
-32
-44
2
14
24
50
-22
23
-29
38
-24
-52
-35
24
-48
-38
-55
-49
-36
5
16
66
-15
41
-14
20
-8
34
-69
42
1
20
-47
-44
-18
52
33
-7
5
13
27
11
-3
-13
-33
-2
-11
16
28
31
49
36
-6
-23
-32
-7
11
-9
-15
-2
10
-2
58
19
-16
0
20
-17
-18
38
42
23
-32
-18
27
-37
-42
22
4
-19
35
2
6
-45
24
26
-37
19
-44
-14
-15
8
-20
6
-15
-6
13
12
-13
36
-16
-1
-2
16
0
22
-38
3
-9
-36
7
-13
10
38
-22
-7
3
12
7
-25
-3
23
35
-21
26
22
-27
29
3
-19
1
-16
8
2
-4
-7
-7
30
2
-9
-64
-19
-52
-2
-1
7
-17
30
50
14
-9
19
29
-5
0
15
-11
40
-14
8
-28
9
-35
31
7
16
14
28
-22
34
-9
7
-45
-18
-16
42
13
18
17
-11
8
-20
22
17
11
14
18
9
16
-9
-24
-22
-4
10
-36
9
59
14
30
-2
-48
7
-19
-2
24
8
-6
35
-11
11
11
-11
-5
58
53
-12
34
-35
-17
-3
-12
28
55
37
8
-17
34
54
27
42
10
46
15
27
-40
28
-21
7
-18
-13
2
-12
-9
21
49
-40
-16
15
-3
33
-13
-10
34
20
32
43
-24
49
16
-23
36
20
-42
16
-48
1
-4
2
-33
4
13
-24
-11
36
9
27
30
39
-9
12
-27
20
31
-17
30
44
13
22
24
33
19
70
39
-4
43
10
9
-22
-12
-10
-24
33
-20
28
14
14
-16
12
3
-37
1
3
4
17
-27
-20
53
16
-3
13
-20
-7
12
-10
42
3
-12
8
-3
63
22
7
-22
-11
14
66
-23
24
2
-34
-32
-19
-20
-4
42
-66
-33
-42
29
27
-24
8
-42
-5
-113
28
-44
13
-9
-78
13
-57
-109
78
-77
-74
-55
7
-30
31
-50
15
64
-25
-21
-54
-5
-5
-13
-7
31
50
-55
3
-20
14
45
-60
-16
24
12
-17
-71
2
-44
-50
16
-31
63
-18
28
-23
-17
6
-41
26
-13
16
-48
72
-41
-55
44
45
-1
-36
-17
-24
-21
-47
-41
-49
4
-89
26
-19
-11
-31
-34
-13
-25
6
29
-52
-1
59
-2
-7
-7
55
0
-5
16
-37
-43
-55
9
-12
-29
-34
16
4
34
13
15
43
33
12
0
-83
-56
-19
-24
62
2
33
-33
-44
8
-8
-32
-6
-24
-22
-16
-14
26
-15
-37
-58
-33
-85
-11
24
45
7
-3
-12
10
14
-54
-1
1
5
-20
6
-9
58
2
2
8
-36
-5
-51
-25
13
-3
-1
43
22
-22
43
-23
-24
59
13
3
-3
-19
-50
-14
3
-27
20
-23
-6
4
31
-36
-8
9
15
33
12
-1
-22
6
18
19
-8
19
42
-22
30
-9
-14
-28
-21
4
6
24
-13
-18
48
14
14
16
-28
-45
23
9
19
27
-4
14
-17
21
22
17
18
1
-2
9
-57
-19
3
-27
-53
30
18
-23
-28
24
38
-16
-35
5
-39
-31
5
-15
-23
-27
-20
-1
-5
18
-15
86
2
-6
-25
18
-9
-5
4
23
12
3
2
55
29
-6
5
3
-1
-17
29
6
23
-31
-8
29
-5
4
-23
18
22
50
-21
4
18
15
36
27
17
30
15
-22
-16
1
8
-2
-51
14
7
10
1
5
-2
-16
31
1
-16
40
-43
10
-6
28
53
24
-32
-38
-8
9
5
1
-18
5
37
25
55
4
-12
14
-32
3
-8
-14
26
3
-30
-8
7
-24
37
16
4
-7
-9
-2
13
8
-7
-16
-3
-18
-1
4
29
17
9
2
16
-86
33
6
18
46
-9
-7
-2
-5
-33
-3
-34
12
25
-5
6
-14
9
10
-27
-87
-13
2
7
19
2
9
26
16
-5
26
76
-45
40
45
14
-29
28
-1
19
65
-8
-27
69
58
-5
10
-16
11
-11
-20
6
43
-38
54
-39
16
15
-14
-29
30
44
-10
-67
-55
33
-17
-1
-45
17
27
-11
-33
-28
-34
-23
-32
-23
2
1
11
-5
16
7
0
16
-77
-32
11
42
10
-49
33
-13
48
-34
-15
14
-3
-21
13
-9
-57
11
17
-30
0
-2
-28
6
-20
35
10
-10
1
10
9
-17
10
45
-10
-1
39
-16
21
69
14
16
-59
-3
8
54
19
-8
-9
53
15
-25
0
-56
-49
30
-20
-7
-23
37
11
-27
-69
12
-37
-24
-1
-19
-3
-30
11
-9
-12
-73
-39
-32
-33
18
15
5
16
-15
-48
17
-19
55
-35
-12
-14
-8
-14
41
-26
3
9
-53
5
-49
10
-11
-4
-12
27
0
-3
-7
13
13
-9
4
-10
-28
5
21
-12
-24
-26
-5
-29
0
9
42
0
17
1
-1
11
11
-14
-11
-4
39
-6
-39
16
7
-32
12
9
13
38
10
-20
-21
-25
11
-13
10
-27
23
14
-2
1
-9
16
14
20
-9
-13
-19
36
25
2
-22
7
-18
1
-77
14
-2
-1
-49
12
7
0
3
-4
8
-12
-12
7
-54
-43
-20
2
-25
-17
-11
-12
-39
-44
-7
-1
2
-21
3
29
-12
16
42
4
-12
-6
-14
-24
19
-5
-11
-5
-6
-22
-43
-16
-1
-3
-33
-3
10
9
-4
-10
-10
-24
-12
-22
-10
2
7
29
2
-5
-7
26
-2
78
12
10
-7
18
-5
-14
8
-16
8
16
31
-9
-2
-14
-2
-4
-15
9
-31
-8
-8
14
18
12
23
-2
-6
-1
9
6
-17
17
-18
9
-4
-3
8
-11
0
-15
-3
-13
0
-26
28
13
5
-13
-18
-15
-11
26
10
-17
-9
-7
-16
-14
23
5
-7
-24
1
23
-22
10
-30
23
15
21
-1
-33
-9
-22
21
20
-5
9
-11
-3
-2
-6
17
-30
-29
-14
15
-23
-2
27
-25
4
2
-6
-1
11
-5
-21
-10
-2
-21
-15
2
-25
-12
1
-12
-11
-31
1
-1
21
12
6
-3
-4
-13
-18
73
5
-35
-11
16
4
-9
13
-29
9
7
0
-3
31
-20
20
-7
0
7
1
-6
24
11
-9
-31
12
7
29
-23
5
11
-24
21
4
8
-7
18
19
27
-20
5
19
23
-17
-9
19
-19
16
3
-46
-27
8
2
-14
29
11
-9
-5
-36
-13
1
17
9
-34
15
8
-1
-8
-2
-24
-20
-9
-34
-23
22
3
-41
-57
38
4
9
-19
10
-12
28
-18
11
16
-21
37
-39
-21
-1
24
-6
-27
3
-24
-4
0
0
26
-1
-4
8
-4
-3
10
-7
-16
-27
-17
-10
47
0
-13
-11
-23
-35
9
0
1
19
-1
-5
-4
5
-3
9
-15
-6
14
25
-9
-26
1
-2
-18
-4
9
-9
2
17
-17
-11
20
15
26
-23
35
6
19
-15
34
-3
-6
-49
20
-12
-26
32
-25
19
-14
-2
8
2
9
11
5
21
-5
-29
-11
-11
21
17
-11
-20
-21
-1
-28
9
19
17
-2
0
-2
3
22
24
3
10
-23
-7
-29
17
-11
-12
-5
12
-21
-2
1
-35
25
7
11
-17
-11
0
2
29
22
1
29
-4
11
4
-6
-11
-24
4
-31
-20
-29
-7
-17
6
11
2
-9
-22
47
-5
-84
7
22
2
9
-2
2
81
-36
-15
-27
-21
48
23
-1
-6
29
1
-6
-3
15
-55
-24
-4
-2
22
-1
4
44
61
20
8
12
-15
22
-50
-11
-26
100
3
22
3
-18
8
24
14
7
2
26
-33
-25
-13
46
12
1
7
-2
14
1
-4
2
9
68
-10
-2
7
-13
-6
88
9
13
-9
1
-12
-13
1
21
-7
-13
-4
18
5
18
6
-4
21
-13
-9
4
-7
-8
16
-28
13
31
-15
39
-26
-1
-29
11
-40
7
-7
7
-20
46
-28
4
-7
6
6
-3
-14
12
-6
-38
-49
-34
13
-2
3
2
-5
-22
-47
64
-44
-45
-6
-13
2
19
-34
-32
-20
-39
-10
-65
-44
16
-5
-31
-14
-20
5
-7
33
8
24
-33
-14
-35
20
-14
19
36
-48
-18
-15
-10
-16
14
-1
8
-28
-1
-61
-4
-22
-1
-1
5
-33
10
42
23
-42
-6
7
-16
4
-9
-1
-62
21
-9
5
-31
-100
62
25
-31
-16
12
11
40
-40
-42
-46
9
-30
19
70
18
-16
-21
-32
9
6
14
33
-14
-6
-12
-7
-14
-3
-31
-33
-47
-41
2
38
47
-21
-63
-34
37
-41
7
-4
-25
-34
-4
-34
21
-43
20
-18
-34
-19
9
-11
-35
-19
-35
24
12
-12
-12
5
0
-18
66
-3
35
7
3
-10
-23
-6
1
126
-31
-13
6
-25
-8
9
-17
8
-30
-10
-8
84
-2
23
-14
-3
44
47
-10
-23
1
-19
0
14
37
-18
29
37
-13
-6
-34
11
-17
-18
19
-1
20
-6
37
12
-15
-32
-2
-15
-32
6
-9
41
-29
27
-22
-33
-22
-35
0
20
-47
-6
-3
4
39
-7
-10
-25
80
-16
-21
23
-1
21
4
-24
39
-10
99
24
-3
-1
-22
-4
-21
-5
-29
-6
-38
12
-3
46
116
-35
7
-27
8
22
8
-6
-8
8
-33
-36
-9
21
-10
19
-1
14
-21
-8
-28
14
-7
7
1
-3
34
-12
5
-23
-4
22
-8
-13
0
-5
-24
-4
2
-51
-10
-13
5
-5
38
20
23
65
-19
27
18
17
10
-6
-40
-19
-23
43
4
-22
48
-21
-26
43
3
-5
1
-64
-68
-1
-7
127
-47
-5
21
-21
40
0
-1
-6
-12
41
-16
17
-38
9
3
-30
-4
-8
17
-6
11
-12
14
1
29
-12
-2
-40
23
-3
-17
-37
-10
-3
12
0
-53
26
22
-9
26
5
-27
-9
37
22
33
-20
-5
-34
-13
-7
-15
15
-31
-3
-45
-36
-19
10
9
0
-2
8
-3
7
-24
36
10
2
12
31
9
57
-53
-5
-14
10
16
13
-31
11
36
32
12
-13
51
-9
3
22
1
-7
-14
6
15
-61
8
24
9
-1
16
-30
7
17
-10
16
25
-27
11
10
-41
9
32
-6
-10
-18
15
-29
-4
37
5
22
11
-68
-20
6
-27
33
-20
12
-4
2
35
9
-12
-14
10
75
-24
16
-25
11
-7
8
12
-13
27
-3
34
-4
17
6
13
-8
-18
-5
-7
-8
12
-35
-33
7
50
33
-68
18
5
8
-21
-1
-8
-18
53
30
31
4
19
-26
6
6
-6
15
17
-11
-42
-26
3
10
12
12
2
3
14
-8
-41
8
16
1
37
13
26
-12
-67
-5
-29
15
-2
16
-12
-30
60
13
-5
-29
19
13
-12
-6
-10
-14
2
-10
-30
-51
10
-12
-7
11
-8
24
-6
-6
-8
13
6
-48
4
-3
-23
26
3
10
11
-43
-2
-23
-15
14
0
35
8
-46
-21
10
2
32
-41
8
-5
-8
33
-2
-24
7
20
24
8
-24
7
17
-16
16
11
-15
-1
-5
-29
21
-6
23
33
-13
10
-9
26
-33
14
-44
8
-1
36
28
-27
-1
-13
30
23
4
43
-11
64
-5
-4
-2
-5
11
-3
-10
-6
-7
23
-11
-45
-37
18
21
11
-18
-17
1
8
4
-35
36
-18
-7
15
33
-18
1
25
-14
-11
23
5
-1
31
-1
12
-53
9
10
11
-3
15
-41
-8
-38
-7
-41
49
1
-20
13
26
8
18
-29
21
-14
-4
-7
14
14
-7
-10
-12
-32
2
10
2
14
-48
11
-34
-23
-77
1
10
-1
8
0
23
-8
36
-31
-12
11
-28
-15
10
-25
-19
1
-6
1
-16
-8
16
10
-26
-3
9
30
22
9
-19
-47
-15
-24
-8
11
23
37
25
8
-5
-10
10
-26
-23
15
1
-5
10
21
29
-8
-3
-1
7
-9
-7
-11
-32
4
9
6
10
12
-8
4
2
14
-2
24
19
-42
-3
-8
-11
0
34
-28
60
-15
-9
18
7
-51
-31
10
-12
-4
22
-30
-2
-26
-10
-6
8
-1
22
-8
19
-31
-9
56
5
-11
-40
18
10
-19
11
-8
33
-11
1
-27
0
20
21
7
10
-57
-18
-2
-11
16
-42
-11
-6
-24
-64
3
29
-59
22
5
21
5
42
-127
-69
10
39
33
33
95
-24
-31
-17
-25
-2
36
46
27
6
16
-10
36
38
13
-15
-102
1
-13
7
25
8
13
6
-49
5
-6
-30
-41
-2
-23
24
31
11
40
96
-21
-13
-16
22
-16
-6
-7
8
19
11
35
-5
-8
-18
-5
6
13
16
-9
0
11
20
-1
-32
-8
58
7
-17
36
-36
-4
5
-28
4
-5
6
-17
13
-60
3
6
-10
-18
10
-6
-3
-13
-1
0
-10
30
-41
26
-51
0
18
15
-17
-50
31
-25
4
-15
-11
6
2
-12
-24
-9
19
23
-4
-14
-34
13
-2
-21
-58
-7
5
-8
17
10
-1
-17
19
-65
-67
-1
60
24
27
50
5
1
-21
-29
-2
46
-1
-3
6
12
-6
25
-23
-13
-7
-22
-8
-19
-2
14
-6
16
9
-19
0
-1
-39
-48
-37
-6
7
1
10
-4
64
-36
-11
-11
-9
-21
-2
2
-3
-16
25
17
-13
-12
16
-23
22
10
-13
-9
8
-14
0
-14
-5
-6
18
-3
-40
41
-37
26
-11
-20
-31
7
-14
10
9
-17
-15
7
31
22
-22
12
-31
34
-8
18
-33
-15
9
-8
-43
-38
13
-68
20
-17
8
1
12
19
9
19
19
-2
2
-14
4
31
-10
17
64
-19
-20
-36
-56
-6
-29
-24
-7
-10
15
3
-11
-52
-61
3
-22
79
13
-37
-25
-48
-3
-1
-26
-22
52
-38
46
-25
0
13
25
10
-23
-38
-1
-45
5
-23
2
-6
-22
-46
-4
13
-12
43
0
31
-7
18
6
0
-5
-55
-8
16
19
28
12
0
41
21
1
32
-15
7
-9
-1
10
-45
0
-7
-28
-10
-19
-11
-23
-1
24
-49
30
26
9
-11
-13
108
-51
-39
-26
26
-34
115
28
-4
-32
-33
8
-46
14
9
-38
-41
-18
-109
5
-15
38
-40
-12
33
-8
-2
-30
12
-13
6
-22
8
5
-19
19
27
-31
4
3
7
55
33
-4
3
-72
13
6
-53
33
-43
-61
-15
0
46
9
1
-23
-8
4
-114
13
25
18
67
-23
20
93
-12
-39
53
-25
1
-2
-28
-29
13
-6
-24
-17
-23
-3
-7
-8
-35
10
-23
-32
7
-4
16
18
-43
-53
18
-29
-26
16
1
3
45
-3
-35
-15
-13
-18
-2
-61
-62
0
-67
-68
16
-27
-14
-16
-63
-15
-28
33
-38
13
15
-42
14
69
-27
-30
28
-7
-13
-28
25
-4
62
1
-20
-15
-57
-14
4
24
-13
8
5
-22
-34
11
-1
14
-18
32
-11
-12
-3
-20
-20
4
1
8
21
-5
-6
31
-9
-7
2
7
-2
-3
-15
9
39
-43
-18
-6
-17
26
28
-24
7
-24
-15
65
-4
6
-8
23
-42
-17
-14
-7
40
2
27
-3
-6
-3
38
-18
32
20
15
-13
40
18
-53
-7
5
17
-9
9
-46
-12
1
-17
-18
-28
10
-7
-27
-9
-2
3
-56
-25
-28
6
12
3
-19
-23
52
-5
17
-41
-52
-2
-38
58
-22
-16
17
-21
-34
-8
-43
-16
-24
4
21
-17
24
10
-11
5
-15
-14
-6
3
7
38
-12
0
22
-9
-17
-13
-9
-23
8
-11
2
1
5
7
-6
2
20
1
2
5
-5
-15
-28
22
11
6
6
13
2
11
0
52
4
-6
5
52
14
2
-6
-11
-18
-17
-12
-11
-2
-2
-10
-15
-25
-9
-2
-30
89
1
-10
10
-14
10
9
8
2
4
-22
9
-1
-11
-11
8
7
-16
-21
-8
-7
-4
-1
-5
-4
26
-5
-6
-4
-30
39
13
0
-1
9
4
-6
1
10
-35
28
-26
5
1
5
7
-2
28
21
-30
4
22
12
14
-36
-5
-8
0
-6
-2
1
7
4
21
-11
22
13
1
-29
52
-13
-13
-4
30
-9
-36
-8
4
-20
-9
28
18
-20
1
37
-31
10
-8
-5
-17
3
4
-7
-20
-1
36
12
-19
-28
2
-9
15
33
-7
-22
7
12
-6
-10
5
9
36
36
-6
2
-21
7
33
-34
6
-10
-17
10
16
23
-7
3
-32
-11
-1
9
-22
21
-8
25
-6
4
-3
-6
-22
-13
8
24
-20
-7
2
-21
-1
-13
-2
12
14
6
35
-35
-3
6
-22
31
8
15
13
1
3
-15
-20
-5
3
42
4
34
5
35
-34
-21
6
-7
-63
-10
24
-30
-21
11
11
5
-15
7
11
-9
27
-8
5
24
-21
-3
0
-46
16
-19
21
-18
5
1
2
8
24
10
-4
23
-2
3
28
5
-13
-5
-9
4
20
7
-14
8
17
10
3
2
-21
-20
-2
-9
18
21
1
-22
14
-3
7
11
-6
0
-6
-8
4
20
-6
2
12
-39
15
-14
4
-4
-3
-7
19
3
-23
-22
-4
5
-25
15
-14
12
-34
6
10
-7
6
-19
-15
27
-5
-5
11
1
-11
3
-1
-8
29
-6
-7
-13
-13
-2
-18
30
25
-5
-2
14
-14
16
-6
3
8
-4
8
6
2
5
-7
-18
-9
0
-27
-2
-14
1
-40
-27
2
1
-27
14
8
-10
0
4
10
11
-33
-1
1
-4
-14
-1
-5
-6
4
0
-11
12
-10
-13
0
-8
-4
-4
-1
-6
5
8
-4
-10
6
15
-21
3
-4
1
-10
-8
0
0
4
-5
-2
9
4
0
7
0
3
14
1
3
-5
9
-20
7
-7
-5
-1
4
-6
6
20
13
-6
-13
-16
0
8
-1
8
-7
-8
1
6
2
-11
13
-6
-3
11
10
-1
-11
7
15
-21
-15
7
4
-9
0
5
-5
3
-2
10
-18
-2
1
6
11
0
4
3
4
11
1
7
-3
-2
-9
-9
-9
9
-3
1
-12
-1
-5
0
-3
11
1
6
3
3
-2
6
0
9
10
12
-13
2
3
12
-6
-6
0
-16
-13
17
34
-12
-27
-1
-8
3
-15
12
-11
9
-19
13
-79
-9
-69
-20
71
-39
-5
6
15
28
-35
27
4
2
18
21
-2
-9
-11
24
-6
6
5
8
-2
4
-13
-36
-13
-18
-2
12
4
-3
-1
19
-21
-25
-36
-22
-2
-32
-14
-20
-78
-22
-7
3
0
-12
14
-26
18
-8
10
-1
-8
3
17
-15
-7
16
17
65
4
30
36
-3
-5
36
6
3
-10
-3
20
1
5
-21
6
26
2
-11
-12
-1
-65
-8
-77
15
-1
-1
3
-3
17
2
1
-11
2
-27
32
-4
-6
-5
18
-2
4
12
-39
5
-26
-11
-6
-19
7
-12
3
5
-3
8
-7
-4
0
-5
-11
12
9
11
-5
-9
0
-6
-2
-5
-3
-17
-2
5
-4
-5
-19
2
-7
-8
-9
-1
17
10
-9
5
3
12
-4
-3
2
-3
2
-3
2
-5
-4
6
-2
-4
2
-3
-6
-5
-5
-15
3
15
-7
3
-3
-9
1
0
-1
-20
11
3
4
-5
-10
4
-7
5
-8
-2
9
-6
1
-4
1
-3
-3
-3
-4
14
-10
-6
5
5
18
-6
8
-2
13
15
-3
-5
3
-6
3
-1
-7
6
-4
-6
-4
0
11
4
1
13
2
2
21
1
-1
-2
-3
2
7
5
-6
4
8
4
8
-11
-9
2
-1
-3
-16
11
-6
5
-13
5
3
-14
-1
4
-17
0
-1
-15
-12
7
-22
-18
8
14
14
7
4
1
12
-11
-3
4
-14
19
-4
-1
5
8
2
-2
-12
1
-12
-9
-8
-13
0
-4
-8
-1
4
3
58
-9
-17
0
11
9
5
-2
3
1
6
1
3
-17
-6
13
1
8
5
-9
-17
1
-13
-15
-10
0
-19
-8
4
-10
9
-8
-2
2
-13
1
21
-12
9
-13
-1
20
15
-6
8
9
1
2
21
-3
-6
-4
0
2
0
-20
-2
-21
13
12
-13
1
16
1
-15
12
-8
-40
16
-2
-19
18
-14
-2
23
-19
88
-19
35
18
-64
-12
19
20
-19
11
-17
-36
34
8
26
42
90
-9
43
7
40
-13
1
-11
32
-113
28
10
9
-10
-23
7
-17
27
-13
22
-1
2
-17
10
1
4
-3
0
5
-51
-32
33
-41
56
8
-4
31
-25
-43
-12
-5
30
-2
69
-6
-58
8
2
23
-12
-1
12
27
20
-21
80
0
-6
-12
14
-16
-2
125
-27
23
-8
-26
-21
-33
15
-11
-26
-4
-17
7
-18
-54
-86
-18
-45
30
27
63
2
71
18
-124
39
-20
3
15
-19
-9
-19
-5
16
5
39
127
8
-17
9
-12
-7
-17
6
38
0
21
15
0
-21
1
0
-4
-1
-12
0
-16
14
9
3
-8
-10
22
-11
5
6
12
12
-6
-19
-30
-29
-1
0
-6
9
12
-7
12
-5
-11
-6
-4
14
-10
0
6
10
-17
2
1
-7
-5
-5
14
-14
-9
16
1
8
28
-2
30
-8
-6
-12
0
1
8
-4
0
-11
-10
-10
7
-20
7
-13
-12
12
-7
1
-9
-14
-5
0
-13
25
-7
2
11
10
6
-5
6
7
-15
1
6
-6
4
-4
18
11
-19
2
11
2
-2
-7
22
-3
8
11
-5
2
-5
4
-7
-30
8
6
