-6455
-15859
-10021
-11362
-3691
-7843
-2253
1115
-5523
-11457
-4899
-12373
-8544
-16540
-13368
-6693
-13876
384358
-10568
-12662
-16053
-9121
-13856
-10774
-2043
-11921
-12500
-18295
-18474
-14056
-10713
-1648
-21131
-16090
-8601
-18489
-24930
-21083
-3057
6579
22696
-11228
-9215
4531
-18285
49539
-9832
-20119
-17113
-23127
-12271
-15485
-9984
10420
-13288
-2499
-17356
-14075
-13304
-10933
-13171
-8491
-13715
-20855
