// per-channel multiplier (Q31 unsigned, stored as int32)
1119015746
1221296282
1283025672
1540755536
1924077367
1145798311
1270942495
1417803514
1998598059
1647267629
1096623400
1948245568
1292141061
1745352278
1290743569
1226404504
2104358826
1142975048
1226176420
1901104154
1724802578
1743507287
1633874072
1155628576
1745090799
2041574424
1098355841
2126529127
1588393334
1741138343
1370482333
1280781357
1549657905
2067102174
1344870312
1516820108
1321587729
1881902209
2082788931
1843561982
1158638570
1780739638
1891503608
1524487699
1459594838
1771247236
1919766657
1159231303
1265723713
2073810250
1975635504
1513554888
1102918722
1727831899
1257436957
1087720889
2019422738
2062485789
1415612347
1539204851
1390975757
1919372022
1170810422
1757211066
