-19
-33
-19
22
48
-21
27
-26
36
-1
-7
14
14
-17
6
-35
3
-2
-41
35
-23
-8
7
-26
-52
-25
5
29
-6
18
6
-28
-6
8
-59
29
16
26
31
-20
-19
-12
-20
7
-9
16
0
-50
-10
15
-10
-4
11
-21
11
-15
5
-20
-33
25
29
12
-5
-21
-48
29
-66
-29
58
-49
33
-2
39
59
-11
96
-27
15
-44
1
12
-11
-58
5
-2
-4
-30
-1
-37
-33
-33
2
-23
7
-11
10
-29
-7
1
-6
10
7
-10
-50
-50
-36
-17
8
-61
-18
-19
9
29
-27
-27
36
-26
-6
-28
-36
-58
-8
-42
-13
-13
-2
-38
-36
-4
31
-2
-22
7
-60
25
12
39
4
13
48
61
2
-32
-2
-31
7
5
21
17
-35
-20
-28
8
-44
-49
-29
-34
14
-33
-9
-18
-46
-34
0
3
-4
-33
-20
-8
-41
-6
-35
-43
-10
-10
21
7
-10
14
-11
-27
5
-17
35
-58
6
30
-32
-26
-23
-24
9
18
-20
51
13
-3
-4
31
-31
-18
-27
-30
45
-50
-7
-11
-45
49
55
-73
7
-11
8
18
-20
-45
-39
10
42
-32
8
-15
2
-22
38
-29
-24
-8
3
40
-32
-59
40
-41
14
29
-8
8
-23
-30
24
2
4
23
2
53
-23
37
-7
-17
9
35
1
38
-39
-22
-8
-28
-68
7
-52
31
-12
15
-37
-4
127
-58
27
-14
-49
-3
-15
-32
77
-10
-5
16
19
-7
-36
-19
37
-40
59
-83
-5
-31
27
-34
-27
17
-6
-53
-50
-37
-72
-4
-26
3
-62
-26
14
31
-35
-20
40
1
-34
-42
-4
-42
-25
-24
-4
-9
-27
-22
-48
2
19
14
14
-29
-81
12
-19
21
4
-6
6
75
11
-14
-7
-72
-19
25
52
6
-67
-33
-32
22
2
-8
-32
-5
67
-48
-23
5
11
-54
-30
22
1
-37
-34
11
-64
26
-46
-4
-26
-7
7
37
-27
-15
-20
4
22
-87
16
-48
37
43
-29
6
-31
0
-17
55
-12
46
-11
-10
-4
-50
-23
-19
21
-24
3
-57
-12
50
2
58
27
-55
9
-9
18
-24
23
21
-50
-3
28
-41
18
-28
21
0
25
-6
4
-16
-19
-35
-7
-25
23
-5
-38
14
-64
-21
-2
-23
17
8
20
31
10
16
-22
24
8
-32
7
9
-35
22
20
23
-15
6
-75
1
-16
-54
-5
13
-8
-13
4
-40
-8
19
43
23
-15
-5
24
-8
-18
-10
46
61
-12
14
98
-53
64
-68
19
-12
30
-12
-45
15
-9
-36
-40
8
-22
-22
-27
-4
-34
-19
3
18
2
-16
-7
12
13
-54
-1
-33
-31
-25
-21
-7
-30
-10
-32
-35
-22
54
-3
-67
-28
-4
-6
-29
-15
8
-57
64
-8
-34
61
-39
-46
58
6
13
-56
-16
-43
8
12
-13
-22
-37
42
-18
-48
-8
-3
-32
14
25
6
45
-20
19
39
27
5
-34
38
-13
3
21
-35
-4
-27
28
26
-48
-2
-28
23
-10
-74
19
-3
17
-49
-24
-3
-45
-23
-17
-33
29
-11
9
10
5
32
-42
-19
5
2
26
36
-27
-23
-7
45
28
-14
-15
-33
15
16
2
-21
-17
-43
-49
2
-37
27
-9
-30
-15
-22
-35
-30
21
16
-8
-37
7
-1
-9
37
27
-30
-33
-8
-16
1
9
6
-24
7
30
-29
14
-1
62
7
-24
-11
36
-22
1
-30
-9
42
-70
43
-79
29
37
-8
127
33
54
-37
11
9
37
14
10
-82
-38
27
20
39
-30
-19
-48
-48
-39
30
-33
12
-69
-21
-1
-25
14
-59
-21
-61
65
-3
11
-6
18
-14
-39
-15
-55
4
23
-22
-112
-8
36
-20
11
-47
23
-13
-42
-22
-4
-17
9
-8
-9
48
-57
33
-47
23
37
13
-32
16
65
9
18
-6
-33
7
-31
-46
8
-23
-23
-34
-41
-35
-27
-39
-52
25
-32
3
-46
-14
-12
36
-21
22
9
-44
-4
-25
-4
42
46
10
-20
22
-10
-25
-17
-9
-53
11
-6
-16
-28
-37
-7
9
-58
7
7
0
10
2
-42
-10
25
-7
30
-2
-14
-14
-14
-10
18
-59
-9
33
39
18
-12
17
-4
2
-13
-32
-23
-37
-9
58
-58
13
12
-6
-20
16
-22
-39
10
-30
-38
0
-30
-16
-33
35
-9
-3
-41
-12
-26
-35
-49
-15
38
3
21
14
25
0
12
32
-33
-10
59
12
-27
-21
-13
-16
-37
19
-27
1
6
-48
25
14
81
-48
3
-11
25
12
-49
-8
-37
-5
-39
-56
-39
-57
-34
19
-21
16
35
-15
3
-25
-75
-12
8
-10
-66
-31
4
-31
-44
42
-10
-10
-54
16
-37
-14
-36
3
-74
1
52
15
-60
9
4
-38
46
14
-9
14
-13
-4
12
-24
24
12
60
5
32
2
4
-11
47
-25
-6
-19
-20
20
-18
-28
10
-35
-42
-20
-56
-63
-18
22
-10
-2
24
-10
-20
-22
-68
11
-14
-29
1
35
-17
-1
-36
11
1
0
-23
0
-24
-37
2
-16
-71
9
-14
-29
-8
13
7
-6
25
39
-8
14
31
6
-10
-31
1
6
53
1
-4
-4
-78
-21
113
12
16
21
-19
-28
-28
30
17
9
18
-18
-6
7
24
27
-14
9
5
23
-43
22
-3
12
34
-1
-14
22
-34
7
-15
11
-25
19
-18
-6
5
-34
-20
-30
48
-4
13
28
-16
-1
-26
13
34
11
-11
13
15
-19
29
-15
43
5
20
13
-13
-48
-69
-22
102
-3
29
11
1
-53
-28
9
-5
13
-37
-60
24
-39
21
-16
-6
13
25
39
-8
16
-63
14
11
33
-36
34
-58
-22
-40
-12
-45
28
-4
19
-2
21
11
17
82
-39
40
14
-87
17
-1
1
70
9
3
23
21
-7
14
2
67
-6
34
7
-23
-29
-41
20
51
-2
21
26
-3
-18
1
-3
5
-17
-39
4
12
-15
-6
-7
6
21
25
36
-29
36
-37
21
-5
-18
5
24
-20
-34
-11
-13
-41
3
7
12
1
-1
-8
-21
12
-26
-1
-1
-42
8
6
-42
44
-28
59
-25
39
-38
-24
-57
7
15
56
-8
-18
-66
-23
-13
-13
-26
-16
-31
9
7
-18
-13
21
28
-51
-12
21
-9
4
-22
-24
9
8
-29
50
-15
-37
40
-81
27
-5
16
-65
20
7
27
8
26
81
-22
11
-1
-11
46
50
-18
33
11
20
-9
13
-7
-18
-35
64
-8
54
13
-17
-57
11
35
41
-25
-86
-43
22
-4
-32
-11
-50
-10
45
-15
-45
-24
45
-12
-61
-40
54
31
-25
-34
3
25
-38
-19
-1
-28
-42
7
14
71
-1
17
-86
74
-9
40
-2
-27
43
-14
-42
-49
-39
4
69
-34
27
36
-10
7
21
8
-28
-9
26
11
29
3
49
-20
-47
121
-49
41
-64
-26
17
-10
-43
-37
-54
15
-10
-56
25
-101
71
44
19
-8
-17
-19
-42
-21
0
-4
-6
-66
-117
-15
62
-69
95
-13
-21
-47
-43
48
-38
41
-9
-54
-41
-11
-71
-52
-33
11
38
-1
19
10
-24
-72
-13
-25
7
10
13
4
31
-27
23
-14
19
12
71
-3
-9
-21
-65
4
4
-19
32
-57
30
-9
-18
-1
14
49
-17
-16
90
-4
-6
23
-41
0
-11
3
64
0
-33
70
-46
28
31
45
-42
14
14
12
17
44
29
7
-2
-11
2
2
52
-9
5
-26
51
22
-18
-4
-40
18
33
-36
58
-9
-19
-13
10
83
38
-26
-66
-19
-40
6
-54
-84
-12
-44
28
15
-59
11
-10
-24
-39
-23
4
17
-20
-30
59
22
-30
-49
-4
-84
-44
-8
-64
64
-4
27
-62
47
-24
22
-43
-7
-10
-12
-26
-20
12
-6
42
-19
-2
-18
6
7
29
-35
-12
0
21
-20
36
14
37
-27
-49
96
-87
5
-39
18
97
-22
51
13
-53
-18
-37
-9
13
-87
2
-7
-39
52
-98
-17
-55
-37
22
-22
19
-64
-111
-36
19
-127
13
-47
-30
-54
-10
32
-38
15
-5
-55
-48
-43
-78
-51
50
8
-40
-49
2
22
-16
-40
15
-28
48
28
9
-8
15
5
8
35
48
25
121
37
26
6
-35
-20
27
-31
16
-43
25
-104
-37
-17
-4
2
-7
5
-12
-20
-11
47
-26
-24
30
23
-14
-2
-33
43
7
3
8
-6
82
1
13
-13
38
43
-9
-18
87
43
68
-14
24
-69
22
4
39
-12
-30
10
-30
8
34
-24
-3
-11
-41
8
35
8
19
9
20
36
-35
-30
12
-83
11
-78
-8
-55
-52
-18
-31
-42
-39
-47
10
23
31
61
-56
-19
-1
-30
-16
-46
-64
-16
-48
36
-71
-24
1
-10
-55
32
-4
-11
-58
36
29
66
54
-7
25
-78
22
6
1
-24
-55
1
-29
32
15
21
-20
-16
-15
1
-46
115
-94
-33
-36
11
76
-6
66
22
-16
-33
-52
45
-47
-67
-3
7
-62
-16
-96
-30
-8
14
-92
45
43
-51
29
-49
-62
-67
-55
-3
-85
-23
-23
-40
-54
50
26
-79
-36
14
-67
-50
85
-3
-5
-22
-2
23
-42
-33
19
-18
4
33
6
10
12
41
24
2
86
-6
-8
37
85
-35
-10
7
-29
-39
-33
38
-35
36
12
-51
10
-29
7
-18
21
58
-70
11
-29
50
-46
20
-36
-28
-3
2
14
8
-19
11
39
-21
-1
43
-52
-23
-18
-32
-9
-25
6
-21
-53
-38
34
-4
31
32
-59
-36
16
24
47
-38
-14
-18
53
78
27
53
-32
-10
66
13
-23
-7
-13
-5
13
-16
0
5
-36
-31
42
-12
-29
-16
-81
-14
-66
-45
-25
66
42
-18
-59
-60
-29
-2
-5
-8
-37
3
60
-36
9
33
-26
10
-56
-25
-22
13
37
-47
-6
-26
28
-13
-8
-22
5
49
0
28
21
-70
41
35
-53
28
7
43
-22
-17
39
-58
26
-29
-24
14
20
-14
12
-11
-51
-55
62
37
-8
-42
-22
-58
-7
-39
-12
57
-77
-58
-7
10
-43
-37
68
-47
-32
-54
-19
-9
23
19
-81
34
-23
-8
-30
-5
5
-17
68
-36
13
43
-26
-59
13
-16
4
37
-47
-45
11
-4
110
-11
29
7
-48
52
-22
-67
38
76
-17
8
-50
-5
-47
-49
-67
15
-54
-35
-12
-26
-37
-44
-44
-12
105
-35
-62
25
-32
-36
-90
46
-58
1
20
47
108
-14
-50
7
-61
30
15
17
88
-27
-12
-81
-45
-15
46
41
16
9
-57
8
-20
12
10
-52
1
-55
60
-15
0
86
-58
-1
12
-59
-26
-29
9
35
-6
-5
47
-9
-92
-23
-32
39
-55
9
-127
-21
44
-31
74
-16
-17
-4
-61
-78
-84
-33
-11
-31
-21
18
-56
-78
-54
19
-79
60
-32
-48
-33
-37
-6
-59
-44
-4
56
107
-10
13
-25
34
20
37
-8
-45
-9
31
-21
-64
66
71
22
-2
-2
-32
-52
-77
18
-12
27
4
76
-36
-60
-36
-25
22
-33
16
-80
-49
75
-15
-24
46
-31
-29
-21
-2
-8
-68
44
-32
-22
15
-100
31
-3
45
-37
-51
-16
-31
-80
-69
-41
-9
6
3
7
31
-16
-35
-1
4
24
38
-52
2
13
-27
6
-103
48
-20
-5
46
11
-57
-51
-10
-33
5
-76
-38
4
-6
-90
1
-27
46
11
-7
-49
17
-32
5
48
-28
-12
19
-23
-25
-49
-10
6
21
49
-40
-18
57
-59
71
-111
58
13
-27
-35
13
-23
-9
-18
-1
38
117
-30
-51
-20
37
18
39
-18
23
-66
-78
36
-119
10
-23
-1
-9
27
-67
-15
-3
32
-27
-30
-24
12
4
-48
27
-25
55
-37
14
19
19
27
0
38
-1
-11
14
-3
-45
-27
-15
33
9
-9
29
-37
45
-38
72
-19
-10
10
17
15
-36
-1
-27
-41
23
25
10
-57
-30
-15
24
45
-7
-21
77
-8
6
-8
-8
-4
11
35
-28
-25
-19
-27
-15
66
37
9
34
9
-31
-29
31
-22
-8
1
4
-8
19
56
2
32
-21
-10
6
8
-49
55
35
12
45
53
33
-21
76
-26
-40
33
-27
42
19
8
-72
33
28
-37
8
5
-12
-2
-51
7
40
14
-3
7
6
-2
5
1
-10
26
14
30
5
-5
22
-12
5
-11
6
-3
-12
32
-3
30
15
2
-1
18
34
16
-9
-35
-15
46
14
-44
2
13
-10
24
1
-7
27
23
23
3
-10
13
29
-10
16
-19
8
2
9
15
-19
7
0
12
-20
18
-6
4
36
2
33
-25
16
5
7
7
-6
8
15
7
-4
-14
34
-24
17
-5
13
-8
-2
37
-12
16
-12
7
-14
-4
37
13
-7
-25
-15
17
-2
-20
-18
6
5
5
14
7
41
-2
4
3
-5
-10
2
11
16
-32
11
-4
-10
22
3
-9
28
30
-15
19
7
17
23
-18
20
-39
8
-14
16
5
11
21
3
15
8
7
12
-18
10
-2
8
5
9
9
-36
46
11
2
8
10
12
1
-23
-30
-18
12
-13
-27
0
9
8
-2
9
11
35
1
-14
-22
14
8
14
3
26
-11
15
36
9
37
-3
46
5
2
-17
17
-1
-9
-38
11
78
2
-13
-15
41
5
35
14
14
38
17
-42
7
-8
6
-37
9
-24
-18
-60
2
-18
-39
-63
33
-6
-5
-6
-17
-6
11
-7
-14
-18
-10
8
-127
-42
-4
-9
-39
19
30
-29
-4
-25
36
-24
18
-68
-2
-13
-12
-36
38
-7
13
34
-34
-14
-6
-27
-37
-25
36
-17
21
-53
19
-10
-5
-12
33
17
6
-49
2
0
-3
-33
0
-23
-57
-36
-32
-52
-8
-40
32
-6
-25
11
3
-22
-6
-31
-50
13
-39
35
-71
-76
2
-31
-8
-6
11
-42
-56
-50
-24
-60
-16
-63
10
-37
-19
-54
32
-45
-10
42
-1
-34
0
-23
1
-33
40
-54
28
-91
19
-12
0
5
22
23
-11
-11
13
-13
15
-46
-4
10
-5
-21
18
-23
-26
-1
8
9
-9
1
-14
12
28
-30
-58
66
-2
32
2
-47
19
-21
-39
22
-7
-52
-29
-13
38
-57
-40
-53
-2
-16
-18
-32
34
-34
24
14
0
-4
5
-2
-58
21
-45
-2
12
-24
-74
-24
20
1
-1
-33
18
-7
-30
-16
28
-3
9
-22
-23
-50
-11
12
-98
127
28
1
-39
17
-42
-47
26
16
-34
-29
19
-23
0
26
23
-25
-4
-16
-16
4
-40
-12
7
78
-3
48
123
16
-45
42
-15
-20
-13
11
-39
5
-11
11
-68
-9
-44
18
17
-19
-67
-13
48
-9
36
-29
8
-8
-51
-4
28
-37
9
-34
1
55
-1
23
24
57
-14
3
-71
3
-14
-33
-7
99
-17
-15
76
4
-11
6
53
-8
18
-27
5
24
17
12
0
35
-20
-2
51
40
28
7
-7
-12
21
-31
-10
1
41
2
-49
-15
-31
25
3
13
-48
-14
36
-36
34
-20
32
-12
10
-8
17
-50
-8
-17
7
66
-25
2
-18
4
-17
-6
-56
-10
-19
-14
8
31
-13
-49
6
-47
-5
16
-24
38
-27
7
36
-16
19
-11
-34
-14
-66
-21
15
-2
-49
2
-45
-37
-9
-22
-7
17
-14
26
3
-5
-3
-10
3
-12
9
-18
-31
3
-2
-32
4
14
15
-11
20
13
25
0
1
-2
-2
30
-36
18
-14
13
-32
22
10
16
-19
-21
7
-12
-14
19
12
-30
-4
1
6
-6
-7
-8
-5
-15
-3
-16
-31
35
-13
4
-2
2
28
-18
-2
4
-6
0
1
-2
15
-10
-11
2
14
-12
23
4
-20
20
3
-10
-5
14
-2
-6
-5
20
11
-18
17
5
-5
24
-6
-9
-12
-12
-43
-12
2
-19
23
10
-4
8
5
17
-17
-18
3
-17
-18
-19
10
-8
41
-10
-9
0
-3
18
-5
0
25
-22
4
-15
32
-10
8
-13
10
-11
14
-21
14
3
-1
-2
3
-14
-19
6
-11
-26
14
-35
-1
8
-22
-6
51
8
-28
1
6
8
-24
-8
-8
-3
-2
-36
17
-51
-14
-11
-9
38
-21
-11
-23
-24
-10
-12
-25
13
-15
4
-3
5
-10
26
2
13
-7
-33
14
-25
0
-6
-4
-16
7
2
23
27
-38
-10
-5
-7
15
-21
12
-5
-28
-11
-23
-8
-37
-6
-38
17
-23
-7
5
35
-11
-2
39
34
0
45
-7
18
-26
36
7
-33
-49
-4
-15
-12
19
-2
4
-10
14
-29
-3
2
-32
-60
10
-29
-32
-20
-11
17
56
10
-2
-30
18
-29
1
-6
0
7
0
-25
-28
-7
-35
-5
11
-55
-1
44
25
9
7
-9
-21
15
-38
-1
-41
14
14
-3
3
9
56
44
46
13
-8
-24
-34
-12
-13
-72
10
33
-17
-13
26
-20
-23
-20
-2
1
-14
-36
14
-21
47
19
-29
-9
40
13
7
10
17
-49
-2
-44
37
0
-51
6
14
-21
11
-22
8
-9
6
-4
21
21
32
-33
-3
-26
10
-27
-5
10
2
17
28
4
-45
-26
12
-16
-10
-10
-19
-21
-19
-67
-29
-37
-41
7
-51
19
-5
-58
-24
-26
-30
-18
-48
-18
-17
12
-17
-3
-16
8
41
-14
-35
-53
29
-18
-31
-10
-7
-21
-53
-4
-14
-20
-46
-15
-32
23
-29
-18
33
-37
-55
6
-12
-56
-43
8
-51
25
58
-14
36
-12
-29
-7
4
9
-16
38
-52
-36
-13
13
-49
21
-13
5
10
9
43
-14
-47
-58
65
-5
-22
13
-54
86
-28
-5
31
-43
11
-7
43
-42
56
-44
-2
-70
18
22
26
-3
19
-57
-37
7
-11
64
-31
-93
-6
42
26
-32
1
-40
0
31
-54
24
58
37
68
-15
0
-27
-5
-31
57
-32
-7
-52
-26
-68
-52
-11
8
79
-23
24
62
-45
-60
-65
68
-13
-39
-53
-25
69
-23
19
-33
-63
76
-14
-2
3
127
-42
-42
-76
43
57
12
-33
51
-57
26
11
31
65
-30
-31
-25
34
-43
-34
-3
-5
8
14
-6
-33
-14
36
24
25
-34
-32
-44
-74
-8
7
20
-44
-7
-95
-50
2
-23
9
-14
0
-11
-51
-11
-54
-67
-15
-37
-39
14
-31
-46
-15
30
-36
-3
-7
-24
-77
45
-15
-45
-11
9
9
29
-40
-19
-42
-3
-12
8
-12
-35
-62
-2
4
-26
-43
-14
11
10
11
-56
25
21
-70
-6
40
23
69
-64
-64
-21
-32
-55
40
-49
25
-17
-19
10
-38
12
-99
8
82
-7
-39
19
42
-13
-9
56
38
-3
-13
17
4
-9
-2
28
10
-19
-32
-41
-47
-14
4
-14
43
-2
49
-18
26
44
-30
-65
-44
-3
75
94
-41
-51
34
3
24
-75
27
30
-45
-33
38
-30
22
-26
2
-31
-51
-75
-29
-8
-26
-41
-47
4
-35
83
-35
13
68
-6
-43
18
0
-9
-39
42
0
3
62
19
-9
48
37
-41
51
-29
70
-1
-7
-17
9
-17
70
-20
-85
-20
64
31
-72
-94
-19
-17
72
88
-39
62
-54
-30
75
-11
14
12
-21
9
-8
-61
-68
-70
-47
5
-23
1
-119
-2
-50
-36
-14
-17
31
-16
-43
-25
1
-74
-57
11
-6
69
0
-26
69
-12
3
-30
29
49
31
-30
47
47
10
-65
-39
-2
31
-2
-22
-46
22
-21
-17
8
-59
-69
-42
71
20
-22
-32
8
-66
-17
-73
-63
112
37
-94
-21
-42
12
62
-69
-23
-80
-43
-51
-50
-17
29
-52
18
24
1
25
-39
-47
57
-10
-28
-33
22
75
20
-66
28
-8
-45
-3
-54
25
56
-10
-32
-10
5
-20
-83
13
29
40
8
-90
68
-65
-5
12
-80
-78
-80
33
17
8
-36
-50
-43
-23
9
-59
61
45
-37
-92
3
-52
26
-50
8
-88
-78
-11
-47
-1
-61
-36
9
54
-41
-44
-3
-23
0
-7
-66
3
4
33
-2
-95
23
-61
-29
-31
-74
20
78
-7
27
-40
34
33
-47
5
53
40
35
-70
29
-38
-14
-14
-93
-69
-11
0
12
-11
8
-7
-57
2
80
-19
65
-2
-23
-37
14
-68
-46
-46
-17
-28
-53
127
-66
10
-34
-40
33
24
-9
-101
-3
-75
-13
-35
-57
-24
18
58
44
-125
-21
-78
-33
12
-37
-11
14
-33
-28
44
-10
-79
-76
49
44
42
-26
-71
13
-26
1
9
-10
-27
7
42
-42
22
-27
-28
-22
-9
-35
-47
40
16
16
-33
-28
-1
37
-25
-6
-66
-65
-10
-28
50
-35
-41
-43
-21
-14
34
-47
-21
6
-75
-43
-19
-6
81
-32
-93
-12
5
-75
-30
-66
22
16
-1
-27
-8
87
33
-35
17
6
6
-52
-38
67
-35
-2
36
-4
-36
12
-20
-70
24
-9
-51
17
-21
-4
-4
56
-12
39
-95
-6
-16
11
-9
10
-42
-41
0
0
48
-11
24
-8
28
-21
-44
-40
-5
-32
-32
8
15
-3
38
-28
-93
-20
-17
-103
80
-63
-14
18
-26
3
28
15
30
-16
-20
2
-49
-57
-36
30
-24
5
-30
-25
3
-41
-27
-19
25
7
-10
28
10
57
-22
36
10
62
-18
29
-44
32
-38
-10
-15
-36
81
-17
-3
51
8
23
-33
-1
-65
-32
-1
-67
-27
-39
-9
9
33
-17
-72
-69
-9
-39
71
-3
-25
8
-44
-41
29
-34
-14
-28
50
-14
-56
-16
-24
-11
54
-10
13
14
-11
-43
2
-31
-19
-25
-32
9
-2
31
6
-2
7
-25
-12
-16
-12
-2
-14
-27
15
79
-21
9
-1
25
8
-45
-9
-8
-21
-13
0
-24
21
-4
23
-7
40
-10
-20
-1
36
35
-8
4
-27
44
33
-2
-14
-15
15
-34
22
-43
-3
-4
28
-51
41
-4
-11
-26
-26
2
-27
2
21
-36
46
-11
9
40
9
-1
30
-32
32
-6
36
21
-22
3
26
-10
-19
0
20
12
-17
-41
47
50
-10
-16
24
-46
-17
30
15
-11
54
-11
-29
-22
35
54
-47
8
18
22
-6
-18
-4
-49
12
-40
45
-54
-18
-4
31
-3
-5
56
4
38
-1
45
-19
3
-16
-21
27
-1
46
-16
20
-8
11
52
8
-3
13
-28
-23
3
-38
3
-35
-26
10
-46
8
-30
-19
4
-36
26
-45
-27
-42
-9
-57
10
-40
-20
-41
35
-7
15
-37
48
42
11
-5
-49
-16
-53
-51
-35
1
-49
-13
24
-2
-43
17
-54
19
11
16
-19
2
-44
-7
7
-36
-51
1
69
-58
26
38
-14
43
6
-21
71
14
-8
-22
15
-35
-14
8
-15
-5
-25
64
-20
6
15
-12
-16
-83
-100
68
36
-10
0
-28
67
23
29
-5
24
-20
-47
5
-26
0
-56
2
-117
-9
2
15
-68
58
-59
-13
0
24
44
21
-50
3
-7
-23
-21
5
-49
18
50
-7
44
49
-6
53
-3
37
58
-26
-1
-19
-5
-10
-18
6
-77
4
-9
76
-8
0
11
16
-32
-71
-65
37
2
-24
-53
-37
70
-12
29
-45
19
-12
-48
-9
5
33
-50
17
-109
8
-27
36
-45
34
-67
-13
58
16
90
47
-64
-3
4
-39
-14
15
-12
2
29
35
0
25
39
52
-13
1
-5
-14
-44
-47
-21
-13
-27
-45
-71
-3
1
54
-34
20
52
-25
28
-30
-70
-8
-14
-28
-97
18
16
-30
-14
-30
58
-19
-21
-4
-17
-5
-43
-25
-84
-28
-23
5
-66
-14
22
-56
44
-15
-55
2
-11
-35
-19
-43
16
-2
-66
17
-67
-94
-72
5
-17
9
4
-6
1
-36
19
-58
-18
-11
-25
-21
8
-19
1
83
-31
-24
-16
-44
-1
-43
-56
-19
-6
42
-56
45
-27
-63
-10
15
11
-51
-19
-18
-1
-13
-21
-24
54
-49
15
42
-45
-1
39
-28
37
19
-5
29
-24
4
-5
-60
20
-45
-35
14
-55
-53
-35
5
-29
-19
-1
-12
26
-31
-12
-78
14
-17
-55
-97
-43
-19
-4
101
-54
14
-28
-33
9
-8
-60
4
-44
8
-39
49
-19
-53
-56
-17
0
-39
-26
-17
9
-23
-3
18
56
-62
-9
85
-43
-9
13
-12
54
-3
-20
29
-45
23
-28
-35
1
39
-24
32
-10
-19
-38
15
-81
5
1
-38
12
-61
-30
-80
11
-37
-45
-127
23
-22
-9
48
-20
40
-28
19
19
4
-35
-11
-42
38
-48
38
-57
-35
-35
-11
-5
-34
12
10
53
-14
22
-9
99
-58
-22
18
-116
-18
-6
1
-24
-9
-41
8
16
0
-38
-23
-36
-11
-6
53
-55
-35
37
-25
-34
40
-9
-11
-62
28
-24
12
-44
3
-3
-9
-26
45
-40
46
4
-45
-33
0
-77
-62
-18
-16
3
14
-46
39
21
8
1
18
-63
14
15
40
13
16
-19
-53
-51
73
52
-10
-13
-6
-11
-14
14
-17
-23
-37
-15
-13
-3
-19
-37
12
-26
52
-28
-57
5
8
-33
24
-29
-3
-14
0
-61
10
-20
29
14
-2
1
15
-43
-14
-23
-53
-12
38
-13
-24
-23
8
-38
13
-44
-11
-4
-24
-21
-3
0
-38
-26
-11
22
-15
-8
-25
-7
23
40
15
-64
-28
0
-43
-13
-5
-33
-16
-30
1
-10
-27
-48
6
-10
41
-13
-39
3
3
-21
49
0
1
-54
-31
-62
-34
-27
21
34
-5
-6
-6
-29
25
-25
-53
-21
20
81
20
-25
22
-18
-9
-42
-48
-32
-36
-25
-27
69
-49
64
17
12
-25
-15
7
-9
25
20
0
-49
-39
-37
-7
93
-23
-68
-32
-3
-60
-37
-4
-35
-58
-23
-26
-24
9
29
-52
-74
65
82
17
1
-36
-84
-3
66
12
-20
-14
18
-47
-59
79
-19
-82
-22
4
-59
17
-7
-23
-15
-13
-93
0
-26
25
-17
33
66
-27
36
64
30
-42
-1
-73
-21
127
77
-21
-6
-47
1
-2
14
-40
-8
-45
-4
-59
-34
-41
-38
-14
-27
25
-33
-16
38
-18
-53
37
56
57
48
1
-59
22
3
-11
3
12
17
-44
-23
59
-10
-73
-31
41
-20
-26
-37
-9
-32
-12
-77
-22
14
-13
-17
2
92
29
30
26
39
-14
-61
-43
-19
62
34
-7
-25
-61
11
16
7
-37
23
-50
-5
18
-27
-17
-36
-11
-41
72
0
-15
26
-3
39
43
21
33
-11
49
-11
-3
-11
17
53
3
18
-28
-20
10
-51
-58
0
31
42
-13
4
15
-3
1
-42
-66
-11
-52
32
-11
13
-11
21
12
40
10
-30
19
-14
-7
51
-19
-5
-28
-32
20
72
4
-17
-5
-34
3
-41
31
-28
-41
41
-20
-20
7
-11
-31
-13
20
23
63
11
14
-22
41
-19
5
18
-6
-1
-92
21
49
-23
-51
-36
9
-31
-9
16
0
10
-79
-56
-52
17
-1
-13
6
28
-14
19
1
39
-55
-8
13
-17
53
21
-3
-7
-15
-19
-32
25
-1
17
-2
-58
-4
-19
-14
-13
-34
18
1
-15
-2
2
-11
-7
52
-15
31
15
53
-1
34
-28
-26
-20
-16
4
-64
28
55
-30
-14
-37
1
1
-92
8
8
7
-30
-35
-28
4
25
-37
15
15
37
-67
20
16
-27
-3
16
-18
104
21
8
-2
-12
11
19
7
1
8
19
-46
18
-17
4
24
-3
-1
44
-1
7
5
16
36
47
-27
28
6
37
33
-14
-1
-6
15
-13
-13
-34
-19
20
-41
32
-16
7
51
-10
25
10
7
-21
-14
23
32
23
-6
-21
-5
-21
-39
19
-10
-13
0
35
23
10
-8
-8
13
24
-11
10
3
-5
-2
-25
14
-20
13
44
17
-12
42
3
-17
10
-28
5
-22
12
17
2
-53
-32
-5
-59
-26
-5
8
28
-34
-63
34
-24
60
-47
-56
-9
-17
1
-6
-15
-17
15
1
-64
20
-7
-18
-11
-3
13
-30
-4
-8
24
43
61
-19
26
9
-1
-23
21
-26
22
17
10
-44
-29
-41
-73
-13
-24
-10
16
-43
-18
23
25
62
-32
-37
13
58
-27
-26
-4
-41
25
-1
-30
19
22
-53
-17
15
-24
2
11
-5
1
-66
31
4
-2
35
4
-47
-48
-18
-21
-29
-47
13
-6
-41
17
-61
3
56
-11
-24
-3
-8
-35
2
13
12
-26
59
25
-31
7
-21
-39
9
-23
6
-27
-31
-12
-15
-18
35
-12
-54
7
38
-23
-26
-6
-46
45
24
-4
-21
-27
-31
-27
11
-8
18
25
22
0
-8
34
-26
29
8
26
-12
29
18
-25
-44
30
64
-10
23
56
-32
-39
5
-9
-28
15
29
-58
-21
27
-44
8
-39
-12
104
-4
8
-41
-39
-21
-10
10
-19
-4
12
7
-30
-23
76
-14
-7
-54
-64
58
12
-11
-26
6
-18
41
-9
-72
48
-22
30
-50
-19
-38
-38
0
-55
-43
1
-41
-68
-98
42
-4
-57
-7
-40
-14
-45
58
-72
-5
11
-44
-46
23
-6
0
-34
14
-52
51
31
-36
34
-37
-25
-41
-28
6
-25
-10
-64
-37
17
54
124
-20
11
16
66
-32
-40
20
-1
-3
2
-61
-1
41
-26
-43
42
-57
-3
-3
-6
6
-77
41
-4
63
39
-30
-60
-127
-13
-13
-54
-84
61
-39
-62
95
-52
-14
54
-34
-46
14
-15
-22
2
23
-27
-12
20
-22
-39
-27
-11
3
25
57
2
-57
13
-21
-44
20
0
-19
-33
2
50
-38
-1
-51
-23
36
-29
12
-37
-36
25
-35
9
-18
-17
33
-13
16
-23
-18
-1
67
13
65
-7
16
36
-30
-11
-1
68
-9
-34
65
24
-37
8
-18
-22
36
24
-48
3
-6
-55
15
-57
-20
56
80
-11
-33
-61
-57
11
29
-12
6
-11
-97
-43
-27
-9
-28
0
-23
39
90
22
-17
-77
-2
-2
-26
-9
-29
40
-29
6
-29
-23
-22
0
-62
-61
-18
20
9
-83
-24
18
6
-64
-27
-54
-20
-8
47
-59
0
-20
-63
-34
24
1
48
-10
-16
-28
63
-19
-20
62
12
-19
-49
-34
62
23
52
-28
-20
-14
-39
16
0
10
18
-12
-18
-6
56
55
-40
-61
-6
-52
8
-52
-36
46
23
12
-39
-23
-12
-8
-27
20
75
43
-15
-42
-85
49
-40
-1
-65
-9
-21
-38
0
-6
-2
12
-8
-46
29
-39
29
-12
4
-33
-30
31
-7
-23
-40
-38
-37
3
63
17
-4
38
-2
2
-37
-51
-41
20
-4
-27
10
-26
-33
-1
10
-78
32
-51
-35
-32
-7
60
51
3
-12
-41
34
-65
-54
25
46
-5
-43
20
-29
54
-7
48
-36
1
-13
-50
21
25
-2
7
2
-51
70
12
-10
18
1
-58
18
-40
7
-29
5
38
23
-33
-15
-14
70
1
34
-33
-16
-33
3
-10
1
-4
-50
-42
-41
-44
-21
-8
-5
48
-36
4
-2
-22
3
15
-9
32
-5
-20
-35
-15
19
-24
-17
12
9
-24
-38
6
9
7
2
-9
-19
-53
-11
-36
14
-36
-12
-2
51
-1
-7
0
13
-17
48
-8
9
-51
15
-25
-127
31
-15
54
14
-1
-55
-25
-16
-5
7
24
-23
-28
2
0
17
-2
-23
7
27
11
-21
-4
27
-36
12
-13
8
12
-26
-16
36
11
-53
16
-1
22
8
17
45
16
-27
-51
-39
-2
39
-16
14
2
-13
11
3
-30
23
17
2
-13
6
5
28
2
7
-4
-8
10
11
46
28
0
-29
48
-19
32
19
7
-18
20
-5
8
19
-10
-16
15
4
-21
-32
-16
-1
-15
-8
7
10
5
-35
1
5
19
-19
17
-8
-8
-7
-7
28
-9
0
-11
1
6
27
8
-2
12
-13
-13
-19
15
-6
-32
3
-37
-8
-4
18
55
-1
-1
45
-29
126
-16
59
-29
4
2
5
-17
29
-20
-16
6
-33
-4
-54
14
26
5
-42
-38
-21
-60
14
53
1
2
19
-36
-37
-14
-65
14
-50
-2
-43
-38
-9
36
-33
10
13
-11
-26
-53
-21
-32
-46
-46
-13
1
-6
25
8
4
-27
-14
34
-19
-14
12
27
-53
-64
14
-20
23
16
-15
-9
-46
-4
5
1
-19
-49
-65
-39
5
-18
-18
-23
-14
18
-15
-49
-17
28
-61
11
-46
-12
-29
-20
-19
-9
10
-64
1
-14
-45
-5
-3
14
-6
-51
-52
-20
-40
-2
-36
-34
16
-15
55
27
17
2
28
16
-11
-13
-5
-3
-15
-23
-13
-2
23
5
42
23
3
12
24
-11
9
7
-13
-24
-4
5
-15
-5
19
-16
36
34
7
-24
-8
-4
-34
29
30
4
-7
-18
11
45
19
33
-1
-34
-22
-2
-20
16
-19
-14
-22
6
-10
14
29
6
18
-26
29
16
10
27
-22
-47
-17
-13
-21
20
-13
39
77
102
-45
47
-35
78
3
19
3
23
14
61
15
7
-3
9
32
-55
-22
31
-7
6
-23
-51
-81
10
39
-27
53
35
6
-55
-17
-42
-17
-49
5
-2
-30
-39
19
7
1
34
-43
-21
-24
-12
-12
-10
-18
22
-1
-9
18
-15
11
-50
37
44
-9
-12
-17
68
-61
-45
14
-57
-11
-16
-11
13
-22
1
74
13
-6
-42
-30
-3
4
-21
7
-19
-21
-13
-35
-44
-31
3
-37
13
-28
-7
4
-10
-24
1
-5
-30
-19
22
-52
9
-22
-1
9
-37
-27
3
-30
-4
-35
-13
6
-42
-6
-19
11
-22
8
-35
18
-9
0
3
-46
-28
5
3
37
-4
27
10
11
7
7
19
2
-4
7
-32
1
19
-25
-17
-5
13
54
7
9
-17
-9
-9
-33
44
29
-11
4
-19
-15
36
0
12
1
3
-30
-17
-10
33
14
-1
12
24
-19
-20
35
-2
28
-27
4
-22
18
14
-21
16
-32
-43
37
3
-5
-22
-63
25
-29
-12
-42
15
-90
-83
-10
-33
-18
26
29
-20
112
-17
-21
-22
-2
-19
9
-10
15
-37
23
38
3
-25
-76
19
-8
-5
-28
-34
-15
17
7
96
1
76
-14
-79
-47
3
77
-16
-42
-45
-81
-15
-2
-41
-27
46
-7
-47
-35
16
-59
-51
40
1
-15
-26
-48
0
26
-17
-17
77
-81
-61
1
-61
-43
15
28
-13
42
-5
-76
2
3
-18
39
-61
56
-106
12
26
-14
-3
-67
-14
18
11
-55
-55
-10
36
-25
-3
-45
-34
-61
-23
-23
-13
42
-30
-23
-26
-46
-56
20
-8
14
44
-32
-52
-36
31
-9
10
100
6
-18
-23
-39
-8
31
14
59
-62
-13
2
-36
-22
29
2
-20
-10
3
62
-73
-8
26
-7
9
-61
39
-81
40
24
-34
32
-64
-20
36
-17
-38
31
-55
16
34
-27
-49
-127
-6
44
27
38
2
-4
20
-6
-17
-48
24
25
18
9
26
14
-16
29
-17
10
36
-35
-20
47
1
-2
-6
32
1
-50
-40
-13
-28
20
6
6
16
-52
-36
-4
13
26
-7
-26
22
-15
-23
63
-36
1
11
25
-45
36
-36
1
-29
5
11
-37
-33
24
-3
31
16
-31
-15
-4
11
2
-49
-16
-11
0
-16
-18
-18
44
-3
-21
-8
13
-44
37
10
-34
-27
-2
-21
-24
-27
4
-17
27
-58
-42
-24
-29
-19
48
79
-16
5
-27
-25
27
28
-33
41
-4
-3
27
-35
37
9
-8
-66
30
-36
3
1
-25
39
5
5
76
-44
82
-25
-12
-49
2
33
4
-20
-38
-39
-36
11
-6
-3
4
-23
-4
-19
-37
-64
-23
3
10
11
-16
-43
-43
6
29
-32
59
-13
-43
-17
-35
-7
26
34
-24
36
-28
-61
-32
8
-38
32
-49
45
-60
-4
-1
30
-23
-109
-42
-49
-14
-6
-4
-23
38
15
76
-51
-42
-42
-6
-24
4
20
-3
-4
-58
-8
-57
-2
3
-5
12
7
-43
10
-6
-7
-49
27
14
-1
-20
75
22
56
-11
31
-15
5
17
-22
13
-17
-23
-43
-23
-20
3
22
-48
10
-8
12
-12
-71
33
-24
-39
39
22
19
19
-18
20
4
6
5
-52
-51
-37
13
-8
19
-11
40
-9
21
19
-10
9
7
13
-33
11
5
25
16
-11
13
37
12
2
0
11
-25
2
68
17
26
-1
7
-13
-33
22
-44
-5
2
9
-5
-29
-9
3
21
-5
17
17
17
-5
-25
4
-60
-37
43
-26
6
8
-12
-6
17
-2
17
-32
33
-18
-23
66
1
-6
15
24
30
1
-14
-15
-1
15
-10
1
4
14
6
6
26
-60
-10
18
-32
25
51
15
-10
10
-10
-6
-14
32
-22
37
-22
-25
-1
66
-8
-6
-18
-40
17
-30
10
5
45
-8
-25
3
-68
-29
31
-3
-41
-28
-32
-25
23
-19
-10
-27
44
23
-59
67
-17
-9
-1
-1
18
-1
19
-26
6
-32
-21
19
-30
7
7
6
-14
-33
-2
7
-22
-1
-3
19
19
-13
8
-35
-14
-20
-21
-24
-13
-18
9
7
72
2
-19
-10
36
-6
6
24
-37
14
-23
0
11
-15
4
7
-30
25
13
43
-8
-28
-23
-45
-15
-4
-26
-81
5
0
-80
39
5
50
5
31
8
-27
-14
-6
4
1
10
18
-58
8
-42
-17
-10
-12
24
-6
23
-8
17
-14
-11
44
-2
27
-1
-61
20
-18
50
9
-7
-16
56
14
-53
11
-30
13
-33
-23
-20
-35
98
-13
-22
14
-10
0
-28
-33
-21
-42
4
-16
11
4
58
-25
-30
89
-26
-1
-24
54
-27
-58
-11
-16
30
-50
-31
7
-49
-14
-40
8
6
4
59
-21
19
15
-25
-3
5
9
-14
26
0
-26
8
12
3
-23
-16
-13
5
-64
4
-17
-28
-24
3
-1
-22
-46
20
-48
-29
-25
1
8
-49
5
-17
-7
-33
-26
64
-3
-25
-32
-7
27
3
-30
-36
-27
-46
-48
19
-10
-4
-8
9
-34
-16
15
12
39
-23
-50
-42
33
14
-17
29
-17
-6
-10
28
-23
-37
-15
-20
28
40
-5
-33
-42
27
23
0
24
-9
19
25
-2
-21
-14
6
28
14
30
-24
14
6
22
21
10
7
9
-3
-59
18
-23
-62
3
20
2
-11
5
-25
-12
15
-55
12
-40
-13
3
-56
15
-8
-16
-29
-33
-5
50
-12
39
5
-38
3
68
18
17
-18
-23
28
11
11
-12
-45
-22
59
28
-48
12
-24
2
-19
-29
-39
-37
29
10
41
10
-45
-27
-21
-15
4
-38
18
-19
8
-63
47
-23
10
60
16
-3
-25
40
-40
-34
20
-48
16
-127
-32
21
-24
-21
-19
27
21
4
34
-15
-65
2
-42
-21
24
29
-16
-13
14
-15
-8
13
-15
-7
-10
-2
-40
-66
29
0
9
-37
-40
-17
-35
-46
26
-22
-41
10
-3
12
-73
-10
10
-15
-27
10
45
-12
-36
-26
-1
2
23
-23
-43
-20
-12
-24
60
17
9
-17
48
-15
-16
10
-6
-3
15
-13
-15
-19
2
-16
2
-16
-31
-19
12
-38
-29
15
-18
3
-17
20
-22
-24
29
18
-9
-16
-36
15
-54
-35
5
2
1
14
3
3
-61
-45
26
24
14
3
22
-28
102
25
46
11
-2
-13
-34
-11
-16
10
-56
10
-61
-45
25
-32
1
56
-67
-14
-14
-24
49
-4
12
-16
28
43
-35
-9
-25
27
3
-8
-26
-32
24
-15
-23
24
-42
4
26
1
-40
-12
-65
-5
-72
-17
4
1
12
-38
30
2
-52
-68
-11
-19
30
-30
-34
-45
30
-6
33
-18
24
-16
-24
-6
-44
-14
-48
-16
-48
-34
9
-48
-12
59
-21
-26
23
-5
-9
4
8
-17
-50
-36
-20
-27
42
16
-29
-45
-4
-30
-45
-37
-23
24
-12
3
-46
-28
-1
-16
-23
-21
-26
-2
1
26
-8
-21
-19
-12
20
19
-15
-21
38
-6
-35
52
-11
56
-53
2
32
-47
6
-19
-13
-33
-21
-9
38
-12
-6
12
-86
-15
-17
-12
51
-29
-38
-47
-17
35
11
36
-56
47
-28
-19
77
5
42
-17
27
30
20
10
-56
39
2
-7
-48
-38
-13
-43
-82
-47
-39
20
53
-70
13
-32
-48
-58
12
-10
-30
41
-24
-30
27
3
1
13
9
112
-85
13
-46
41
49
-15
-19
14
56
-1
-24
-51
-45
-40
-8
-15
-47
-24
27
51
-18
33
-27
22
7
-28
40
27
-21
-6
27
34
-6
-40
-70
-18
-10
-50
-42
-20
-28
-77
-85
-14
-13
5
-13
2
-35
-41
-15
-37
-40
-30
-15
-5
-15
-38
-11
-34
-54
13
43
-6
-76
-21
-62
-1
-4
-3
-3
31
58
42
-52
-25
-46
-46
-26
15
-44
-20
-19
59
-54
-31
5
-31
15
-4
-30
5
-12
42
-62
-19
20
-17
-66
22
7
-4
-6
34
-55
-38
29
4
-27
-10
-2
54
17
-4
20
2
-68
-6
8
17
14
43
0
-15
-53
59
6
-105
-19
-8
-14
-10
-35
-23
5
20
31
35
-21
56
-47
14
-48
33
-11
-42
13
-6
-26
7
-61
9
-2
39
60
54
-1
-19
5
79
-17
-12
-101
-66
-16
21
-35
46
-45
-59
-66
-46
35
21
-28
4
-16
-60
-46
-4
-18
-24
-33
54
-35
-7
-51
-49
-31
-5
30
25
-102
58
-47
-62
29
-43
-3
-32
127
38
-58
-24
-51
-31
-10
44
-70
-37
-12
75
-21
-49
35
-52
27
8
-56
25
-26
56
-53
6
-25
-44
-83
-49
-16
45
-10
58
-68
-59
20
-36
-13
40
-17
98
-15
-54
22
0
-41
-20
-37
29
-37
62
-57
-10
-19
38
4
-64
-37
6
-40
-20
-25
-41
17
17
28
-15
-42
13
0
-56
-7
-6
-62
-21
-32
19
14
-11
20
-38
25
34
-72
-33
32
38
-34
-4
20
-34
-9
-19
-5
27
14
-20
-42
-2
19
-42
-29
32
0
46
4
-14
33
57
-21
16
-9
17
8
50
-51
26
11
-8
-23
-34
16
-17
13
-4
42
-50
50
12
0
5
-3
16
-16
-40
-11
60
-63
-5
-1
-11
18
-24
-11
-4
0
24
-43
-19
11
20
0
40
-36
-5
-55
-18
-45
12
24
22
-20
-49
48
45
-9
60
1
42
-44
-53
59
49
-27
-1
5
-20
-53
-15
-50
10
27
5
-49
-43
-42
3
-10
-58
-34
-49
-23
3
9
-30
11
5
2
-8
-1
10
-53
1
-46
17
20
4
32
-28
6
24
-36
-28
-16
67
29
-29
-26
-31
8
-46
-31
37
9
21
-11
31
83
36
-50
44
6
25
-43
-35
2
6
24
1
39
-21
-33
6
-39
42
58
-26
-7
-39
-34
-15
29
-54
11
-62
15
-5
-50
-11
-4
8
20
7
-10
-19
8
0
-67
0
-49
27
5
1
24
-5
-46
30
5
5
55
-3
25
-10
0
12
-34
-14
-1
-7
25
51
14
-32
-62
11
-9
16
-14
10
2
8
39
-7
36
-17
12
-43
-2
-19
89
-12
42
-17
-12
-18
29
-16
-9
-29
1
-22
-2
-5
8
-14
17
-27
0
16
23
-14
7
0
16
10
-28
2
15
-63
-14
21
17
24
7
-26
6
-9
-48
20
-12
-17
-14
3
-58
15
29
28
-14
4
8
15
29
-1
-62
-18
-4
-7
-15
2
16
20
14
10
10
13
-12
-2
-26
-8
-13
-23
-45
53
-10
-39
22
-26
3
-8
47
18
-21
13
12
-13
-46
10
-10
-60
-5
-22
44
-62
-22
10
25
32
-17
-34
43
-35
-40
-5
-24
-4
-10
-5
-77
-34
3
23
10
23
-18
-1
55
1
-1
2
-32
18
19
-25
31
36
-6
-7
-3
34
-8
-37
-9
-12
17
0
-28
77
5
-44
28
11
-12
7
46
2
2
-9
-7
-36
-26
15
23
-34
21
-27
88
-7
47
25
-3
15
-8
12
6
3
14
-13
33
42
10
5
-31
17
-20
-5
16
23
-20
22
0
23
-1
-24
51
-11
18
-38
22
45
-26
-11
67
35
3
46
-14
6
29
32
6
52
32
-13
35
-19
-14
-4
-10
-51
6
-19
4
14
6
-18
-31
11
40
17
-52
-30
-22
-27
-15
-48
-35
-8
-20
-31
46
4
-63
-50
74
1
-53
-74
23
-12
-24
56
-5
-16
-38
-16
-4
-6
-26
22
24
53
-28
-33
28
27
-32
-48
22
-12
-1
32
0
-19
-14
-27
-1
-30
3
-31
6
-22
-74
-38
-59
-23
-11
-8
10
-24
-48
-23
43
52
-55
-13
-29
-91
-18
-35
-54
-46
-13
-48
-21
-16
-25
-37
39
-13
-39
-111
15
-12
-35
105
53
-20
-9
-17
-40
-23
-71
-55
15
35
-18
-2
-7
-24
-20
-33
-23
-30
-20
26
-83
-32
-50
-40
-54
-24
-7
28
-19
-11
-8
30
9
29
4
-35
-19
14
-21
-80
-12
5
45
-29
14
-1
-42
11
-10
-20
22
-20
-46
-3
25
-21
-12
-19
-6
12
27
-14
7
91
-6
-51
-28
-19
-58
-7
-11
-17
26
-51
-9
6
18
-12
31
-11
28
-25
-31
-31
-50
9
-34
22
-7
-26
-15
24
13
16
-8
-4
41
6
-2
9
-11
17
2
24
9
13
62
-10
45
-6
-12
25
-10
-18
4
37
25
12
-30
21
78
-12
34
-6
-23
-22
9
-2
8
6
5
6
-8
17
20
55
10
11
3
-21
59
35
10
0
-3
44
30
26
32
29
-3
-2
0
1
6
-6
6
-19
-87
-11
-35
-21
23
-4
54
-32
-32
127
5
41
-25
59
62
21
-1
-18
-31
-5
-14
49
-24
12
-5
12
25
-13
73
-3
-51
-13
-11
14
63
4
-9
11
-2
-62
32
-62
1
-32
-18
-30
27
17
13
-30
-8
17
6
21
-33
3
-2
-29
-41
-18
6
-4
2
-21
-42
8
-6
19
20
-29
32
15
-57
-38
-10
7
-29
47
6
21
-9
-41
-7
-32
-20
-50
-56
-8
-5
-84
-18
-50
-19
-41
18
-71
-8
45
-22
-23
-7
-63
-18
3
-18
-41
-38
-9
-23
-2
2
-22
-33
-19
19
-29
-12
5
-84
-55
-29
25
-25
-22
2
-7
16
-17
8
-34
-17
-57
23
13
-20
-35
7
24
-33
40
-48
40
-34
12
51
-56
-16
-38
-32
-4
52
-61
22
-36
6
-23
-14
-24
-36
-22
-46
-24
127
-18
-68
26
-20
-22
-30
-17
38
5
-61
37
-22
66
9
-34
-37
-23
6
72
1
0
13
3
-62
27
8
13
1
-3
-74
-12
5
13
-8
5
-8
9
-83
-47
-12
100
4
43
-5
3
-25
-33
-59
-39
13
-57
-63
-66
-8
-70
-83
-38
-5
-16
-31
-23
23
39
18
6
-73
6
-22
-36
-40
-37
-16
-64
-32
29
-7
-20
40
-19
-11
-76
-32
-49
-59
-40
-25
-2
-52
-12
-35
40
-73
-12
0
19
23
43
-40
34
-48
-25
-25
-24
-6
-14
21
4
73
-8
-31
37
21
-35
24
-7
-59
13
22
9
14
-24
18
64
16
16
49
19
-36
-23
-18
3
36
13
7
8
6
3
60
-16
42
-11
-32
21
8
-20
21
1
-5
26
48
-7
20
-36
32
44
-40
13
2
-11
-39
-34
14
-8
-69
-23
92
-17
29
12
-20
74
22
7
-25
8
-2
-45
-4
14
-8
-17
19
64
49
17
-34
9
-45
-56
-40
-14
102
25
-11
64
-12
5
13
0
-7
-60
-23
-24
6
66
52
-14
-62
43
8
39
10
81
-5
-34
-65
14
26
10
25
17
-47
-46
14
-70
19
-17
-9
49
-12
-62
-13
43
-1
68
-2
20
3
-53
31
-4
1
-45
-32
-45
-11
-85
-34
-45
-9
6
-72
-51
-37
-38
92
15
-3
55
0
-35
-3
-90
-32
-95
-55
1
-26
-57
46
-14
-4
-17
-13
-49
-58
-41
-53
-59
-41
9
-3
-37
13
-30
0
9
27
22
-64
4
-32
19
-29
-45
-12
36
-1
-38
57
15
-28
-11
0
-44
-7
-14
-58
-2
-23
-23
5
-36
-14
-13
-5
-36
46
18
-43
19
-41
-21
52
-20
-1
17
11
-15
10
15
9
-35
-21
30
-14
-41
3
3
-13
-43
-28
-55
23
-16
59
29
-11
-22
2
-37
-22
28
-1
-18
-41
-17
57
-11
28
16
-29
48
12
26
-17
-18
-20
-20
-14
10
-26
13
1
-5
-2
-1
-32
32
-17
-45
-42
-14
67
-8
14
-19
9
-11
-28
0
-7
-13
2
-25
8
27
20
7
-46
33
36
3
15
-30
-1
8
-21
-2
42
-13
-9
-12
-20
-23
10
6
17
-19
-14
6
17
-33
10
-7
12
56
-15
15
-12
-18
-15
-1
-19
-27
21
-11
10
-19
-14
-32
-45
26
-30
-27
-5
-16
24
2
13
31
8
17
-45
-20
-15
-24
-27
38
-32
-53
-7
15
-10
-33
28
-9
0
-32
-20
-4
27
0
-17
-41
-13
-50
30
6
23
2
-31
16
17
-19
-37
-15
-15
30
-11
-11
63
-3
10
-21
-35
12
-12
12
44
23
4
-18
-4
24
-27
-34
8
-11
17
3
27
21
-27
5
49
-36
-19
33
18
15
14
23
37
-18
0
3
1
-50
21
19
11
-4
24
-4
-1
31
24
38
-15
-11
13
-18
-41
-69
23
-21
36
-12
-15
-6
17
14
-31
-9
-9
2
6
-18
1
-28
-27
9
-18
6
-22
8
11
13
-13
-34
-13
-14
9
11
25
-3
-51
8
-6
-7
-23
-30
38
29
-44
-26
-33
-28
-12
-8
-9
15
27
3
1
35
-19
34
-8
-34
22
1
6
-37
12
11
-34
-17
15
-33
28
7
5
-28
31
-4
-1
-49
-47
-39
18
-40
-6
-17
-22
18
-7
31
-25
26
25
-20
-20
-14
-20
-50
-5
20
-41
-18
-38
37
-29
-34
34
-18
95
17
-68
-29
-27
25
-12
-31
-10
4
28
0
41
22
-24
26
-2
-6
28
17
4
-5
12
-53
-31
-40
-49
-6
2
10
11
-55
11
30
15
56
-47
-36
28
-29
-24
-6
-7
1
9
-4
-47
-59
-18
-3
67
5
-6
-30
-53
3
-45
-21
-35
41
-9
-53
84
-30
107
15
18
3
-47
-62
46
-33
-7
-4
7
-20
19
5
-32
6
-39
15
-13
7
-34
-10
-23
31
-10
-46
13
-35
-1
-46
-33
-9
21
-35
-27
15
4
36
5
16
-11
-30
-29
9
-24
-12
6
44
21
14
4
-40
-23
-23
33
11
-4
-31
-5
-24
-29
12
-19
-4
37
6
-6
-33
9
-20
2
-6
8
8
-17
28
-34
12
-16
-28
0
-44
-8
-9
23
6
-31
39
-9
-36
40
-43
37
-32
-11
-16
46
-2
-30
-21
-6
-7
12
-7
-19
-43
-43
7
-40
16
18
60
71
-10
-36
-33
-24
-28
9
12
-20
-22
-3
2
-27
-10
-18
-7
9
-27
-46
-35
0
33
-16
-26
-25
-19
53
34
-23
26
9
-16
1
8
-13
-8
15
-4
-27
-13
-47
-16
-15
-15
-15
5
36
-35
46
20
-11
-4
-47
-27
21
-4
-7
47
-25
82
-33
13
21
30
18
-19
13
29
-58
-71
-63
35
4
-36
-5
13
-29
-50
39
-22
127
-37
-29
-35
-57
14
39
-28
16
-50
34
13
-23
6
-36
6
-6
37
-36
-6
-4
34
-46
29
0
-7
-22
-10
12
-24
-51
-22
30
-19
10
-14
18
-6
-20
10
-11
-5
-16
-1
-20
-13
-15
-3
1
-23
-3
-22
-76
-16
23
14
8
-26
13
-44
-39
-6
-35
37
13
-24
-5
-8
10
12
-33
-6
21
-27
9
-4
5
-30
-7
-33
6
-1
-37
-12
17
-15
-41
32
-30
-40
-7
-19
36
-45
20
-44
38
-19
-11
-19
-10
-14
-20
13
-28
-38
-5
18
0
39
-3
-25
19
-7
-40
-16
-42
-1
26
4
9
-23
9
-16
-19
-7
-21
33
-2
-22
-50
-15
20
36
-38
-46
9
-18
10
0
-12
-51
4
-27
-11
17
-50
-15
8
12
-41
-30
-76
-49
-21
-12
-37
-44
56
29
60
14
-39
-15
-56
17
14
16
-18
9
28
65
-17
63
31
-14
21
9
-53
23
-70
-58
-31
10
5
-18
-1
8
-23
-54
-16
7
27
-46
-25
0
-36
27
4
-59
50
-39
30
5
-1
-25
-28
27
19
-4
-75
-11
-10
31
-28
35
45
47
-51
-25
18
33
-31
-49
45
-24
-13
-9
-28
-4
56
-61
48
0
77
-43
25
1
48
34
-27
24
1
-11
-43
-34
22
-38
-12
41
-48
-20
70
-22
-12
-3
113
27
53
29
37
4
2
4
69
24
17
-42
-17
39
-19
2
9
-42
127
59
-26
-22
21
48
38
109
-12
-59
45
-6
-4
-28
-45
-21
-16
49
45
6
28
-64
46
-35
34
-39
27
8
52
54
-13
13
-4
-43
-17
-36
20
-7
-24
21
-39
-37
29
8
8
28
24
26
1
-6
21
26
15
44
20
28
43
-59
8
14
-25
32
83
-46
110
12
10
-49
-28
30
27
20
-29
-36
-19
-23
-28
8
-40
6
31
61
58
1
47
-33
24
17
19
-35
-28
42
15
32
7
-43
34
-45
-36
-6
26
15
-1
1
-79
21
42
8
-22
-19
20
-7
-7
-15
63
6
28
34
-16
-15
27
-24
57
1
13
18
19
-38
100
57
-26
-5
-66
86
44
38
-10
15
-27
18
53
4
23
-33
-38
22
-44
49
-13
-83
-16
2
42
6
43
-11
46
14
-48
-4
-38
10
-46
-34
3
-9
-32
32
-81
12
37
15
11
13
31
-11
23
25
62
20
65
-22
28
23
25
-31
-12
26
-33
19
6
-53
105
-17
-21
-41
12
87
13
98
-16
-28
-19
-12
61
-10
-38
-53
-47
-1
16
27
9
-103
29
-44
32
69
5
23
53
45
-25
-21
-7
13
-24
-67
-10
-37
-33
26
-18
-34
41
-41
76
27
33
18
12
-3
42
30
59
-22
-2
11
-7
-67
-6
-42
-17
49
44
-48
91
3
18
-84
-7
43
17
44
-20
-11
-7
1
-3
8
-18
5
17
5
60
24
-15
-66
-33
1
12
31
0
26
24
11
19
-19
16
4
-5
-51
-18
-10
-6
15
-38
16
81
-33
55
-21
74
-30
-8
9
26
-14
54
-22
-28
-29
12
-61
2
-40
22
51
-4
-57
70
12
-42
-32
-37
34
6
20
13
-9
-4
75
11
-7
14
15
-26
-28
-52
-6
-25
-34
-56
16
3
-22
72
45
43
-11
-49
3
-72
-9
-4
-34
6
-42
41
45
-92
33
54
39
41
-1
26
-35
-6
58
18
15
64
-50
5
-7
22
-46
1
19
9
34
-40
-34
109
24
-6
-17
47
50
3
28
-15
-52
-33
13
48
10
33
-37
-17
-17
2
-9
1
-33
-16
-19
-1
-2
12
58
46
-27
-37
-10
-28
14
-17
-57
-25
-41
-3
48
-24
2
56
-48
64
1
-6
-2
-6
6
-15
8
75
-51
13
-11
16
-48
9
-14
4
24
-7
-23
72
2
2
-3
-2
28
12
11
-21
-44
-40
32
3
19
21
-26
47
12
18
15
12
-22
-44
1
-7
-2
-18
35
27
-61
16
67
-32
17
-1
-53
-39
-10
-18
-6
-30
26
75
-28
64
-6
2
-19
-47
9
-30
-32
65
-12
-3
-4
14
-17
52
1
23
49
-59
-56
49
5
-50
-28
18
2
-40
-53
40
40
-13
6
2
1
37
-6
4
-26
4
29
7
-20
-17
4
-26
-22
29
4
-12
-27
6
-20
-10
-2
-2
10
-41
-22
1
1
-9
19
-14
-24
-9
-93
22
-14
12
-4
-20
-23
22
-25
12
10
-22
-1
-8
-11
-41
-23
11
9
-3
-20
-9
31
33
-54
14
36
9
42
-3
7
14
-65
-43
-47
-16
-3
-38
3
-22
-48
-7
10
14
-72
-19
-48
-29
-127
33
28
-102
25
-77
-36
-19
-98
-29
-30
30
-9
-30
3
-18
-79
-16
-79
27
-11
4
12
-16
-23
43
-39
-16
-35
-17
-24
-59
-17
24
10
69
-27
81
12
-5
6
29
14
14
-23
-19
-19
-11
29
-12
4
19
-5
18
-5
-2
21
-4
10
-4
-4
9
47
-35
0
8
20
-3
-27
34
-1
43
-39
33
-38
31
10
2
-3
-30
29
-28
26
-18
12
37
-10
-2
-5
2
5
39
-9
-1
-12
-14
1
9
-15
50
19
-50
-5
19
13
-16
-2
4
61
-14
-10
15
-2
3
4
9
-12
0
11
3
-22
9
44
-14
-14
-6
13
-15
3
-38
-5
4
-20
3
-5
-25
-17
-9
17
3
-5
1
-24
-17
-77
-6
-10
4
0
-2
-21
27
0
12
-5
-29
0
-3
5
-23
-25
-6
-4
-17
-15
8
3
13
-35
8
23
0
38
19
14
7
-18
-25
-38
5
-4
-5
-16
-27
-36
9
12
13
-44
-23
-12
13
-76
13
13
-34
-5
-53
-14
-3
-53
-17
-38
-4
5
8
26
-4
-64
-3
-76
14
0
-19
10
-11
23
25
-13
-20
-40
-10
-10
-38
-34
9
5
-6
-23
33
1
23
2
8
15
3
-15
-11
-3
-1
26
-13
-5
9
6
0
-6
12
5
-22
5
13
23
-1
26
-13
21
11
19
29
-14
-2
19
15
-7
10
-24
17
2
23
18
-7
26
-9
4
11
21
23
4
10
-15
-24
-1
-4
-20
-7
1
6
-4
-11
-12
-50
-13
-17
-14
-11
-25
-18
7
-13
36
8
6
27
19
14
24
6
8
-39
13
-39
-22
-23
11
14
-33
11
7
-2
-36
-35
-43
1
2
-30
-37
-16
-9
-1
37
8
-8
-9
-43
-12
-60
5
-30
45
12
-8
-20
0
2
30
5
-13
17
-12
23
-66
-23
11
12
3
-10
6
2
-23
-57
6
31
0
29
-5
9
-15
-21
-25
-42
-10
9
9
-12
-50
-38
-7
-9
6
-28
-15
-43
34
-81
34
-7
-29
-15
-57
-29
-2
-8
-15
-91
-37
-29
17
26
-22
-58
-2
-111
22
-16
-32
3
-28
5
29
-23
-10
-56
-23
-26
-7
-32
1
9
33
1
126
-16
23
42
33
14
-24
-47
10
13
-12
26
-5
-3
6
34
10
-8
16
16
-35
2
6
16
0
28
-8
-10
-21
11
38
-4
27
21
28
2
-7
-42
-33
0
21
17
-2
25
-8
-21
10
16
1
0
10
26
5
-13
5
-10
18
-11
27
8
7
-10
27
-2
-28
-1
-18
-5
9
-5
18
-8
-23
35
-34
-5
30
3
43
-15
-18
-13
-44
-20
-14
-19
-1
33
31
50
25
52
1
28
-82
-55
-47
-18
-31
-21
35
37
-47
-28
7
-1
15
-2
18
-3
10
22
3
65
-1
-38
-58
56
-20
-45
-37
74
-29
-32
11
-28
14
-32
-21
-72
-55
30
5
-50
-2
-27
2
4
25
75
-35
60
-17
-15
-63
43
19
-4
-52
47
3
-24
-32
-2
7
-6
6
41
-71
10
-65
-22
-16
0
64
-4
-51
-22
-47
6
2
-63
-10
35
-41
-7
12
-19
30
-77
-26
80
-24
-41
-63
30
-7
-59
28
12
8
-42
-20
-53
25
61
-32
13
-27
24
41
15
26
-1
-43
2
-41
-37
-83
16
16
12
-21
56
29
-46
-79
-9
23
-87
28
22
-77
-3
-36
-38
83
-16
-10
61
-72
-5
6
34
-62
-33
-10
-11
-19
18
42
-17
1
23
-30
-37
-52
-35
-78
-47
-30
-17
-2
15
28
-11
42
-23
-29
-20
52
-36
14
-37
-59
35
9
27
4
-11
17
-9
-3
22
-27
24
15
3
-11
-6
8
2
21
65
-23
23
-55
-2
-47
-55
-27
-22
15
19
28
10
-76
-26
20
-42
-12
-21
-14
18
-6
-15
65
-16
-72
54
-6
-33
-40
71
13
-1
31
15
19
-127
-68
-24
-53
19
3
-22
44
-46
16
-49
-43
85
-64
5
-32
-7
-73
20
19
-19
-2
-1
12
-64
-50
-33
6
-29
-27
44
-46
31
-48
-47
20
-40
22
-14
-33
-3
-47
-29
-8
-54
-29
-30
-86
8
-18
-50
-6
-46
8
8
24
-39
-54
-17
19
-60
24
3
-11
-49
-3
-27
56
26
-5
31
2
7
-7
-58
-46
-6
-2
5
16
-5
-33
-24
24
15
-57
2
42
-19
7
-12
-28
20
29
27
-66
-9
8
-48
35
-2
26
72
-75
-16
54
-1
19
20
17
-14
-13
0
-30
34
-13
51
10
-32
-18
-36
-27
-42
4
-3
-17
0
28
2
-14
25
-58
-61
64
-22
41
-17
-4
-28
-5
94
-56
60
-34
14
-35
29
-25
20
32
11
-11
-4
37
-17
50
-31
2
12
-33
48
-60
-52
13
7
24
-19
24
-33
-47
-42
-10
-32
-15
-44
-31
-6
-24
-45
32
6
-41
15
9
-28
-59
-11
6
-19
2
11
17
-25
-38
-39
-31
18
-7
21
37
-40
18
-44
-105
12
-59
6
19
-38
-24
-49
41
-19
-56
14
38
-22
-20
-18
-14
13
7
38
-19
13
-9
-11
16
17
4
-1
-69
-7
15
-39
-16
-1
29
-45
-72
4
-79
-20
-46
64
33
-109
12
-11
-23
-30
49
-28
8
13
-6
-14
-8
-18
84
-8
-11
-13
-18
10
-18
4
-83
-40
23
-74
85
20
25
-55
36
33
-78
-9
73
24
50
9
-50
42
-20
20
10
2
83
5
12
16
-28
54
-62
-30
32
-20
25
49
3
14
40
-36
-25
20
2
20
4
12
-19
9
45
9
43
56
-16
18
72
5
-23
9
-51
-28
15
-39
3
-20
-54
-27
12
-34
-53
17
8
-61
58
10
12
-30
-51
19
-11
-48
-82
-40
58
-40
75
31
-80
-60
-84
-53
-19
18
-12
-16
9
1
-87
40
34
-68
-24
-119
-55
-19
-82
6
-26
-8
-57
-9
-42
126
-43
56
83
6
-45
17
-35
-19
-11
-42
-18
-5
71
-77
-91
7
-57
-41
-34
-52
-30
-44
-20
-16
-16
-28
27
-26
-51
14
-13
-18
-24
-5
-43
-20
23
14
35
-10
2
-21
-16
-15
-71
-22
44
8
-8
96
-78
57
-21
58
-60
11
-28
-50
-19
-9
70
-8
65
127
-28
-30
-42
-23
10
23
33
24
-20
-58
-5
-6
19
-60
-25
10
42
-50
-10
22
17
-14
-35
-3
1
-3
15
-17
21
-20
-3
-40
-20
24
-60
-76
11
-45
-2
7
-12
-32
-14
-32
-11
41
41
16
55
61
-22
24
3
59
-54
-26
20
-80
-11
-6
49
-56
58
56
-11
-9
19
16
33
-30
-11
24
13
-40
-45
-34
-31
-51
46
4
-31
-35
-14
-27
-14
0
-31
-75
56
25
20
-44
-46
2
16
-29
-44
-46
18
-86
32
-8
-34
31
-85
-71
-33
-15
-27
-18
-6
11
-15
75
27
-56
7
-96
-53
-32
-40
37
-82
36
-15
-65
-38
66
-122
-48
42
-64
-38
28
11
-11
-4
-44
-31
49
11
-26
-48
0
-42
13
-30
-25
-75
-54
27
-50
-19
22
65
10
-83
27
116
10
-56
-13
1
6
3
88
30
-7
60
-90
5
-5
-118
-8
-80
96
-22
40
-5
106
7
-75
-51
-50
-17
-21
7
-27
41
4
54
97
1
-70
-69
5
-14
93
-2
4
-3
-54
38
-16
-5
-9
-25
27
-63
55
-37
-1
-41
-21
39
15
25
-5
4
44
-23
-39
95
33
-10
1
1
49
-52
-3
-9
-24
34
-44
12
17
-12
30
-41
20
47
-64
6
56
-1
11
-16
-33
35
-16
39
28
10
12
3
27
16
40
-3
25
31
54
-34
27
17
16
6
-50
-23
-34
43
4
24
-63
6
18
22
25
22
-9
31
-21
-4
-21
3
17
-31
-21
33
18
3
-54
32
-16
14
79
-64
-20
-34
-12
43
-48
1
19
17
-26
-26
43
19
-16
12
75
-8
3
-16
25
-15
-1
-19
15
-4
-22
21
-27
7
-15
-20
12
37
-51
6
43
-41
-22
-2
2
35
-19
-21
-37
2
4
19
-35
-16
-49
22
-21
-52
11
53
-14
-16
20
38
-10
-14
42
59
-6
10
-38
5
31
-11
18
-72
15
14
-74
8
42
-6
-6
-19
14
-32
-6
24
10
-20
3
45
17
-5
-31
-19
15
14
49
-26
7
1
-64
40
-23
-42
-7
-11
3
-40
35
-68
-10
-22
-3
59
-7
26
-5
-24
18
-37
-34
52
32
-42
-6
-6
-31
-50
6
14
-47
44
-10
3
24
-19
36
-61
-47
13
-18
5
8
-10
2
5
-33
-9
-13
31
0
18
-15
29
0
6
-37
2
13
32
47
-11
14
8
-28
-46
-18
17
10
-13
12
-18
-40
25
8
-5
-7
-33
-16
-51
104
-48
-68
-43
10
-16
-28
15
-24
-13
-54
-7
2
-29
69
18
24
22
-38
7
-28
-63
-14
6
-6
-33
-27
-37
-61
-12
-12
18
-33
32
-11
-44
-4
-20
-25
-47
9
33
-32
19
13
23
-26
20
26
-30
-9
44
-24
-51
16
-16
-41
4
-4
-24
-17
-53
-11
-20
53
-18
-74
7
41
15
25
-14
11
-3
-43
27
2
1
48
17
74
-4
-4
-20
-26
-25
16
-24
2
32
-60
30
-6
-13
38
59
-31
47
-20
-3
-35
43
28
-29
-18
26
-3
-36
75
43
-18
-21
30
-5
38
14
2
-23
35
18
2
21
-45
-42
5
-47
3
5
-12
-2
-39
4
36
-12
49
-71
-28
-31
-83
-38
-12
13
75
-8
30
-27
16
-78
-21
-16
-18
-13
-27
32
-51
45
-39
19
57
25
5
55
-18
14
-52
2
-39
-54
16
22
-29
-60
54
-1
-1
-5
-53
-11
6
-16
-39
22
-22
-9
3
2
-48
15
-35
17
-47
-42
18
-95
-50
-28
-2
1
-32
-29
-83
-32
-33
6
9
-81
4
-3
-38
-24
-24
-28
-14
4
-20
23
40
-3
-49
-69
-85
-8
-2
-23
-64
14
56
-38
31
-39
7
-64
-28
57
-61
28
-1
14
-23
1
37
-28
13
26
-87
22
-24
-48
-32
17
-25
-23
-44
-16
-56
-57
-2
-92
-36
-21
36
22
-16
-21
-26
-25
52
28
90
-28
6
9
-36
-10
21
126
-2
-7
37
0
-19
10
-14
-21
-36
-13
15
32
-51
28
22
-5
-5
31
103
-41
1
44
-57
-20
56
7
-22
-11
127
-12
48
9
-59
0
-6
-2
-1
-1
-33
-19
2
15
17
-57
-27
-54
-27
-35
47
10
11
-25
-56
-37
-10
-49
-16
-21
39
-12
-21
-55
36
23
-23
-36
1
-21
-18
-16
-8
-10
-38
-32
44
-18
-58
39
9
-5
-12
12
-8
11
-16
-14
-61
-26
43
-8
5
-4
39
-104
41
25
51
58
-36
-11
48
26
-103
-3
6
-25
-25
48
23
-50
-39
-14
14
-9
-7
-35
-68
-24
-35
-29
55
-46
-84
56
-51
39
-4
-41
-38
24
-34
91
9
23
-33
-44
-55
30
41
59
-64
8
90
-19
32
5
4
-48
-54
14
-30
-55
-36
2
-13
-33
-6
-75
88
17
7
78
-2
-38
10
44
-37
-27
-43
-60
-67
-31
-7
-54
-28
12
-28
39
-76
-86
-29
-29
-36
-52
55
-9
-71
30
-37
70
0
0
-18
13
45
33
-29
-9
2
-49
-30
40
-8
54
-71
2
69
-13
4
4
-23
-57
-32
7
-59
14
-15
-13
42
-1
36
-65
28
-6
8
15
-25
-6
30
47
-23
-26
-23
-57
-33
-58
-56
-55
-25
-7
2
17
-67
-34
-21
-45
-25
-14
-4
-36
-65
-24
-37
-26
21
5
-9
19
5
6
-12
-51
10
-41
2
9
36
15
-73
6
51
-46
-6
-24
-11
-26
-38
-4
-58
34
22
-36
14
-55
66
10
-3
1
45
13
28
-7
-10
33
13
38
34
59
-20
-20
-54
-11
22
-47
-50
61
2
17
-10
30
64
-16
-28
26
46
98
72
-41
-48
16
-2
-16
12
23
-12
3
15
38
-23
19
-22
36
23
-2
13
-26
-15
-26
18
15
30
-3
1
9
-7
14
10
16
-23
1
-19
-42
30
-19
-25
-32
-3
88
-3
19
-13
18
-49
21
12
-40
-13
32
-26
-18
-34
40
-63
-1
-39
-33
-43
-100
41
-60
-2
-67
-43
-25
3
19
-41
4
-73
7
-99
18
-45
-30
-19
38
-17
-72
11
-37
-44
-60
15
22
-12
16
-16
-12
1
41
-39
-44
0
-55
71
31
-3
-2
0
-70
-106
43
52
-49
-18
-37
-32
-10
-8
-24
-37
-30
-20
2
-66
-21
-60
-2
-68
72
62
5
33
-59
-68
-3
-38
-53
-6
-18
-9
-54
91
-58
-19
-17
-56
-100
-27
7
10
-30
-26
42
-50
114
107
-3
-39
100
-75
-24
31
-28
-45
-40
-50
16
25
8
48
0
-18
-25
11
1
61
10
2
-17
58
-26
-33
3
32
-45
-14
-19
13
-2
-26
-60
66
-39
4
46
22
33
-23
-37
11
-15
46
22
-28
69
-69
-46
12
45
74
11
4
39
-10
-27
10
-6
-34
-12
27
3
21
-47
-44
8
-11
58
2
-42
-19
-1
-78
-32
-10
-5
-25
-46
-11
4
-8
42
12
-35
-36
-24
-28
-26
-7
-51
-16
-62
-22
21
-86
-41
-93
-20
5
-50
39
-99
-60
-36
-60
-17
14
18
-53
27
-49
-41
-112
-11
-17
26
-19
9
-75
-61
7
-25
-21
-37
6
-24
-29
-11
-37
26
33
98
-62
-29
9
9
33
61
7
12
-81
-40
-72
-8
48
-23
13
-27
-73
-2
-61
-25
1
-51
-21
44
-60
-41
-23
14
-106
34
88
33
95
-50
-51
4
-64
-27
6
-20
30
-78
48
5
2
-6
-48
-48
-40
12
-31
30
-40
-20
-48
92
67
-15
-50
73
-25
45
64
22
-46
-5
7
-8
13
-15
9
-38
-22
-12
20
-18
32
-36
19
11
93
-20
-48
15
-1
-43
16
-60
40
14
-43
-74
12
51
13
30
1
6
-14
-31
24
-48
24
1
-16
28
-2
-39
11
38
42
-11
0
26
23
-28
20
26
-12
17
69
15
22
-36
-56
6
-14
54
8
-5
-22
-34
-79
-44
-35
33
-22
-1
-9
-48
-41
33
7
1
-27
-36
-18
-9
13
-18
-13
-45
18
17
10
-41
-112
-27
-2
-19
-10
-89
-70
-22
-31
-72
-12
29
-53
17
-50
-19
-64
15
-43
-9
-29
22
-44
-54
22
15
-44
-20
30
-35
17
45
-16
23
74
55
-13
2
-22
6
31
30
33
99
-36
0
-69
-43
42
-19
-35
-6
-31
-3
-22
-11
33
0
12
127
-21
-23
14
15
-117
25
72
48
32
-61
-27
50
-51
-16
8
3
5
-71
6
-13
28
11
-3
48
-61
8
-33
42
-14
-22
-74
9
13
-2
-32
48
-10
-12
37
-56
-25
-15
41
-28
-27
-37
3
43
1
28
17
-46
-29
13
-21
-37
-24
-7
4
-43
-51
-20
-8
89
-9
-16
12
-60
-50
27
17
57
-10
16
-62
-18
-31
-30
-18
9
3
-24
-18
-12
-24
60
-25
22
-42
44
-37
-47
41
-42
-5
-8
23
-63
2
-37
20
-41
-19
13
-2
-7
-10
-25
-15
1
4
28
-2
-20
27
4
36
1
-30
16
-48
6
-34
-30
-6
2
-36
58
6
4
36
48
30
38
-36
77
-15
68
-8
-18
-29
48
14
-52
78
-7
8
-4
38
36
16
-41
-8
26
-12
1
-44
-42
72
17
55
11
24
-37
-9
-41
16
1
-30
-34
39
-13
-3
8
-8
-11
29
12
13
37
38
-9
9
12
6
11
17
-20
-5
12
8
-32
-16
-48
33
34
-19
-11
-20
-34
-51
-43
-4
-30
-13
6
-6
-12
25
-32
-21
30
-19
18
-12
-1
-35
-15
2
14
-31
-4
57
5
-3
4
29
-12
-1
8
-5
15
-47
-13
-4
-28
-25
-8
21
-36
15
11
33
-55
-29
19
11
-45
-24
-30
7
6
-18
2
-24
-36
1
-83
5
-45
13
-6
7
-34
-5
45
-20
6
30
-19
-1
1
-70
-28
-41
36
-10
4
-53
-5
-10
15
-83
-28
127
-44
-35
24
8
-94
26
-62
-40
-36
-1
1
56
-20
-27
-36
-86
6
-5
17
2
-10
55
-23
-14
-1
22
-33
-69
-33
-59
13
51
-4
-32
15
-3
-75
-27
-71
-6
-22
-31
-58
-17
-28
-3
-24
-6
26
16
-38
-11
-33
-62
-69
65
50
-16
29
-59
86
-81
-27
50
-45
-26
4
17
-71
80
-3
-70
-76
5
39
102
-32
18
7
-38
34
0
-1
-13
-2
-16
29
-48
18
-4
4
-25
-3
-5
-41
-26
-19
-39
-29
-10
-54
-20
-76
-24
22
13
4
-20
-51
-9
3
13
-17
0
1
9
-6
-2
-46
-17
44
-46
13
-9
55
-50
-17
22
-32
-43
31
5
-41
46
17
-42
-28
14
32
52
-4
7
9
9
47
-10
-49
-29
-20
3
-6
-2
-27
-23
49
18
-19
9
27
-5
38
-6
-47
-17
-44
-28
9
7
-31
-32
-13
-9
19
4
-12
-31
3
43
1
2
-36
-43
59
2
-21
-8
-38
27
-38
-10
10
-23
24
-37
18
38
7
-51
9
-4
0
5
-2
-31
-30
-15
-23
-12
48
-10
-39
-4
20
0
-13
1
23
15
18
-11
-34
-19
33
-19
5
-22
-50
-2
-38
4
-29
47
-6
-9
-86
-13
22
-2
-46
-23
-16
55
15
-9
1
-18
-1
-11
-20
8
-2
3
-62
-12
-8
-6
4
-52
39
30
12
-39
36
-23
30
14
9
-2
-43
-26
26
-10
25
-18
-18
-11
9
-4
-12
9
27
28
39
-6
-22
12
-3
-14
15
-51
-49
-2
7
-10
6
24
5
18
-28
11
1
26
-19
-17
0
-19
10
9
-3
65
29
-20
-22
25
37
13
-60
1
1
-14
-23
-30
37
10
-34
-10
11
-33
-1
11
8
-33
-20
0
44
-68
-16
16
25
-34
8
-8
37
-65
-18
-4
21
-47
-13
-55
15
-8
7
6
83
-62
28
-71
17
-71
-2
-39
5
40
-34
-48
-6
-12
-28
-11
6
37
-26
61
0
-60
12
-43
-20
-10
-34
-53
-30
-21
15
16
32
30
14
-2
33
-8
20
-11
-3
30
-41
-43
18
-53
1
-16
25
-49
-26
-8
68
-71
-24
-13
8
-30
9
-32
-22
-15
-7
-28
103
-27
-3
-53
69
11
-39
-6
-20
20
33
-57
-38
15
73
18
-16
77
-34
51
-8
-34
24
-35
30
-21
-32
-23
-42
-1
7
73
38
38
36
1
-5
31
41
-29
25
-6
4
-38
47
-33
9
-46
22
-15
12
22
25
-20
-63
-2
6
29
-4
13
-1
-6
7
-30
71
-53
33
-61
34
-39
-29
-42
-9
19
28
-88
-43
13
-12
-14
-4
22
-18
26
-29
-39
4
-58
10
-45
1
-39
-49
9
26
53
27
-16
18
30
-19
12
41
-35
18
-14
-8
-55
26
-15
-36
34
87
2
5
1
-30
-46
22
-9
-5
-15
9
19
-11
-23
-4
16
22
-59
-1
-34
13
-127
-12
-77
0
64
-15
-68
-5
4
-49
11
-15
8
-22
-2
-5
-9
-9
-51
3
0
37
-45
-21
11
12
50
26
3
-16
10
-15
-7
-38
7
-36
20
-15
-28
-29
-9
-8
49
84
-10
-29
4
12
-49
-25
-27
-24
-32
94
27
-33
-34
1
-10
49
-56
-12
-53
78
-12
-62
-36
-20
35
3
-100
28
15
-12
55
-2
40
-17
13
12
4
45
-23
6
-17
52
-31
0
-38
7
50
40
-24
-16
22
-6
11
-16
0
27
14
-28
5
-7
-48
-11
12
41
20
24
20
42
-24
-21
-11
-20
-5
31
25
-22
-7
30
0
40
-54
-27
-37
36
-49
-27
-26
-31
27
-43
-88
-20
14
-18
-20
34
-2
-20
7
-14
-19
20
-40
-13
-28
9
-31
-14
16
5
29
34
-17
-22
-3
4
6
12
34
13
24
6
-39
-1
-34
-40
2
49
-15
35
-11
-66
-49
51
1
19
14
-4
20
-46
-9
-10
1
-15
-22
32
-4
-21
-83
-16
-62
-45
1
-2
-9
-4
48
-31
-11
12
-24
18
-14
-43
-37
5
-19
-18
-3
5
11
1
60
2
41
20
0
-21
-19
-21
-14
-21
30
-25
26
-59
-34
-26
-12
2
4
13
18
-39
-24
-12
-30
-17
-17
-26
7
43
4
-32
22
-21
-5
-27
-27
27
-15
-8
-22
-44
-43
-10
-4
-13
-59
33
34
19
35
-16
-18
42
-8
-17
-12
30
-10
-34
-14
36
0
-5
-5
3
-12
-1
33
-18
0
11
-19
-15
9
20
59
-31
2
-23
-42
29
44
12
18
-20
-26
58
-44
-2
-18
10
-16
27
-8
-17
4
-3
4
-23
-15
5
-15
34
-34
-7
-21
-13
43
-49
-28
-4
45
2
42
37
-31
34
-18
-9
-35
12
1
-10
34
-24
13
-8
8
-2
-22
31
-14
20
-9
33
-12
23
20
-14
20
-22
-28
-21
8
-32
-14
7
-65
-46
33
-25
-19
-56
16
-39
-10
-60
-43
-3
-26
-17
38
57
-28
-15
-33
-20
14
-13
34
59
-13
127
-22
-36
-4
-32
-17
-64
2
17
43
-69
28
79
19
4
-55
-6
18
8
-9
11
-27
2
9
-26
0
-16
-52
-37
10
-4
15
-17
-49
-4
10
-34
-20
-20
-28
-35
2
-39
-26
-10
-12
1
6
-15
-52
24
-15
-32
-4
18
1
29
13
4
71
-47
-32
10
-13
27
-36
-41
27
-16
13
-38
31
14
-10
-21
12
59
-18
5
-17
-28
-7
25
12
15
-3
6
37
22
-11
9
-45
-31
-36
1
-2
-54
-31
29
-1
-42
-21
-7
-26
-11
-6
-29
32
-31
-8
-5
-4
-8
-64
19
6
-49
-26
69
-5
54
31
14
13
-72
15
37
23
-3
-36
-62
18
1
-5
-25
25
10
-29
-30
13
40
-35
-4
4
-3
-37
21
20
-6
29
-10
11
-2
-40
17
-26
15
-5
-15
13
14
-5
-55
-13
-40
40
3
-35
11
2
-34
-25
-31
53
-52
-5
-54
-34
-4
-11
-55
32
0
-37
-8
-32
-36
-35
-16
-4
-6
-37
-52
-13
-43
28
-14
-14
-70
-55
49
-3
-11
-53
4
17
16
14
1
12
7
52
-16
-7
31
13
-38
-7
-16
-51
2
26
-11
-4
-18
-17
-60
54
-84
-3
27
-7
7
8
-54
-35
-30
3
-22
-5
-46
-28
16
-10
-65
-4
82
-1
-13
-47
11
-22
-27
-41
26
5
61
10
9
21
5
-10
-80
10
-10
-29
-40
-3
60
-31
19
-28
23
-19
-13
12
-14
-19
-1
7
-26
4
-21
-46
-31
-8
-23
10
-26
-9
25
6
-48
-38
33
2
-11
18
-22
3
-36
-26
4
-30
0
-45
48
11
-57
-6
51
17
69
-13
57
16
-81
-1
5
17
48
-56
-7
28
-7
6
-26
42
12
-23
-13
19
71
-40
-11
-18
-3
-39
10
44
9
10
-28
-11
30
-33
7
-26
7
-21
-44
1
13
-28
51
-79
22
80
-7
24
47
0
-14
15
19
30
58
-29
-22
11
-24
9
15
-7
-24
10
24
-20
19
-13
16
-5
-58
22
-69
-57
45
0
19
9
-7
-6
5
-34
76
-7
-21
9
-17
8
-108
-5
17
-9
24
41
-5
-7
27
-12
21
-5
27
17
37
-22
0
-42
-9
-29
-33
40
4
18
49
-26
-46
0
-15
7
-5
-64
-52
-12
6
-30
-39
22
-26
9
-23
-25
-17
-29
10
-7
-52
44
-39
26
24
10
0
2
-53
-43
-5
-11
-11
-24
2
2
-8
-9
-43
-20
-21
58
2
-2
28
-20
-64
-46
-19
-23
0
28
35
-2
3
-14
13
0
-73
-17
40
-7
4
-20
-37
-4
-8
13
-13
-27
-33
22
70
-31
-31
-15
39
36
24
-14
21
-56
-13
0
13
-18
51
0
8
9
-3
8
-14
-22
-39
-9
17
0
75
2
-17
-45
27
-56
-17
33
9
-13
7
1
-46
-71
-14
-4
-7
5
-6
58
0
-6
-33
-64
50
-15
-11
-53
17
-25
3
8
-25
-37
17
10
-24
52
19
-31
-38
0
-17
-22
-6
-13
-41
-26
-5
7
-48
5
-4
45
-31
56
-25
-26
-41
17
12
-4
-2
10
-2
12
-7
-8
-40
14
8
11
24
-18
-35
-36
48
-70
-31
22
4
-21
20
29
-29
8
-39
-45
-16
-37
-35
-29
61
-70
-55
-89
12
-36
-18
32
-35
-51
10
-41
-47
8
-25
45
37
-45
-72
-8
31
-11
24
18
19
45
11
76
-45
-27
-41
-16
-2
19
1
-27
8
25
18
39
-16
64
-16
-4
23
-38
-33
-4
62
-106
-19
-33
-34
-20
23
1
-32
5
-78
-15
-43
-54
-24
-1
22
-50
-45
-127
70
10
-72
45
-57
-67
-19
-33
-47
18
-64
-12
64
-26
-30
-62
-26
-42
35
-11
-3
11
26
53
-31
-20
-84
-24
-8
12
-29
-61
30
40
-17
-2
6
63
28
-28
-2
-25
-43
-7
-16
-55
-16
-37
-43
-5
2
-3
-35
-60
-31
-1
65
-9
11
-41
-22
-21
28
-5
-32
-65
-29
10
-21
16
7
-13
-7
17
4
-15
-4
-9
-22
3
-42
-22
-28
10
-31
-31
-18
-5
-11
-5
10
25
19
-26
-16
-6
8
44
-23
6
-44
-44
35
3
9
8
-25
-47
-37
-19
-27
-29
-15
0
1
16
-26
27
-58
-12
51
-22
-21
-13
14
-53
-2
10
-55
-42
-10
-12
-10
-27
-15
-10
-1
38
-1
14
-5
-2
-15
38
28
-40
39
74
-4
-6
-34
29
-9
13
-16
3
-4
-59
10
-21
11
6
-21
10
-19
-4
9
-21
-13
-28
-14
-9
65
-71
28
-25
-60
22
-2
6
-25
43
-73
-41
3
-27
-50
40
60
-27
-41
-72
-2
-14
-38
-23
-3
-10
4
-11
-9
34
-15
25
0
-18
-15
-20
-4
-58
52
62
-35
25
16
38
-43
-5
-25
-41
-18
-22
10
-54
25
20
-15
4
-6
29
-38
-29
2
-18
-2
25
78
-59
6
-26
-52
-22
-39
-7
-12
-4
-31
16
28
10
-2
-40
-33
-38
34
27
-41
-35
-42
6
-2
19
23
3
-2
34
2
-12
7
-9
4
-29
-38
-8
-3
15
-31
-18
-13
17
-23
-21
-13
11
12
-32
-11
-13
22
10
-8
3
-25
-7
41
-15
-31
-2
-37
-6
-35
0
-5
-49
5
17
-14
-5
-45
35
-25
22
29
-35
-18
-25
-6
-19
42
92
-37
-17
-31
-10
-8
39
2
-5
10
8
26
0
-4
-14
37
-9
-36
-6
-4
63
-14
-34
-17
15
5
-13
-12
4
6
6
5
-1
22
-24
18
10
-24
11
10
-32
8
-17
-49
16
-1
-18
-13
-35
17
20
-20
3
-28
48
-29
-5
32
-43
-34
0
9
36
-66
0
-38
5
-5
-26
4
39
7
-3
-36
20
39
-1
-35
-13
33
-40
12
-15
-35
42
-44
10
-17
-8
-12
22
6
-21
-1
-5
19
-12
19
-31
-5
33
-24
-22
4
-24
21
-32
-37
27
3
-21
-50
-37
-17
1
-33
-13
-18
21
-20
-17
8
13
-15
4
1
7
8
-20
-16
10
-13
-20
-16
-46
12
-41
4
-27
-21
-24
-41
-10
-35
4
4
4
-5
-33
5
20
-34
-28
-6
-30
5
-12
7
24
-1
13
-5
-34
-31
-11
-57
-26
6
-28
2
-5
10
23
-5
-5
-32
-14
3
-25
-10
8
6
-7
-23
8
18
2
15
-20
-3
-3
-7
-33
-15
-6
38
-27
-43
-4
-28
-64
32
-5
-11
-12
-28
14
-16
12
26
28
-32
-7
52
-15
-32
-11
-8
-42
-6
-12
4
51
-15
-14
17
-15
-57
-21
-73
-13
7
-1
10
28
13
65
30
-6
1
-20
-32
-37
-20
-22
-17
9
-46
17
29
-44
33
-19
14
-31
-34
-7
37
46
22
-60
-44
38
-7
-53
0
16
3
-50
-13
6
17
25
10
5
-59
24
-10
-3
28
18
38
-4
19
28
-21
43
-23
-31
-2
-2
-29
-6
-44
10
-12
-23
-21
26
-13
43
-21
3
-12
-36
-37
-64
-62
-27
-31
17
-34
-8
12
-30
-44
1
3
-31
10
-1
15
25
4
-36
-13
-44
-14
-23
-10
-23
-28
-7
17
-27
-12
-5
-17
-15
11
-4
3
-5
3
-3
7
-16
26
15
14
-8
21
11
20
-18
-3
6
-17
-11
18
14
-16
5
-34
-20
-18
-8
-36
-6
-20
-11
5
1
-6
-20
-57
31
44
-33
18
-22
37
-7
17
6
-47
5
-42
-48
-3
-29
-49
-14
10
-39
-14
-15
-12
15
3
2
21
3
-13
5
50
46
15
2
32
-14
70
-4
-17
11
-2
27
56
7
-49
-40
66
10
17
18
-24
57
-21
40
2
80
-30
-45
-65
-28
43
-29
2
-19
-57
30
15
-31
36
-14
38
6
12
33
-25
1
-58
-30
4
41
-36
-31
40
-32
45
-43
-75
-28
19
-7
-7
-17
-27
-19
31
107
-19
7
7
-16
-18
63
-50
68
29
19
93
4
-31
-39
-4
-6
-25
9
30
57
-52
13
-30
127
-15
-72
-55
-29
1
7
23
11
-32
-16
8
-26
-26
-6
6
-17
30
16
7
12
5
-6
-44
-39
-2
-15
24
-39
6
-13
8
-59
-12
-22
-42
-18
22
19
12
23
24
10
6
-8
-16
-23
-36
5
10
-16
6
-10
26
54
-2
-5
8
31
-5
-19
-54
-21
-50
43
-25
-27
-4
-1
31
-13
-32
-26
-28
-26
-8
27
-29
-11
30
37
37
-8
-64
-9
-58
-33
10
-65
15
-8
-19
-49
-26
-4
-8
13
-21
-7
-73
-7
-21
-32
6
63
-4
-17
-44
23
8
-80
11
-7
-20
-1
28
8
-4
-28
-24
-45
-51
81
-10
-6
-47
3
-66
77
-10
-69
-23
-8
93
89
-44
-26
23
11
10
10
10
-4
-7
31
38
-34
-35
7
-54
-66
8
32
-19
-19
-11
-58
-7
-10
-23
1
-48
-51
-4
-10
-17
-78
-22
49
-28
-29
-56
-19
-7
-61
40
11
0
-29
90
-1
55
-30
-22
-33
-46
39
-18
-14
-60
0
-43
48
43
-74
-10
47
33
70
-25
4
-15
-44
-9
-13
14
-17
-20
20
41
-70
-82
-33
-64
24
-27
2
-10
16
-26
-29
-32
31
-42
-26
-45
-94
-33
32
2
28
60
32
-40
-39
-43
-41
46
-16
-11
-15
-57
-2
-44
22
12
54
21
-47
-78
14
33
23
-58
-55
-4
11
-48
-25
-27
-21
22
9
-20
-1
-11
-45
-32
-49
-15
4
-33
-8
6
-1
-86
-52
0
-16
-12
17
-32
-41
-16
-62
39
74
9
8
-28
-82
-26
-15
52
96
53
-11
-42
-93
-15
-6
59
27
-64
13
-24
74
-13
-51
57
-49
11
-11
-50
-37
15
24
-5
0
80
28
-59
-62
-18
15
-17
-12
7
-9
-27
-78
-23
-35
-4
-17
-5
-22
23
60
-61
-22
60
-61
-65
-24
-34
-20
-46
-76
64
49
57
-38
-38
-100
-60
-70
13
52
19
-16
-20
-67
5
62
39
28
-28
-36
-2
56
-40
-10
55
-64
0
25
-24
-34
-35
-23
-25
-30
-7
45
-42
-57
-10
17
-42
0
-32
33
-33
10
-85
-19
44
-8
21
6
-28
-67
47
-2
-34
41
-65
-4
-32
-57
-61
-5
-27
-12
-66
4
-10
-60
42
44
-9
-10
74
-32
-23
-37
-7
-48
-17
-43
-10
-65
-67
-93
-53
32
39
7
-6
-7
-63
7
40
7
18
-14
-40
-57
-2
-50
24
55
30
-9
-12
-3
86
-2
-53
-33
64
17
-21
-5
-40
-14
-24
-28
-15
14
-19
-47
0
-60
30
-63
27
107
-35
53
65
-58
91
23
14
32
-34
-26
17
-26
21
-68
6
-15
-53
-34
-22
-19
-55
-58
-4
-112
71
10
-51
-64
2
1
-51
-5
14
0
54
-68
2
34
4
-16
-51
3
27
-71
-19
-54
46
8
-53
18
18
-6
-61
-29
38
-20
13
-55
-56
-44
38
-19
23
13
-3
5
42
-34
42
6
28
-6
-104
-32
38
7
69
-21
1
-3
-30
-75
11
-27
-58
-75
33
-104
-24
16
-42
-41
-27
-31
-33
9
-32
40
75
-70
14
85
-3
-21
-56
39
-38
-12
-91
20
10
38
-49
-31
-67
-1
47
23
127
16
-54
52
-40
-58
0
-69
-20
-58
-60
40
-2
-32
22
-37
19
32
56
-19
-39
18
-8
-19
2
-55
34
-7
6
-76
-49
-25
-56
1
-20
23
-65
38
-31
-48
1
-14
-5
-66
-18
-16
-9
35
-11
-19
-23
15
17
29
-45
-10
80
6
-31
-15
-48
43
-64
-7
-1
15
-32
33
4
-61
25
-39
30
3
-39
96
71
-35
2
-40
48
33
-51
-51
16
25
-32
-37
56
-38
17
-24
57
-19
-43
8
-94
-104
86
-14
-43
-43
-25
-48
-25
-7
-22
-43
33
-39
7
23
-28
28
-7
36
-20
27
9
-22
42
-1
24
30
5
-12
-65
20
34
-5
0
-85
-58
-38
28
16
4
-3
-13
32
110
-37
1
-2
72
-6
-102
-28
58
-2
0
-17
36
14
23
-84
85
-46
-50
23
-78
-60
-24
33
-47
-109
-8
-40
6
-23
-24
29
19
-54
22
-7
-48
13
-25
58
-79
-48
85
17
-127
-8
-49
-41
-16
-21
23
-29
-17
31
-12
-8
3
-61
3
-9
-37
-2
-28
-44
-61
-12
12
-14
-79
-7
-23
-44
38
65
-23
-38
16
-55
-69
-53
8
-1
13
66
7
20
-20
2
-32
14
85
-74
37
15
-12
-28
-5
-25
30
26
117
-70
-41
-4
-23
-49
44
-46
-61
22
-2
-88
-41
-26
19
-5
-35
12
-38
-7
13
-39
-27
-21
-13
-43
-26
12
-79
-12
24
14
-29
-18
-14
-11
25
33
-38
-77
64
-13
-23
-21
-31
21
-8
54
6
31
-22
-57
-64
10
120
-98
102
3
-11
-72
-2
-43
-16
18
53
-47
-8
-9
-1
-57
-8
-69
7
-16
-50
-76
-45
4
-14
-32
1
-2
-6
-8
4
-15
4
-35
-16
-33
37
-9
-13
-12
18
-6
24
-27
26
20
-3
25
-3
-27
-12
19
16
7
-6
-10
14
-8
21
33
-12
-26
-63
-16
74
-74
31
-25
-7
-64
8
-11
-5
-41
38
-19
8
-48
-30
-13
47
-18
-55
0
-27
-54
-17
-27
8
-45
-45
0
-38
19
-29
-63
-48
-47
8
13
-24
-44
-64
0
28
75
-85
6
-1
0
-4
20
-22
-63
23
-28
-38
-20
24
-1
-24
-23
-54
24
-22
-46
-76
-18
76
-64
104
39
48
-81
-12
-61
25
-4
52
-50
-32
-59
0
5
24
-8
-13
-14
-29
-71
-30
17
9
-27
1
-8
-14
7
-39
-28
-40
-52
24
-30
-2
41
-29
73
-19
2
-26
-24
70
21
3
-17
-9
-22
-1
66
-12
-61
-3
-9
-5
-54
-23
12
1
-31
-32
-3
66
33
28
59
23
-52
-55
-54
18
22
-14
-5
15
2
0
-31
-12
-29
47
-36
-44
-29
-11
9
35
-12
21
-32
5
5
-33
-2
16
-31
-5
-10
43
-11
7
32
-44
2
-3
-15
10
50
-65
-13
90
42
-1
23
-17
-41
-9
6
-3
-59
37
-17
12
64
-12
-10
17
33
-40
-11
-45
-34
-54
-31
-17
-30
17
-8
32
-19
21
39
57
-11
-8
9
11
-36
-19
-13
-35
-3
-17
-13
-67
68
-22
-29
-29
-7
36
-26
18
-20
-28
5
-8
82
20
45
-17
40
41
-61
0
-58
-42
-19
-9
-71
3
-35
-53
-64
-32
-54
-59
-15
-40
11
-10
-38
18
-11
8
-57
-11
3
22
14
2
-39
9
-23
-7
12
11
3
35
4
-14
1
-36
3
25
-6
5
-17
-22
17
-24
-42
-26
-40
-1
-54
-12
-6
-19
-19
-48
6
-5
5
25
9
30
-82
-13
9
-31
35
-29
-38
3
-3
7
-38
-6
-45
22
10
-20
-1
22
0
3
11
-38
-21
-1
18
26
20
-13
18
-2
-3
-2
-11
-24
21
16
-4
-11
0
-24
-13
49
-32
18
9
9
8
-23
-36
-10
-6
-15
-16
-26
5
-45
-26
-37
-21
-3
-5
13
42
-27
-47
21
17
-15
-10
-23
34
-40
-6
5
-13
10
-24
42
40
-28
3
26
-20
-7
3
-17
19
33
6
1
-11
7
8
3
-2
-26
-35
-2
-34
16
-19
48
-20
9
-41
15
-16
0
-17
-25
45
0
-81
-41
16
-10
-22
-83
22
-29
-25
9
-19
-22
-19
-65
-5
15
-18
-4
-26
-37
-55
5
40
-80
-41
27
-33
-56
-93
-34
-39
-95
-55
-30
-93
-45
40
-59
-45
60
-25
17
-32
65
15
-29
10
-32
18
6
-54
-6
-49
30
-36
-66
-26
102
-3
43
-40
-42
59
-24
-95
-23
1
22
-29
-14
-5
-28
31
-75
-55
-40
-35
18
-49
87
-1
15
-8
-11
46
-32
40
-46
-22
-41
1
-20
-75
11
15
-2
-44
30
-60
17
33
-16
15
-62
-47
-2
-70
29
-5
-28
31
-51
-27
-66
-22
-16
-6
31
-53
-34
-22
127
43
0
44
-68
-15
10
-69
-16
15
-61
-35
-51
34
-21
6
-18
15
14
-72
-67
30
112
-2
63
-45
-19
-17
-48
-40
-58
-71
-23
-28
-4
-79
64
29
-19
-35
-9
-26
-5
23
0
61
-68
-62
-44
-82
-43
24
-53
-15
1
-27
-2
38
31
-35
-17
24
6
-42
-51
-1
-1
-49
-58
12
-25
-64
-6
-4
32
-57
47
9
-15
30
52
27
-49
-22
-17
30
-27
-24
8
-22
-34
-21
81
11
-79
-25
22
-16
-54
-99
-57
-14
-86
-28
-52
-67
-7
-17
-52
-115
-41
-49
-24
-19
-25
55
-15
38
-63
8
4
26
14
-53
-16
-25
7
-62
39
15
59
-61
-42
-4
-41
-72
36
23
10
-72
-17
-31
61
103
-88
-21
-10
24
23
-4
69
41
62
22
-78
58
31
20
-10
60
-27
-52
-68
-67
-81
4
-40
-26
-10
-66
-4
15
-4
-29
-84
-35
-47
-18
-36
-25
-30
68
-39
-74
18
116
-60
4
-21
-78
53
-52
50
7
-23
-26
4
-46
1
-69
4
6
-72
-52
-55
55
41
34
-53
-26
-11
24
-81
-39
70
33
-19
-34
-14
-18
42
-57
-31
-41
-46
-52
-50
-87
-84
9
-38
-28
8
-57
-10
17
-38
-51
-52
-67
-64
-51
-67
-45
-34
18
8
-68
24
31
62
-7
-25
54
2
-26
-47
31
6
-61
-30
-41
-59
-22
11
-31
58
-28
114
13
6
-80
-1
17
12
-62
-34
-36
-37
8
26
-8
18
-83
19
31
-27
75
23
47
4
-37
-102
-36
-12
3
3
43
2
-20
-3
-1
-38
-59
-50
-61
-27
9
-51
32
-40
-14
32
-29
47
-66
-53
-4
47
-59
11
-49
49
-64
21
-56
-54
-17
59
-22
66
-59
17
-43
42
-9
-34
-12
31
-47
35
-64
51
49
-17
43
-44
-35
-33
31
9
92
51
38
-56
5
-59
-76
34
-36
18
87
-1
-8
55
23
-64
-64
-35
-42
-27
-37
-18
127
-8
-97
95
25
-12
-6
-81
-18
3
-36
-45
-37
-3
-7
47
-58
1
-31
5
-22
27
-41
-27
-62
29
-46
-41
-9
-19
-36
-74
-57
48
8
-27
17
11
-27
24
-61
-8
-9
43
-10
-44
-13
-76
-80
19
-39
54
72
3
-5
87
28
-63
-82
10
-49
-58
-25
3
25
-15
12
-16
91
25
-14
2
91
28
62
35
32
50
-2
17
-5
7
20
-13
6
9
16
-2
-1
-29
-20
-19
-5
-2
70
-3
-14
-8
11
33
-8
-15
26
25
-81
-78
55
28
-99
20
-8
7
-12
8
12
-53
1
-49
-27
-48
35
-29
19
-10
25
18
40
-35
20
-53
-3
-9
68
-19
15
-9
43
-3
18
46
53
56
-21
23
17
2
11
-13
-2
30
29
-4
9
-6
3
-27
-3
23
59
5
-12
25
-39
22
-14
16
1
36
-45
-56
1
-16
-93
-33
7
-1
-16
-23
24
-52
49
-30
-12
-40
18
-9
-10
-33
15
54
29
-55
-14
-52
-19
24
75
-13
8
-52
21
6
-17
27
10
35
-39
36
39
-14
35
31
4
39
-16
-67
-6
-15
-45
-42
-1
44
-4
-9
-14
4
-44
-34
51
84
18
43
14
-75
64
0
-58
-29
-17
21
-43
-47
32
-38
19
-20
56
1
45
-25
25
6
33
11
24
-46
14
14
-54
77
-29
-71
-11
-37
-94
0
-1
62
2
-48
2
-60
-89
-19
37
-23
-29
-47
-53
40
-81
-15
-127
-23
28
-29
18
20
-23
-3
39
-28
1
-13
-36
31
-97
-72
-10
-13
49
-38
-9
-79
-47
4
-20
-28
-41
20
-3
19
-13
20
-28
9
-39
9
5
-70
-61
5
-75
82
-64
-23
16
-58
-24
9
-12
10
-15
-43
-25
-23
-111
5
24
-23
-26
-44
-40
57
-58
-19
-57
-79
-15
-23
-64
35
9
-11
10
16
-31
-59
-7
70
-59
-48
24
-32
38
-52
-9
-26
-45
-18
-7
-18
-70
54
52
6
-30
-7
-28
11
-30
15
0
-102
-3
8
-51
54
-38
-23
27
-95
-11
-28
-42
-4
81
-46
-39
-37
-70
-9
37
-78
-45
-30
-76
-1
-61
-34
-65
-85
-22
-13
-118
9
-41
17
13
11
9
-77
38
52
9
-69
11
-7
30
-6
-19
-71
-113
-69
4
-53
-126
-32
-27
-18
-58
-3
-48
49
11
-33
20
-99
-60
-48
-31
17
-62
-9
-33
-36
-29
-13
-20
21
-19
2
-4
51
-30
-9
41
-9
-17
9
24
27
-15
-30
-44
15
14
2
37
8
-20
-35
30
10
-7
8
51
-6
11
-11
32
-22
13
-11
-23
-21
-3
32
25
61
6
50
43
23
-37
-20
-36
-23
23
-21
19
9
-40
5
-49
25
-50
11
-23
-71
-37
-13
-39
-23
-28
0
-19
35
-65
-7
80
-18
-34
0
24
43
20
-13
67
-3
-10
-4
-42
20
40
-44
16
54
49
-5
40
43
-55
-26
46
-33
-13
-6
-10
35
100
58
4
56
2
66
46
31
40
-36
25
26
28
-50
36
-8
23
-11
-77
32
-84
10
-44
21
-44
-34
4
-31
11
5
65
11
-38
25
30
-45
19
-9
34
42
-6
-17
-33
4
-25
-19
-47
25
-42
-72
-25
112
42
-18
-11
-3
-71
-5
-7
48
-28
3
-2
-83
46
30
-51
25
-32
24
29
71
4
-29
-2
21
41
-75
-24
-38
-21
32
40
-34
-59
-46
-43
-8
-11
40
25
-46
12
-35
45
61
19
10
-57
33
-8
23
8
-14
27
68
-78
-43
-24
104
26
-32
-32
22
-30
-12
-5
-32
5
-82
-74
19
-36
-66
-27
-41
-48
31
-23
-10
-24
46
-26
-16
-26
-63
-43
-108
-21
-25
-5
33
2
26
-27
-18
-5
28
-4
-36
-55
-34
-37
4
2
-1
-5
20
-26
1
-49
-15
-23
-25
-38
-1
-49
-81
-15
28
-38
6
10
-13
-6
-10
-4
-31
-25
-10
62
-46
-36
-1
31
-54
-3
-72
-24
-46
-26
-8
44
-88
19
-20
0
36
27
47
-1
-52
-25
-3
49
-31
20
-6
-13
13
-45
44
-13
18
-5
-38
-15
34
-34
68
42
62
-27
-35
34
8
-23
17
-51
-11
-30
7
-26
-10
77
-2
-8
-47
-34
18
36
4
-55
2
16
1
-3
72
25
-78
18
15
-1
26
14
4
17
2
42
-1
13
19
6
16
17
26
-1
45
20
6
13
-6
29
59
-20
-49
-35
-37
-84
3
8
-31
29
-57
-22
-57
91
30
97
34
-18
15
-51
-24
66
-17
-26
85
-94
-47
40
83
94
-19
-40
-14
-20
6
-13
32
2
-117
5
31
-72
-25
-73
-23
-84
46
-30
-7
-35
28
-12
-21
-30
-32
-37
-47
-23
-8
22
35
-37
53
-40
47
-70
-3
-4
-60
-96
-8
-60
-34
11
-62
-45
-5
13
35
-25
-48
-5
13
-55
-12
-57
-35
-37
-12
-62
18
-13
-13
8
57
-36
-32
29
2
20
-45
-37
-18
42
-14
10
-45
-24
-9
-35
27
16
-70
0
-6
-4
5
29
64
-14
-33
2
-36
4
12
-7
59
-22
-24
-42
42
-16
5
-38
-10
-22
-21
-14
-5
28
11
-20
-20
14
-50
27
-29
-35
19
-67
31
-55
-72
53
-11
0
-43
-31
78
23
-16
-17
22
4
-16
13
127
-12
-125
27
-11
84
13
-3
2
-30
-24
23
-14
13
16
12
7
11
61
-7
14
47
66
-2
-30
-2
20
-87
-33
-57
65
-70
12
-20
-34
41
-34
-27
-40
45
-27
10
91
-20
-3
5
-23
86
-6
3
74
-108
-86
12
59
124
-20
-34
-18
2
-20
-67
53
29
-78
-24
-14
-68
-44
-109
-83
-71
88
-47
-21
-13
-19
-26
14
-77
-28
-31
17
-14
-17
62
10
-52
-55
-32
28
-64
-5
-29
-3
-62
-5
-12
-52
-5
-56
-41
5
24
33
-73
-32
-1
96
40
-25
-43
-31
-17
-4
-87
-16
-30
-34
0
-14
-64
-43
-25
-5
51
-25
-29
-11
-21
-41
17
-18
-34
-45
-38
53
36
-67
-36
11
-7
15
-4
22
5
-56
-21
-97
21
-25
-26
-56
-91
-38
-51
41
18
-38
-35
-25
-27
38
-10
33
51
105
-3
-11
-6
-56
-17
-70
-58
57
-15
68
-107
-107
37
-28
23
-99
-34
57
7
-17
-11
-30
43
-11
9
61
-9
-120
37
54
70
38
-6
-50
2
-70
44
40
6
-61
-13
-4
50
78
-39
-28
19
-6
-1
-7
-32
41
-42
1
-83
-5
-23
-14
-10
1
-9
39
16
-51
-1
-7
-91
15
-18
-15
32
-21
31
55
28
-65
-51
9
-19
1
-15
10
-35
-26
-30
12
-4
-14
40
29
38
-18
35
7
17
10
-52
-13
-5
13
-12
-47
46
-1
-14
14
41
-35
-53
-10
-20
6
-10
-6
-25
-8
-74
19
-99
23
-32
51
-25
-17
8
86
97
-61
-2
-34
-92
38
-4
-42
-29
8
-3
76
-36
-100
-36
-13
18
-20
-58
-21
-59
-31
8
42
15
-42
42
-29
-22
-7
-3
19
14
-21
-21
-33
-32
8
-45
29
28
2
-18
23
49
-20
-105
-26
-3
16
-12
-2
-88
-111
-20
-28
-80
13
-68
127
-28
-29
-17
9
91
-27
17
0
-55
-25
14
-41
6
0
8
-77
-4
7
-20
-35
-44
4
-54
14
11
-26
126
55
-25
-32
-7
-78
-83
-27
-123
-3
-29
-55
2
-2
-31
75
-61
12
66
1
1
-45
5
-117
-59
-71
40
-35
-7
-22
-60
5
-35
43
-11
17
22
-5
7
3
-24
32
-2
56
6
11
-35
-16
16
8
-3
-9
8
17
13
25
-7
-15
2
-6
-4
14
-68
-4
-10
-26
11
14
48
0
-7
21
22
5
-16
21
-13
-5
8
47
5
-58
40
34
-15
11
43
-23
12
22
26
18
12
-5
22
0
-30
25
-24
6
-3
-31
-10
4
52
39
16
52
-14
18
-22
36
-26
-21
3
15
79
-29
-18
3
8
-9
7
22
50
10
-95
-18
3
18
30
0
28
24
-50
60
23
12
-65
45
-29
-5
21
50
-20
-27
73
20
-30
51
3
-40
1
-7
52
21
-22
11
-29
-71
-40
-5
-79
37
-15
30
21
-20
65
8
19
-32
17
-4
-9
41
-36
-24
21
2
59
-52
11
13
-38
-5
-23
47
53
-36
-49
-20
-1
17
-43
62
-8
-6
-54
5
-72
-35
-44
-5
-51
40
-21
12
-46
-9
17
1
9
-37
15
-39
-25
-42
29
2
-28
12
-71
5
-58
32
9
22
12
-4
-20
6
-5
-17
9
57
-9
-3
-17
-3
18
-8
16
1
23
15
-6
10
-19
19
-35
-11
-25
5
0
10
-15
-9
54
7
5
7
6
28
-4
-2
6
19
4
3
2
10
-18
-33
13
-3
17
23
-11
10
-11
26
8
12
31
37
-20
-9
-66
1
-41
-21
15
-46
-22
-1
28
-3
1
45
-34
1
8
12
-1
-19
-8
31
25
-26
18
32
6
9
35
1
50
6
-28
32
-11
16
11
19
9
2
-12
56
6
0
-17
46
-25
-6
3
22
-14
3
14
5
2
10
-22
-41
8
29
39
29
-20
31
-34
-11
-77
3
-49
14
-1
-4
4
-17
38
-13
-1
-25
-31
-55
28
17
-9
-14
-11
23
9
-32
32
37
-29
-12
-17
23
53
-22
-30
19
-1
24
-15
22
23
-18
34
-37
-23
-44
-11
-8
-23
16
-61
-7
-22
0
33
-3
22
-33
38
-31
-22
19
9
0
-18
10
-83
-1
14
25
10
33
11
-10
24
-3
9
20
-17
59
15
15
13
-2
10
-24
-10
29
-8
-11
21
21
53
-54
-35
-6
-5
-6
-6
16
21
4
38
-34
14
-6
4
8
31
28
-23
32
31
7
0
16
8
-25
-3
-12
-25
31
15
1
16
-4
-7
26
4
-2
9
-13
-28
27
30
-29
-15
-21
9
32
-17
19
-8
7
-3
-21
-25
-15
-8
-28
-7
-32
-22
-14
19
-8
27
-58
30
-68
-40
-14
7
-12
51
-12
-31
-30
-24
-8
-127
-31
-13
25
-36
10
21
4
20
15
10
-20
-4
-20
20
19
26
5
38
-16
-12
21
-8
5
-12
-12
-33
-31
40
14
-2
-26
-5
6
-23
17
8
-26
-11
-16
-19
-8
-7
7
-26
-15
-21
-8
1
-39
3
-4
15
-2
-12
10
9
-25
22
-12
-20
-2
-44
4
-44
-46
-9
-8
-4
25
-12
-5
-9
-21
-3
-8
-16
-21
19
-42
-4
-17
17
-17
-24
19
-15
-1
-16
12
-6
23
-3
2
31
-11
-21
5
0
12
-9
4
14
14
20
-20
-51
-11
-13
-14
-12
-20
4
21
-18
11
-47
-44
-26
-45
-14
19
37
9
27
-16
-37
-8
-53
23
-18
30
-11
6
36
6
-7
-25
-3
20
12
-3
22
-17
-6
24
-17
1
-36
9
-28
10
1
-27
-50
16
-47
-33
9
-73
-31
-10
7
-5
-26
-30
-12
-1
-35
8
-48
-46
0
-35
-48
-40
-7
1
-56
113
30
-17
-37
-42
-43
-18
53
20
-12
-43
-12
-9
8
-12
-11
-2
1
-52
9
-32
-8
-35
-5
33
-8
32
105
-3
-20
69
-14
-12
-29
20
-20
-4
-10
-6
-34
-18
-83
13
16
-8
-30
-26
2
32
1
-30
1
13
-27
7
-18
-12
-24
1
-41
32
21
-8
-12
13
-26
15
-32
-10
-27
2
2
54
17
-11
22
34
25
-30
5
-4
47
-22
5
4
-22
-1
-16
53
-26
6
63
24
-7
-6
-17
1
-26
18
3
16
16
9
7
-34
-6
-18
6
-3
-22
21
-3
9
20
-29
14
-12
15
-15
-31
-3
2
3
1
20
18
3
-48
-10
-22
-37
1
-6
3
-16
-2
11
9
14
-42
21
-32
3
-52
19
-24
20
34
1
-1
-19
-14
23
-5
15
29
-10
-51
13
-21
16
-24
31
-6
0
1
1
-16
-18
-1
12
-31
-3
-22
-8
11
-19
-2
-9
-28
-4
18
31
-16
-38
-5
52
-3
-25
-15
0
-43
60
33
38
30
-28
-53
6
-2
-4
-7
-12
33
4
62
11
14
-14
-52
-32
-9
-10
-9
-10
14
-9
-14
16
47
-17
-40
19
-8
-10
-18
7
0
4
-36
5
6
-30
-22
9
5
-16
4
-25
5
-5
-9
9
10
19
-6
19
-14
-4
-30
64
4
-10
5
11
26
-21
9
53
-22
24
-56
38
-3
40
32
-13
55
10
1
10
6
-8
-56
-9
-17
27
-17
58
-11
2
-4
18
25
-8
16
-21
16
-20
21
18
-7
14
7
1
73
-22
-9
-12
11
16
-14
3
-10
-6
-11
-15
9
-6
-32
-23
-26
-3
4
30
-6
3
32
-27
5
24
49
-11
5
-22
2
22
-17
1
1
-36
-37
22
5
-3
6
-39
-22
-21
9
-5
-41
-18
5
23
-10
24
32
-11
-18
-6
-19
-4
-3
28
-22
0
-4
17
20
-6
3
-12
19
-3
-23
5
-12
10
-7
11
9
18
32
-13
-25
25
-41
-7
-2
22
11
1
-15
-5
-39
10
-8
-22
29
6
-11
-50
-20
-2
-27
22
-18
-10
1
-17
-1
0
-17
-34
33
-22
0
28
-21
20
-9
13
-3
-2
-22
-33
35
0
5
40
-3
31
3
-19
0
2
11
-23
-32
0
7
-3
10
0
-5
16
23
-18
-29
14
-47
-36
-7
37
-29
33
0
-6
-35
-14
8
-23
24
-1
-12
-24
3
-16
0
-6
-12
-2
-17
-19
-3
11
-3
-12
49
-28
-26
14
-36
3
2
15
-21
8
7
-21
20
34
-15
25
-17
-23
-28
-10
0
-16
-53
3
65
-35
-20
-17
-52
-23
-52
-98
-72
-27
-43
-10
-16
127
-45
-46
-5
-30
16
25
60
28
-9
45
-16
-9
-31
-38
9
-41
74
-28
29
-36
12
-11
-2
-19
-11
-9
-85
-37
-28
-41
-6
19
41
-35
-7
-3
-38
45
-27
0
1
0
3
19
-35
-17
16
3
-12
-27
16
-14
-18
9
-39
-4
-29
-22
-15
17
-11
-14
-20
38
-10
-6
31
-25
41
-31
-46
37
-3
2
-23
-3
-18
-10
7
-42
-20
51
6
-40
-11
-33
-9
-12
-6
-35
-4
-41
-12
-51
13
15
53
-1
-14
-32
-36
-6
-1
-5
-16
2
41
28
-43
-30
26
4
10
-25
14
36
-10
7
-2
2
0
21
16
-31
6
-10
-43
13
-7
-15
29
9
14
-23
-17
6
-5
7
-16
4
-26
65
9
-28
5
46
3
-21
-1
-29
1
22
-3
-13
-12
-61
-20
-35
35
6
23
4
19
-46
1
-24
0
0
-36
1
4
-28
19
17
44
19
-38
7
83
-29
-4
-4
-3
5
-73
-66
-31
-30
-40
-11
-3
-10
-52
-40
-34
19
-8
5
-46
-5
29
-28
8
-6
-7
-41
-25
-67
43
-73
-2
-17
-14
31
11
-19
-65
-27
-39
29
26
-58
-3
51
-1
-40
-1
-36
-9
35
-18
-28
20
-5
-21
-25
-62
-7
41
-11
-22
2
78
-44
-12
-26
-16
-31
-75
-40
-42
8
-6
-28
2
81
-51
-44
-25
-9
23
-12
7
49
-7
17
-8
3
-19
-20
15
-39
33
-27
-4
-39
-9
39
15
6
-23
5
-57
13
3
-46
-13
62
4
-30
67
-23
-25
7
-26
-8
31
0
-4
31
-100
-21
4
-8
-3
-3
83
-41
30
0
-34
-23
-59
11
-20
3
5
-12
0
40
-34
-65
-15
32
1
-11
9
34
-24
42
-44
2
-36
0
-9
5
-6
21
16
-27
10
13
23
1
-17
2
-80
-24
-3
-53
11
52
16
-3
82
-22
-1
9
1
-6
-29
10
-6
72
-28
-46
10
72
4
20
-11
-1
35
-51
-36
65
-45
17
37
-3
42
-5
2
3
-31
15
17
10
-80
19
94
-36
16
-3
-18
7
-72
-2
-5
-100
-46
8
25
70
-15
-21
-57
-39
-60
-99
0
-54
-53
11
-48
19
-30
-10
-34
35
5
49
-15
25
-63
-40
38
39
40
11
-5
65
-7
-77
-27
-9
103
-56
-13
61
-51
86
80
0
49
-11
5
12
-16
17
68
-15
-19
2
-48
-7
42
25
-25
11
-60
-6
16
-28
-65
0
36
46
-33
-63
-68
-30
-16
-36
22
-51
-15
17
-27
90
-19
1
-39
-17
-2
-9
22
18
-25
-31
18
-1
6
-34
-27
19
4
-19
-4
52
52
15
20
58
14
25
53
-15
53
-3
32
16
-21
2
9
-8
11
19
-62
-15
22
-23
-15
59
-46
-8
-24
43
11
-15
-49
32
-21
-52
-52
-16
-39
-12
42
-12
-18
8
10
47
-24
-42
-16
-7
3
-31
-1
-36
2
-15
21
37
-56
-29
-13
68
-10
32
-1
9
35
3
-47
-28
-36
-7
61
7
54
-7
20
47
-38
-14
27
24
-111
1
127
47
39
32
-53
-10
-64
-13
-21
-39
-21
35
-7
36
33
-32
-82
37
-52
-3
5
-21
-56
12
-39
41
11
-8
-15
-23
29
9
12
0
-60
-25
17
47
19
-39
-36
52
-42
-49
-14
3
85
-14
-29
-23
-10
43
51
-7
47
14
45
-11
-40
33
78
-41
-4
0
-43
39
25
54
-77
28
-81
-6
-6
0
-76
46
-22
41
54
-102
-72
13
-43
-15
-8
-8
-34
6
-36
62
-35
1
-31
-55
40
-14
36
-24
-52
-42
-6
-13
3
-48
-20
9
-32
-58
-13
56
53
20
-3
18
14
16
19
-27
72
22
51
-10
-29
-4
12
-30
-25
-12
-65
12
33
-42
-16
-1
-34
-1
15
96
-34
17
-17
24
-6
-58
-23
-9
-67
10
-21
-16
-12
-24
-11
18
-7
-23
-31
17
57
-15
0
-52
-16
-30
-17
-39
-42
-16
-42
46
4
-7
25
9
15
-9
-7
-24
-32
-4
36
32
-30
-47
22
11
-22
-5
29
24
-113
52
110
46
36
-29
-49
-39
-49
10
-48
-13
-30
79
-11
5
12
23
-41
61
-60
-1
41
-21
54
47
-40
16
-1
1
23
-26
0
-1
32
-16
-54
-60
-63
-5
83
-11
-68
88
-26
-14
20
-12
57
1
-15
-62
19
14
41
30
-44
-24
35
122
-44
14
79
-12
-45
-12
54
67
-6
71
-91
65
-51
5
-60
-59
-35
16
-26
21
46
-56
4
72
-72
6
-7
0
17
36
-15
50
-30
45
38
5
77
6
36
-34
-37
-40
-32
4
66
-33
-9
28
-26
-28
-6
3
22
-26
25
-45
37
17
-10
-1
-15
-42
19
41
-59
27
69
-16
-29
-23
-38
11
-55
6
-25
7
-25
-23
-43
24
-96
-4
-11
21
-13
-95
11
17
-69
-26
-2
-27
-8
8
8
1
-5
19
48
14
75
4
14
-40
9
-65
-35
25
-21
-32
-15
-37
-5
22
-24
35
-33
80
-18
-25
-68
-10
34
-21
15
-7
24
-48
-50
-12
-30
-33
-83
-63
-67
-25
39
-33
-27
-43
-20
-22
-41
11
-73
34
-74
-48
-60
13
-46
35
20
31
-48
-32
105
-52
11
-59
44
-27
-42
-6
-22
-2
40
94
2
67
5
-44
-37
21
6
9
-54
-22
23
-27
-39
-6
-44
-16
-79
2
-38
-43
-47
-20
39
50
-78
-45
30
-22
-74
58
53
127
20
11
-61
17
-25
-24
-53
-17
70
-39
52
-79
-27
3
-6
-70
-42
-4
-42
-32
-33
-32
-35
15
60
-62
-60
28
-61
-14
1
-8
8
-29
-38
-45
-23
-7
-25
-12
27
8
19
-29
-33
-33
-68
-7
-49
59
33
-37
-40
-2
1
35
-20
-71
94
61
60
-16
42
98
-82
-8
-30
37
9
-15
-29
-5
74
2
-28
-33
11
5
6
-2
21
-14
-44
57
-23
35
25
64
62
41
-28
-71
-23
3
55
-73
38
7
-57
32
-12
-49
33
-49
-24
29
9
39
-22
52
43
12
47
31
8
-10
-30
-43
25
-53
-15
39
43
-29
30
-38
-20
6
-1
24
-4
-6
24
-39
-23
20
-68
81
-70
4
-99
-20
-36
22
-9
10
9
14
58
-21
7
36
28
15
-36
21
-19
-54
0
53
-17
21
2
-38
10
-71
-13
50
-48
2
4
-22
-25
12
-50
-24
6
39
-45
-45
-34
33
35
69
-35
-35
45
-36
-110
-34
-30
68
41
-40
-52
-25
-7
-44
-108
-32
0
-41
-39
-34
-27
-3
-41
33
-78
-1
-2
-23
24
-42
-36
-21
22
-48
-62
4
-53
-51
-7
-30
0
42
-22
-26
34
-69
16
57
-14
-10
35
-33
-40
-19
-34
54
-24
90
-79
2
-7
10
2
22
-12
-72
21
27
60
-21
-25
63
-31
4
-55
45
23
-16
-17
-7
119
-68
-38
17
98
24
-6
-17
-64
-15
-43
71
-28
-25
-9
34
6
22
-19
-7
-5
17
24
-85
2
-24
12
58
-81
70
24
-63
2
-39
33
54
-1
-18
4
79
48
-19
13
-3
-4
-34
14
-18
27
68
-46
0
80
-48
0
-70
-43
22
-12
37
-14
-30
14
20
-3
74
-14
42
-21
-17
54
-66
27
-25
42
62
-11
18
42
32
10
37
-8
37
22
25
6
39
1
-52
-7
-3
-61
-60
-16
2
-14
-28
-16
33
-52
52
-21
-16
6
-20
59
-17
-45
-51
-4
-72
-35
30
-32
-30
9
13
-38
-7
32
-74
30
-44
21
0
-126
21
-69
9
-35
-11
-58
-34
15
45
14
-64
37
-4
112
-6
2
-15
-9
-11
-37
4
-11
-46
28
37
-33
-14
-65
-29
36
-89
10
66
-7
-9
-19
-86
-19
40
-2
-14
-36
13
0
-18
2
-79
-16
43
-26
7
-30
-34
-62
5
-42
45
-25
24
-51
10
58
16
-104
-33
53
-27
8
-34
18
60
2
10
-21
33
-30
2
35
16
-17
-8
40
-46
-53
41
-25
-55
-8
-51
-21
-20
-14
-20
6
-11
-14
25
-14
14
-19
-29
7
1
2
3
46
-5
-21
10
24
-3
-17
-15
-10
12
-2
25
27
14
-4
16
-8
-21
12
-15
15
-26
27
-34
6
-12
-14
-3
15
10
0
0
23
-13
42
-5
1
20
23
0
-8
-39
26
34
-6
-9
8
-8
6
2
-15
-12
-17
-35
-44
-13
52
20
-2
5
-32
16
27
-9
52
-10
18
-10
-35
2
-4
31
-51
4
-42
-25
-5
-1
-41
18
19
0
3
-50
-29
-28
9
-7
32
5
-33
3
-105
96
-53
36
2
-12
-24
-27
-36
76
17
-25
40
-45
8
-57
4
-21
17
30
-2
19
48
-2
-63
37
33
-9
-15
-10
-15
22
-73
-36
6
17
1
0
-36
-35
-31
11
-6
18
-43
7
-16
-40
-127
23
-4
-20
14
-21
-43
10
-58
-6
6
15
-14
-3
-4
-29
-59
-14
-71
1
7
13
14
-43
-15
38
-4
-7
-7
-46
-13
-47
-5
-19
1
70
7
77
45
-8
13
14
2
-8
-23
23
-27
2
13
12
22
16
-9
24
32
-28
17
0
-26
-3
-8
3
17
24
39
21
-1
7
12
-11
30
-16
5
-6
36
-10
4
24
-11
48
14
-6
-8
5
2
1
43
5
14
31
2
-23
13
-7
24
9
12
-10
12
22
2
0
-18
23
-20
-47
-43
-1
21
-17
15
20
21
-6
16
-3
-20
-5
46
6
-35
22
16
26
-11
-7
-2
7
28
1
-47
15
-8
-12
-14
-58
-30
-6
7
-19
26
26
-25
32
-77
58
-71
3
-14
-18
-12
-3
-28
55
4
-42
13
-21
19
-35
30
-9
13
42
-22
-6
7
6
-41
-7
4
-46
9
-10
50
4
-32
-52
-35
9
-23
-7
-20
-2
-51
-2
12
-8
-38
9
-21
2
-105
10
9
-39
-22
-20
-40
-6
-30
-16
-66
-45
-25
6
12
-41
-25
11
-80
22
-18
-30
-5
-11
-30
3
-16
-22
-2
-40
-5
-27
24
-24
-6
63
16
35
15
-17
0
7
27
-11
17
-4
-1
55
3
18
15
16
-10
5
-8
4
28
-14
-39
26
2
5
17
-33
-14
21
14
23
9
-31
8
-25
14
18
10
30
8
17
-2
11
30
5
26
21
1
1
-6
21
-18
-1
16
-54
14
6
-10
-4
-17
-32
-14
27
6
-16
-5
2
-45
-30
-16
-29
56
-38
27
52
32
-5
48
-13
-31
-51
8
-27
-31
-15
23
54
-45
-4
7
-9
-14
17
-52
-1
-4
-43
-41
-48
-17
-32
27
17
15
40
-18
-29
-66
74
-44
74
-2
-28
-34
2
-30
37
13
-46
8
-18
25
-46
0
-23
24
30
-27
30
-15
10
-53
11
54
-17
-4
5
36
-13
-45
-19
-17
-2
-6
-1
-19
-16
-48
-3
34
5
-29
17
21
61
-104
41
-8
-21
-26
-51
-26
20
-8
0
-62
-63
-17
-14
24
-26
-30
19
-98
25
-23
-40
-1
1
-29
4
-37
-3
-12
-30
0
-4
-12
-36
19
40
-5
90
-13
-20
-8
14
46
28
-13
-25
12
-51
25
-31
2
9
-24
3
-55
5
-5
-8
-3
4
-15
35
11
-11
-24
-19
-9
-4
-22
-21
-19
2
6
4
29
4
-22
9
-26
8
-20
-9
24
-26
12
-57
-6
-16
3
25
26
-23
-29
-6
-5
-5
12
16
-11
16
-11
-13
-15
-41
13
46
8
-26
19
-5
4
-55
-10
10
-6
81
-28
1
-30
-19
11
-30
-2
-6
-41
50
15
-4
-3
-47
-22
-21
-43
-23
0
37
38
-7
-10
-12
-24
-11
-50
-58
-14
11
-64
-19
36
-19
23
-48
8
8
16
-30
-30
2
22
10
48
7
-40
18
18
57
3
-24
-12
33
37
-27
-18
-37
-25
-15
-17
7
-13
-2
30
23
-68
17
20
-34
-29
-15
-59
10
20
-31
-11
5
-7
8
-32
-11
-2
0
19
-18
-37
-18
0
-16
0
-66
-52
21
-14
-30
-36
-52
9
-29
30
53
17
-14
2
-16
0
21
4
-6
-48
-34
-3
-26
16
-22
-15
36
9
2
-53
-19
15
-44
30
-3
30
14
-16
-28
8
-11
-3
-19
-18
-10
-13
1
-14
-23
2
-25
1
-26
-4
-29
-28
-14
-17
75
-11
-11
16
-19
-28
16
-43
-38
-18
-22
8
-31
-23
15
-22
13
20
-29
0
-13
0
-34
-1
6
-24
7
-18
7
-8
-5
-6
-6
-11
-4
20
-19
-2
-47
-60
43
-20
31
-39
-6
-2
-56
-31
-39
-26
-39
-54
-9
-24
-11
-31
-98
-32
-77
1
-43
-31
1
14
-12
-21
-27
-26
-38
-78
-37
-62
-19
-127
-18
7
-69
-17
-21
-43
-5
7
-54
-22
-35
-42
-41
-43
17
-58
30
-15
32
-11
-14
-6
6
11
-6
-28
-44
-34
15
-17
8
-16
8
-27
-18
-65
-4
-33
-58
-37
-3
-54
-46
-5
-29
5
-13
3
-31
-20
-30
-11
-41
-5
20
-34
-20
0
-38
-7
-37
-38
4
-38
-32
-19
-30
0
40
-17
63
0
39
93
-44
-46
-1
-54
-1
-47
23
-7
-28
3
-1
3
7
-21
25
-7
-30
-10
-51
-12
5
31
-45
38
-21
-5
13
21
-10
32
-21
-22
0
13
32
-10
-18
3
-4
4
-4
-20
5
33
56
-14
-32
4
0
-15
7
-25
-64
-50
-17
-25
-34
-43
35
-22
-4
-11
-33
2
-23
4
-18
-30
-18
-15
9
-16
-13
20
16
14
-32
-42
30
38
-22
-11
-14
-85
15
0
-43
-38
38
-32
-67
-21
10
-1
-30
-42
-12
39
4
-19
-42
-30
-103
-22
-3
-33
6
-11
16
16
34
-35
23
-84
-35
-59
-49
-93
8
-5
-53
-28
-17
18
-8
-3
-40
1
-71
-71
-20
-47
-13
-60
-4
-45
34
-6
0
29
-27
-10
44
0
-19
-27
18
-47
-1
-14
-44
-36
24
-54
-10
10
-43
-31
29
-23
-57
21
15
2
17
11
-25
-44
-25
-9
-14
-4
41
-19
-22
52
-15
-2
-31
58
-8
-80
-63
-15
17
-27
22
6
21
-17
-75
100
-28
-28
0
-28
-19
-24
-27
-15
-26
23
-26
8
-11
8
-15
-33
54
11
25
21
-27
68
-17
22
-23
-60
39
-15
6
4
-19
18
-16
22
-30
9
38
-6
-31
-67
22
-25
-24
35
9
-34
-7
-15
-14
4
8
-42
2
30
-33
-34
-2
-5
-67
-8
6
45
38
2
-18
22
-26
-42
-6
19
-48
19
9
9
-91
-5
-30
10
-16
-17
108
15
-34
-44
-55
35
-92
20
-57
-81
7
-79
-6
-4
-34
-64
-80
25
0
-100
68
-10
-67
-91
-81
-41
-34
-17
-41
-82
16
-29
-65
-24
-18
-86
-26
-68
-63
-87
24
-37
-94
6
-8
-8
-30
-11
-80
21
51
-40
-83
16
-44
17
43
-75
-13
-14
6
26
-35
-54
21
5
-36
-32
-11
-9
6
23
-13
-41
18
-57
-23
-18
9
1
-13
-20
12
-18
-10
28
-22
-15
-35
-28
-17
-27
33
-5
-9
44
-47
44
26
18
0
0
-17
-50
-18
0
-59
32
33
-7
17
56
-11
25
0
-21
27
7
-25
14
30
-9
14
12
14
29
-46
-47
-5
14
8
21
-47
56
-30
-1
43
-16
19
-24
23
-24
-3
-17
-7
5
6
-13
-15
12
6
21
-51
-31
-28
24
31
-32
-2
-6
-48
-41
13
-73
13
-4
2
-69
-34
40
1
-36
-9
-4
26
-27
-25
-52
-10
-42
-11
3
-25
-19
-16
7
-32
-6
-58
1
11
-38
52
7
-57
-93
-61
10
-70
8
-11
3
8
-51
19
-9
3
-49
-37
44
-3
-92
59
80
-56
-28
-103
-29
-26
33
-35
-103
18
-26
-93
-19
4
-127
-11
-48
-27
-55
-40
-7
-33
1
23
-36
-28
44
-91
-44
-25
-48
-79
14
-23
10
-9
-69
-9
26
-12
16
20
-43
-19
-15
-73
-35
-43
-71
28
21
3
25
21
1
67
-54
2
-44
-45
16
-15
-53
20
35
-46
-26
-27
-39
-1
11
9
-30
-56
32
-63
-4
-8
15
15
-9
-68
-64
16
17
-6
28
2
5
-21
14
8
-14
-62
1
-30
-11
-12
-20
0
-3
7
-13
10
45
-46
-6
-32
-28
-23
8
-74
19
-46
16
45
63
-31
-11
-17
-13
-10
-16
-27
25
47
-41
-14
21
-23
30
-67
-14
-23
14
3
-26
6
15
-77
-14
12
-52
10
12
-39
-28
-71
1
4
-30
-3
-24
29
-2
-37
-39
-29
-15
-28
22
-12
-40
-32
28
-16
2
-42
50
1
-11
15
-23
-82
-56
-85
-10
-36
6
-6
60
20
-36
31
13
-6
-8
14
73
12
-43
49
-5
-32
-9
-72
13
-2
7
-36
-99
11
-27
-64
57
5
-71
22
-38
-28
-1
-90
-9
-43
-30
25
-44
-12
30
-69
-68
-19
-42
-61
-6
-26
-43
-37
-73
-15
18
-46
13
1
4
5
-23
-89
-48
-41
-47
-15
45
1
14
-2
-16
22
-23
-34
38
-7
-31
-5
-59
35
-15
-53
-22
35
-40
-16
31
-43
-30
-77
1
-42
7
-19
25
20
7
-8
-22
-20
-9
-21
17
-11
-29
-19
23
-35
-31
-7
-6
-16
-26
5
-33
-36
-4
-67
43
17
6
48
-17
-54
-16
38
-3
-30
16
8
3
-74
-18
-56
12
17
35
-12
-2
-55
-3
-22
-12
8
-37
-20
-10
-64
37
-1
33
-17
44
-19
-16
-80
-62
-14
5
-7
-41
-9
27
-21
21
-42
-8
6
-12
-39
10
-36
-37
21
67
20
-20
-33
-19
14
-10
-56
-40
-18
-18
6
-29
-40
-61
-4
-14
-21
-8
-65
-35
-86
-78
-47
-31
-62
-14
17
-53
-9
4
-42
-20
86
-31
-93
-81
-22
3
-48
47
-25
-7
48
-4
4
-23
-70
-6
-4
48
13
-16
8
-26
-43
-25
4
-28
-15
30
-25
-55
-17
-60
11
13
48
-12
-4
-65
-23
25
-69
3
-19
-66
2
-32
-28
-48
-6
32
-38
-21
-54
-97
-51
-7
-64
-29
-10
-3
29
-5
-19
-10
54
-39
-33
-54
1
-20
-55
44
-31
-10
57
-23
20
7
-82
-39
-2
16
43
-55
13
14
-4
-42
-8
8
-30
26
-33
1
-91
-36
-16
35
-19
-20
-8
-35
-26
42
-42
-12
14
-16
-32
-10
3
31
-30
19
-47
-26
35
7
-52
25
-3
22
25
-13
-25
13
-10
-75
77
-32
0
-25
-77
-26
13
15
-19
18
23
-28
-38
51
-28
15
25
-42
-22
-27
-25
18
-66
16
-5
-12
-33
-15
-87
-26
20
-38
-30
-11
-1
-23
-4
-35
-81
18
6
-10
12
-17
-23
-12
-35
117
15
-7
30
-50
92
-17
-45
15
-25
7
25
83
48
48
5
10
122
-62
68
-45
-46
-97
35
-14
25
100
19
10
-9
79
60
120
74
-36
-74
-55
16
69
15
-17
17
23
-6
19
40
40
-45
-42
2
4
49
1
-14
-81
-78
12
-41
3
31
-17
53
-14
-17
127
-27
28
-7
6
42
2
-51
-46
-17
2
-4
16
63
36
-7
2
10
-62
-40
-41
-29
-108
9
-40
15
13
18
-15
12
-63
51
-30
13
20
-9
-80
20
-13
39
-30
-18
30
-47
-7
29
46
-56
-73
29
-16
4
-16
-12
-51
-18
-2
-47
0
2
-11
20
-9
-33
-4
-28
9
-35
16
15
28
28
21
-51
-5
26
-6
20
3
-19
-86
-25
-8
-41
-42
-29
5
14
3
-24
17
-11
-30
-15
54
-13
-6
18
-25
-16
13
-19
4
-37
-15
-35
-25
-27
44
-60
12
-49
7
-31
-5
-30
14
8
-25
-47
-11
9
21
-18
-17
-20
-12
-36
62
-2
-14
60
-52
62
4
44
68
-5
-8
27
15
27
6
16
-9
18
-21
41
14
-14
-59
43
-10
-10
29
-28
-28
7
-26
53
52
20
-42
24
-45
12
39
69
-38
-51
8
-5
-4
-19
27
-68
47
1
7
37
-10
44
-79
-63
-14
-39
5
23
-10
1
-4
-39
44
-41
24
9
-50
-2
11
-14
-25
9
16
8
-17
8
51
31
-6
3
36
-32
1
-33
-73
52
-50
-27
20
21
-10
4
-65
42
-35
46
-36
39
-56
9
-36
34
-9
-19
0
-31
-19
-13
18
-41
-7
32
-10
-8
-36
32
-47
-30
-61
-5
-42
-71
-53
-33
44
23
-39
-23
1
-7
-47
54
-38
-12
-6
-66
10
-7
12
-7
-4
-24
-4
80
35
127
-35
-36
-56
-42
-6
-4
-36
-22
30
-18
64
-45
-10
28
19
-94
6
-11
-35
-12
-27
-13
-6
-21
29
-9
0
-28
12
-37
-6
12
17
-40
-37
-22
-24
-25
-32
-54
-33
34
19
4
47
60
0
-3
-7
58
-11
-41
0
7
-9
-2
44
8
-3
-53
9
-6
-5
67
-35
-59
-23
-18
4
0
68
34
39
-27
16
36
2
1
-28
-5
-36
3
-13
38
-6
23
-28
-2
0
-10
-21
-40
-26
-9
-15
-17
22
-9
-20
-31
-2
-11
7
-14
-16
15
-10
0
99
37
3
-29
26
-1
-37
11
-2
-12
10
-13
43
-52
5
-14
-25
21
3
-31
-26
58
-17
-17
-7
-6
45
3
9
-24
17
24
-31
-15
-5
9
-29
-21
-16
-11
33
22
-4
-16
16
-43
-35
-14
-1
5
-9
-32
38
-23
-10
-55
-33
-13
-16
-1
-52
-72
19
-7
-88
-18
-20
-16
-24
75
7
-10
-4
-67
-9
-10
1
-14
-7
-14
-22
7
13
119
-6
-3
-63
-41
-18
-46
-26
-29
40
-42
36
-18
-37
68
-7
-32
-48
-27
-15
-5
2
-40
-10
-49
64
1
-15
-69
-15
-2
3
23
34
-23
-50
-11
-52
-3
9
-43
-43
0
30
-5
-1
8
11
37
-2
102
-29
-10
29
-26
-4
-3
43
42
9
-5
24
-99
-14
102
20
-17
-30
-23
-11
-2
100
-38
54
-7
-10
33
-25
29
11
-29
-35
-1
-22
92
5
18
14
1
13
58
-16
-29
32
8
49
10
14
63
-11
-33
-27
6
17
-34
-22
-14
1
7
75
-14
44
-10
9
19
-44
-4
-21
-47
13
-12
5
-19
-3
14
-37
-3
14
5
31
-8
-18
-24
-26
-24
40
-9
12
-25
5
-15
-37
0
-23
3
-31
-31
-33
51
17
2
1
-7
6
34
-33
-2
-21
5
36
-22
8
14
-13
-51
-45
-45
-12
24
-42
-38
24
-10
-50
-17
-9
-58
-32
47
10
88
8
-15
-10
-14
-25
-11
30
-40
-32
21
-37
-16
-22
-4
-30
-19
15
-47
12
-9
24
-34
-3
-17
-14
54
-33
6
-61
19
-25
-13
32
-6
5
-37
20
-25
17
-34
-43
-43
-11
18
4
-13
-68
7
-10
-29
-14
-3
-41
-46
22
-13
-42
-49
-22
-15
-3
56
-17
42
48
-33
-29
-14
31
22
-44
-16
-9
-39
7
40
1
36
-2
22
-1
-49
-10
-73
42
-18
-27
-2
15
70
-5
-19
-80
71
-72
37
-36
39
29
-45
0
18
34
-18
16
-45
-6
11
6
49
-54
17
-10
4
-8
25
-21
-18
-30
-3
-42
-37
53
-30
14
78
-41
20
-16
12
12
-22
13
-7
-25
-23
-30
-31
58
0
12
-23
17
13
10
-25
-3
-10
29
-38
7
-12
-23
16
-17
-14
-42
67
-48
34
-24
25
0
-3
3
26
21
-7
-16
-52
6
-3
11
44
-36
6
-50
-43
-15
-19
62
40
29
25
-48
28
-7
-17
-24
-27
-27
-15
-24
0
25
56
-56
15
-4
-60
-117
-10
2
-31
36
-45
-4
-9
-89
-24
-33
39
-14
38
-31
-60
-53
35
-34
2
-6
19
-34
-30
-6
19
-1
-23
-31
-57
-13
-5
4
-3
8
-14
11
39
-10
-4
-32
17
9
-17
-28
-12
6
27
-28
-21
-3
29
-40
11
-10
-8
-8
-38
36
35
23
-28
-15
21
-26
20
22
49
19
-27
20
28
-69
38
-8
-49
8
11
34
-44
-13
25
2
-33
-24
-18
19
34
-65
-2
25
-14
6
-25
-17
-35
7
19
-24
15
35
-22
-38
-32
15
-14
-16
-30
-9
17
12
43
-7
28
-21
18
6
-6
33
-20
-5
37
26
23
11
-18
-24
44
12
7
10
-40
-9
-2
48
13
-4
10
42
-10
3
14
-45
33
0
18
-30
51
-24
-28
27
31
-13
-13
51
-19
-26
-18
-8
-17
-9
20
7
16
18
-35
-31
-11
-19
-61
-38
41
43
41
24
-4
-39
43
-24
8
-28
19
28
-6
-41
-26
2
39
-56
-14
-16
-50
-127
18
-14
18
-31
-75
9
-15
-30
-16
-52
12
-33
6
-26
-22
-82
35
-80
76
-41
-29
-35
-14
25
26
18
-33
-18
-38
-38
-17
-21
-23
16
27
34
30
15
-31
46
-28
33
25
-53
-36
19
-21
-38
-18
-45
27
-42
13
-7
5
18
-79
-23
51
5
-44
-15
-29
-22
60
-1
69
-7
26
-16
8
-33
14
-1
-54
52
-31
19
-32
-18
55
-14
-30
-56
4
14
2
-53
-5
-8
-31
-17
-32
-7
-37
18
-30
-63
20
16
-12
-8
-36
22
-17
6
-19
-31
6
-21
19
58
-1
-12
7
-13
-4
31
-6
20
-20
-10
-3
-3
14
-8
2
41
-34
-36
-17
15
29
13
-12
-9
18
80
-31
50
-4
-25
17
17
27
-26
-17
-34
16
11
15
-8
-7
51
-45
-13
4
26
-28
31
-7
-4
14
-25
25
-5
-23
-28
-49
-28
81
26
24
-6
-32
-49
22
-18
39
-41
-2
96
11
-86
-24
-38
-31
-67
11
54
-13
-3
28
-14
-31
-50
-17
20
-11
-3
-1
-19
13
-41
-16
12
58
-90
-4
-102
15
-18
-68
-25
-27
76
30
-9
19
-5
-52
-62
-37
-78
5
13
-1
-36
7
-17
-21
0
-66
52
52
-73
-36
27
-73
-66
-60
-59
-67
-66
-13
-11
110
53
-79
-15
65
-24
-57
20
-27
-52
49
-16
-33
-82
32
-14
-21
14
-17
-7
-72
5
-55
50
-28
-4
34
-13
-13
-62
76
-36
-38
30
1
-40
-18
18
-58
6
3
-27
-111
-34
1
59
20
43
-9
0
-36
18
51
-37
-34
23
-53
26
-56
5
-80
-27
-9
3
26
69
-42
-8
-25
19
-12
-15
-26
5
-29
-16
-30
-50
31
-25
23
22
-19
7
-24
19
-34
6
-32
-4
65
-56
-30
-25
97
-62
35
-20
-7
9
9
2
25
34
7
-4
-98
-5
-10
27
15
39
-50
55
-8
-31
27
-90
-21
35
-13
-29
-41
-47
26
11
-38
-73
-6
69
-11
-18
23
17
27
-6
-16
23
18
-42
11
2
55
-33
5
-17
-24
-17
-69
41
-1
63
20
-44
-18
2
-31
-8
-34
11
-10
-8
-23
6
-34
-18
5
27
-4
-18
-5
-7
25
3
8
7
-17
9
-10
-11
-53
-45
-11
50
20
28
-46
-40
38
-15
-31
-7
-12
53
29
-2
-6
-6
28
-22
-20
13
-17
-7
-27
-7
1
-2
-37
-10
13
-31
-42
36
12
-15
26
-28
-25
-10
-32
15
-21
-35
-20
-31
-33
21
-10
-5
-5
12
4
11
-22
4
-51
-9
28
20
-14
-6
57
29
-60
-26
-8
7
52
64
-37
-2
-13
19
19
18
-31
67
23
-15
-50
20
5
-12
-29
-4
8
20
-47
-28
-42
-24
-55
-36
-7
-38
9
15
5
-48
25
-29
-21
-28
-24
17
-32
-37
-36
-27
5
53
-21
-9
8
16
11
25
29
9
-26
-21
36
-1
-64
72
-71
9
79
-55
-29
36
-34
-10
-22
0
13
-5
-32
-16
23
66
46
-9
84
23
23
-10
-1
-18
26
-17
70
4
127
-85
58
-12
0
-11
-58
39
-31
75
43
1
52
6
-23
-18
85
-32
-1
15
-19
1
-5
-58
-8
40
-51
-59
-47
59
35
-28
47
19
23
5
2
0
0
-47
-34
16
13
20
-45
-41
70
-11
-14
-4
58
77
87
-3
36
-15
28
21
2
20
-10
-45
-3
13
19
-89
0
-4
-7
-10
-31
44
2
12
50
0
38
-16
-76
13
36
-60
21
-17
-23
52
-20
-5
13
18
-2
-2
-52
41
-13
-60
38
-7
-5
0
63
2
-35
-33
-16
-19
26
71
-49
-35
32
6
85
45
-25
111
73
-1
9
24
6
-9
20
4
-2
-14
-27
22
-28
-56
-34
-9
-41
20
13
30
10
-12
54
-19
20
15
-30
6
28
-28
21
-37
10
88
-20
21
9
31
-12
32
-31
21
-23
-41
54
-23
-60
-29
-64
16
12
30
-8
53
-113
-52
52
13
-38
-20
-65
-29
-4
27
0
9
55
6
-27
-13
-7
-23
-12
38
5
-23
85
-28
50
36
-10
-55
-59
-27
-12
61
4
23
49
24
-8
-51
54
-56
-35
50
-69
1
-18
24
-37
69
-16
-49
-13
33
33
53
-3
-28
-42
-69
-24
-12
3
21
-31
65
-49
-26
23
-14
1
-19
-73
-24
14
54
-8
-4
32
9
-55
-25
-45
-6
-45
-6
23
-20
-4
-70
73
-13
11
-11
-1
-12
0
21
16
47
32
9
-9
-57
82
-70
22
-22
-28
42
-27
37
-43
17
11
-34
-91
32
20
73
-28
-2
-38
-89
53
-14
-75
-19
-3
30
13
37
71
-18
-4
10
3
-28
-32
89
24
-16
11
-17
-53
-27
-26
-12
0
-14
-9
-21
3
-62
35
-5
-22
8
33
-3
18
-30
7
25
14
16
-4
-20
108
-29
29
-48
-18
69
-27
44
-31
17
6
10
-88
17
5
60
-17
-11
23
-80
-40
-59
25
-17
16
-54
-31
7
-23
0
-64
-35
-26
-9
16
-25
-15
38
-23
12
5
-85
-2
15
12
53
-28
21
-38
4
-32
-16
22
3
19
4
-18
-3
-33
-23
-10
-34
-13
45
-35
-28
-27
13
-25
13
20
23
19
-60
-35
17
-5
-43
2
-21
-56
48
20
-69
-54
-55
47
-20
1
-26
-33
-28
-39
-23
-50
-1
-42
-41
16
-23
14
93
-14
-28
-18
-93
-36
30
-48
-11
-14
-25
-67
-5
-52
-7
34
35
-5
-18
-24
9
-76
4
-16
-91
-33
42
-31
-13
-15
38
13
-1
13
-2
19
-41
-44
19
-25
-52
-22
12
-43
62
19
-55
-22
-47
29
-20
-3
-2
-11
-22
-16
-13
-21
16
1
-5
-7
-2
-8
63
-9
-23
-8
-60
-52
20
29
-13
13
2
-10
-2
-38
-20
29
36
-1
7
-16
18
-47
-1
-10
-42
3
45
-38
-17
-25
35
-15
-38
-5
18
12
-29
-40
10
-2
-33
-20
18
-13
50
-13
0
-34
-69
14
-45
-12
-56
13
1
-14
-40
-77
-34
-59
-24
-14
6
3
36
-24
-18
-35
-102
-44
65
-55
-5
-39
-38
74
-58
-39
-4
-44
-13
-9
49
2
2
-43
-31
-13
-59
17
17
-15
-77
13
62
2
-9
25
12
-13
-47
-48
18
42
-72
5
39
-39
36
-26
-4
9
-93
-6
-42
-21
-1
49
-45
13
-24
-59
-28
-65
-48
-55
-10
-16
28
-5
-11
-62
-127
-46
62
-84
-8
-39
-52
-15
-47
-28
5
-13
25
35
19
8
-10
-67
5
-42
-90
6
59
-37
-19
-10
56
4
-1
4
-9
-39
-41
-50
12
65
-96
-44
92
-25
18
-13
-37
20
-35
-25
-35
3
1
32
-55
2
-31
-50
15
-50
-60
16
-2
1
21
8
-25
-41
-76
-60
22
-41
6
-9
-14
-24
-32
-21
33
29
22
16
29
4
-42
-43
-9
-24
-56
0
58
6
-1
-15
47
-32
-7
-41
17
-21
-17
32
-33
-8
-61
-42
48
-14
43
11
2
-20
-52
40
-13
-24
-33
79
1
18
5
-58
-14
-7
-42
8
-4
-25
59
13
-26
-23
-67
-56
17
-66
17
-12
-54
46
6
-8
-17
0
-12
-10
15
17
-3
-26
-10
-1
0
32
-13
4
-11
-1
-11
-2
1
6
38
-50
56
-22
5
44
-22
-11
26
-37
6
-7
-17
8
-40
48
-5
-11
-32
76
23
49
8
-64
-45
18
-62
-19
-25
-12
2
6
-17
-43
-64
-19
0
-49
-15
-29
-52
74
-12
27
3
21
-26
34
33
15
-5
-24
4
-2
-1
37
-21
-26
26
-2
-21
42
0
-23
-11
-59
4
1
-26
47
-46
-64
18
-54
-16
-36
-35
7
-6
-20
-9
-8
11
24
16
15
-9
-60
-44
34
-40
41
-1
-6
0
25
-47
-50
-53
-37
25
7
-34
-8
-13
12
0
24
3
3
6
32
-15
-2
-4
5
-6
11
-11
7
-30
-2
13
1
11
36
0
3
44
-3
19
69
-44
-35
-14
-45
35
-14
-7
-16
-60
9
29
-9
33
1
-11
-14
35
26
15
-41
-21
-29
-72
8
-12
-5
4
-25
-17
-49
2
-7
-127
-58
49
-30
-27
-13
-27
-26
31
2
-17
10
-25
61
-96
-50
-2
-18
27
-29
5
-28
-68
-8
-53
-12
-14
-16
9
-29
-26
21
-11
-28
-18
32
-38
-51
-8
-11
-45
10
10
-9
27
-60
29
-14
-18
13
25
-21
-34
-15
-43
5
-14
-6
1
-9
-43
-21
14
-3
-48
-51
1
-13
-77
10
-19
1
37
4
-5
8
4
19
-35
-36
31
-25
6
9
-19
-18
-58
-17
-32
-39
-62
-13
-19
-30
-29
15
7
-20
-12
2
-17
-26
-23
-8
-28
-27
19
-22
67
-101
31
-32
-48
20
24
-10
-36
2
-47
-11
1
-38
-27
-3
-14
-2
-6
10
-31
-21
-2
-36
-78
19
-17
-2
85
1
-43
34
26
41
-27
-60
18
-10
-27
20
-22
-16
-66
33
-12
-59
-77
-34
-14
-29
-27
-6
-7
-7
28
1
5
-15
-33
-29
-52
8
-82
19
-2
12
-63
31
-10
40
6
2
2
10
-3
-8
58
-11
-17
-1
23
33
26
-8
-9
25
-3
-4
-14
40
14
-24
-6
7
-4
-10
35
25
41
21
34
-5
38
-1
51
19
19
13
3
57
23
41
46
19
16
33
-9
0
18
36
5
-8
-5
-19
-26
17
-94
27
18
36
-48
9
32
11
42
1
13
30
-24
7
30
-33
12
-13
17
31
1
38
19
8
-16
32
-48
-2
3
-15
1
85
-6
-44
31
8
-47
7
10
-2
-10
9
16
13
28
13
-21
23
-8
-2
12
-6
23
22
-16
0
16
-23
7
6
-12
-3
-36
-10
-84
19
5
58
-4
-34
1
9
31
-4
27
-2
1
-8
10
-65
-3
1
22
44
-13
4
-11
-4
-40
20
-72
17
-5
-14
24
50
18
-68
-8
-15
-31
-8
-23
54
-29
9
36
-14
15
-26
-29
9
-50
-14
-5
20
-48
5
-24
-23
30
5
3
28
-29
-5
-8
5
41
-10
-1
28
15
23
-27
26
-4
28
4
-15
11
18
37
0
-4
13
-30
-45
-1
-14
31
-37
-16
-1
-2
6
22
-1
-14
-33
-11
11
3
-7
-27
-4
6
-13
-5
-14
0
2
-24
-2
18
1
42
24
-16
-12
10
16
-3
1
11
32
8
1
7
2
20
4
-11
11
-9
12
14
41
30
12
1
7
31
11
1
8
6
-5
3
-7
-14
-37
-13
40
22
-10
-3
20
26
-15
11
-10
12
-4
-13
9
21
-3
-29
-4
3
-13
-24
8
-14
10
7
11
-7
-18
8
-10
-29
-41
20
28
7
12
22
-15
7
-2
-7
22
4
-4
13
-14
-4
26
2
-7
-19
24
-11
3
13
-12
44
-9
-19
15
26
17
19
-20
-17
-15
-10
7
-16
31
22
-9
9
-22
5
10
-5
16
21
2
17
9
-40
21
-59
29
17
-18
27
-24
4
19
-14
-5
-2
-28
-1
-11
-7
-2
14
-11
5
72
-5
15
-74
6
49
-17
-15
-5
-53
36
-10
-9
55
44
32
-26
-38
-18
-12
41
-27
-40
-31
24
99
10
-27
-22
20
-17
4
52
19
-19
-18
-25
-35
-74
-3
41
-9
-59
11
-48
-56
-61
4
-66
9
-57
-24
15
-75
14
88
9
-47
-21
-9
-33
-49
40
-35
-6
10
22
-71
-22
11
31
6
-36
-53
8
26
14
15
-1
-5
-30
-2
-7
-23
48
-45
-22
-32
8
94
11
5
-55
-26
-6
-31
-16
24
-37
-32
-44
15
-50
4
87
-56
-39
-13
-22
-81
-64
10
-24
52
-88
10
-11
6
-18
-4
16
-69
-23
-19
-40
-19
-20
-20
-15
-4
-22
-32
-40
-26
10
-28
-29
-59
10
1
11
74
22
-10
-47
-3
-30
-3
-39
-13
-42
-34
26
51
-30
-27
-20
9
-12
-29
5
23
-42
-19
81
-3
-84
5
-5
-15
-31
12
-29
-50
0
15
17
-20
-31
-7
-19
58
-37
27
10
-56
-9
-30
-61
-32
-17
-28
-28
-34
-9
-96
-65
56
-18
-27
-21
28
14
6
2
-35
-14
-16
-7
-53
-76
42
17
-6
-7
-70
-5
-26
45
-74
-8
6
19
-25
45
-25
-52
-33
-19
-55
4
122
33
46
7
-29
4
-6
-43
14
-3
-35
15
-41
-101
56
18
33
-7
-29
-53
-1
3
-20
8
16
-15
-24
-22
-92
-55
37
-35
-25
-60
13
-31
-5
26
-20
-24
1
-22
-42
-53
36
-7
3
15
-50
-41
-33
25
25
-74
44
-3
-25
45
-7
-30
13
39
0
49
71
41
-29
2
2
-5
23
-8
29
9
-80
1
-69
-106
127
3
24
47
44
16
-13
-9
-36
-24
-14
-32
-7
-34
-7
-53
19
-26
-61
7
-4
-100
-17
4
-17
-9
46
-20
-12
-56
-1
-12
17
-16
-50
-86
-40
35
-49
-62
29
-13
-38
2
-55
-6
-11
73
-10
35
44
-32
12
-21
-31
-20
-1
33
-13
5
-107
37
-34
-37
127
-24
-29
9
102
26
-52
32
-15
-27
-90
-30
-40
-60
-26
2
-22
45
-3
17
-22
-53
9
26
5
-28
27
9
5
-67
-4
19
10
-72
-36
-31
-55
2
-39
1
-23
26
25
-50
-52
0
9
-5
-40
-5
-21
10
14
5
-63
-13
10
-34
52
58
12
13
117
-73
27
25
-8
-46
90
25
39
27
-18
24
39
-33
-17
-91
13
-7
-47
15
5
-23
2
-51
64
23
15
-8
27
6
7
-46
-8
48
-2
-30
-23
-30
-52
14
17
-37
-1
50
41
-14
-31
42
0
-42
20
31
-46
-6
-17
21
0
84
-2
7
19
26
-8
35
17
-28
6
3
12
-38
64
34
26
-14
-1
19
55
-43
-2
-70
-2
-21
-20
6
24
-21
30
-58
20
31
26
-6
0
-3
-13
-27
-27
70
-23
-18
7
-39
-28
60
26
-15
5
-3
45
-2
-59
41
45
-56
23
73
-15
20
41
13
-37
67
-49
17
28
59
-19
48
13
17
-86
10
12
-70
43
22
-26
11
22
-25
-39
-1
-18
14
-26
15
-33
-41
16
28
0
28
-28
43
5
0
6
23
4
29
-16
20
-17
25
-13
-32
-2
-23
-4
-9
7
71
38
5
-5
11
-12
-2
-37
-13
33
-11
-5
32
-41
-25
-30
22
3
3
-20
-2
-18
22
24
5
3
17
19
-7
30
-15
12
12
-6
-53
4
4
-38
-3
21
-1
1
7
28
7
-28
-18
-6
-8
-27
-17
47
24
-15
16
-12
15
-13
-16
10
30
11
4
20
9
19
7
-3
14
-43
1
-26
18
39
-19
15
16
-15
-3
-32
7
-2
-28
1
11
-8
-18
10
-22
10
-5
45
-11
25
-24
-7
-10
-17
-50
21
-4
-3
-28
-22
9
14
-17
10
10
50
-27
-8
1
3
-81
50
18
-13
30
-15
46
-8
12
7
1
-5
33
-2
-21
40
28
-5
12
-22
17
21
15
-6
8
36
37
-3
14
-15
2
-2
-38
14
16
-18
-32
-23
-24
9
-3
24
4
16
-11
-12
-6
-19
-9
1
15
-60
35
-5
-82
-48
-7
-44
-13
-33
-18
-50
-16
8
94
4
-2
-12
18
12
5
-8
-71
-2
-59
-14
-17
-2
66
-14
-1
19
-19
-20
-5
-6
23
5
-13
-27
-41
-19
-43
-17
-6
-30
-24
-25
15
13
52
-12
-14
-30
-2
-22
-36
0
-9
27
41
0
-8
-9
20
-82
8
-19
-9
-10
-20
-40
-30
-44
-9
-33
-39
-27
12
-39
26
-14
-2
-14
-28
-20
7
10
-38
-8
-15
5
-8
-12
-10
-9
-53
-22
-22
42
36
29
31
-44
-55
8
-33
-3
13
-17
-50
-53
30
16
43
-73
5
-11
4
-42
11
-59
-25
21
15
0
-50
-11
8
2
-18
-13
41
-40
-13
-22
-3
23
16
29
-19
-9
-73
-3
-6
2
-11
-20
-1
7
75
10
-47
-9
17
-15
-29
6
10
18
-35
21
-38
58
-10
15
55
-35
-42
-13
17
-39
7
-10
-59
-15
-4
-15
-8
-87
6
24
1
-42
29
-36
-10
32
-3
-31
-18
-9
-23
-55
9
-68
-15
-34
27
-85
-1
-35
18
-14
-27
53
29
33
-25
-38
-43
10
35
29
-61
30
-43
-15
57
-42
-7
-31
20
-16
-26
1
6
11
21
-25
-6
20
-45
-12
-29
-16
-20
-52
14
1
12
-15
67
29
-17
-7
66
-58
-39
-50
-13
17
37
-7
18
-13
-13
-56
-14
-73
11
-38
5
-74
-1
-18
40
-8
-15
7
17
-17
-11
-32
-26
-22
-11
52
32
5
-19
-20
50
-37
-23
-26
-3
-44
-24
30
-22
74
-28
-1
9
-15
-25
29
4
-34
-19
-1
26
37
-7
-8
44
-15
-23
-14
67
-57
38
-77
19
34
24
7
2
-17
-8
-59
-31
9
22
-18
18
-57
47
-12
25
56
-32
-3
-29
4
-33
-25
-47
-23
37
20
127
21
-41
-4
-11
-20
-24
4
-51
-6
-24
40
-16
45
-43
-42
-3
-17
-13
-19
25
-4
-16
0
-26
-18
-3
-14
-11
-51
-24
-11
31
-62
49
-64
41
2
2
5
-10
-10
34
-20
-41
-7
46
-22
-9
-6
-39
-46
-6
23
72
29
23
-49
21
51
9
-9
20
-18
70
12
4
-11
-1
0
29
-4
52
-26
13
-28
-32
64
-19
39
25
24
36
-6
6
-46
64
9
-21
-1
53
41
-33
24
-34
14
57
20
-26
67
15
23
-24
11
-11
-14
-42
-32
-46
-23
34
-11
-51
15
-27
-40
-17
34
22
27
30
-14
6
44
9
25
16
-6
12
16
-4
-2
-48
-15
-3
-61
-30
-24
7
-15
-10
19
-24
-5
-33
-47
-64
-12
28
-42
-41
18
25
-13
-8
43
-17
0
-40
-22
-28
-23
4
49
-17
14
-23
-14
-24
-13
-47
-30
-30
-1
-35
-24
-54
-66
-26
46
-9
11
-34
3
-5
84
-17
9
-8
-27
-10
14
-50
3
-43
-38
48
8
6
-29
-62
12
-8
49
-22
-12
62
12
-30
60
-75
24
10
45
-42
18
44
-45
-5
23
48
4
22
-22
-44
-32
24
-22
-71
18
8
-15
24
-2
-31
-66
-37
27
42
-35
-46
12
-15
-2
-17
74
53
8
14
-57
-7
12
39
9
-5
-38
-4
40
3
-32
-19
-36
-29
-23
-54
-57
5
-16
-18
-8
-10
-25
-26
-78
8
6
3
-42
8
12
-1
24
34
27
-33
-6
-38
21
-16
53
-43
67
-32
12
0
-44
1
2
-87
-68
-7
13
1
-25
-42
-56
-33
15
-6
-3
-41
-24
-26
38
-45
-13
12
5
8
-55
-49
-33
-44
-24
15
0
-54
-40
-86
-74
-26
20
-15
-21
37
-47
-64
-8
-54
-18
-21
29
-31
-3
-46
32
-33
1
17
-59
15
-43
-93
-51
49
-28
-22
-13
41
-44
-14
-37
-49
12
16
-6
-81
-18
-22
-91
-49
52
45
-57
-19
3
-48
43
-27
-7
-61
-9
-32
10
-8
-9
-26
-4
60
-3
-62
-21
-83
16
-23
78
5
12
66
3
-3
111
12
1
10
66
-22
24
11
-9
-19
-14
44
6
-13
-23
18
-38
27
-62
-18
-51
21
-36
12
17
-85
-94
-17
-53
17
5
-47
-36
-16
29
10
31
21
4
16
21
-62
15
19
1
14
-53
-52
-14
-4
-83
-14
8
-45
-68
-71
-91
-36
-14
-27
-49
36
-67
-36
-25
-17
-27
5
11
-8
23
-47
38
-44
-33
24
-68
-10
42
-33
12
70
55
-20
5
30
-47
-30
-42
-82
-8
36
32
-9
-48
-13
-95
-24
49
15
-19
-2
-18
-31
94
-48
16
-65
-33
30
23
-33
-12
-35
-12
26
31
-46
10
-60
-2
-41
9
-25
22
110
-33
-34
127
20
29
8
5
-55
12
-37
28
1
-12
46
-26
24
-8
15
-56
47
-8
12
-38
0
-53
-8
35
-47
52
21
23
-42
-17
-15
-31
-27
47
0
-26
-23
21
2
-8
-23
16
-29
-18
20
37
26
-5
-29
35
-33
3
-75
46
-32
52
-30
12
-15
13
31
27
-50
8
70
10
32
-23
-25
-24
16
-2
63
13
54
21
-33
-8
40
36
-27
-25
18
-49
-18
-25
-18
72
-7
-2
-17
39
7
21
-6
22
16
11
-9
12
19
3
-11
-3
23
-16
13
8
7
-12
4
-2
3
-18
10
4
0
19
-15
-1
-7
10
18
6
8
-5
-8
-17
-15
-7
-16
-7
-10
3
7
7
-5
1
12
9
-20
-9
0
1
-39
-19
-8
-14
22
-3
14
1
-4
4
-9
15
-4
41
-5
16
14
11
5
-13
9
-4
1
2
11
3
7
-2
6
-10
6
-4
9
9
-12
12
3
7
-8
-3
-9
-5
8
0
18
-11
-14
-15
9
-8
-15
-1
0
4
0
-3
-3
4
11
6
-14
4
-7
6
-23
7
-13
-7
10
0
0
-7
-12
-16
-7
10
-7
20
-8
7
-20
4
7
-23
26
-10
16
9
28
-11
11
-2
14
-2
8
4
3
-18
-15
15
6
27
9
-7
-7
7
12
-10
-1
0
-2
8
-4
-2
1
7
-18
11
5
-17
2
-6
20
18
-18
15
3
-4
-20
-15
-27
-5
10
3
-10
9
18
-19
2
18
-12
102
-31
-14
-12
-10
-13
-1
-15
-17
-44
-58
-8
-14
-36
0
5
-14
-33
-4
15
-32
-30
17
-17
-27
2
-3
-13
30
5
-6
16
3
4
-39
-21
-13
14
-11
-5
-1
-30
-29
11
-25
-60
-14
-15
-19
-9
-5
24
18
7
-14
49
18
-25
-33
-1
-17
-4
24
-7
42
-29
-3
9
-13
9
-17
-19
-9
-18
-32
-3
-21
-18
-11
9
-13
-10
11
24
14
-44
6
-9
-27
3
1
1
21
5
9
10
11
-9
-23
16
-2
-1
-10
-24
6
-16
-24
-3
-8
-39
-10
-5
-12
-2
-15
8
38
12
-15
23
14
-13
-30
-8
-38
6
14
-9
127
-36
20
4
-19
-10
-24
-15
-16
-12
-28
18
-9
-36
-23
-1
-6
-37
1
10
-15
-38
9
-9
-48
8
-2
-7
31
0
-6
-3
22
27
-24
-8
-4
-13
-9
-17
-6
-20
-38
-3
-11
-44
-12
-9
-6
-15
-29
-6
16
6
-12
21
1
-33
-38
-6
-29
-5
-57
20
13
17
-66
2
3
-7
10
-6
6
3
-12
-5
24
-14
-3
10
-1
26
-14
12
-6
-30
6
6
-15
-2
-3
-12
-19
-3
-11
-29
-9
-2
7
0
-16
14
20
19
-7
-5
22
8
-8
-7
-1
0
-34
-56
-9
33
-19
3
-1
38
2
4
-11
-1
-14
1
-56
-15
40
2
-42
13
-6
6
10
6
-8
10
-5
3
15
-9
-13
11
-3
8
2
5
32
-28
-15
12
-14
5
4
-5
-31
-12
-10
-13
-5
8
-1
20
4
16
11
22
-2
-4
15
11
0
13
4
2
-32
-28
-16
19
14
-3
-9
15
4
8
-5
20
-25
12
-67
-5
24
3
-27
5
10
-3
1
4
4
-2
-6
10
13
-18
-2
12
-10
-33
-6
16
3
18
-16
-6
-35
-3
-2
0
-32
-13
13
-27
-9
7
0
14
-11
29
4
31
-13
-12
5
18
4
42
7
18
-11
-23
-14
33
-16
2
-5
26
-12
2
-5
44
-26
13
-46
61
-39
-31
-15
46
-33
13
41
14
-17
30
-10
-33
54
-75
22
40
-18
-40
27
12
-19
-34
-25
-39
3
-4
-11
21
2
-32
8
16
7
10
-7
-34
11
21
7
3
-30
16
-57
-14
-36
17
18
-19
-37
-48
-31
-59
38
-49
-29
-20
16
-38
-14
-1
-53
-25
-45
26
28
-9
-13
57
-31
59
-43
-6
12
28
-12
-67
-29
-78
25
-4
-3
-49
32
35
-33
34
-56
-38
8
13
-43
-8
0
-47
23
1
-5
13
-16
-61
-4
-21
-84
-51
-20
-35
-91
-21
-50
23
11
-32
24
-65
-67
-10
50
-40
-8
-10
7
-41
13
9
-29
-31
-47
14
-46
-19
-7
1
-16
58
37
-40
8
10
-68
-109
-50
-49
9
-2
14
-93
-1
42
-26
3
-31
-28
10
-45
-72
-21
52
18
28
66
25
-10
-13
-76
-78
12
-63
-29
-31
-28
-72
0
-13
21
-16
-47
11
-36
-59
-108
105
-40
9
-25
-7
-43
-9
22
-40
-25
-64
32
-60
-30
-10
11
-6
20
18
-33
-32
12
20
-54
57
-23
31
-22
-14
-38
-19
-46
-50
-60
25
-1
19
-8
-10
-32
2
-46
0
14
-13
12
-46
19
-35
3
3
29
45
-36
-25
-39
17
-42
0
-14
-37
-67
6
-30
3
-47
-47
47
-50
-55
-14
-12
-87
-41
-70
48
-18
-65
7
13
-82
4
18
-35
-20
58
-22
15
111
-87
0
-8
-37
-36
-4
-12
-59
125
-74
-38
12
-34
-31
-21
-15
-62
61
18
-55
-2
1
12
-21
-40
-37
-38
2
-11
-101
-36
21
-24
-18
-37
19
-84
-26
-28
6
-61
-56
42
-8
-36
-12
-66
-44
-29
-101
96
-38
-49
19
-54
-3
26
13
-55
-2
116
-93
-48
33
-29
47
-16
1
-70
-12
61
-40
17
6
-39
27
-43
-26
-8
13
106
72
-20
105
-2
-71
-31
-67
23
-74
-34
-17
-37
-121
15
-40
-11
-34
-73
40
-94
-18
-64
5
-91
13
6
-18
-44
51
21
-6
29
-58
-7
-37
-59
-52
36
-3
-8
67
-6
16
45
7
-60
10
-5
19
-66
-22
-36
-6
-13
-66
-8
77
-25
11
42
-21
-40
20
8
0
-9
-35
-11
-47
-26
-56
36
-49
-2
70
-37
-3
17
-9
17
49
-19
-4
-53
11
45
-68
-34
-68
-33
7
-46
23
19
-53
-28
-72
37
-57
-59
25
6
-82
-15
7
1
17
56
-24
127
78
-30
-22
-81
-62
-40
-17
-32
-27
-17
-31
-76
-16
33
5
-29
-13
-40
55
-4
-20
-20
-50
-34
-1
1
-61
-31
17
37
-49
-28
84
26
3
-54
3
-45
-16
-23
-7
-54
-47
-22
-3
-55
6
25
-58
-21
-105
67
-9
-90
9
-15
-75
-33
45
-11
22
118
-76
20
40
12
34
-48
-79
-6
-20
