memory_initialization_radix=16;
memory_initialization_vector=
2c,
e7,
17,
08,
f8,
f8,
0c,
dd,
f9,
0a,
14,
05,
a1,
0a,
0d,
f0,
fc,
0b,
fd,
0d,
0e,
06,
47,
38,
0e,
f6,
f7,
18,
02,
7f,
fb,
ee,
16,
d9,
f9,
1e,
fb,
ef,
1d,
ff,
f0,
05,
f5,
f8,
28,
01,
f1,
5a,
0e,
3f,
08,
f2,
24,
fc,
fc,
f4,
11,
11,
55,
1f,
0a,
d5,
0e,
0d,
9e,
56,
f8,
f8,
b9,
3b,
1e,
32,
57,
f4,
ec,
16,
14,
fd,
e2,
fb,
03,
ff,
f2,
10,
fc,
41,
f3,
0d,
16,
0d,
1e,
45,
f5,
36,
cc,
5c,
0d,
dc,
08,
d7,
06,
cf,
ea,
f7,
f9,
0f,
e7,
01,
1c,
1d,
da,
bc,
0c,
e7,
f3,
f5,
2e,
13,
b4,
07,
50,
e8,
f9,
38,
f4,
e6,
fa,
03,
45,
ed,
63,
0b,
f8,
12,
02,
fc,
e6,
f7,
f7,
27,
e8,
f5,
94,
c8,
65,
2b,
0b,
d6,
f3,
d8,
1b,
1a,
39,
d7,
54,
e6,
be,
0f,
2a,
84,
25,
0d,
2d,
fc,
0c,
0a,
f8,
f6,
fc,
18,
09,
3a,
f7,
d8,
21,
02,
e3,
13,
d6,
00,
47,
05,
e4,
2b,
3b,
07,
b6,
bf,
26,
52,
ff,
26,
0a,
11,
b5,
08,
f9,
2f,
fe,
16,
0a,
f9,
d9,
1d,
ee,
f6,
2a,
f5,
f5,
4b,
f5,
13,
02,
f2,
13,
ea,
04,
c9,
28,
00,
31,
f5,
be,
15,
df,
fc,
d5,
51,
9b,
1e,
fa,
0c,
f3,
3c,
1d,
ef,
e0,
20,
01,
41,
07,
fc,
9d,
f2,
36,
e0,
4f,
4c,
e8,
b1,
81,
ed,
88,
0b,
35,
04,
f8,
21,
0a,
29,
a5,
0c,
00,
04,
df,
47,
1a,
0d,
f6,
40,
1f,
f1,
41,
09,
0d,
ff,
04,
b2,
f4,
ff,
04,
f9,
03,
d9,
e8,
fc,
12,
07,
fe,
fa,
25,
1a,
c4,
0b,
ca,
00,
c9,
d7,
e5,
31,
f9,
04,
04,
04,
d2,
12,
c3,
43,
fc,
f2,
aa,
fb,
16,
0a,
17,
f7,
29,
f0,
81,
f3,
07,
f8,
17,
16,
00,
01,
33,
f4,
00,
c4,
11,
1d,
16,
00,
be,
02,
b3,
26,
26,
da,
f1,
df,
15,
aa,
90,
cc,
fe,
b7,
df,
fe,
e9,
fc,
ed,
ee,
d7,
0c,
db,
1b,
f1,
f0,
ec,
16,
1a,
2a,
10,
0b,
f2,
ff,
f0,
ed,
f7,
34,
0d,
b6,
f3,
f2,
f3,
f3,
9c,
f9,
18,
0b,
f9,
2e,
18,
48,
b7,
ef,
dc,
f5,
44,
34,
21,
25,
03,
3f,
12,
f9,
3c,
fd,
05,
f5,
09,
e6,
ff,
c0,
eb,
0c,
f3,
05,
31,
e9,
07,
05,
5e,
f3,
e3,
ed,
cc,
1b,
db,
ef,
f2,
be,
fc,
11,
2f,
ed,
e8,
e3,
fc,
10,
f6,
f4,
d0,
0d,
21,
0d,
e3,
e1,
f8,
f3,
f5,
f4,
c6,
17,
13,
0d,
0a,
11,
e3,
2c,
ef,
ef,
ff,
03,
ff,
f8,
e7,
fd,
00,
d7,
ed,
ea,
12,
b8,
81,
ae,
cd,
f3,
06,
f2,
fc,
02,
20,
f3,
a2,
f4,
ff,
f3,
03,
e9,
06,
06,
b9,
fb,
fa,
00,
04,
ef,
11,
06,
ff,
c8,
07,
dd,
09,
df,
bd,
f8,
e9,
09,
fd,
d7,
0f,
eb,
d3,
fd,
ce,
07,
0b,
e6,
00,
37,
f3,
2f,
0b,
ef,
13,
d4,
17,
32,
31,
ce,
ee,
11,
f8,
00,
ed,
fb,
31,
ff,
07,
f7,
04,
00,
f6,
d7,
12,
f3,
fa,
04,
e5,
03,
f1,
09,
1e,
14,
fd,
ca,
ef,
ee,
d5,
b9,
f7,
d0,
e9,
d7,
42,
02,
04,
a3,
f0,
6b,
0a,
fc,
de,
63,
b4,
f6,
10,
f8,
cd,
f8,
f1,
db,
10,
89,
0c,
1f,
fe,
a8,
05,
0d,
e7,
ec,
1c,
e0,
f8,
ec,
f5,
fd,
2e,
ea,
37,
e1,
e1,
da,
e0,
e0,
fd,
ef,
fb,
c8,
37,
ef,
fa,
fd,
0a,
f3,
1b,
02,
03,
c7,
ef,
fc,
81,
e5,
df,
4c,
1b,
02,
d2,
03,
d9,
e8,
db,
2d,
05,
20,
0d,
f3,
1f,
fe,
f4,
07,
f6,
00,
0d,
3a,
09,
57,
de,
40,
ef,
e6,
29,
b4,
28,
7f,
36,
10,
e1,
50,
02,
e9,
f4,
f8,
1d,
0d,
02,
c9,
f6,
ff,
e1,
99,
e3,
f7,
02,
00,
c2,
df,
1f,
08,
4c,
11,
a4,
14,
fa,
b8,
93,
cb,
b6,
cb,
ce,
a1,
3c,
01,
04,
f7,
a3,
62,
ff,
f9,
db,
1a,
0c,
eb,
e5,
f9,
01,
13,
1e,
16,
ea,
0b,
d2,
4b,
f8,
f3,
f5,
ee,
00,
c2,
f8,
c2,
13,
c9,
1b,
f6,
c3,
12,
36,
e3,
d4,
21,
f9,
d9,
11,
c3,
bf,
db,
19,
0d,
f9,
10,
0f,
f2,
a7,
0b,
01,
00,
f7,
06,
d1,
1d,
14,
78,
27,
b4,
c7,
0a,
98,
c5,
bc,
4d,
48,
0f,
fb,
9a,
e9,
fc,
ce,
f2,
de,
ff,
e4,
fa,
14,
ee,
19,
f3,
f6,
fc,
05,
0a,
ff,
fa,
15,
06,
33,
ff,
df,
f6,
f7,
05,
a0,
02,
08,
fc,
b6,
06,
fa,
e4,
16,
01,
f9,
05,
03,
f4,
6c,
c9,
0c,
08,
fc,
04,
13,
e1,
f7,
09,
08,
fb,
f0,
f2,
09,
0e,
02,
fa,
fa,
12,
16,
07,
06,
f0,
f3,
07,
08,
fa,
f8,
01,
06,
81,
0c,
be,
04,
03,
fe,
fd,
f1,
d5,
fc,
fa,
f0,
fc,
f8,
f0,
e3,
ff,
fa,
0c,
ea,
f8,
07,
2d,
f9,
02,
05,
f6,
03,
01,
03,
6e,
bc,
bd,
02,
e7,
08,
0b,
09,
e4,
05,
fd,
fd,
16,
04,
06,
1d,
00,
d9,
07,
ed,
b7,
f3,
f1,
40,
0d,
0c,
0a,
0b,
ed,
fc,
f7,
ec,
1f,
f8,
0c,
02,
1f,
82,
df,
4b,
fc,
65,
d3,
58,
2e,
f2,
6b,
e6,
0a,
9d,
e7,
e7,
fc,
fb,
e3,
7a,
c2,
0e,
fc,
fd,
e6,
28,
08,
06,
01,
39,
19,
04,
0a,
cf,
45,
ad,
10,
e4,
d6,
c5,
6f,
e2,
39,
0c,
f1,
f6,
02,
74,
05,
1e,
00,
f9,
fb,
64,
11,
17,
05,
02,
fd,
b9,
f2,
03,
01,
fd,
16,
ef,
36,
0d,
fb,
14,
00,
11,
5b,
d1,
45,
f6,
d5,
df,
fd,
c8,
9a,
b5,
a6,
c1,
1e,
1f,
00,
05,
1f,
d9,
1d,
b3,
15,
da,
14,
04,
12,
42,
0c,
81,
f9,
df,
0d,
eb,
d4,
46,
07,
0c,
fe,
02,
14,
f4,
fd,
ea,
fe,
16,
37,
0b,
fe,
e9,
ef,
19,
eb,
fa,
db,
bc,
d6,
ff,
e7,
0c,
ee,
21,
b8,
cf,
f9,
ee,
eb,
34,
f9,
e8,
e6,
ff,
f5,
dc,
fc,
e3,
ca,
b2,
d2,
0d,
19,
fb,
fb,
df,
ed,
00,
16,
0f,
f3,
df,
45,
e3,
84,
fe,
da,
3f,
ed,
05,
ff,
ff,
ef,
f8,
01,
d9,
f7,
0d,
06,
e2,
f9,
fd,
1a,
d3,
f5,
f9,
16,
f1,
f3,
ff,
fd,
05,
07,
fd,
f8,
ff,
22,
f9,
d8,
b3,
81,
fe,
15,
db,
f2,
f2,
03,
ca,
0f,
f6,
d7,
c1,
00,
fb,
e0,
e0,
cd,
e5,
ff,
ff,
ea,
e0,
ee,
e7,
05,
fe,
13,
0f,
e3,
33,
04,
e8,
12,
11,
04,
f7,
f1,
ee,
de,
03,
f9,
e4,
fc,
f8,
f0,
ea,
ff,
fe,
e1,
e2,
ef,
09,
06,
eb,
fe,
f4,
07,
e6,
15,
ce,
26,
9b,
c1,
e1,
fe,
0d,
31,
0a,
b9,
f4,
09,
1e,
f8,
0b,
fe,
4c,
ec,
0d,
ff,
cb,
af,
ba,
fa,
95,
eb,
af,
d5,
83,
02,
de,
b0,
d5,
fb,
1c,
16,
c6,
e0,
04,
f1,
d1,
d5,
dc,
0f,
fa,
c9,
bf,
e7,
06,
e8,
06,
ae,
0a,
25,
e1,
bd,
0f,
f4,
f2,
f9,
21,
dd,
dc,
e4,
e2,
1d,
d6,
a4,
e8,
81,
f8,
c1,
09,
a4,
02,
16,
ac,
d1,
20,
a3,
f1,
fe,
a8,
d6,
d3,
96,
11,
0c,
e8,
c3,
9d,
f8,
0c,
de,
06,
ca,
0e,
cb,
c3,
20,
09,
d8,
e9,
b3,
b3,
1a,
df,
e2,
cf,
0e,
d6,
3e,
f7,
33,
a2,
d6,
07,
ca,
f9,
0a,
fe,
17,
d8,
fb,
0b,
cd,
e8,
08,
e3,
27,
f6,
f9,
08,
ff,
06,
20,
d8,
20,
f9,
26,
f7,
ee,
10,
fe,
0c,
23,
17,
f2,
07,
fb,
f9,
ff,
e1,
eb,
05,
03,
ba,
fa,
f3,
f0,
25,
06,
03,
f2,
08,
f2,
fe,
f8,
15,
14,
01,
ef,
19,
e2,
0a,
03,
e5,
0c,
b9,
08,
0f,
00,
08,
14,
30,
f8,
0b,
01,
05,
f6,
05,
ff,
fe,
15,
04,
07,
ec,
1a,
09,
fa,
fb,
ef,
18,
c2,
0d,
0c,
0a,
2f,
09,
f7,
05,
14,
05,
fb,
f1,
f2,
81,
01,
01,
04,
ec,
04,
fc,
fe,
fa,
d5,
f7,
f9,
f6,
04,
f2,
f8,
3d,
0d,
f9,
af,
ef,
f6,
d1,
dc,
ea,
17,
15,
01,
00,
bc,
fa,
f9,
c6,
03,
d5,
f7,
0f,
03,
c4,
19,
f0,
0a,
15,
f3,
28,
26,
f8,
0f,
10,
16,
15,
ec,
3a,
1c,
26,
fd,
f6,
30,
25,
05,
ff,
52,
17,
24,
f3,
08,
21,
45,
02,
12,
2a,
26,
09,
09,
11,
1f,
0b,
be,
1b,
1d,
10,
02,
31,
27,
1b,
fd,
12,
3d,
17,
16,
b5,
fe,
0e,
e7,
e2,
32,
da,
1b,
f4,
18,
de,
3b,
11,
f7,
ed,
15,
00,
36,
0e,
41,
0b,
19,
2f,
10,
06,
1c,
58,
38,
12,
11,
1a,
f8,
0a,
ff,
0f,
25,
12,
07,
f3,
2d,
16,
2a,
37,
df,
16,
09,
12,
13,
fe,
25,
11,
31,
1b,
fe,
20,
11,
08,
f4,
2c,
05,
1e,
27,
18,
06,
16,
fa,
22,
fe,
20,
4b,
0c,
23,
21,
7f,
00,
2a,
ef,
4b,
0f,
f8,
ec,
45,
2a,
e5,
6d,
e6,
f1,
d2,
ed,
1b,
e4,
c9,
cb,
fd,
cc,
f2,
f7,
56,
b2,
1e,
e3,
be,
4a,
2a,
e2,
33,
f9,
0a,
fc,
ec,
15,
37,
9a,
31,
07,
07,
c4,
eb,
ba,
0e,
5b,
c7,
2a,
ed,
ec,
4f,
0a,
0e,
0e,
dc,
68,
55,
14,
fb,
e3,
1c,
d5,
0d,
34,
fc,
03,
9d,
a6,
05,
1b,
a1,
0d,
dc,
26,
f6,
c6,
00,
e4,
b4,
f8,
0b,
cb,
13,
fe,
13,
bd,
f8,
23,
3c,
0c,
25,
ff,
b6,
51,
f4,
fe,
dd,
0f,
f4,
aa,
0c,
f6,
15,
84,
e1,
ef,
13,
2a,
00,
36,
df,
9a,
da,
ee,
e1,
99,
0b,
f1,
7f,
16,
08,
fb,
f3,
1b,
03,
c0,
15,
59,
cd,
1b,
09,
ef,
d8,
e0,
60,
1e,
0b,
d7,
07,
fe,
c6,
00,
ed,
fe,
d4,
f7,
ff,
4e,
f2,
0e,
f1,
f5,
17,
e8,
0d,
28,
f1,
f1,
45,
e5,
02,
d3,
20,
2b,
18,
2c,
1a,
03,
21,
0a,
ae,
41,
08,
3d,
dd,
23,
ed,
c5,
24,
f6,
3c,
18,
0b,
03,
ee,
21,
e4,
07,
ef,
d3,
1c,
e0,
f8,
ea,
ae,
71,
d3,
07,
ae,
0e,
df,
41,
23,
38,
18,
23,
08,
15,
e8,
47,
fa,
0f,
c2,
d5,
b8,
27,
e7,
0d,
df,
f5,
b3,
0b,
e9,
2f,
f3,
f4,
21,
2f,
08,
17,
ff,
bc,
01,
01,
ef,
16,
0f,
2a,
18,
b9,
2d,
16,
1e,
48,
fb,
01,
e8,
03,
1c,
0e,
e6,
bc,
cc,
07,
f6,
81,
28,
0e,
f9,
33,
da,
0c,
10,
01,
12,
13,
f7,
66,
19,
e7,
d2,
ea,
bb,
0a,
f4,
2e,
64,
eb,
00,
05,
0d,
8e,
17,
f9,
00,
2e,
0a,
f7,
f0,
e2,
2b,
4a,
00,
d3,
f2,
c5,
cd,
d7,
18,
f0,
e7,
04,
ce,
ab,
e1,
06,
0c,
f1,
f7,
19,
06,
1e,
19,
06,
da,
c7,
10,
2a,
ec,
14,
07,
ff,
07,
fb,
d3,
12,
15,
08,
06,
08,
b0,
ef,
17,
13,
dc,
e6,
da,
e3,
13,
93,
d9,
7f,
25,
ff,
19,
07,
31,
e0,
06,
fb,
e8,
be,
15,
1d,
05,
d2,
1b,
f1,
ef,
c8,
1a,
0f,
66,
0d,
04,
5d,
da,
e4,
05,
06,
0a,
d1,
c8,
fc,
fb,
2d,
1b,
ef,
de,
25,
de,
d8,
e6,
35,
e2,
07,
04,
06,
f3,
04,
18,
10,
18,
0c,
04,
15,
f5,
01,
01,
f3,
d8,
fb,
11,
c9,
04,
fc,
06,
02,
e1,
00,
e8,
ff,
00,
0a,
e8,
f9,
fa,
f7,
eb,
10,
18,
f9,
d1,
29,
f6,
f5,
f7,
fe,
05,
bd,
f1,
0f,
14,
00,
b9,
fd,
17,
0c,
49,
16,
09,
3d,
13,
07,
07,
f1,
28,
09,
01,
e1,
e5,
f9,
12,
f9,
eb,
2a,
10,
16,
fe,
ec,
eb,
fe,
f0,
0e,
02,
fb,
0f,
fc,
f6,
f6,
ec,
46,
1a,
06,
03,
07,
f3,
0f,
04,
01,
ff,
05,
07,
00,
ed,
fa,
50,
f5,
04,
f7,
11,
1a,
04,
1e,
fd,
f5,
d5,
fe,
1a,
f0,
00,
fc,
0e,
e8,
08,
81,
08,
03,
2e,
eb,
f6,
fc,
13,
c6,
f4,
05,
fb,
10,
14,
fa,
0f,
13,
02,
10,
eb,
fd,
07,
02,
ef,
f8,
e9,
1d,
09,
f8,
f4,
01,
fe,
f7,
04,
ee,
e5,
a7,
f8,
0a,
d8,
f6,
e7,
f1,
f7,
f6,
eb,
27,
fa,
17,
0f,
e9,
ec,
ec,
0a,
f8,
49,
04,
f5,
0c,
03,
bd,
1a,
05,
01,
0d,
5d,
50,
c7,
ff,
f5,
10,
06,
04,
09,
de,
01,
fe,
f6,
11,
15,
05,
f5,
ed,
f6,
e8,
e2,
e4,
7f,
f8,
e7,
02,
08,
08,
f6,
08,
10,
0e,
06,
25,
fd,
f3,
fd,
fc,
06,
05,
f7,
ea,
b6,
fe,
e2,
f3,
08,
0d,
0f,
f5,
03,
02,
0b,
fd,
6b,
ff,
15,
eb,
fe,
f2,
06,
a0,
14,
05,
f6,
02,
9a,
fd,
ff,
20,
ef,
05,
1c,
09,
16,
ea,
00,
1d,
f1,
30,
16,
fd,
14,
fe,
2a,
13,
e1,
1c,
00,
15,
0b,
0b,
ec,
02,
05,
f2,
dc,
fa,
4c,
03,
08,
f5,
f8,
fc,
08,
15,
11,
d0,
18,
01,
f8,
d8,
f6,
f2,
1c,
03,
0c,
09,
09,
00,
0b,
d2,
2a,
f4,
05,
e8,
0d,
0d,
ff,
f8,
08,
15,
0d,
c1,
fc,
f9,
fd,
f9,
1a,
03,
0b,
16,
f7,
02,
d4,
f1,
fc,
81,
de,
e2,
08,
dc,
15,
0c,
03,
0b,
1a,
05,
f3,
42,
b7,
f0,
f7,
0a,
01,
e8,
01,
d9,
00,
e8,
f3,
05,
0c,
f3,
03,
ef,
0c,
0c,
29,
fd,
e8,
f9,
f6,
e2,
e4,
fa,
20,
01,
05,
fe,
dc,
f6,
f5,
da,
01,
fd,
f9,
fe,
2b,
3f,
fc,
11,
1c,
30,
27,
02,
db,
08,
15,
f3,
f8,
13,
fb,
ef,
1b,
f7,
02,
3c,
f6,
e7,
ee,
af,
16,
08,
f9,
eb,
03,
04,
b8,
02,
e9,
e8,
33,
06,
0a,
e9,
60,
38,
e6,
e5,
01,
ee,
1b,
2e,
df,
fa,
5e,
1d,
18,
f6,
fb,
2d,
a9,
0f,
10,
ad,
11,
52,
0f,
1e,
12,
02,
0c,
69,
ec,
e6,
fb,
77,
07,
ac,
22,
81,
f9,
de,
25,
21,
e8,
dd,
f6,
f4,
f4,
08,
08,
03,
e9,
b4,
1e,
00,
14,
1b,
12,
17,
12,
f1,
fa,
07,
f3,
ef,
d1,
0d,
30,
ef,
1c,
0c,
10,
e2,
0f,
00,
12,
fd,
c8,
02,
20,
eb,
07,
f2,
0a,
bf,
0c,
d5,
cb,
fb,
21,
da,
f7,
16,
0f,
05,
e1,
fc,
1d,
03,
16,
f5,
02,
22,
f2,
56,
0a,
fb,
08,
e5,
b8,
b7,
ea,
44,
af,
cb,
32,
f4,
fa,
7f,
e4,
fe,
07,
06,
f6,
f1,
25,
10,
e1,
c0,
d3,
ce,
dc,
08,
c5,
f1,
25,
00,
21,
f3,
fb,
0e,
d2,
37,
1b,
e7,
e2,
08,
10,
0f,
03,
30,
de,
e4,
09,
44,
f8,
0f,
f7,
12,
09,
dc,
0c,
01,
02,
26,
27,
14,
df,
9c,
05,
07,
ef,
da,
d3,
ca,
17,
29,
5f,
9c,
e6,
1c,
20,
f5,
32,
cf,
1a,
04,
13,
dd,
07,
16,
ed,
cd,
08,
33,
e3,
d7,
19,
0d,
cf,
03,
da,
b1,
ec,
f2,
01,
fb,
fc,
f2,
20,
fb,
ef,
2e,
f8,
0a,
eb,
fb,
d8,
e7,
04,
e8,
d6,
ff,
1b,
07,
01,
cc,
e7,
21,
d7,
0c,
f5,
f1,
1d,
03,
0c,
e4,
2c,
ec,
fd,
14,
04,
02,
14,
1d,
af,
04,
11,
2b,
26,
f3,
c1,
0d,
05,
04,
ab,
0c,
2c,
f5,
4a,
f8,
f4,
ec,
0a,
1b,
cb,
b2,
ea,
14,
fa,
ed,
81,
f4,
f3,
09,
51,
d9,
0c,
eb,
f9,
ff,
11,
04,
52,
08,
0f,
db,
07,
0d,
f4,
d6,
38,
0f,
f7,
cc,
e2,
05,
a3,
02,
e7,
1a,
02,
11,
00,
06,
ff,
ed,
3c,
2a,
c5,
0a,
12,
fe,
3f,
2c,
0e,
df,
08,
05,
32,
f9,
12,
06,
02,
2a,
f3,
e0,
0e,
f9,
2a,
17,
fe,
1a,
07,
0d,
02,
fd,
09,
19,
30,
0f,
fb,
d6,
f7,
f8,
e9,
fa,
d3,
ee,
ee,
81,
fb,
34,
f9,
e0,
fd,
11,
f9,
f9,
fd,
1c,
1f,
f6,
f9,
e5,
eb,
0b,
ec,
eb,
d1,
ff,
f6,
fd,
06,
13,
ec,
1f,
10,
c2,
06,
17,
b1,
fc,
21,
03,
11,
e5,
fc,
07,
e8,
df,
02,
f0,
03,
ff,
da,
ef,
b5,
05,
07,
e7,
ed,
a3,
f0,
ee,
0b,
f4,
24,
a9,
0f,
1a,
23,
fd,
fe,
01,
fa,
fc,
fc,
0c,
0f,
00,
f3,
f9,
e6,
da,
21,
11,
04,
13,
1f,
e7,
f8,
dc,
02,
fa,
00,
ce,
ed,
f1,
01,
f0,
f7,
06,
f6,
d5,
06,
00,
05,
e5,
04,
e1,
0e,
ee,
f3,
f9,
28,
dc,
f8,
10,
15,
ee,
f8,
1a,
ed,
e9,
f8,
13,
ee,
bb,
11,
f4,
5d,
a5,
10,
da,
e0,
e8,
fb,
11,
f7,
07,
0a,
10,
ea,
f7,
ef,
05,
0a,
01,
0e,
50,
fa,
ff,
dd,
fd,
03,
f4,
04,
f6,
fa,
03,
af,
09,
0e,
ff,
03,
04,
2a,
03,
f3,
f3,
07,
fd,
0d,
ed,
ff,
09,
ef,
f3,
13,
ed,
02,
f9,
fc,
fe,
1c,
1a,
0d,
f6,
f7,
04,
09,
f5,
04,
17,
0a,
15,
0a,
18,
e6,
06,
00,
bd,
c9,
e9,
09,
8b,
23,
18,
e0,
2b,
f3,
e8,
07,
08,
fe,
f5,
ff,
e9,
fb,
02,
16,
12,
e9,
06,
fa,
02,
0f,
02,
1d,
fa,
b3,
0d,
81,
03,
65,
ef,
fd,
fd,
f4,
14,
09,
03,
0c,
f9,
fb,
ec,
02,
57,
ee,
0d,
ee,
ed,
09,
c9,
f7,
ee,
05,
21,
ef,
04,
0a,
ec,
c6,
1e,
fa,
fb,
00,
fd,
01,
10,
f6,
f6,
fd,
02,
00,
0d,
03,
fb,
04,
03,
ff,
f6,
5b,
03,
05,
04,
0c,
02,
07,
06,
06,
03,
ea,
11,
07,
01,
05,
fe,
08,
fa,
fe,
fd,
f7,
15,
eb,
f5,
09,
f3,
f3,
06,
f5,
fa,
01,
0f,
05,
06,
00,
03,
03,
03,
fe,
ff,
d6,
f2,
b3,
ff,
f8,
01,
07,
02,
05,
f6,
03,
04,
f5,
ff,
0c,
02,
02,
f8,
f7,
09,
fc,
ff,
f9,
fb,
00,
fc,
08,
ff,
02,
03,
11,
ef,
fa,
f7,
0f,
f6,
03,
f7,
05,
81,
03,
fc,
03,
0c,
02,
f9,
ad,
07,
06,
07,
00,
0c,
f9,
03,
fa,
fc,
01,
fa,
01,
fc,
07,
08,
fa,
ff,
19,
0b,
e2,
01,
02,
04,
00;
