memory_initialization_radix=16;
memory_initialization_vector=
06,
11,
04,
11,
1f,
08,
08,
10,
04,
05,
f4,
f5,
19,
04,
03,
06,
04,
fd,
0c,
f8,
06,
06,
f9,
00,
f7,
f2,
f5,
08,
06,
09,
13,
10,
0b,
09,
ff,
08,
05,
d6,
0b,
00,
1a,
02,
fa,
fd,
fe,
01,
0e,
05,
e4,
ca,
18,
fe,
00,
06,
fc,
f0,
f0,
07,
fc,
fa,
0c,
00,
ff,
09,
f5,
fa,
12,
da,
fd,
03,
f7,
f5,
00,
00,
01,
ff,
fc,
fd,
fd,
f7,
fc,
02,
0e,
fe,
fa,
19,
f5,
02,
fe,
ff,
02,
fe,
fb,
81,
f2,
f2,
ff,
ff,
00,
f4,
f7,
05,
f6,
ff,
07,
dc,
e7,
16,
f2,
fa,
f8,
f4,
03,
f7,
fa,
f6,
fd,
08,
f8,
07,
0d,
09,
0e,
0a,
01,
13,
00,
fd,
01,
f8,
ee,
13,
03,
09,
f9,
fb,
0f,
ff,
ff,
f8,
f6,
fc,
f5,
f3,
f9,
fc,
f3,
03,
07,
a2,
00,
02,
06,
fa,
fd,
ff,
00,
d1,
fa,
f9,
ff,
ff,
fd,
f6,
fc,
0b,
f7,
07,
00,
0b,
00,
f4,
09,
fa,
0c,
d7,
00,
f5,
ee,
f7,
04,
fb,
05,
17,
e8,
09,
f5,
15,
03,
14,
eb,
17,
06,
f4,
0c,
08,
f7,
0c,
fb,
07,
f6,
07,
f9,
f9,
03,
f4,
f2,
ff,
22,
06,
e9,
45,
f5,
ed,
e7,
f2,
f9,
e7,
fa,
f5,
f3,
ef,
eb,
f5,
02,
f5,
f5,
00,
e1,
f8,
09,
e9,
f3,
1d,
ff,
00,
fc,
f2,
16,
f2,
02,
01,
01,
fb,
ff,
f9,
0d,
ff,
ff,
3e,
3c,
3d,
02,
07,
01,
f6,
dd,
fb,
f3,
e7,
f8,
f1,
f4,
fc,
f8,
14,
fb,
fd,
f9,
f3,
15,
0d,
0f,
1e,
0a,
06,
0a,
0f,
fc,
0e,
04,
ff,
0e,
f8,
f2,
f8,
ed,
de,
05,
31,
f9,
09,
22,
1c,
0c,
13,
0e,
ee,
0e,
ef,
0a,
1b,
f5,
ea,
1e,
f4,
f1,
f1,
f7,
ec,
01,
10,
10,
10,
11,
13,
1a,
fc,
fb,
04,
1b,
81,
b3,
10,
f9,
ef,
09,
fa,
f3,
1c,
1a,
19,
13,
fa,
fc,
fe,
fa,
fb,
14,
eb,
f6,
f9,
0a,
ff,
f6,
fa,
fe,
f8,
f8,
e6,
fe,
f8,
f2,
f8,
eb,
ed,
00,
f5,
fe,
fb,
09,
04,
f0,
07,
02,
b2,
25,
f9,
ff,
0d,
f5,
fa,
0d,
f4,
e5,
06,
e2,
ed,
f2,
16,
f8,
c7,
be,
b7,
c8,
97,
d3,
04,
de,
ed,
f8,
df,
01,
25,
54,
49,
f8,
f4,
f1,
ec,
d2,
eb,
ee,
ca,
ea,
e1,
f3,
e5,
08,
02,
03,
0e,
03,
17,
f1,
e5,
fb,
0d,
03,
fa,
f3,
c6,
bd,
0a,
f4,
0d,
f5,
0f,
0b,
f5,
fe,
fb,
07,
01,
19,
f1,
81,
33,
05,
04,
16,
12,
2b,
e9,
d4,
cb,
c8,
14,
1c,
fe,
d7,
bf,
e1,
e8,
07,
04,
f0,
f6,
f7,
06,
0c,
fd,
0e,
09,
06,
14,
31,
0d,
09,
12,
08,
fe,
0d,
ff,
04,
0f,
02,
01,
14,
0c,
12,
20,
18,
f8,
fe,
07,
1b,
28,
1a,
1a,
28,
19,
06,
0f,
fe,
f5,
02,
f9,
f9,
f3,
f7,
ed,
fd,
ff,
f7,
e9,
f6,
0a,
12,
0a,
01,
fd,
00,
02,
0f,
f7,
19,
5b,
10,
0a,
07,
fa,
fc,
f4,
f1,
0f,
fd,
fd,
04,
fb,
f5,
fe,
01,
06,
02,
fe,
0f,
09,
10,
07,
ed,
09,
f3,
f7,
07,
f3,
f4,
0d,
fa,
19,
21,
17,
1c,
0a,
1d,
0c,
11,
0c,
0d,
28,
eb,
2f,
5d,
f6,
07,
16,
08,
46,
37,
4b,
60,
0c,
52,
30,
11,
28,
f2,
ef,
00,
f8,
f6,
08,
fd,
fd,
07,
0b,
08,
0a,
0f,
01,
0d,
08,
0b,
fe,
f0,
fb,
f7,
03,
0c,
fb,
f6,
03,
f4,
07,
04,
05,
f5,
1e,
f9,
f1,
eb,
e7,
0f,
0f,
09,
15,
22,
0f,
09,
09,
03,
0c,
0f,
0e,
02,
06,
04,
f5,
f7,
f6,
10,
06,
0a,
08,
e6,
f6,
06,
f5,
f7,
06,
11,
08,
01,
38,
fd,
03,
09,
ff,
09,
f7,
09,
f1,
ed,
f7,
fc,
ff,
0a,
f9,
f7,
fe,
ec,
fd,
00,
f9,
f6,
05,
06,
0b,
fe,
02,
06,
05,
fe,
03,
04,
25,
0f,
1e,
25,
da,
18,
3f,
37,
35,
0a,
f1,
02,
0b,
fc,
0b,
ff,
f6,
fa,
f5,
00,
01,
fc,
19,
05,
fa,
03,
fa,
0e,
0f,
fd,
10,
03,
f9,
07,
16,
ed,
d9,
e0,
bf,
01,
ec,
f2,
08,
e2,
f5,
01,
e5,
f8,
03,
16,
01,
05,
0a,
07,
02,
13,
04,
0f,
3f,
05,
05,
05,
01,
00,
06,
05,
d6,
0d,
ef,
fc,
fb,
11,
fa,
f2,
40,
ee,
02,
0a,
81,
d0,
17,
06,
13,
0d,
02,
10,
0b,
fc,
06,
00,
0f,
04,
0c,
08,
ef,
09,
fe,
05,
ff,
f4,
ff,
f0,
f5,
e7,
fe,
ff,
08,
f1,
0d,
ed,
07,
f6,
eb,
ff,
05,
ee,
05,
07,
f7,
e8,
ff,
10,
af,
2b,
f7,
0e,
05,
f2,
ff,
12,
f0,
fe,
01,
f8,
02,
01,
0b,
fe,
f6,
f3,
ec,
f1,
fa,
ef,
f4,
f3,
e3,
fe,
f6,
f1,
f6,
0d,
06,
f8,
f5,
00,
fe,
01,
f8,
0d,
fe,
0d,
16,
a1,
20,
e1,
0e,
fa,
24,
f8,
2e,
3d,
1d,
24,
06,
e1,
eb,
11,
f0,
c6,
08,
01,
0a,
f3,
f6,
f5,
00,
03,
07,
f6,
f7,
fc,
05,
3d,
dc,
13,
14,
05,
e1,
c8,
03,
2d,
1b,
0a,
fc,
ee,
ff,
47,
61,
2c,
43,
ff,
0b,
29,
0a,
13,
02,
fd,
04,
0a,
05,
0f,
f4,
d5,
0b,
23,
0b,
04,
00,
e5,
fa,
07,
ff,
f8,
fc,
ef,
08,
15,
09,
0e,
03,
01,
04,
f5,
ee,
f5,
eb,
ef,
fa,
ed,
f7,
f8,
f0,
01,
ff,
03,
f6,
0c,
f5,
09,
07,
09,
11,
ff,
0a,
0d,
03,
05,
07,
01,
02,
1c,
02,
16,
40,
2f,
05,
28,
0c,
fb,
fa,
fa,
1c,
03,
f4,
0c,
07,
fd,
fd,
03,
ff,
fb,
f8,
fe,
e3,
eb,
f7,
14,
ff,
f4,
25,
05,
04,
06,
fe,
fb,
f5,
f6,
fb,
f0,
02,
ef,
15,
10,
f9,
ec,
d5,
24,
c7,
81,
19,
03,
01,
0f,
da,
ea,
f9,
9e,
fb,
dc,
ce,
01,
eb,
11,
f5,
f4,
00,
ff,
f3,
06,
03,
0f,
f5,
1a,
07,
ed,
ff,
07,
fa,
17,
0f,
11,
0e,
06,
00,
00,
04,
0c,
11,
06,
01,
0c,
0e,
f6,
f5,
00,
fe,
ff,
de,
f9,
fc,
f2,
cd,
09,
03,
ed,
02,
f4,
0c,
13,
07,
04,
f4,
02,
fe,
03,
f6,
f9,
c5,
fd,
ee,
0d,
f4,
00,
14,
08,
e4,
f5,
ee,
e0,
ea,
ff,
e7,
ec,
fe,
0c,
fa,
01,
1e,
7f,
09,
f5,
bf,
1e,
f8,
ca,
06,
3c,
20,
13,
01,
fb,
e4,
05,
37,
f0,
22,
fb,
ff,
e3,
ca,
ec,
03,
07,
02,
f6,
fa,
f6,
1a,
21,
32,
01,
15,
17,
ed,
01,
f0,
03,
11,
0b,
f7,
f4,
f4,
32,
3d,
05,
04,
f3,
fb,
ea,
db,
ed,
0d,
0a,
0d,
0b,
2e,
14,
05,
2c,
19,
0a,
1a,
fe,
f7,
c2,
f3,
02,
31,
ef,
04,
1f,
10,
f1,
10,
02,
f7,
df,
ed,
08,
c2,
10,
e7,
16,
f0,
11,
05,
fd,
19,
ff,
f8,
d2,
fd,
01,
03,
fd,
00,
2a,
1a,
03,
ee,
d6,
17,
17,
f6,
0f,
fa,
04,
ff,
02,
31,
16,
e5,
e6,
f6,
e5,
f3,
f3,
ff,
fa,
07,
ec,
c2,
13,
cd,
ad,
1f,
23,
3d,
04,
cd,
b0,
b6,
ac,
ca,
bb,
22,
02,
1d,
0b,
0d,
14,
09,
04,
f1,
02,
f3,
f3,
04,
22,
0b,
f4,
37,
f9,
06,
bc,
ef,
f1,
d4,
f8,
2a,
2d,
1b,
0b,
ff,
fe,
fb,
ee,
f1,
e6,
f4,
e3,
da,
e2,
dc,
f2,
e9,
f0,
1c,
e1,
02,
12,
33,
11,
f9,
21,
f7,
f4,
e7,
ff,
f8,
e7,
ff,
f3,
f9,
0c,
21,
1d,
13,
f1,
bb,
d4,
fe,
fa,
f4,
ff,
3b,
f4,
0c,
05,
ff,
f1,
f5,
00,
f4,
81,
d2,
ff,
f2,
f0,
03,
f0,
0d,
d3,
db,
e1,
ef,
ea,
fb,
f4,
39,
f6,
0a,
e9,
f5,
03,
f6,
ff,
0c,
21,
08,
13,
e4,
0b,
0d,
f3,
f3,
12,
bf,
0e,
f6,
c6,
fe,
f0,
f8,
f0,
f6,
e8,
f9,
0c,
01,
f2,
eb,
f5,
fb,
e5,
cf,
d2,
e5,
e0,
e9,
ea,
ec,
f6,
0d,
76,
29,
33,
2f,
1e,
0d,
2a,
0d,
0a,
3f,
01,
fa,
e7,
09,
01,
01,
00,
fa,
d4,
e5,
f0,
e8,
06,
ff,
f9,
f8,
1f,
09,
fd,
50,
15,
04,
0e,
03,
fb,
ff,
0d,
fd,
10,
fe,
f9,
31,
2d,
01,
c6,
f8,
e3,
cd,
e8,
f1,
db,
eb,
f3,
c0,
e7,
da,
bf,
13,
df,
b6,
d3,
ce,
ee,
fa,
f1,
ee,
9c,
f1,
f7,
e5,
fe,
fd,
f1,
fc,
d6,
c0,
e3,
dd,
ce,
e2,
07,
0e,
22,
15,
29,
47,
fd,
0f,
0e,
f8,
34,
0b,
ce,
e4,
fe,
f0,
12,
0c,
ee,
c8,
f2,
1d,
0f,
12,
16,
10,
13,
f8,
d3,
f3,
d8,
03,
e9,
e3,
ef,
e7,
ef,
ec,
de,
b9,
eb,
de,
0a,
f9,
01,
1f,
57,
18,
0b,
0f,
04,
0d,
10,
0c,
06,
d5,
06,
f4,
02,
fb,
04,
36,
13,
fb,
3b,
09,
2b,
b1,
fc,
fe,
0e,
f3,
fe,
d9,
ed,
02,
68,
be,
11,
16,
f3,
e1,
c5,
18,
15,
2b,
42,
fc,
e7,
17,
2c,
6f,
24,
48,
25,
25,
44,
20,
25,
01,
f7,
06,
f2,
f2,
f9,
d6,
ba,
e5,
04,
03,
05,
f4,
d4,
f6,
f5,
ec,
f0,
f6,
d8,
ec,
ed,
f9,
e5,
00,
01,
ea,
db,
ce,
e2,
de,
d1,
e3,
e4,
f6,
02,
01,
05,
02,
02,
01,
0d,
00,
f7,
01,
07,
22,
fd,
f2,
e7,
f0,
ff,
fd,
05,
eb,
f0,
fa,
03,
cc,
05,
fd,
fe,
07,
0e,
07,
04,
fe,
f9,
01,
09,
ff,
0c,
00,
f9,
ff,
01,
fd,
ee,
e1,
e3,
e8,
f4,
e0,
f4,
f2,
eb,
fc,
f4,
f5,
f3,
f7,
f2,
00,
f1,
00,
fd,
ff,
20,
09,
fc,
cf,
ff,
de,
99,
07,
ef,
c9,
fd,
b0,
bc,
aa,
81,
eb,
86,
8f,
c8,
a4,
0e,
16,
fd,
0f,
fe,
f0,
13,
0f,
fa,
f3,
0a,
07,
e8,
17,
ff,
f4,
02,
06,
ee,
f3,
ef,
03,
10,
fb,
03,
05,
0b,
f2,
f9,
f8,
ff,
e5,
07,
06,
32,
13,
e1,
f1,
f0,
d7,
d8,
e8,
e9,
d8,
f3,
02,
f8,
fc,
f7,
e6,
f9,
01,
0f,
07,
fa,
d0,
f9,
03,
28,
14,
0f,
14,
10,
e9,
de,
e8,
f5,
d3,
fa,
04,
f6,
03,
eb,
d6,
11,
dc,
e6,
f5,
f8,
e5,
02,
ee,
db,
ec,
eb,
f3,
ed,
ef,
ed,
e8,
0f,
17,
02,
03,
03,
ff,
0d,
e5,
f9,
12,
04,
04,
fc,
df,
fd,
ff,
fd,
06,
06,
d8,
fd,
0f,
fc,
e9,
04,
ef,
f0,
02,
fe,
01,
00,
e8,
02,
fd,
02,
09,
19,
0c,
18,
0c,
10,
0b,
fb,
f6,
f4,
d5,
c7,
de,
fa,
e0,
09,
fd,
00,
11,
f6,
a9,
f9,
16,
13,
fc,
06,
04,
fd,
f5,
f8,
f7,
eb,
1d,
08,
f6,
0e,
f9,
f0,
02,
07,
c2,
04,
fc,
e4,
fd,
ff,
02,
10,
0c,
ff,
02,
00,
fa,
ee,
f9,
30,
1e,
05,
41,
ec,
d9,
11,
fb,
f3,
fe,
10,
f3,
04,
0b,
f2,
fe,
ef,
f8,
ea,
e7,
0a,
e1,
ed,
0f,
00,
f1,
0f,
00,
ee,
f8,
fb,
f1,
f3,
ff,
f0,
ee,
02,
ea,
f4,
0e,
04,
e8,
01,
0a,
09,
02,
dc,
fc,
02,
fd,
07,
fc,
01,
07,
0b,
fa,
fe,
f4,
16,
03,
f9,
f6,
fd,
f0,
04,
01,
ff,
03,
e8,
21,
0f,
f8,
08,
12,
ff,
f4,
0f,
f6,
f9,
fe,
fe,
db,
81,
f1,
e1,
ff,
00,
06,
01,
02,
39,
35,
23,
1f,
0f,
10,
05,
fb,
fd,
06,
04,
fe,
04,
f1,
ef,
fb,
01,
f6,
e9,
f1,
f8,
04,
08,
00,
02,
08,
01,
08,
01,
f8,
e9,
f5,
ef,
f3,
eb,
f3,
ca,
c8,
d9,
f6,
08,
e7,
f8,
e6,
f6,
08,
00,
10,
ff,
00,
00,
db,
b9,
d6,
13,
fc,
1b,
0a,
0c,
0e,
05,
08,
05,
fd,
fa,
fa,
03,
c8,
ec,
10,
fb,
03,
e4,
d1,
d9,
d5,
d1,
d9,
ee,
0c,
07,
0f,
0e,
23,
09,
bf,
00,
f1,
db,
fc,
0a,
f0,
13,
0b,
0e,
06,
03,
06,
f7,
03,
09,
ff,
e5,
18,
fa,
eb,
05,
fc,
0f,
fe,
f6,
92,
1a,
fb,
ec,
fd,
f0,
00,
ee,
e8,
fc,
e2,
f3,
12,
e7,
ef,
f0,
f5,
ed,
35,
10,
1e,
16,
00,
07,
ff,
f3,
01,
f3,
f7,
f5,
f2,
e6,
ea,
ee,
04,
03,
fa,
ed,
fe,
f4,
ea,
0b,
f8,
e8,
f3,
ee,
fb,
e3,
f3,
06,
fc,
fe,
1a,
09,
00,
08,
a6,
e9,
fc,
de,
f7,
0d,
03,
07,
ac,
eb,
04,
ea,
f2,
04,
13,
fb,
db,
81,
eb,
fa,
e4,
00,
fb,
f7,
05,
14,
15,
25,
19,
20,
1d,
e6,
e3,
de,
d2,
03,
f0,
02,
e7,
ff,
03,
f6,
08,
f3,
ef,
f1,
ef,
02,
e3,
de,
d0,
e1,
e6,
ab,
f1,
f6,
04,
0b,
ef,
f1,
ea,
f3,
e5,
f3,
f3,
0d,
f6,
f2,
0f,
d1,
f7,
c8,
f9,
ee,
e1,
07,
25,
2d,
3c,
84,
c1,
a3,
e5,
d9,
dc,
f6,
ff,
03,
a7,
0c,
bb,
b1,
cb,
bf,
08,
13,
13,
04,
20,
02,
2e,
48,
12,
0b,
1d,
03,
23,
fe,
14,
00,
14,
0a,
0a,
1c,
fe,
13,
2c,
e4,
ff,
08,
f2,
f6,
e6,
eb,
f5,
f7,
03,
fb,
38,
1e,
11,
11,
11,
1b,
09,
08,
d7,
ea,
f0,
fb,
2a,
fd,
1b,
24,
2d,
0f,
18,
0e,
fa,
15,
f0,
1b,
69,
14,
ed,
13,
eb,
fa,
fd,
02,
20,
0b,
1c,
fc,
e4,
ed,
0a,
fc,
01,
df,
f8,
08,
58,
46,
15,
05,
f9,
fe,
40,
36,
2a,
44,
47,
40,
dc,
bf,
dc,
2d,
14,
2d,
2b,
39,
1c,
ec,
ca,
0b,
27,
3f,
05,
01,
02,
f3,
dc,
a0,
bc,
5e,
ff,
36,
7f,
67,
6b,
21,
1c,
eb,
21,
f2,
00,
f0,
f1,
f5,
f3,
0c,
f8,
14,
30,
14,
09,
00,
00,
28,
5f,
13,
a9,
94,
aa,
eb,
eb,
f0,
0c,
d9,
03,
2e,
51,
29,
16,
1a,
1b,
12,
f5,
f5,
c0,
f8,
ce,
e5,
9f,
d3,
0b,
f4,
10,
07,
f2,
09,
eb,
f2,
e1,
eb,
ca,
f7,
e2,
c8,
ca,
ce,
d4,
d0,
ff,
ee,
f7,
ee,
f7,
f2,
df,
f4,
e6,
ff,
f5,
07,
e7,
19,
e1,
c7,
ce,
e5,
e9,
da,
f9,
ea,
f3,
06,
ea,
e9,
01,
19,
03,
16,
fa,
e6,
e5,
e9,
d8,
e7,
d2,
e2,
d8,
c3,
d2,
d7,
ba,
9a,
bb,
dd,
ce,
ff,
dd,
e5,
f3,
ec,
e9,
f1,
0b,
eb,
f5,
4a,
41,
f1,
25,
14,
e3,
3c,
45,
66,
50,
43,
63,
2e,
4b,
5a,
e5,
ba,
ed,
e5,
ac,
d4,
ee,
e5,
e7,
c5,
8a,
d1,
0b,
19,
1e,
ff,
15,
07,
e6,
f8,
fe,
e0,
11,
fc,
e7,
e6,
07,
d2,
0f,
05,
ad,
15,
13,
07,
f5,
0b,
2f,
1e,
eb,
1b,
ff,
11,
04,
fb,
00,
17,
09,
24,
f4,
b1,
ff,
ea,
d1,
e5,
b6,
bd,
ba,
b1,
e6,
b5,
ac,
c2,
a1,
13,
08,
11,
04,
ed,
f1,
01,
0a,
f6,
f9,
f6,
ec,
ff,
11,
ff,
00,
eb,
f9,
0b,
09,
bc,
17,
ea,
9e,
01,
07,
ec,
07,
d5,
eb,
16,
8c,
d0,
02,
f1,
f5,
fb,
2a,
07,
14,
c5,
0e,
05,
07,
03,
d8,
ca,
d8,
b5,
ca,
cf,
d6,
dc,
e2,
15,
42,
1f,
eb,
77,
12,
03,
e1,
fd,
a2,
81,
b7,
0a,
13,
05,
18,
2e,
22,
f6,
e6,
eb,
ef,
d3,
f0,
f7,
f1,
fb,
f5,
f8,
fb,
0e,
ce,
03,
e8,
f0,
f7,
0c,
ff,
0a,
f9,
ec,
f9,
03,
fc,
12,
fe,
fc,
0a,
f7,
03,
ec,
ff,
04,
f4,
fe,
1b,
0d,
05,
13,
0e,
f4,
02,
01,
f3,
e6,
fa,
eb,
e7,
ed,
f5,
ea,
03,
1c,
2b,
12,
ee,
9c,
f5,
0d,
05,
12,
fe,
fa,
f2,
3f,
7c,
05,
0b,
1a,
03,
08,
23,
0c,
1f,
04,
06,
11,
25,
1a,
05,
25,
08,
f6,
2f,
f8,
f8,
eb,
fb,
f3,
fa,
f5,
f2,
14,
00,
fe,
09,
02,
16,
ed,
11,
f9,
f2,
0d,
03,
f0,
00,
14,
00,
f9,
2f,
fc,
02,
05,
fb,
f8,
f4,
fd,
01,
f0,
ee,
fd,
fd,
ff,
fa,
e2,
dc,
f7,
da,
bd,
e3,
0d,
1c,
0c,
51,
28,
4a,
4d,
f2,
50,
21,
37,
19,
0d,
09,
fe,
00,
0c,
e3,
12,
2a,
09,
f8,
e7,
00,
fe,
e6,
fd,
0b,
eb,
fd,
0d,
02,
10,
01,
e8,
21,
fc,
07,
00,
ff,
0e,
02,
f2,
14,
0a,
fc,
f2,
fd,
fc,
de,
fe,
04,
12,
fe,
11,
08,
08,
12,
ea,
0c,
ec,
36,
f3,
f2,
03,
f2,
f0,
1b,
f8,
ee,
7f,
1b,
15,
d1,
f4,
1c,
34,
14,
ff,
fc,
f9,
f9,
f9,
03,
e3,
ee,
e9,
f1,
e8,
dc,
08,
01,
fa,
f0,
d6,
ff,
d0,
9b,
da,
f3,
e9,
04,
fe,
e6,
fd,
ee,
9d,
f6,
02,
e7,
f5,
09,
12,
ef,
fb,
f8,
dc,
fb,
ff,
ea,
c5,
d0,
da,
d0,
dd,
eb,
d8,
db,
e8,
06,
05,
fd,
08,
ff,
03,
14,
10,
12,
ff,
0f,
e6,
e6,
cb,
ea,
f7,
01,
00,
e5,
f6,
03,
02,
15,
f0,
f4,
fb,
fa,
f1,
08,
e0,
f8,
23,
fb,
f5,
09,
f8,
20,
2b,
24,
23,
5c,
1f,
02,
11,
09,
1b,
26,
14,
fb,
0e,
ff,
f9,
fd,
f9,
f0,
eb,
fa,
d0,
ae,
ed,
ef,
ea,
f4,
0a,
04,
f7,
41,
0e,
04,
fe,
fd,
f4,
01,
17,
f5,
02,
16,
0a,
2a,
0d,
07,
da,
d3,
ea,
be,
b9,
cb,
fa,
08,
fb,
20,
19,
15,
2b,
09,
26,
13,
07,
0c,
06,
fd,
f2,
20,
0f,
e8,
0a,
03,
f7,
f8,
fb,
fd,
11,
ff,
0a,
fa,
00,
f2,
ff,
0d,
2a,
f7,
17,
4e,
f7,
06,
0b,
f1,
ef,
fe,
c8,
39,
09,
f5,
f6,
03,
ee,
eb,
f3,
2d,
44,
0f,
0f,
19,
08,
fe,
fa,
0d,
e3,
1f,
f3,
ec,
fe,
ec,
df,
e5,
de,
ce,
18,
f6,
f3,
ef,
01,
31,
3e,
25,
19,
00,
07,
f6,
fc,
f4,
e1,
f7,
fc,
ff,
1b,
f8,
f1,
f5,
f9,
e3,
de,
f8,
b6,
81,
d9,
e2,
d2,
f9,
0e,
06,
10,
ee,
da,
f3,
28,
0e,
05,
05,
e4,
1b,
10,
1b,
17,
01,
fa,
18,
45,
39,
27,
31,
01,
08,
33,
22,
23,
1d,
21,
1a,
35,
30,
2c,
25,
5e,
21,
0a,
89,
12,
22,
06,
17,
eb,
f4,
f3,
04,
00,
16,
ff,
bf,
1b,
e5,
dd,
20,
d2,
e8,
dc,
c5,
cc,
be,
c0,
ba,
bf,
05,
17,
10,
0f,
1c,
18,
10,
1e,
1d,
08,
35,
fb,
e7,
d0,
e7,
fe,
fd,
f7,
17,
1f,
03,
2e,
60,
33,
08,
ec,
0c,
19,
07,
06,
44,
0a,
f7,
08,
f8,
ed,
0d,
f7,
0c,
f0,
f0,
0a,
2e,
2a,
0b,
07,
1d,
f6,
3e,
44,
23,
f6,
db,
02,
ad,
eb,
cc,
a6,
2d,
c4,
9b,
91,
ac,
fb,
f2,
11,
d6,
81,
20,
ef,
e4,
16,
fe,
f1,
f3,
f6,
ec,
12,
f8,
e8,
fe,
0b,
0d,
15,
f7,
f6,
13,
f9,
03,
02,
0b,
16,
06,
1d,
1b,
19,
02,
08,
06,
0f,
f8,
0c,
e8,
0a,
f3,
f9,
19,
fe,
0d,
22,
1c,
2a,
e0,
33,
10,
0d,
17,
17,
e2,
01,
0d,
af,
e7,
3f,
1f,
1f,
09,
22,
03,
e8,
d2,
f0,
dd,
de,
f0,
14,
e0,
ff,
f3,
2b,
f6,
0d,
3a,
24,
28,
47,
19,
5b,
55,
24,
4a,
50,
1c,
fa,
1f,
e9,
f9,
66,
e0,
22,
5e,
f2,
d5,
c4,
ff,
f6,
13,
44,
02,
e4,
2f,
fa,
20,
46,
1b,
09,
2e,
47,
33,
48,
dd,
f4,
d9,
f3,
18,
dd,
e8,
db,
d5,
f2,
d8,
10,
f9,
c2,
f1,
f8,
f8,
ed,
11,
08,
fd,
00,
0a,
dc,
0d,
14,
fb,
f7,
fd,
1b,
ef,
df,
0b,
0c,
10,
33,
0c,
03,
fd,
1c,
ff,
f8,
fa,
00,
ea,
03,
1c,
0f,
ff,
ee,
f7,
09,
02,
10,
fd,
1f,
04,
13,
35,
27,
f9,
27,
10,
e8,
e3,
02,
f4,
eb,
09,
fa,
fb,
08,
15,
05,
f9,
1d,
11,
0c,
21,
01,
e9,
e2,
07,
12,
10,
1b,
32,
0a,
11,
20,
f4,
fa,
f5,
f2,
f7,
e6,
dc,
00,
db,
02,
f2,
ea,
de,
81,
de,
f8,
ba,
02,
29,
0b,
fe,
c5,
ec,
b4,
b5,
d6,
ba,
04,
11,
02,
04,
08,
2f,
f1,
0e,
f2,
11,
0a,
05,
1f,
f6,
13,
1b,
00,
08,
1d,
29,
20,
ea,
e4,
e2,
fd,
e8,
fb,
f1,
f6,
f2,
00,
d3,
0a,
1a,
51,
45,
16,
10,
1f,
f0,
c7,
c7,
f7,
d1,
ec,
f8,
1b,
eb,
12,
fd,
04,
fe,
04,
0b,
e7,
aa,
d1,
fa,
25,
fa,
f6,
1c,
14,
fd,
03,
e9,
f2,
12,
e6,
e5,
e8,
f4,
f9,
d3,
fe,
0e,
c1,
f4,
06,
18,
ea,
14,
0c,
eb,
0d,
08,
09,
0d,
f4,
f9,
e5,
ba,
f4,
fb,
1e,
f5,
07,
04,
00,
0c,
10,
19,
22,
0f,
06,
d7,
e8,
c2,
ef,
af,
f9,
11,
c9,
11,
fe,
f4,
00,
fa,
06,
07,
d9,
fd,
04,
08,
0e,
fd,
00,
15,
ee,
fe,
1c,
00,
fb,
20,
1c,
e7,
c4,
f4,
11,
56,
21,
03,
45,
17,
05,
03,
0e,
e6,
9f,
f2,
06,
08,
06,
f6,
2c,
00,
e1,
f4,
fa,
19,
c4,
1d,
d4,
e5,
ec,
00,
02,
f3,
4f,
03,
f8,
f1,
ff,
e7,
cb,
f1,
f9,
38,
25,
00,
fc,
0c,
00,
e1,
e9,
ed,
da,
d2,
db,
eb,
e6,
f4,
2b,
e0,
11,
35,
51,
32,
0d,
f9,
03,
fd,
b4,
0b,
00,
08,
06,
04,
e5,
ec,
d4,
d9,
d0,
c3,
a7,
bc,
ed,
e7,
df,
fa,
df,
3c,
f1,
17,
4c,
01,
b1,
f3,
f2,
f8,
13,
f0,
24,
ff,
0a,
77,
fd,
ed,
e9,
ff,
0b,
30,
0d,
05,
23,
16,
17,
de,
16,
f2,
19,
f8,
ed,
f7,
e8,
c8,
16,
cb,
db,
b6,
d6,
45,
0b,
45,
18,
12,
21,
09,
05,
08,
f8,
e7,
12,
dd,
15,
e0,
ee,
25,
0c,
35,
59,
32,
ec,
c5,
dc,
c2,
81,
cc,
fb,
05,
f6,
00,
94,
1b,
f3,
e8,
0c,
0a,
2a,
f7,
db,
c1,
ce,
fc,
ff,
e6,
e0,
c5,
e3,
da,
f2,
e7,
e9,
df,
e8,
ff,
ff,
08,
fb,
f9,
f9,
12,
21,
11,
f0,
d3,
fa,
ff,
0e,
fb,
f5,
f5,
f7,
f9,
fc,
03,
c9,
81,
03,
f6,
de,
00,
01,
e9,
f3,
e6,
e5,
e6,
fd,
e2,
e6,
01,
0f,
08,
00,
18,
0e,
01,
00,
08,
f1,
0e,
f5,
09,
f0,
fe,
00,
05,
05,
f4,
ef,
f7,
eb,
9d,
e7,
fc,
e1,
f7,
fc,
fd,
f9,
0c,
fe,
fb,
f6,
fa,
01,
fb,
fa,
f9,
fc,
07,
fe,
0c,
08,
11,
ea,
f7,
f7,
dc,
e0,
db,
fc,
00,
09,
e1,
e2,
e0,
d3,
d0,
d1,
f6,
d8,
f4,
15,
21,
f3,
1e,
33,
f8,
07,
19,
f7,
1c,
25,
1a,
39,
12,
35,
29,
20,
25,
f3,
fb,
0d,
e9,
fd,
04,
fa,
ff,
05,
f4,
eb,
fd,
fa,
05,
04,
fb,
ee,
01,
fa,
f2,
f7,
06,
25,
06,
06,
0b,
03,
f9,
0f,
f9,
02,
f2,
ff,
ec,
d2,
e6,
0a,
02,
0a,
14,
9b,
08,
f8,
00,
05,
03,
14,
0b,
fc,
04,
fa,
f2,
ff,
f2,
f7,
fe,
fa,
03,
10,
05,
fd,
05,
ff,
00,
f7,
fa,
19,
50,
12,
f7,
0e,
f9,
fc,
de,
e5,
04,
ed,
dc,
02,
05,
e5,
e7,
f4,
24,
f3,
f9,
1f,
ea,
f0,
21,
ef,
15,
fb,
f3,
26,
fd,
f0,
01,
09,
18,
28,
02,
de,
e9,
d1,
f0,
f7,
da,
06,
b6,
13,
f5,
fa,
1b,
f8,
00,
0f,
0a,
14,
1c,
fd,
17,
03,
0b,
09,
fd,
fb,
f3,
f5,
e2,
eb,
1e,
f2,
fa,
26,
e7,
c3,
d6,
ee,
ba,
cb,
0b,
eb,
f1,
d3,
81,
db,
fe,
13,
0f,
f3,
00,
05,
00,
ea,
01,
15,
28,
05,
0a,
0f,
17,
1e,
00,
fc,
f6,
ff,
01,
1f,
09,
ff,
0b,
ff,
fa,
02,
08,
01,
0d,
22,
12,
07,
24,
1c,
e8,
fb,
56,
ed,
f5,
12,
16,
27,
1c,
11,
33,
2a,
0d,
01,
08,
fa,
ec,
d1,
0e,
24,
bb,
10,
0f,
f5,
f1,
ee,
04,
e6,
eb,
0e,
fb,
f0,
0a,
e0,
ec,
f3,
eb,
f5,
b6,
03,
0d,
f3,
17,
cd,
de,
20,
8a,
cc,
0f,
f0,
f8,
08,
f3,
19,
fb,
0d,
d5,
fd,
08,
f4,
32,
1f,
16,
e8,
fd,
17,
e5,
00,
24,
fa,
f8,
0a,
02,
fa,
14,
08,
dd,
fb,
d5,
93,
c7,
cf,
c1,
b5,
da,
dd,
ce,
f9,
0a,
1a,
fb,
10,
f5,
ee,
02,
fa,
04,
30,
1a,
f3,
16,
0f,
fc,
10,
12,
fc,
f9,
00,
f5,
ea,
ee,
fe,
fd,
01,
04,
fd,
07,
06,
07,
08,
07,
fe,
02,
04,
f9,
0b,
07,
fe,
0a,
0c,
fa,
11,
0b,
0c,
13,
14,
08,
1a,
03,
fd,
0b,
00,
d3,
ff,
fa,
05,
06,
06,
08,
08,
01,
06,
0b,
00,
fd,
0e,
fc,
f9,
05,
06,
08,
f3,
0e,
01,
fa,
0c,
03,
fc,
0e,
f3,
e8,
22,
d4,
09,
09,
f7,
f7,
05,
ae,
0a,
00,
09,
05,
fe,
ff,
03,
08,
28,
09,
06,
55,
12,
03,
0d,
05,
dd,
05,
00,
81,
04,
02,
ed,
fb,
fd,
ed,
f3,
0f,
f3,
f6,
10,
02,
f8,
19,
fd,
f8,
03,
f7,
00,
11,
01,
f9,
fe,
01,
0a,
00,
03,
03,
08,
fc,
f4,
00,
fd,
02,
fa,
09,
fc,
ff,
08,
11,
ff,
fc,
f4,
02,
08,
fa,
07,
00,
07,
f9,
0e,
fe,
da,
07,
fc,
89,
fd,
fd,
fa,
06,
03,
ff,
fe,
88,
ff,
fd,
03,
03,
fa,
2d,
fb,
0f,
e0,
0c,
07,
04,
08,
0a,
01,
05,
ff,
f3,
06,
f9,
f1,
fb,
fa,
05,
01,
f9,
f5,
fd,
04,
fb,
00,
17,
db,
21,
0e,
f1,
0b,
03,
f3,
0c,
f8,
08,
01,
13,
e4,
fa,
0b,
f4,
04,
01,
ff,
05,
05,
00,
fb,
04,
03,
02,
fa,
05,
fc,
fe,
3a,
da,
1f,
21,
ec,
16,
ed,
28,
0f,
27,
4f,
f5,
08,
11,
c3,
07,
08,
ce,
29,
12,
e7,
11,
05,
fb,
0c,
f8,
20,
3e,
fb,
08,
25,
e2,
03,
df,
fb,
0c,
0a,
0f,
fa,
fa,
f9,
05,
0e,
ed,
ee,
09,
d6,
00,
09,
05,
2c,
14,
05,
3e,
ed,
f2,
23,
df,
dc,
c8,
fd,
09,
bf,
6f,
35,
00,
2a,
15,
c5,
55,
26,
f5,
cd,
c9,
fd,
f5,
fb,
ec,
fb,
f1,
0f,
bc,
f2,
ff,
ca,
f5,
fc,
07,
15,
d8,
0b,
1f,
04,
fc,
04,
09,
f4,
fe,
f0,
23,
0e,
d8,
0b,
0f,
f1,
e5,
ee,
da,
f3,
cf,
f3,
e8,
e0,
22,
db,
c6,
04,
a6,
a1,
12,
be,
c1,
15,
00,
d0,
f1,
c6,
d4,
0f,
ef,
0a,
02,
f5,
fc,
c8,
cb,
e9,
df,
c6,
ee,
f9,
ff,
0b,
c4,
db,
1d,
00,
fc,
f9,
1c,
f3,
0b,
3d,
54,
1d,
0d,
1b,
0e,
0e,
1c,
09,
da,
22,
09,
ef,
13,
11,
10,
0b,
04,
1e,
bd,
ed,
04,
de,
e1,
fd,
f0,
fb,
17,
81,
c8,
fb,
00,
04,
de,
02,
fe,
fe,
fe,
f8,
0a,
f4,
fb,
f6,
df,
f1,
ef,
18,
01,
fd,
0c,
0b,
e0,
01,
0e,
c5,
65,
4a,
c9,
28,
32,
ef,
07,
ef,
f2,
26,
fa,
ec,
23,
f8,
f6,
0f,
0f,
07,
e1,
08,
05,
0f,
07,
05,
fb,
f7,
f3,
ee,
ef,
fd,
06,
f3,
06,
21,
fb,
0a,
15,
f2,
12,
14,
e6,
ec,
29,
fe,
1c,
e5,
f6,
08,
fb,
0b,
14,
06,
f8,
da,
06,
f7,
0b,
05,
00,
24,
04,
0e,
19,
fd,
fc,
2c,
f9,
f9,
d8,
f2,
2a,
a6,
4a,
3c,
f5,
10,
25,
bc,
18,
1e,
1d,
fb,
e9,
0b,
fe,
ff,
17,
f1,
02,
4b,
b3,
f7,
13,
e8,
fd,
04,
fd,
00,
00,
f4,
fa,
fe,
02,
fd,
f7,
ed,
0c,
fb,
f3,
05,
b0,
37,
0f,
04,
d8,
ec,
f5,
df,
d4,
f6,
fa,
03,
01,
03,
f7,
e0,
e6,
f7,
05,
ff,
07,
f8,
18,
10,
ed,
39,
f6,
ff,
19,
06,
00,
f8,
fa,
f7,
e5,
f7,
ff,
f5,
ff,
fe,
f8,
ef,
ef,
df,
12,
0f,
04,
f9,
20,
0d,
05,
7f,
47,
2a,
10,
04,
03,
14,
f6,
02,
ae,
42,
2a,
d7,
08,
14,
0d,
f2,
01,
19,
0f,
02,
0b,
0a,
f7,
26,
f8,
f0,
4f,
b6,
f5,
13,
09,
fd,
c5,
18,
04,
dc,
09,
05,
04,
e2,
f2,
14,
ec,
e3,
e9,
17,
06,
f1,
fc,
0e,
0c,
e9,
00,
04,
fc,
f6,
07,
ef,
f9,
f1,
fc,
12,
01,
d0,
33,
09,
fb,
2d,
00,
f0,
ed,
03,
07,
e5,
07,
fc,
ec,
f5,
f8,
f5,
f7,
ec,
05,
ff,
f7,
07,
ff,
0b,
11,
e6,
27,
29,
ec,
ff,
23,
0b,
f0,
09,
ee,
fb,
00,
0e,
09,
fc,
0f,
24,
1a,
f9,
81,
3f,
08,
02,
14,
f2,
fe,
18,
e3,
e6,
27,
fc,
e4,
1f,
18,
fd,
c7,
49,
41,
d6,
1e,
14,
e3,
39,
2f,
ae,
df,
ef,
12,
f9,
01,
07,
ff,
17,
0b,
03,
ec,
37,
fb,
f1,
00,
06,
fd,
02,
2c,
f9,
e7,
fb,
12,
0d,
01,
f4,
01,
11,
fd,
e7,
3e,
d3,
ea,
ef,
df,
14,
cb,
d2,
08,
ff,
05,
01,
f9,
f2,
08,
f3,
d6,
f5,
03,
01,
1f,
05,
05,
1c,
03,
e3,
3b,
0d,
1d,
0f,
f8,
f4,
ed,
fb,
d9,
de,
fb,
eb,
ee,
13,
f9,
ef,
f9,
fc,
b7,
0a,
17,
18,
fb,
31,
f5,
cf,
63,
e7,
fe,
28,
01,
03,
10,
1a,
43,
49,
c1,
1d,
0a,
dd,
f3,
fd,
fb,
f8,
f0,
17,
e5,
f2,
ff,
e3,
f7,
15,
d8,
d4,
29,
0e,
15,
06,
2b,
13,
cb,
2a,
ee,
e4,
ff,
e6,
fd,
df,
e7,
2b,
11,
30,
e9,
0e,
0b,
da,
fc,
eb,
01,
0c,
26,
e3,
03,
00,
e2,
ff,
fe,
01,
ff,
fd,
00,
00,
fc,
fd,
06,
00,
fe,
ff,
fe,
fe,
06,
07,
02,
00,
ff,
01,
f8,
05,
fa,
02,
07,
fe,
fe,
03,
fe,
07,
07,
fc,
0a,
02,
0c,
03,
03,
05,
07,
15,
ff,
03,
01,
01,
06,
05,
fb,
10,
0e,
fe,
fe,
01,
fd,
f5,
fd,
ff,
f6,
f5,
fb,
fd,
f7,
f6,
06,
18,
12,
f7,
f3,
fc,
00,
0c,
03,
f7,
f5,
fd,
07,
0f,
06,
03,
00,
fe,
04,
07,
02,
fc,
26,
09,
00,
0e,
02,
11,
06,
03,
e7,
03,
02,
14,
06,
09,
ff,
02,
f1,
fd,
f8,
f4,
d0,
d9,
ef,
fd,
f9,
00,
0c,
fb,
f0,
0e,
09,
04,
07,
04,
01,
03,
07,
ff,
02,
08,
ff,
fd,
02,
fe,
fb,
f6,
04,
fd,
02,
ff,
06,
02,
02,
07,
06,
01,
ff,
03,
fe,
ff,
ff,
0c,
ff,
f8,
ef,
10,
02,
21,
fc,
0b,
04,
0b,
fe,
0c,
fb,
10,
04,
01,
03,
ff,
eb,
81,
ff,
f8,
ea,
f9,
fd,
fc,
07,
ff,
eb,
fb,
04,
01,
f9,
01,
ff,
fe,
f8,
05,
00,
01,
ff,
fd,
05,
03,
fa,
fa,
f2,
ff,
fb,
f7,
fa,
fd,
0d,
06,
eb,
ca,
f9,
fd,
fc,
f6,
03,
03,
ff,
03,
09,
03,
00,
07,
fc;
