memory_initialization_radix=16;
memory_initialization_vector=
02,
0b,
f5,
12,
26,
ef,
df,
fa,
e0,
db,
e2,
fb,
29,
45,
29,
f6,
e0,
ee,
09,
f6,
ff,
fd,
e3,
e4,
13,
0e,
17,
f2,
d5,
c6,
1f,
47,
22,
f6,
01,
ff,
f1,
dc,
e3,
00,
ef,
f3,
17,
1c,
24,
29,
1a,
0d,
c3,
83,
b7,
0b,
18,
28,
e7,
f4,
0f,
16,
23,
2c,
e9,
ef,
03,
bc,
b6,
cc,
09,
0c,
01,
14,
1f,
13,
0a,
25,
09,
f3,
f3,
f2,
f9,
f8,
f7,
09,
cd,
e8,
e8,
d1,
fd,
0c,
01,
10,
ef,
ff,
fb,
dd,
c7,
f0,
26,
1c,
1b,
ef,
1a,
1f,
f0,
0a,
ea,
cc,
dd,
e5,
fd,
df,
d7,
11,
18,
14,
12,
f3,
ef,
06,
2d,
39,
c0,
81,
ab,
2e,
24,
0d,
3c,
41,
2f,
f4,
06,
eb,
11,
fe,
23,
cf,
cb,
eb,
43,
2b,
17,
2c,
1e,
11,
ff,
c9,
22,
18,
c8,
fd,
06,
ed,
04,
26,
3b,
a8,
4a,
7d,
f0,
38,
47,
13,
ec,
df,
fd,
e8,
e7,
25,
e0,
fd,
04,
fe,
c7,
0d,
f0,
a0,
ea,
19,
d4,
d5,
ef,
f3,
fd,
32,
f3,
e7,
e3,
e7,
e6,
81,
9e,
65,
90,
93,
16,
da,
a0,
f1,
2d,
e1,
dd,
ec,
ef,
03,
fb,
ee,
20,
f1,
bb,
f6,
0e,
cc,
f6,
0a,
d9,
ec,
16,
d8,
30,
40,
d8,
e1,
0e,
15,
dc,
25,
09,
f2,
15,
09,
10,
f1,
fe,
07,
1b,
fc,
f0,
26,
15,
d2,
11,
0f,
00,
0b,
b5,
07,
37,
c1,
f1,
08,
f1,
f4,
01,
0c,
ec,
19,
10,
fe,
0a,
02,
04,
75,
13,
c0,
52,
5e,
f0,
0d,
66,
2e,
f7,
f4,
24,
03,
ed,
0a,
1d,
ee,
fc,
5e,
ff,
b0,
7c,
17,
b2,
4a,
2f,
e3,
f0,
e8,
21,
11,
d7,
ee,
1d,
11,
f5,
06,
43,
10,
81,
cf,
67,
1a,
b1,
cf,
e4,
10,
28,
ce,
02,
f6,
15,
e0,
18,
f7,
18,
0e,
07,
eb,
1e,
ef,
ee,
f3,
f0,
02,
0c,
00,
e3,
df,
f7,
21,
ed,
f1,
ad,
df,
46,
5c,
9c,
06,
33,
2f,
05,
d3,
d9,
1a,
27,
d5,
fa,
10,
1a,
38,
fb,
b9,
04,
34,
0e,
1e,
19,
20,
db,
fa,
2a,
19,
c5,
f7,
0d,
21,
df,
03,
1e,
0f,
d8,
e9,
0f,
02,
ed,
fd,
e6,
f4,
1e,
45,
fa,
d1,
03,
2e,
07,
0f,
e7,
16,
d9,
ea,
1a,
25,
07,
c3,
dd,
0c,
20,
1e,
c6,
0a,
31,
e9,
f7,
0a,
00,
0c,
06,
d3,
de,
0e,
0e,
f9,
e5,
0c,
43,
f7,
b1,
ea,
5b,
36,
e1,
3a,
3c,
16,
cc,
1d,
51,
f4,
c3,
e8,
ea,
17,
ea,
f4,
0b,
fe,
bf,
d9,
f8,
0b,
2c,
34,
1d,
29,
22,
1d,
22,
1e,
e2,
e5,
f6,
eb,
00,
ef,
dc,
b5,
b7,
43,
41,
10,
40,
3b,
37,
fa,
73,
23,
00,
21,
24,
e1,
0f,
06,
9c,
90,
99,
fd,
dd,
ff,
c0,
9b,
eb,
db,
02,
14,
fe,
10,
35,
02,
0e,
1e,
f2,
cf,
de,
c2,
bf,
c4,
0c,
17,
c7,
04,
ff,
16,
e5,
ee,
cb,
22,
7c,
66,
1e,
1c,
13,
14,
f5,
fa,
ed,
cd,
ef,
37,
5b,
16,
ff,
03,
17,
0b,
26,
0c,
01,
b1,
b6,
0c,
1d,
ec,
48,
5a,
3c,
28,
05,
fb,
f5,
14,
02,
36,
fb,
e2,
1c,
2e,
3d,
03,
02,
ef,
f9,
af,
c6,
fb,
fb,
c1,
44,
35,
33,
f8,
15,
01,
81,
93,
99,
0c,
20,
2d,
0d,
09,
f7,
e0,
cb,
b3,
09,
ea,
ff,
d8,
f0,
23,
0e,
49,
da,
0b,
00,
01,
fc,
e2,
f4,
eb,
e6,
02,
1c,
23,
f3,
12,
bb,
cb,
b6,
0f,
17,
19,
27,
15,
5e,
e8,
81,
8f,
a3,
06,
11,
02,
0a,
cd,
00,
38,
11,
25,
f2,
ff,
f9,
08,
e1,
f5,
06,
08,
f7,
05,
3c,
13,
e2,
e4,
b9,
03,
de,
fd,
40,
00,
3a,
41,
28,
36,
06,
1c,
35,
fc,
0c,
fc,
01,
f2,
c7,
f7,
d6,
01,
36,
e2,
19,
0e,
1d,
03,
d7,
36,
ea,
ef,
23,
00,
df,
d3,
b8,
f3,
f2,
18,
18,
1e,
ff,
02,
0a,
e2,
d8,
d2,
1a,
16,
e2,
e7,
10,
fb,
41,
24,
2b,
1b,
f4,
e7,
e3,
ef,
bb,
5a,
5b,
5b,
40,
05,
4c,
ef,
d8,
9a,
ca,
18,
0f,
4f,
44,
d7,
e7,
f6,
26,
09,
29,
35,
fb,
0f,
ce,
f3,
35,
1a,
aa,
d0,
03,
f3,
d1,
e7,
b0,
1f,
46,
40,
88,
00,
4c,
2d,
d5,
2c,
27,
a4,
be,
52,
e5,
a9,
fb,
d5,
e8,
1b,
d8,
96,
da,
01,
ea,
c0,
ee,
08,
2e,
1c,
c4,
d9,
28,
4a,
a2,
29,
48,
07,
a7,
40,
79,
4e,
ba,
f8,
d8,
eb,
21,
40,
d4,
dd,
10,
23,
11,
e1,
3e,
35,
d3,
b6,
08,
31,
ee,
e7,
d8,
0d,
31,
14,
da,
19,
28,
26,
d5,
01,
0b,
0d,
d7,
eb,
11,
fb,
ee,
f9,
ee,
be,
17,
1d,
d4,
bf,
37,
31,
ae,
0e,
69,
dc,
9e,
cf,
7f,
16,
e9,
06,
fa,
31,
07,
e2,
d6,
31,
4a,
ce,
be,
d4,
fc,
16,
d5,
95,
ef,
29,
ce,
df,
02,
04,
68,
f8,
f5,
08,
10,
e7,
d3,
c8,
fd,
6f,
2d,
bb,
dd,
37,
1e,
c9,
f2,
d5,
13,
f3,
fd,
3e,
26,
38,
7f,
f9,
01,
f9,
ff,
05,
fa,
fe,
f8,
f4,
13,
f7,
eb,
28,
1f,
02,
ec,
c3,
ae,
f0,
15,
f2,
ef,
f4,
f5,
e8,
e8,
f1,
1f,
32,
fa,
09,
f0,
c9,
ef,
c1,
b9,
f5,
0e,
1f,
08,
15,
fd,
06,
f8,
f4,
f4,
eb,
c0,
f1,
db,
ef,
25,
fe,
50,
ed,
2f,
1b,
e2,
26,
02,
ec,
14,
03,
e3,
ae,
22,
e3,
ca,
2d,
ef,
ea,
3d,
01,
37,
ff,
0a,
04,
d6,
f8,
f4,
ea,
29,
13,
db,
21,
0e,
e7,
29,
f3,
cd,
f0,
bd,
0e,
2e,
02,
4b,
ee,
05,
40,
f2,
28,
fd,
e0,
10,
c8,
ed,
2e,
f0,
19,
ff,
ec,
07,
04,
13,
f1,
de,
0e,
23,
f2,
04,
13,
04,
0f,
e4,
cc,
da,
1a,
fa,
06,
03,
f2,
ee,
09,
18,
1e,
00,
f7,
e9,
11,
1b,
fc,
f9,
13,
fb,
0e,
db,
0b,
f1,
ce,
f2,
e2,
e4,
03,
02,
fb,
df,
19,
fe,
f8,
03,
eb,
01,
81,
1b,
3c,
ec,
71,
67,
1d,
60,
27,
f4,
e8,
15,
da,
ea,
1b,
fc,
fc,
0a,
dc,
d6,
44,
f9,
41,
53,
33,
36,
09,
f9,
f1,
ed,
0a,
ff,
2f,
fd,
f7,
19,
dd,
bf,
ea,
d8,
f3,
1b,
e1,
fa,
06,
1d,
fe,
08,
02,
cf,
08,
f0,
f7,
10,
f7,
f1,
e2,
ec,
e2,
d9,
ea,
f2,
f5,
01,
08,
ed,
e0,
e1,
00,
e1,
0c,
1f,
04,
e4,
eb,
f2,
de,
f4,
03,
f3,
0c,
0c,
f8,
0d,
12,
18,
08,
27,
f8,
d9,
64,
d8,
ad,
fb,
a9,
a6,
de,
c0,
e4,
11,
24,
f7,
14,
14,
00,
28,
0d,
fb,
31,
f0,
13,
ec,
e1,
1b,
dd,
1b,
47,
e5,
20,
f1,
cb,
37,
13,
c8,
27,
2d,
ed,
09,
06,
1a,
f2,
1b,
06,
01,
f6,
18,
0c,
0f,
09,
0c,
f6,
2b,
1b,
f0,
f1,
f3,
f8,
fd,
03,
0b,
fb,
05,
04,
33,
04,
ed,
22,
20,
e3,
21,
23,
fa,
fa,
0a,
10,
04,
f6,
09,
0e,
f4,
0b,
d3,
f7,
7f,
ba,
c4,
59,
e9,
b5,
3d,
f7,
16,
02,
f4,
ec,
e9,
f3,
06,
02,
fd,
34,
03,
a9,
67,
0c,
b1,
26,
2b,
11,
db,
02,
22,
f9,
f6,
1b,
1f,
0d,
fa,
fd,
f6,
cf,
f0,
e6,
ee,
e4,
07,
e8,
2d,
01,
c0,
2a,
0f,
ba,
08,
fa,
1c,
00,
0a,
1a,
09,
f9,
fc,
14,
16,
fc,
f3,
07,
ff,
00,
03,
09,
14,
15,
10,
27,
0f,
ec,
10,
08,
eb,
17,
10,
02,
26,
10,
d8,
1a,
08,
fd,
0b,
18,
30,
ab,
0f,
18,
81,
45,
c8,
bf,
33,
08,
e0,
e3,
0f,
cf,
f6,
06,
de,
10,
06,
07,
f5,
25,
12,
06,
24,
12,
f0,
1d,
e3,
0d,
f6,
27,
08,
08,
16,
03,
e8,
c1,
18,
eb,
fa,
1b,
e8,
35,
07,
06,
f5,
f3,
e5,
ec,
e5,
f3,
f1,
f4,
1d,
6d,
e0,
51,
34,
9e,
54,
d5,
9c,
28,
df,
44,
05,
e3,
28,
fd,
f8,
27,
48,
16,
cc,
42,
a9,
c4,
16,
a3,
11,
eb,
0b,
09,
dd,
47,
e4,
01,
29,
04,
da,
17,
02,
1b,
18,
10,
15,
16,
23,
4f,
d4,
d9,
20,
a1,
0a,
23,
a5,
48,
ec,
a1,
2f,
b8,
dc,
31,
92,
22,
18,
0e,
fe,
0d,
f5,
10,
f8,
f5,
1a,
f2,
34,
d8,
13,
06,
c7,
1f,
e1,
f1,
1d,
36,
1a,
fe,
16,
e2,
0d,
fc,
de,
28,
0a,
05,
f7,
ff,
ec,
cf,
02,
03,
e7,
04,
c4,
20,
f9,
ad,
32,
28,
d9,
25,
bc,
10,
e7,
e6,
48,
36,
f2,
f6,
22,
fd,
1e,
c8,
16,
3a,
a8,
08,
31,
e6,
e3,
f7,
fd,
11,
0f,
39,
d7,
ed,
f8,
19,
3c,
a1,
06,
3a,
81,
ff,
18,
8f,
1e,
23,
d4,
11,
25,
be,
1f,
25,
e4,
06,
35,
14,
f3,
5b,
06,
ff,
18,
e7,
2a,
f5,
ff,
09,
dc,
e0,
19,
07,
0d,
14,
a3,
33,
fe,
bb,
39,
f3,
c8,
14,
e4,
02,
14,
e1,
18,
27,
c0,
dc,
ee,
fa,
d7,
05,
f5,
e5,
11,
fd,
f3,
14,
01,
cb,
0c,
fc,
c4,
05,
0d,
ed,
e8,
f8,
d6,
17,
0d,
b6,
17,
0e,
96,
0f,
16,
e4,
14,
43,
ba,
43,
25,
c2,
30,
af,
35,
31,
aa,
53,
43,
a9,
43,
26,
0a,
ed,
b8,
b2,
13,
6d,
1f,
18,
c1,
16,
dd,
df,
e7,
ab,
c8,
dc,
f2,
f6,
49,
53,
eb,
3a,
0b,
d3,
0e,
13,
f1,
43,
e6,
bf,
c0,
f5,
38,
0d,
24,
2a,
2a,
f2,
b3,
c4,
88,
fe,
c0,
19,
32,
12,
fa,
e2,
01,
c5,
ce,
fb,
dc,
0c,
2b,
3e,
fb,
0f,
ee,
be,
f7,
f4,
28,
1c,
14,
d4,
ee,
ac,
dc,
ed,
f5,
16,
14,
35,
04,
25,
eb,
df,
e8,
e1,
1a,
fd,
ea,
01,
23,
03,
ab,
09,
f4,
26,
1a,
10,
02,
09,
d4,
d5,
c9,
e5,
30,
f2,
2d,
01,
02,
f9,
f4,
1b,
06,
fd,
45,
cb,
81,
aa,
a5,
40,
fb,
42,
16,
0b,
15,
26,
5a,
4b,
cf,
d5,
c1,
37,
4a,
f6,
e9,
f1,
f5,
20,
14,
f4,
10,
59,
48,
ed,
53,
bb,
b5,
c4,
ea,
43,
19,
04,
ab,
18,
2d,
81,
03,
43,
a9,
01,
f2,
24,
08,
ee,
1f,
f0,
05,
ef,
fb,
d1,
f1,
f8,
f2,
03,
0b,
f2,
e5,
0f,
f6,
e8,
0c,
03,
e1,
f9,
1a,
fd,
e7,
ff,
10,
f4,
1b,
40,
f5,
f9,
1d,
e8,
f6,
1a,
fa,
cb,
2e,
01,
f2,
fc,
13,
09,
14,
12,
0a,
47,
fc,
0e,
6d,
2d,
2a,
11,
1b,
30,
11,
09,
2e,
ed,
3e,
fd,
97,
13,
34,
8f,
f5,
24,
9a,
1d,
ea,
1b,
fa,
d4,
04,
12,
eb,
d7,
e7,
12,
1b,
0b,
0a,
f9,
fb,
03,
1e,
14,
0e,
90,
fc,
3d,
a8,
d8,
57,
e0,
e6,
c2,
1d,
06,
d2,
d2,
0d,
ef,
96,
0c,
f8,
d3,
06,
fe,
de,
fb,
0f,
e7,
18,
fe,
e7,
12,
20,
f6,
03,
17,
ef,
f5,
12,
bc,
06,
02,
f0,
2c,
0d,
ef,
fe,
32,
f0,
1c,
d3,
fa,
08,
09,
f7,
1a,
cc,
25,
f8,
0c,
d5,
fd,
18,
fa,
d4,
38,
c4,
42,
81,
1c,
0c,
e1,
e0,
c7,
40,
04,
2d,
11,
f5,
1f,
d9,
17,
02,
1e,
ff,
14,
11,
f9,
fd,
01,
0a,
e0,
10,
d7,
e4,
da,
fd,
f8,
c9,
06,
f5,
00,
f1,
18,
e3,
10,
07,
00,
24,
d6,
00,
02,
ef,
03,
02,
f4,
f3,
01,
fb,
f3,
03,
fa,
01,
f3,
ff,
fa,
16,
32,
b9,
17,
c8,
16,
fa,
ea,
1f,
fb,
16,
ec,
0a,
e4,
1c,
fd,
0e,
15,
fc,
df,
eb,
fd,
e5,
e9,
f5,
f1,
00,
02,
eb,
20,
fe,
ff,
f9,
f1,
eb,
e3,
14,
27,
c8,
ff,
d7,
f5,
13,
e5,
21,
f1,
2f,
e6,
f0,
15,
d7,
1a,
cc,
36,
0b,
f0,
ef,
35,
fb,
11,
ff,
1c,
1f,
e1,
f4,
00,
e5,
1d,
05,
fd,
eb,
0f,
07,
07,
00,
f2,
e7,
d7,
dd,
fb,
01,
0a,
29,
28,
2c,
be,
c5,
d1,
05,
07,
f9,
fd,
06,
13,
d3,
c7,
e9,
0c,
f8,
06,
27,
33,
38,
a6,
8b,
81,
2b,
23,
1e,
07,
04,
04,
ea,
08,
ec,
fd,
fc,
ea,
01,
fe,
20,
e8,
06,
ea,
0b,
13,
30,
19,
26,
20,
ef,
eb,
e9,
18,
15,
0f,
0d,
10,
ed,
0a,
18,
13,
08,
20,
10,
06,
05,
14,
e8,
d8,
bf,
0a,
09,
fd,
0d,
14,
16,
9c,
c1,
dd,
30,
0f,
05,
30,
1f,
18,
e9,
11,
00,
dd,
05,
dd,
10,
08,
0b,
d9,
de,
d7,
1b,
10,
07,
0e,
0c,
0b,
f0,
00,
02,
ef,
fd,
12,
18,
30,
48,
b5,
ce,
b2,
39,
26,
2c,
1f,
19,
1b,
c9,
d0,
d0,
20,
10,
17,
ed,
c7,
ad,
f0,
df,
8b,
ed,
d3,
81,
09,
c6,
de,
24,
f7,
ab,
ee,
2c,
c9,
08,
4d,
33,
05,
38,
26,
fb,
2c,
f4,
0c,
fd,
12,
f3,
e5,
4b,
e5,
f4,
37,
0e,
3a,
d3,
41,
5c,
f8,
f3,
23,
f3,
03,
d3,
ff,
08,
f6,
27,
0c,
ff,
34,
16,
fb,
2b,
03,
11,
38,
22,
fa,
04,
bc,
b3,
fc,
d9,
cd,
14,
06,
de,
3a,
0c,
e5,
bf,
e7,
00,
9d,
cd,
ff,
aa,
fb,
dd,
00,
f1,
e2,
d6,
13,
0c,
f9,
bb,
1e,
64,
c3,
76,
77,
c9,
39,
4c,
de,
05,
de,
f6,
0b,
e0,
09,
09,
ec,
24,
00,
63,
2a,
00,
70,
f9,
f3,
3e,
e7,
19,
e2,
1a,
0b,
d2,
1d,
f9,
ce,
1e,
0a,
e4,
fc,
10,
c2,
fb,
0b,
ee,
45,
ef,
0e,
2e,
96,
f8,
05,
a2,
d7;
