memory_initialization_radix=16;
memory_initialization_vector=
f7,
fa,
13,
16,
eb,
04,
ef,
21,
08,
0a,
01,
10,
28,
12,
0a,
04,
f3,
12,
fd,
10,
01,
12,
0f,
27,
09,
04,
fb,
12,
0e,
11,
04,
18,
13,
07,
00,
22,
1d,
2c,
28,
1b,
a9,
ba,
0f,
bb,
09,
0f,
0f,
e6,
f9,
d3,
c9,
f1,
ef,
e2,
0f,
ef,
fd,
f9,
d6,
f6,
13,
e0,
e9,
22,
14,
0a,
1e,
ef,
e7,
13,
ef,
e9,
29,
0f,
0c,
ef,
8d,
e3,
07,
da,
0f,
10,
22,
03,
f5,
ba,
ea,
f4,
e5,
ef,
04,
11,
0f,
1c,
f2,
f1,
0a,
f4,
06,
2b,
fd,
10,
ed,
9b,
d9,
15,
dc,
f9,
fb,
13,
18,
2a,
e2,
f1,
fd,
ff,
ee,
05,
10,
20,
fb,
e3,
d7,
0d,
0b,
ee,
ec,
fa,
02,
fa,
ea,
01,
00,
fb,
ef,
0c,
14,
12,
01,
81,
e4,
fa,
d1,
0d,
ff,
f1,
06,
ee,
8c,
f7,
13,
f6,
ff,
09,
0f,
0f,
ea,
f2,
10,
fc,
f6,
fe,
f7,
01,
13,
03,
f5,
fa,
fe,
ec,
00,
01,
e4,
ff,
f6,
e8,
07,
16,
f6,
04,
06,
03,
05,
00,
ea,
fe,
04,
02,
04,
ee,
ed,
e9,
05,
10,
06,
0d,
1b,
14,
0d,
ee,
fe,
05,
26,
0a,
f6,
fe,
fb,
f3,
f3,
02,
03,
04,
00,
0b,
11,
09,
04,
05,
08,
ff,
fa,
fd,
01,
01,
fc,
0e,
f9,
15,
ef,
db,
ff,
f5,
11,
f2,
0b,
f9,
05,
fe,
e6,
05,
0c,
f8,
07,
00,
04,
0e,
f9,
81,
f4,
0b,
f3,
00,
02,
01,
06,
01,
fc,
fe,
08,
08,
fb,
f9,
ff,
08,
0f,
d8,
f6,
f2,
0d,
01,
02,
08,
07,
f5,
0c,
09,
fb,
f6,
f7,
06,
fc,
fe,
fc,
02,
f5,
02,
06,
0e,
17,
f6,
17,
d3,
88,
f4,
17,
03,
3c,
eb,
ec,
24,
c5,
d8,
06,
11,
28,
57,
0e,
07,
2a,
be,
97,
18,
fc,
07,
16,
f5,
bd,
3b,
c1,
2c,
54,
dd,
f8,
2a,
00,
a9,
fd,
07,
23,
0b,
0c,
48,
00,
fa,
0c,
09,
fa,
f5,
37,
f6,
f4,
16,
29,
e5,
b7,
52,
a5,
9f,
41,
d8,
e4,
f1,
e6,
d8,
f2,
ef,
07,
fd,
fd,
25,
0e,
05,
f9,
27,
0a,
14,
ed,
0e,
fb,
d6,
0d,
23,
0c,
23,
30,
07,
22,
ec,
ea,
ce,
1a,
a1,
b4,
2d,
0a,
10,
45,
4e,
cc,
20,
ee,
70,
da,
f8,
02,
e9,
39,
e3,
cc,
05,
81,
a6,
35,
0e,
ff,
30,
df,
ca,
2e,
e8,
b8,
29,
e1,
cf,
cf,
c6,
e1,
f4,
ba,
f0,
f2,
fc,
f5,
ee,
49,
04,
0d,
fe,
49,
ea,
0c,
f3,
0d,
ee,
fb,
ef,
81,
f4,
fc,
f2,
0f,
04,
11,
06,
10,
eb,
dc,
fd,
f3,
08,
0b,
00,
fd,
eb,
0a,
16,
ff,
f1,
f1,
f7,
f8,
04,
09,
1a,
02,
02,
03,
0f,
04,
00,
04,
fe,
f3,
04,
04,
0c,
02,
fb,
e5,
f3,
fd,
01,
20,
0a,
15,
18,
00,
f1,
0e,
05,
e1,
fa,
00,
dd,
04,
f8,
ef,
f6,
fd,
00,
08,
0e,
12,
13,
08,
00,
fb,
04,
ef,
00,
fd,
03,
03,
14,
f3,
06,
fd,
e3,
f8,
f2,
1f,
f2,
ff,
03,
09,
03,
fc,
05,
02,
04,
02,
fa,
f0,
0d,
06,
ff,
f8,
07,
0d,
fd,
07,
f6,
04,
fd,
e6,
05,
07,
fd,
06,
0c,
ef,
ec,
f5,
d6,
ec,
06,
06,
0a,
0f,
11,
0d,
02,
02,
00,
f8,
f7,
f3,
0f,
f3,
fb,
ec,
81,
01,
02,
fe,
10,
0a,
eb,
05,
20,
81,
b6,
1a,
ec,
f8,
fa,
15,
fa,
12,
e6,
e0,
08,
f2,
f7,
10,
e6,
ea,
30,
da,
d7,
1f,
e2,
e8,
1e,
fe,
e4,
18,
c4,
a6,
2c,
f7,
f2,
ff,
2a,
ed,
09,
f8,
0a,
ff,
fc,
06,
0f,
f9,
e8,
12,
fb,
e9,
0f,
02,
f5,
01,
05,
2b,
ed,
c2,
16,
fb,
e9,
0d,
05,
fd,
f0,
05,
ed,
e6,
17,
13,
07,
f3,
19,
f8,
f5,
10,
14,
f9,
14,
0d,
05,
06,
fb,
07,
12,
fc,
f9,
14,
01,
0f,
ff,
f9,
31,
a1,
9f,
2d,
ea,
f7,
f3,
0d,
11,
f1,
13,
1e,
04,
0e,
09,
06,
f6,
17,
07,
ad,
dd,
05,
f6,
00,
f9,
09,
25,
fc,
df,
21,
f8,
09,
11,
f8,
0f,
07,
03,
fa,
0f,
ff,
f2,
06,
f9,
1b,
e0,
09,
13,
14,
00,
0e,
03,
04,
f2,
01,
04,
ff,
0a,
02,
ef,
0c,
11,
0e,
0b,
0d,
f1,
e1,
04,
fd,
03,
0c,
fe,
fa,
ec,
bc,
03,
11,
02,
f8,
f9,
fb,
12,
ff,
ca,
e2,
f8,
04,
10,
04,
07,
04,
f8,
f3,
03,
08,
fa,
02,
fa,
fa,
19,
ff,
e9,
09,
fc,
f1,
ff,
f5,
fa,
13,
11,
81,
fc,
16,
fd,
ea,
fb,
09,
10,
ee,
fb,
1d,
ee,
f2,
0c,
01,
00,
08,
09,
f4,
07,
07,
02,
fa,
f6,
04,
fa,
00,
e9,
f1,
0a,
f2,
0a,
ff,
02,
06,
04,
e6,
02,
0b,
fa,
00,
05,
fe,
04,
fd,
20,
fc,
0c,
01,
04,
fe,
ff,
07,
fe,
f0,
06,
06,
04,
04,
f1,
04,
f5,
e8,
f7,
17,
0d,
fa,
01,
f4,
ff,
02,
00,
fb,
07,
05,
12,
10,
00,
e1,
08,
fb,
82,
f3,
05,
f6,
f5,
0d,
ff,
ee,
08,
f9,
08,
1a,
0e,
01,
0a,
f9,
08,
ea,
e9,
0f,
e1,
ee,
14,
03,
fa,
f4,
18,
09,
0a,
0d,
fe,
03,
1b,
ff,
f4,
db,
fa,
f9,
08,
0f,
05,
f6,
f5,
ff,
af,
eb,
03,
d2,
03,
02,
f2,
ed,
09,
da,
dc,
09,
fc,
f7,
15,
fd,
0d,
f8,
e4,
03,
02,
14,
f7,
f8,
f2,
fb,
1c,
d9,
e5,
17,
fb,
ff,
24,
ef,
00,
08,
c0,
f2,
fd,
c3,
f3,
0a,
16,
10,
06,
b1,
f5,
ef,
b1,
0d,
12,
0e,
07,
f7,
e2,
eb,
03,
fb,
06,
0b,
08,
fd,
08,
94,
ee,
f2,
b6,
02,
09,
1b,
0d,
fa,
de,
eb,
fc,
09,
07,
fb,
0c,
07,
0c,
e5,
f4,
06,
f9,
f1,
0c,
f7,
f5,
03,
e3,
eb,
14,
e5,
ec,
05,
03,
0d,
01,
81,
d7,
f5,
c7,
05,
0c,
10,
fa,
f7,
1c,
f2,
05,
fa,
26,
20,
fc,
dc,
ef,
0b,
d0,
dc,
1d,
ed,
f1,
18,
0c,
04,
0e,
12,
1f,
d9,
81,
82,
28,
0b,
05,
18,
f6,
d8,
f8,
9b,
a8,
01,
fd,
fa,
f8,
04,
fe,
0e,
fb,
fb,
04,
31,
50,
0a,
40,
71,
dd,
eb,
eb,
d3,
f2,
0d,
d3,
df,
2e,
dc,
94,
de,
04,
3f,
3c,
01,
44,
47,
bd,
c6,
da,
ee,
01,
ed,
0a,
fc,
f0,
12,
f0,
06,
e9,
1c,
e2,
ed,
3c,
00,
01,
0d,
f3,
05,
fa,
f2,
07,
01,
ff,
fa,
ed,
f7,
e9,
07,
f9,
14,
39,
ca,
1e,
ea,
e5,
f5,
e6,
f8,
f3,
10,
20,
e7,
ee,
03,
d4,
0b,
09,
f1,
33,
19,
d7,
db,
fd,
07,
f7,
fd,
f6,
e0,
f5,
15,
f1,
f7,
fa,
e6,
e0,
ff,
df,
38,
fc,
f4,
fe,
0b,
1a,
03,
03,
00,
17,
00,
0b,
eb,
fd,
f4,
f8,
ee,
d9,
02,
0c,
00,
07,
0a,
f3,
ec,
fc,
f5,
fe,
0c,
fc,
0d,
fd,
e4,
e9,
10,
00,
07,
08,
0d,
fe,
e9,
85,
f9,
ec,
8f,
fb,
2e,
68,
11,
fe,
bf,
d3,
14,
f6,
f6,
0a,
05,
fd,
fc,
3c,
30,
07,
e3,
02,
e9,
05,
fb,
0c,
eb,
10,
22,
e9,
fe,
18,
f7,
f6,
f1,
9f,
09,
f2,
92,
fa,
23,
41,
fd,
04,
d1,
fd,
e8,
9c,
ec,
23,
38,
17,
0f,
00,
0f,
ed,
e0,
17,
f6,
17,
f8,
e7,
a0,
13,
fa,
8e,
f0,
11,
33,
06,
09,
13,
12,
11,
e6,
09,
04,
03,
ea,
07,
0a,
22,
07,
fa,
16,
f7,
0e,
ef,
07,
0f,
0c,
e6,
e0,
ff,
f1,
f8,
eb,
fa,
81,
ee,
f7,
94,
00,
26,
3a,
11,
fd,
f1,
fd,
ee,
38,
05,
f7,
fb,
ed,
08,
ee,
0c,
f1,
fd,
0a,
ef,
fb,
df,
08,
0a,
25,
ee,
e2,
fd,
d1,
c6,
00,
f3,
fb,
1b,
2a,
dd,
40,
f3,
e4,
1a,
0e,
f4,
03,
fa,
fa,
12,
08,
f2,
f0,
0a,
00,
e1,
2f,
38,
d7,
29,
0d,
dc,
07,
db,
f4,
18,
03,
d8,
23,
06,
f1,
1f,
10,
f3,
29,
1f,
d5,
0d,
11,
de,
03,
fe,
05,
07,
f4,
ed,
0b,
0f,
df,
ec,
18,
e3,
f9,
37,
dd,
18,
05,
d1,
e9,
f9,
13,
01,
15,
14,
ea,
ff,
07,
f6,
fa,
e9,
25,
81,
ff,
f6,
df,
e0,
07,
e0,
06,
28,
ff,
f8,
ff,
ff,
09,
fb,
cd,
d3,
19,
d7,
bf,
2c,
0f,
e3,
06,
05,
00,
05,
03,
02,
01,
e0,
ea,
04,
c9,
29,
d6,
54,
c8,
19,
10,
e1,
12,
ba,
2f,
cb,
81,
31,
ee,
e0,
11,
0b,
fb,
07,
f7,
c4,
fa,
ed,
ea,
f4,
0e,
01,
0b,
da,
92,
3c,
ef,
e3,
1e,
15,
f4,
1e,
07,
ab,
10,
03,
fe,
16,
f5,
1c,
20,
16,
e4,
fa,
f9,
fe,
f8,
f5,
e4,
03,
ec,
e0,
06,
04,
08,
1e,
da,
10,
21,
ad,
c7,
31,
ef,
fd,
19,
e6,
e5,
17,
dd,
d7,
11,
09,
05,
1c,
ed,
0b,
10,
21,
f3,
0a,
1f,
01,
fc,
1d,
22,
ee,
2c,
19,
e7,
04,
1f,
e9,
18,
e9,
1e,
b5,
89,
29,
f5,
f3,
04,
cf,
1e,
ee,
2c,
f2,
fb,
fa,
fe,
fb,
e3,
e8,
35,
83,
8f,
54,
f0,
d6,
2f,
d0,
d9,
32,
c8,
c1,
52,
fd,
11,
20,
f8,
14,
10,
f4,
f5,
11,
00,
e8,
06,
18,
06,
fd,
26,
06,
dc,
fb,
22,
12,
e0,
17,
fd,
09,
19,
09,
00,
23,
40,
e8,
ed,
ec,
ef,
d0,
ee,
0c,
0f,
1d,
ed,
22,
f6,
ee,
18,
2c,
1f,
0e,
4e,
e7,
0d,
f8,
e7,
07,
3b,
e2,
e8,
12,
14,
ed,
20,
fd,
a4,
0e,
e2,
81,
ef,
0e,
fe,
ea,
04,
09,
0a,
0a,
06,
f9,
e2,
dc,
e4,
0b,
ed,
e6,
37,
0e,
06,
f8,
e8,
ed,
07,
fe,
fd,
05,
f1,
fd,
33,
e8,
28,
03,
cc,
0a,
e5,
8a,
f2,
15,
0e,
08,
f6,
da,
0f,
e3,
cc,
ea,
c1,
ef,
03,
08,
02,
06,
00,
37,
45,
14,
05,
1c,
1a,
bb,
fb,
ff,
a5,
0d,
c0,
f5,
eb,
1f,
04,
f3,
22,
3c,
60,
e2,
c8,
e2,
42,
2a,
fd,
45,
28,
0b,
01,
ed,
e0,
08,
d0,
dd,
17,
04,
e2,
2c,
10,
27,
d3,
b8,
27,
05,
c5,
14,
e1,
18,
26,
15,
06,
10,
f4,
02,
34,
fa,
22,
f7,
f5,
b7,
81,
cc,
a9,
c9,
0d,
36,
1b,
04,
5b,
21,
a5,
c5,
41,
df,
39,
2b,
e7,
e8,
a3,
c7,
bf,
3a,
f6,
0a,
e9,
4e,
e6,
9d,
1c,
d6,
c4,
14,
0b,
ce,
2a,
1b,
fe,
3e,
2e,
36,
9f,
b7,
32,
0c,
27,
2c,
3b,
7b,
44,
a7,
ac,
8d,
c5,
cf,
9a,
cc,
da,
c1,
f9,
e8,
9f,
51,
27,
c1,
60,
1f,
b2,
2e,
02,
e6,
49,
27,
be,
36,
0b,
e5,
e3,
4c,
61,
35,
d5,
93,
dc,
e6,
37,
d0,
e3,
c9,
14,
3d,
e6,
31,
0d,
e3,
bb,
0a,
70,
cd,
d6,
c7,
db,
26,
49,
ab,
bf,
21,
d4,
e8,
da,
13,
36,
c7,
ea,
01,
0a,
0f,
f2,
f0,
13,
ff,
f0,
13,
3d,
e4,
11,
fa,
a4,
01,
0c,
a4,
04,
f2,
0a,
08,
fe,
01,
0b,
f6,
06,
0b,
00,
f7,
e0,
f4,
18,
06,
07,
03,
fc,
03,
08,
19,
a6,
e7,
f9,
ff,
19,
18,
f8,
e6,
eb,
a5,
1b,
01,
fd,
fe,
0a,
fc,
09,
02,
f5,
0f,
02,
07,
fb,
08,
16,
09,
02,
06,
eb,
f9,
f6,
ed,
07,
08,
0f,
e0,
ae,
fd,
0b,
f2,
0e,
08,
08,
fc,
0f,
fe,
ec,
09,
f9,
ef,
07,
03,
04,
fa,
ea,
f3,
fd,
f9,
08,
fa,
13,
f9,
fc,
ea,
f9,
f9,
f5,
0c,
08,
05,
03,
05,
ed,
fa,
01,
fc,
07,
0f,
e5,
09,
e4,
81,
f4,
fc,
f2,
0a,
05,
fa,
07,
02,
d8,
04,
0e,
03,
0a,
ee,
e6,
fb,
11,
e1,
f5,
09,
f4,
0d,
04,
06,
04,
09,
fc,
fc,
08,
09,
07,
09,
fd,
02,
03,
15,
08,
ff,
06,
06,
f4,
ff,
f2,
eb,
b3,
a6,
ff,
e8,
f2,
14,
f4,
fa,
08,
02,
f2,
ff,
f1,
ee,
17,
20,
06,
d0,
81,
ae,
02,
f0,
fc,
02,
d9,
c7,
25,
1a,
23,
f1,
fe,
eb,
09,
0b,
16,
09,
ef,
02,
f5,
fa,
ec,
05,
1b,
f3,
0c,
02,
ea,
11,
13,
10,
ca,
d9,
08,
f1,
f7,
ec,
0a,
0c,
f4,
0d,
0a,
09,
02,
e8,
ed,
00,
f7,
fd,
fe,
fb,
fe,
01,
fe,
04,
06,
06,
01,
f0,
0f,
01,
01,
f4,
03,
f4,
f4,
00,
07,
fb,
f5,
fb,
e0,
e4,
f6,
f3,
fc,
01,
f6,
00,
ff,
f0,
1d,
fc,
35,
e2,
fc,
02,
00,
01,
e1,
f7,
f7,
f9,
ef,
07,
e7,
1b,
df,
ab,
d8,
0f,
07,
fc,
f7,
fd,
f6,
06,
f1,
f9,
fa,
fd,
fa,
00,
24,
f2,
07,
1f,
b3,
f3,
fd,
d5,
fa,
db,
19,
e3,
c0,
ea,
f9,
07,
f7,
14,
07,
0a,
ef,
e7,
05,
fb,
fb,
09,
f7,
13,
04,
13,
01,
05,
e9,
ce,
06,
09,
06,
f5,
f1,
d8,
e7,
f9,
e7,
12,
03,
fc,
f2,
f5,
fe,
f6,
03,
02,
fd,
fd,
00,
09,
fc,
0f,
16,
fe,
fe,
f9,
fb,
fc,
f6,
f6,
03,
fd,
fc,
e0,
13,
05,
04,
f1,
14,
0b,
f6,
0d,
0b,
f5,
fb,
f2,
00,
0b,
f6,
f6,
ff,
03,
fa,
f8,
06,
fd,
f4,
f2,
de,
f8,
05,
ed,
06,
00,
ee,
02,
ea,
f2,
fd,
ff,
20,
fd,
e9,
e0,
1b,
c6,
81,
04,
fc,
da,
fe,
f8,
00,
fc,
e8,
f4,
fc,
ff,
08,
e3,
db,
e9,
15,
00,
e3,
f7,
0f,
fc,
ff,
ff,
02,
ff,
f7,
f9,
0a,
f4,
fd,
13,
ec,
f6,
ef,
fc,
08,
07,
ef,
f8;
