memory_initialization_radix=16;
memory_initialization_vector=
ef,
d8,
81,
e7,
00,
1c,
26,
22,
da,
cc,
b0,
e1,
07,
1c,
f9,
01,
21,
d2,
cf,
dc,
18,
1d,
1b,
dd,
a9,
b9,
0c,
8c,
9f,
c6,
09,
9d,
c2,
a5,
0b,
b2,
13,
7f,
8a,
a4,
26,
0d,
ce,
bc,
cd,
2d,
16,
c6,
11,
c5,
f2,
d6,
aa,
f9,
43,
b6,
d3,
d2,
fd,
b7,
81,
0b,
09,
be,
cf,
60,
e0,
cd,
23,
27,
34,
d4;
