memory_initialization_radix=16;
memory_initialization_vector=
c6,
11,
0c,
bb,
17,
0a,
eb,
28,
05,
3c,
0c,
05,
f0,
2b,
38,
ef,
fa,
0c,
1a,
f0,
ed,
02,
f7,
14,
15,
f1,
1f,
15,
f7,
03,
23,
0c,
03,
25,
06,
ef,
ec,
f8,
e7,
04,
db,
c4,
f8,
dd,
e1,
48,
cc,
eb,
26,
c1,
c7,
14,
ea,
05,
0a,
0c,
ff,
dc,
ff,
18,
05,
13,
04,
c4,
06,
ef,
cb,
e5,
20,
f2,
fe,
ff,
06,
f7,
02,
0b,
ec,
f9,
15,
f3,
ff,
f1,
08,
28,
d7,
02,
f3,
d9,
0f,
09,
e0,
fa,
fb,
e0,
10,
00,
c2,
14,
22,
0f,
04,
e2,
16,
fa,
cc,
12,
fe,
d9,
9f,
11,
44,
81,
f9,
3d,
cf,
db,
27,
d7,
0d,
24,
c9,
f1,
eb,
08,
34,
01,
fd,
1a,
28,
fb,
ed,
0e,
ff,
06,
10,
d9,
0f,
2d,
ad,
fe,
12,
cc,
09,
f6,
09,
ff,
fd,
1e,
e4,
db,
12,
10,
07,
f8,
de,
f0,
19,
ef,
ca,
1c,
19,
05,
0b,
eb,
de,
f7,
10,
14,
fa,
0a,
fb,
29,
0e,
16,
1b,
d6,
01,
24,
08,
1d,
f3,
c5,
ea,
fe,
e9,
0f,
f9,
c6,
05,
01,
05,
f1,
f9,
19,
ff,
f4,
1c,
f8,
fe,
f7,
16,
06,
e5,
2c,
18,
f2,
26,
ba,
ec,
06,
d2,
16,
07,
e0,
3c,
14,
02,
fc,
00,
f4,
d9,
e5,
f8,
b1,
f8,
2a,
f5,
e5,
20,
f6,
ef,
ce,
e1,
fe,
ba,
fb,
0b,
ba,
ff,
17,
06,
ff,
0b,
ef,
15,
fb,
f9,
fd,
dc,
e6,
ef,
fc,
f1,
e3,
ed,
e3,
c5,
c4,
fc,
f9,
f1,
d4,
03,
f7,
f8,
f3,
eb,
f5,
fa,
f2,
f0,
d9,
04,
06,
d8,
f6,
08,
d3,
21,
0f,
e3,
04,
e7,
1c,
45,
01,
02,
0f,
02,
f8,
ee,
1b,
e4,
ff,
f4,
e3,
0c,
17,
23,
32,
fc,
e8,
e1,
ee,
04,
31,
fa,
20,
fd,
10,
15,
f0,
16,
f8,
ec,
16,
53,
3b,
3a,
49,
06,
13,
f1,
09,
fc,
01,
ed,
18,
d5,
01,
f5,
d0,
0c,
f9,
e0,
e3,
d2,
c4,
f4,
e5,
04,
d8,
04,
2b,
fb,
36,
39,
1c,
0f,
1b,
f5,
0a,
26,
04,
1c,
bf,
13,
1b,
ba,
ed,
08,
46,
14,
14,
e2,
c3,
f0,
d7,
e3,
13,
e2,
bf,
e7,
b6,
09,
e5,
22,
13,
2c,
21,
10,
00,
da,
ca,
04,
e3,
09,
f4,
df,
cf,
eb,
d2,
0e,
d2,
18,
21,
fa,
45,
16,
1f,
ef,
f3,
0d,
bb,
ef,
1b,
34,
00,
11,
38,
2f,
2e,
e2,
ca,
ff,
1b,
37,
f4,
ef,
fd,
0b,
eb,
eb,
e8,
f7,
fb,
df,
d6,
fd,
e8,
d4,
ef,
38,
1c,
f7,
fb,
b9,
c8,
e6,
e9,
fb,
0e,
de,
f2,
ec,
db,
27,
d6,
34,
f8,
5c,
06,
d7,
fd,
81,
fb,
c2,
de,
0f,
0f,
12,
1f,
12,
e3,
d8,
df,
c5,
0c,
05,
e5,
01,
14,
1a,
c9,
10,
f2,
d3,
cf,
c2,
cc,
cb,
ee,
15,
d0,
00,
e1,
04,
fe,
f7,
df,
cc,
de,
dd,
cc,
ff,
1f,
15,
f5,
15,
f9,
de,
04,
eb,
f9,
0a,
f2,
da,
d9,
c3,
46,
f1,
0d,
00,
f8,
d1,
e5,
0e,
dc,
d9,
f8,
36,
1d,
0d,
05,
15,
1f,
37,
0f,
1d,
f9,
ef,
fc,
e3,
f4,
e8,
22,
15,
1e,
0d,
10,
fc,
0d,
38,
11,
27,
33,
07,
e7,
1c,
f6,
e2,
e7,
ec,
d6,
10,
0b,
10,
04,
26,
27,
e6,
06,
f1,
21,
f2,
05,
1c,
20,
fd,
dd,
07,
ac,
b8,
e0,
c1,
07,
d2,
de,
e0,
c9,
cb,
b7,
e0,
cf,
b6,
1c,
24,
f5,
ef,
43,
04,
ff,
21,
12,
1e,
13,
02,
f9,
0d,
15,
e8,
dd,
fa,
0c,
02,
1d,
1f,
0f,
0b,
01,
0e,
04,
f0,
eb,
24,
e4,
c6,
f1,
ef,
d1,
ff,
04,
1d,
14,
e3,
ed,
19,
e9,
cc,
00,
1f,
26,
1a,
05,
24,
1c,
19,
1c,
22,
d1,
e9,
eb,
db,
d3,
ff,
0e,
12,
16,
de,
0b,
e6,
c5,
bd,
f2,
e3,
b7,
f4,
20,
47,
07,
0a,
28,
1d,
32,
1f,
12,
f6,
18,
1c,
f7,
f6,
ff,
2e,
1c,
d5,
b2,
cc,
d2,
88,
81,
d1,
d2,
81,
b7,
fa,
f9,
e4,
e5,
e9,
e4,
00,
d9,
e4,
cb,
ac,
fc,
22,
e8,
1b,
06,
1d,
fe,
f4,
ce,
fc,
1f,
cb,
db,
02,
2a,
eb,
07,
01,
1e,
f7,
e0,
40,
ff,
e7,
fb,
f9,
ed,
32,
17,
d8,
f9,
ff,
df,
d2,
f8,
08,
52,
0b,
02,
51,
1e,
1e,
2b,
e2,
f8,
3c,
fe,
cd,
06,
07,
0a,
0b,
fd,
db,
fb,
1c,
ed,
06,
25,
01,
c7,
ec,
2f,
32,
2c,
19,
15,
36,
24,
1d,
e6,
f6,
fe,
ce,
e5,
e6,
cb,
e2,
fb,
f5,
dc,
c7,
0d,
0f,
e4,
11,
24,
1c,
ec,
d4,
c5,
da,
ce,
96,
d4,
d6,
b8,
00,
d2,
00,
13,
de,
06,
12,
fd,
f6,
ed,
0c,
1f,
ea,
f9,
01,
d1,
f9,
f5,
3d,
34,
5e,
2c,
01,
29,
3c,
2f,
11,
f1,
f4,
02,
1d,
0c,
ee,
21,
24,
01,
09,
f6,
fa,
1d,
1e,
ee,
04,
44,
3b,
3f,
27,
de,
26,
52,
19,
16,
35,
55,
e7,
c3,
ae,
e7,
cb,
c5,
fe,
de,
ef,
06,
e2,
f7,
02,
20,
f0,
da,
02,
30,
1b,
e9,
15,
14,
c6,
20,
da,
09,
41,
f0,
fe,
0c,
ce,
a3,
de,
e3,
b9,
02,
27,
ff,
eb,
e9,
f8,
e3,
d7,
f5,
e9,
fe,
f6,
e5,
d0,
ba,
f8,
d5,
cc,
23,
21,
f1,
df,
00,
d8,
e1,
d3,
ef,
f9,
32,
ff,
f7,
d4,
e7,
19,
f8,
37,
40,
fc,
e0,
ef,
e0,
07,
ff,
d4,
24,
1f,
bc,
ca,
f1,
db,
11,
c7,
17,
13,
eb,
eb,
3f,
f8,
df,
d2,
ef,
c9,
b3,
0f,
91,
aa,
2d,
c3,
d9,
ff,
2d,
13,
e4,
d3,
b5,
0c,
e7,
9e,
a4,
2a,
fb,
d1,
46,
7f,
ad,
02,
10,
93,
d2,
a8,
c5,
ec,
dd,
1b,
f2,
ae,
0b,
0e,
de,
f1,
f4,
f2,
10,
f6,
d6,
fc,
f2,
f3,
e5,
12,
f9,
16,
f5,
b7,
0b,
f4,
05,
2f,
cf,
d4,
11,
cf,
08,
2f,
f8,
63,
0c,
43,
2b,
d9,
0a,
c5,
e7,
c9,
9f,
e1,
ed,
24,
f2,
c2,
cd,
d9,
13,
ec,
e9,
d0,
cd,
e1,
d6,
00,
e3,
42,
3d,
03,
06,
16,
ea,
ff,
e6,
b9,
4d,
39,
1d,
f2,
d1,
c6,
eb,
c4,
d9,
d2,
b3,
f5,
de,
ae,
25,
d9,
ca,
24,
33,
34,
0a,
45,
31,
1b,
41,
3d,
0a,
59,
60,
15,
c7,
ca,
04,
e4,
e1,
34,
32,
1b,
30,
ba,
dc,
fe,
9b,
e3,
f3,
ed,
02,
e0,
f3,
1f,
09,
bb,
9f,
ef,
d3,
ad,
29,
0b,
e4,
10,
40,
54,
2e,
58,
69,
21,
db,
f2,
c5,
dd,
eb,
c3,
01,
fd,
f1,
ee,
15,
f0,
17,
16,
d1,
37,
03,
e0,
e5,
e0,
e6,
fc,
e5,
d4,
de,
f7,
19,
bf,
d1,
07,
91,
e2,
20,
e1,
20,
e5,
cf,
e5,
f5,
af,
a6,
ce,
e0,
d0,
ef,
fc,
01,
f5,
e0,
ed,
e6,
ea,
02,
2f,
f9,
0d,
08,
e7,
10,
48,
f1,
fa,
27,
0e,
03,
f9,
06,
f1,
db,
0a,
ea,
ec,
1c,
23,
03,
22,
2b,
09,
24,
07,
14,
e4,
f5,
24,
0b,
ed,
f3,
ee,
eb,
eb,
e0,
fb,
22,
ec,
cb,
d1,
fa,
b8,
ae,
f9,
19,
12,
e9,
f9,
16,
13,
15,
1a,
fe,
0c,
e6,
da,
e7,
1a,
12,
20,
f3,
01,
d5,
0b,
33,
28,
e4,
16,
f1,
fc,
ef,
ff,
ff,
1d,
d9,
d4,
27,
f1,
08,
dd,
e6,
fa,
f6,
de,
fd,
1b,
f5,
f2,
f6,
ff,
1c,
10,
d9,
e7,
fc,
04,
0c,
00,
0c,
eb,
19,
d5,
f3,
19,
d6,
eb,
08,
e7,
ec,
f1,
e5,
11,
0d,
fc,
dc,
04,
f1,
11,
05,
fe,
e2,
14,
ea,
e3,
20,
e5,
e7,
07,
dc,
f3,
16,
d4,
e8,
e7,
ee,
11,
e1,
c0,
b7,
ed,
f6,
d7,
e3,
f4,
1e,
f9,
e2,
bf,
1f,
00,
e9,
50,
01,
b3,
4b,
ed,
af,
06,
eb,
17,
19,
ef,
1e,
3e,
2e,
23,
56,
37,
f2,
00,
1a,
0e,
0b,
18,
05,
06,
11,
05,
04,
f5,
eb,
e8,
de,
d5,
ff,
f9,
ec,
08,
01,
06,
fd,
0b,
07,
0f,
14,
10,
07,
fc,
f9,
13,
ec,
e0,
0f,
f0,
d9,
21,
2e,
fe,
0a,
03,
02,
ea,
1f,
31,
17,
eb,
11,
3a,
7f,
2a,
01,
0b,
24,
13,
0c,
e9,
e6,
f5,
12,
e8,
f7,
17,
e4,
ef,
00,
cf,
de,
0f,
e4,
d5,
14,
10,
09,
35,
f8,
24,
09,
0d,
f4,
fe,
f5,
e7,
ee,
12,
0b,
fb,
0a,
0f,
10,
1f,
0d,
e9,
23,
fe,
f0,
28,
f0,
06,
41,
df,
cb,
f4,
c8,
1f,
e4,
da,
20,
1e,
5b,
30,
eb,
d9,
18,
11,
0c,
05,
d4,
f1,
2b,
f9,
0d,
fa,
13,
1f,
05,
e1,
b9,
d3,
e3,
f5,
e6,
ee,
e6,
ed,
ca,
b8,
c7,
0c,
ef,
f8,
09,
f3,
f2,
14,
f9,
16,
f1,
03,
49,
08,
05,
4d,
d1,
c9,
df,
21,
26,
10,
02,
13,
14,
fe,
f8,
f7,
de,
1c,
e3,
1c,
fa,
00,
cc,
d3,
e5,
b1,
99,
99,
a0,
a7,
e9,
f0,
de,
00,
e2,
eb,
f1,
f8,
f2,
07,
0c,
3a,
e3,
27,
2d,
d1,
32,
0c,
ea,
ee,
1a,
c6,
f7,
0f,
12,
1d,
12,
ce,
00,
08,
fd,
cb,
e0,
b9,
cf,
cb,
9e,
f2,
d9,
f7,
ef,
08,
d7,
1f,
05,
ec,
ec,
e1,
25,
c4,
bc,
e8,
e5,
da,
d2,
07,
f5,
11,
e0,
ed,
fe,
f0,
16,
34,
c9,
bf,
bc,
dd,
d2,
d7,
de,
f9,
c3,
ff,
da,
f3,
f8,
01,
13,
e6,
d6,
01,
ee,
e8,
d2,
0d,
f3,
c8,
e2,
b0,
d3,
07,
09,
e2,
f6,
f5,
c8,
00,
15,
81,
04,
c8,
aa,
13,
13,
d6,
d2,
d7,
d7,
17,
0a,
0a,
ee,
e3,
42,
20,
3a,
51,
03,
ee,
c0,
ee,
e0,
c8,
fa,
eb,
ee,
00,
fb,
ee,
f3,
be,
e0,
cc,
be,
fc,
26,
ff,
00,
e4,
23,
15,
27,
f7,
f7,
06,
f0,
16,
f4,
18,
40,
d8,
e2,
06,
f9,
fa,
00,
de,
e6,
00,
cf,
d7,
fd,
da,
3b,
3c,
29,
f7,
02,
33,
fc,
11,
ff,
09,
d1,
37,
1a,
26,
2a,
1f,
20,
db,
db,
0e,
da,
e7,
31,
f2,
f6,
19,
ee,
bf,
12,
c3,
c0,
fe,
c2,
bb,
14,
1e,
0e,
e3,
1c,
15,
08,
df,
0a,
1f,
de,
de,
18,
c9,
9c,
c0,
e5,
c7,
ea,
ec,
dd,
e4,
01,
cd,
ca,
32,
fc,
db,
41,
13,
cd,
41,
37,
42,
35,
11,
22,
ec,
ec,
2c,
1a,
3c,
59,
fe,
eb,
19,
fa,
42,
fc,
e7,
0a,
0e,
ef,
07,
2c,
e6,
f0,
d2,
ef,
bf,
bd,
0d,
1a,
43,
dc,
2a,
07,
a8,
ee,
33,
08,
d1,
01,
01,
0b,
e2,
13,
db,
b9,
da,
ae,
c2,
fa,
f0,
fe,
08,
4b,
26,
30,
0a,
18,
13,
da,
e4,
bd,
d2,
ee,
d6,
05,
05,
f6,
e3,
c7,
c4,
f4,
1f,
f4,
14,
18,
1c,
29,
e5,
1e,
f6,
d5,
25,
f1,
f5,
f1,
3b,
3d,
bd,
df,
e8,
dc,
db,
d3,
d2,
08,
07,
ff,
06,
f2,
f5,
06,
25,
04,
d8,
f4,
d9,
99,
c3,
c6,
a8,
ce,
ee,
cf,
fe,
e6,
d0,
d3,
cb,
09,
0c,
2b,
2e,
44,
46,
1a,
27,
17,
dc,
2d,
fd,
0c,
20,
0d,
13,
0e,
d4,
f6,
cd,
ed,
f5,
04,
ac,
ca,
e7,
14,
d9,
06,
ba,
d9,
be,
de,
af,
98,
ff,
f0,
fd,
e3,
f5,
ec,
f2,
df,
b8,
3c,
10,
dc,
e0,
d4,
06,
2f,
44,
32,
c1,
ed,
1f,
f0,
09,
df,
e4,
f4,
21,
1e,
31,
18,
2f,
04,
1f,
3e,
34,
00,
22,
0a,
09,
e5,
e2,
e8,
eb,
da,
d8,
1c,
0e,
0b,
ec,
18,
50,
ef,
e4,
26,
1d,
01,
02,
5a,
1f,
f7,
48,
3a,
f8,
dd,
ea,
1c,
0b,
2f,
09,
e9,
21,
4f,
46,
7f,
5d,
fa,
4d,
f8,
a6,
bc,
9e,
a7,
8b,
94,
e5,
d7,
f8,
db,
f2,
fb,
ef,
dd,
05,
24,
17,
09,
fc,
f2,
01,
e9,
c5,
e0,
ec,
df,
07,
d5,
d0,
e6,
0f,
df,
0e,
f3,
e9,
00,
0f,
42,
2f,
08,
0c,
fc,
f3,
ff,
be,
dd,
d4,
ec,
f2,
e4,
62,
04,
f8,
e4,
01,
c9,
e8,
e2,
ce,
24,
04,
35,
32,
ff,
2e,
32,
31,
31,
fa,
19,
1b,
e2,
15,
12,
00,
0b,
04,
03,
ff,
26,
f6,
f8,
1a,
de,
0f,
e5,
06,
d9,
0c,
48,
0f,
74,
2b,
35,
33,
c9,
f1,
02,
d7,
f9,
13,
e8,
0f,
05,
15,
1a,
ff,
e4,
f3,
e5,
00,
ea,
ec,
20,
0e,
0b,
14,
01,
1b,
fe,
fc,
1b,
f6,
16,
f2,
b3,
03,
ac,
07,
d4,
e3,
28,
11,
ff,
d7,
19,
bd,
bb,
dd,
b1,
04,
0c,
f1,
0b,
09,
e4,
d2,
fd,
04,
06,
fb,
21,
be,
29,
f9,
9b,
20,
d4,
e1,
ff,
00,
c5,
f3,
cd,
f8,
f7,
e6,
30,
02,
d7,
9d,
f6,
98,
81,
c0,
94,
f1,
fd,
f7,
df,
1e,
21,
de,
28,
07,
f4,
07,
de,
c7,
e3,
bb,
e4,
07,
e0,
0f,
ee,
0b,
ed,
27,
21,
1a,
0d,
05,
18,
18,
3a,
a1,
3d,
f5,
c3,
e7,
cc,
fd,
ec,
fa,
07,
e8,
0a,
f2,
d8,
f3,
0a,
10,
f2,
26,
06,
e8,
1b,
ec,
07,
d6,
ea,
f5,
bf,
13,
e9,
01,
f3,
e5,
15,
00,
e1,
0c,
04,
dc,
0d,
1b,
11,
13,
19,
04,
d0,
f9,
f3,
df,
0f,
be,
27,
fb,
13,
26,
08,
fe,
f4,
13,
f0,
da,
f3,
de,
1a,
e5,
e7,
0b,
dd,
f5,
cd,
07,
0e,
00,
1e,
e1,
ea,
ed,
dd,
2a,
fb,
0e,
c7,
ee,
e0,
e5,
ee,
ee,
fa,
11,
06,
e8,
06,
f1,
df,
19,
06,
e5,
fa,
0f,
00,
0c,
19,
fe,
16,
fe,
e8,
ec,
f9,
18,
f0,
22,
03,
11,
19,
ed,
21,
f0,
eb,
0f,
b8,
fc,
00,
e6,
08,
f8,
19,
10,
fa,
e2,
32,
df,
ed,
2e,
cd,
f5,
48,
d4,
e7,
2a,
c2,
de,
38,
f5,
1b,
08,
4e,
1d,
d7,
21,
07,
f5,
fe,
dc,
f6,
f2,
e3,
18,
05,
0c,
2f,
1d,
d9,
c2,
95,
cb,
16,
d9,
e6,
11,
1d,
d4,
e9,
29,
67,
38,
06,
48,
4c,
0f,
39,
f9,
e9,
1a,
45,
e1,
02,
3a,
2f,
ef,
e4,
4c,
d5,
a8,
e7,
ff,
10,
0f,
f0,
d7,
d2,
9a,
01,
1d,
09,
d7,
f5,
ec,
23,
cc,
43,
5f,
34,
3e,
f4,
d1,
d6,
23,
c4,
b5,
29,
d7,
04,
2d,
36,
e1,
09,
0b,
e7,
13,
36,
f5,
fe,
0f,
cc,
f7,
3e,
a4,
c1,
04,
f8,
d4,
f6,
ae,
3c,
e9,
e7,
05,
d6,
12,
02,
e2,
cc,
fa,
af,
ca,
2a,
ec,
12,
2f,
1b,
f3,
da,
54,
f1,
ff,
05,
2c,
17,
0f,
f0,
17,
03,
5c,
5c,
1a,
34,
1d,
3e,
fe,
f0,
e7,
2f,
3e,
c7,
36,
35,
c5,
b1,
0a,
c9,
cd,
06,
31,
e0,
e6,
4a,
00,
e3,
a2,
b1,
f5,
a3,
cf,
40,
1b,
1a,
2c,
fa,
0e,
00,
0c,
0f,
f4,
f1,
09,
fb,
0f,
ea,
03,
e8,
0e,
05,
02,
e7,
fa,
c2,
e9,
ee,
dd,
e9,
04,
fd,
e3,
db,
d3,
95,
1b,
e7,
da,
19,
0c,
18,
fd,
ff,
28,
07,
ea,
e5,
fd,
0a,
33,
c4,
81,
96,
c0,
c8,
1b,
d2,
e7,
11,
01,
03,
f7,
df,
0b,
eb,
01,
08,
de,
c5,
df,
bb,
e3,
0b,
d7,
03,
fd,
f3,
c7,
10,
27,
ed,
11,
22,
12,
02,
19,
0f,
ed,
fd,
17,
e2,
e6,
10,
e9,
00,
a8,
e8,
f4,
b7,
04,
e9,
f1,
f2,
ff,
17,
52,
bb,
b5,
14,
b0,
d7,
e5,
02,
f1,
59,
22,
ee,
e4,
eb,
33,
d4,
f5,
0a,
08,
ec,
fe,
fd,
1e,
1e,
26,
0a,
21,
f6,
01,
2a,
1d,
21,
e0,
10,
00,
01,
f9,
06,
11,
36,
15,
02,
1e,
35,
14,
f0,
11,
0a,
de,
bd,
b1,
fc,
05,
27,
17,
2c,
ff,
33,
08,
ad,
29,
f9,
ec,
33,
33,
22,
c9,
cf,
f3,
16,
ff,
02,
0f,
35,
2a,
e4,
e1,
09,
18,
2a,
2c,
da,
e9,
fa,
dc,
da,
c4,
15,
02,
f7,
1e,
11,
11,
e7,
e0,
0c,
bc,
d2,
eb,
32,
c6,
b8,
f6,
61,
21,
1a,
f4,
ee,
02,
fb,
28,
ee,
e7,
e0,
f4,
0d,
10,
ee,
f3,
14,
fd,
21,
02,
eb,
17,
08,
f7,
11,
fc,
00,
d0,
17,
1e,
f5,
f1,
e4,
16,
12,
f7,
d4,
cf,
ee,
fc,
1d,
e4,
e4,
f1,
06,
f1,
05,
fd,
15,
30,
ef,
d7,
e9,
1d,
ee,
ef,
14,
18,
23,
d2,
e9,
ea,
ef,
e5,
d4,
92,
b8,
d5,
47,
36,
e3,
0c,
32,
33,
4a,
10,
0e,
d6,
2b,
27,
eb,
dc,
f5,
2e,
18,
f7,
fb,
e9,
cf,
c4,
d4,
d1,
d7,
e5,
f7,
e2,
bc,
a3,
20,
0a,
e0,
f2,
eb,
d8,
0b,
1a,
13,
fd,
f1,
21,
0a,
ef,
e2,
ee,
dc,
e2,
da,
fe,
f0,
f2,
00,
0a,
f1,
10,
28,
28,
12,
11,
ee,
d6,
ff,
13,
be,
cd,
e3,
04,
00,
10,
19,
e8,
24,
1c,
13,
06,
05,
06,
2b,
43,
23,
c8,
ec,
25,
d8,
e1,
e4,
12,
20,
1f,
e9,
e1,
f9,
e2,
b5,
ad,
27,
0b,
00,
b8,
eb,
28,
19,
fe,
06,
04,
10,
3a,
a9,
ed,
7f,
d4,
1c,
ee,
f1,
f2,
1b,
0b,
e5,
d9,
22,
f0,
ec,
f5,
e6,
2c,
bc,
a6,
de,
fb,
f4,
e8,
ea,
bd,
c3,
ed,
07,
e2,
3c,
f9,
24,
e9,
e4,
ee,
d7,
de,
17,
02,
22,
3b,
5a,
14,
e3,
18,
d7,
ed,
0f,
e9,
25,
0a,
e8,
17,
24,
f4,
18,
08,
f2,
f1,
b4,
bb,
e6,
af,
03,
2b,
05,
f5,
f0,
1d,
10,
ea,
fe,
de,
09,
f5,
bd,
02,
f9,
b8,
de,
e8,
0b,
ec,
22,
0f,
f4,
27,
de,
08,
f1,
a1,
f6,
f7,
fa,
12,
dc,
d0,
f9,
bd,
f0,
db,
f1,
17,
e4,
d8,
d9,
08,
a3,
b1,
b3,
fc,
ff,
eb,
a7,
ef,
f8,
e3,
0b,
ef,
ef,
0d,
d8,
fe,
1d,
02,
01,
a4,
fd,
ed,
23,
07,
1c,
e9,
11,
bc,
85,
ca,
d3,
c4,
e6,
df,
c0,
fc,
e0,
c1,
f2,
17,
fc,
16,
d9,
cf,
f5,
ba,
c8,
da,
dc,
f4,
18,
cc,
db,
fb,
a9,
a4,
09,
d0,
fd,
c6,
0d,
dc,
e4,
06,
c1,
cd,
17,
e7,
cb,
15,
e1,
28,
f6,
10,
27,
fc,
47,
2f,
cb,
e0,
d7,
d1,
cc,
df,
ae,
bf,
f5,
14,
b9,
e0,
15,
e3,
eb,
ed,
fa,
fe,
ec,
be,
e6,
e3,
df,
da,
f7,
03,
04,
e6,
eb,
e0,
13,
f4,
fb,
ed,
f4,
f6,
11,
ed,
ee,
f9,
aa,
f8,
dc,
ee,
df,
0e,
f6,
fa,
db,
31,
1d,
f7,
da,
f9,
11,
ac,
c3,
4b,
f9,
b0,
97,
eb,
e6,
f8,
c7,
e3,
d5,
b9,
e5,
da,
bf,
fe,
dc,
ee,
cb,
b8,
ce,
be,
be,
bc,
dd,
ee,
dd,
f4,
d3,
c5,
10,
d4,
d1,
0e,
e7,
e4,
f7,
f4,
dd,
e7,
d9,
ae,
db,
e6,
d7,
d4,
ca,
81,
96,
02,
dd,
e7,
02,
d1,
d2,
dd,
01,
f7,
15,
19,
fd,
eb,
da,
df,
ed,
d7,
d1,
10,
f8,
0a,
04,
35,
0e,
26,
17,
ff,
f0,
eb,
ef,
02,
27,
1a,
24,
40,
13,
1f,
02,
dc,
f3,
1c,
15,
fd,
33,
04,
1b,
1e,
fe,
a0,
94,
98,
b5,
a1,
cd,
17,
0b,
30,
12,
e9,
c6,
f8,
d3,
02,
fd,
e4,
bb,
e9,
02,
eb,
18,
0f,
fd,
11,
ed,
f9,
db,
02,
fd,
f0,
f8,
fb,
06,
05,
25,
e6,
cb,
f7,
c9,
c8,
06,
f6,
ed,
db,
f9,
f2,
c4,
db,
99,
cc,
8e,
81,
bb,
f7,
d2,
00,
09,
b9,
b4,
e8,
12,
eb,
08,
fa,
fc,
ef,
19,
29,
2b,
25,
05,
b1,
c8,
ea,
cf,
dc,
c1,
d7,
d0,
df,
ed,
e7,
db,
bc,
ec,
17,
ef,
3a,
f1,
00,
e9,
c7,
d5,
d5,
e9,
e2,
fc,
25,
00,
26,
61,
15,
11,
ec,
fb,
f9,
db,
bf,
fb,
e3,
dd,
c3,
cd,
f2,
d3,
d7,
f7,
d8,
f2,
dc,
cb,
0d,
e6,
11,
20,
de,
c7,
82,
d3,
84,
8a,
eb,
e9,
d9,
0c,
22,
fd,
0d,
ff,
da,
dc,
f1,
d3,
05,
06,
0d,
f2,
f7,
ec,
f2,
ea,
b6,
f7,
10,
e5,
0d,
eb,
fb,
13,
12,
f8,
ee,
f1,
04,
12,
16,
12,
e0,
fb,
df,
fb,
e9,
e9,
ea,
e8,
e4,
f2,
25,
11,
f7,
21,
3b,
0f,
0e,
19,
d9,
e9,
ea,
1e,
22,
ea,
05,
dd,
e7,
d9,
e5,
f5,
11,
d0,
cc,
c0,
9b,
d7,
da,
d6,
f3,
13,
fb,
06,
07,
2f,
44,
29,
60,
18,
19,
0d,
ff,
11,
32,
26,
fc,
27,
1f,
27,
69,
3e,
23,
41,
f9,
0f,
ec,
2d,
00,
ff,
dd,
f9,
da,
a3,
a3,
af,
14,
e1,
12,
e4,
11,
16,
ad,
f0,
c8,
d9,
44,
3f,
f7,
36,
44,
34,
e9,
14,
35,
0a,
16,
0f,
de,
10,
09,
bb,
fe,
14,
e8,
0a,
1d,
2b,
06,
0b,
02,
f5,
25,
f1,
04,
01,
1a,
e8,
fb,
f9,
0d,
0b,
23,
17,
ea,
fa,
18,
45,
0e,
06,
39,
1c,
f0,
f2,
06,
22,
12,
dd,
35,
2b,
e8,
da,
f0,
46,
d9,
a4,
05,
25,
03,
00,
1f,
06,
d1,
ce,
ea,
eb,
ca,
ed,
39,
3b,
1e,
ed,
29,
48,
03,
20,
2e,
45,
03,
21,
03,
52,
1f,
cb,
ed,
fc,
3a,
33,
0b,
d4,
04,
fa,
ca,
e9,
22,
c7,
d1,
06,
ce,
ee,
e3,
3e,
e9,
dc,
23,
2c,
cb,
31,
32,
fb,
ca,
ed,
51,
08,
00,
e7,
f5,
f5,
ef,
d4,
07,
fc,
33,
29,
f7,
fa,
50,
36,
15,
2f,
33,
22,
04,
e7,
06,
f1,
06,
f9,
f7,
f2,
67,
f5,
df,
ec,
50,
2b,
d9,
27,
5b,
44,
35,
db,
26,
52,
2b,
f6,
13,
25,
2b,
51,
1b,
a7,
1f,
7f,
e6,
ce,
f2,
15,
30,
15,
fe,
33,
1f,
ae,
e9,
0e,
f2,
fb,
0f,
d0,
df,
1d,
35,
c8,
d2,
f0,
f1,
cc,
f7,
0e,
16,
fa,
f5,
08,
0a,
0e,
1a,
11,
14,
23,
d2,
04,
fc,
2b,
0b,
e8,
f3,
01,
07,
db,
f3,
f8,
b3,
eb,
f8,
2f,
b3,
a1,
57,
f4,
c5,
b4,
0d,
f3,
88,
c4,
36,
d4,
f6,
0e,
f0,
12,
0e,
e7,
db,
f2,
f5,
f7,
0d,
de,
d7,
ce,
17,
ce,
df,
63,
04,
ff,
0b,
0c,
dc,
fd,
fc,
15,
e9,
1a,
09,
ac,
e0,
f0,
b4,
a5,
d4,
d4,
9e,
b7,
1c,
22,
24,
09,
2e,
12,
c0,
f0,
24,
15,
06,
28,
f3,
f3,
fe,
ea,
1f,
ee,
3a,
ae,
17,
f4,
ca,
19,
05,
02,
0f,
ee,
18,
21,
0a,
fe,
00,
f9,
0c,
07,
29,
f9,
08,
0d,
ff,
f5,
04,
07,
f7,
d0,
f0,
18,
e6,
da,
f0,
10,
dd,
cd,
ee,
0c,
ff,
0b,
1a,
f2,
f7,
1b,
c8,
1d,
eb,
18,
0e,
d7,
05,
fd,
ab,
d0,
e7,
bb,
13,
0b,
cb,
27,
25,
a8,
de,
f4,
a7,
15,
ff,
ba,
06,
16,
b6,
fc,
f7,
db,
43,
2d,
f0,
0e,
06,
05,
1b,
cf,
1c,
18,
b9,
fe,
03,
99,
f6,
09,
29,
b4,
16,
01,
b0,
3c,
d2,
b2,
45,
24,
c2,
0a,
42,
e4,
1e,
e0,
da,
34,
fc,
81,
e8,
e5,
a2,
08,
d5,
b7,
15,
fd,
07,
11,
fa,
07,
05,
ec,
f5,
04,
ed,
f8,
0d,
1a,
06,
14,
f7,
e2,
2e,
e9,
e0,
2c,
d7,
c5,
36,
fa,
c7,
12,
dd,
3d,
1b,
06,
ec,
f0,
21,
02,
f6,
fb,
de,
fd,
fe,
ef,
03,
02,
e2,
1e,
00,
c2,
fc,
14,
bf,
0c,
02,
9a,
04,
0e,
14,
e4,
20,
08,
f5,
15,
e6,
eb,
fb,
11,
05,
ed,
0c,
15,
ea,
37,
17,
c9,
e8,
34,
cd,
f2,
18,
db,
fb,
29,
fd,
08,
02,
12,
1a,
f3,
de,
dd,
1a,
ea,
b9,
23,
e8,
d9,
0f,
d8,
ed,
0c,
61,
3c,
b1,
23,
2c,
e9,
3f,
f7,
c8,
e0,
0c,
eb,
16,
20,
08,
23,
0b,
e7,
ef,
00,
23,
eb,
06,
42,
d0,
10,
3a,
c2,
bc,
e8,
d7,
d8,
f2,
d1,
e1,
e4,
f7,
eb,
d2,
01,
ee,
d6,
0c,
da,
e3,
04,
f4,
08,
04,
10,
0f,
08,
16,
1b,
19,
b9,
35,
36,
b0,
41,
2f,
c1,
37,
e5,
0c,
08,
e0,
08,
f8,
f7,
24,
f3,
10,
9f,
c8,
fe,
a8,
00,
f5,
b7,
11,
fa,
02,
1d,
e9,
d7,
04,
fe,
d5,
25,
15,
3b,
31,
2b,
39,
03,
54,
34,
f4,
e6,
c4,
ea,
35,
46,
41,
f1,
37,
15,
28,
ef,
03,
1e,
01,
29,
02,
fb,
0d,
30,
7f,
e9,
fb,
38,
e5,
40,
e1,
a7,
e3,
e7,
0c,
e4,
f3,
0b,
d5,
e3,
bb,
b1,
b9,
d9,
d6,
a5,
e0,
e6,
a2,
df,
e6,
c6,
e8,
ec,
0c,
0d,
c3,
fa,
03,
ee,
f3,
0b,
f9,
c1,
21,
f2,
a4,
28,
17,
e6,
ed,
e6,
d2,
ed,
cd,
b1,
0f,
e2,
32,
cc,
f9,
2b,
13,
cb,
05,
fe,
22,
c2,
92,
32,
d3,
91,
45,
dc,
ba,
05,
e5,
f8,
05,
c0,
f2,
04,
a9,
fd,
14,
fc,
05,
f2,
fb,
ff,
e6,
bb,
00,
09,
ec,
0d,
1a,
bd,
f7,
42,
c5,
df,
f6,
00,
f5,
eb,
0e,
15,
02,
23,
19,
25,
e4,
fa,
20,
f0,
08,
18,
05,
ee,
d4,
3a,
f9,
04,
36,
ed,
e2,
f4,
c5,
dd,
3d,
2c,
db,
13,
10,
aa,
f3,
15,
de,
d4,
ee,
eb,
f9,
fb,
ec,
f7,
e6,
ee,
c2,
cf,
02,
dc,
0a,
26,
d8,
ef,
29,
0a,
07,
0e,
02,
fb,
fd,
e7,
fe,
eb,
98,
d8,
08,
96,
ea,
07,
a0,
fb,
b5,
09,
17,
d2,
ff,
ff,
fa,
38,
dd,
f0,
50,
07,
df,
0d,
f6,
e5,
3f,
01,
f5,
a9,
04,
f9,
9c,
06,
08,
92,
12,
07,
9c,
01,
05,
d0,
26,
0c,
e7,
10,
15,
19,
03,
11,
f0,
ed,
14,
ec,
04,
ef,
a0,
ea,
fb,
b9,
0e,
f3,
c7,
e8,
f6,
d5,
b4,
0e,
17,
af,
1e,
10,
a1,
0d,
03,
0c,
1a,
ee,
07,
1f,
09,
23,
d2,
fd,
12,
db,
0c,
26,
02,
01,
01,
fc,
cc,
e0,
ef,
0e,
f1,
2c,
13,
10,
b4,
88,
b1,
ba,
d1,
db,
03,
fe,
00,
57,
08,
1f,
f4,
eb,
1a,
0c,
02,
14,
01,
01,
f0,
e0,
1d,
e5,
ed,
14,
09,
ea,
d7,
de,
f9,
ee,
ec,
fd,
e8,
d4,
f5,
eb,
fe,
2a,
0d,
fa,
13,
1f,
0b,
e7,
d5,
f9,
c7,
d3,
ff,
ea,
f0,
f6,
11,
dd,
fe,
f5,
ff,
19,
0a,
06,
ed,
d1,
fe,
11,
1d,
01,
fc,
fd,
0c,
0a,
bf,
b6,
01,
b7,
f2,
2c,
ff,
20,
1b,
d4,
e9,
f4,
03,
08,
fa,
f0,
16,
10,
fe,
2f,
2b,
e5,
2b,
1e,
dc,
07,
11,
23,
4b,
23,
ef,
e9,
11,
da,
ed,
12,
ce,
0e,
05,
04,
0b,
03,
0b,
ef,
fe,
0a,
14,
0f,
fd,
11,
0e,
ef,
f6,
0a,
99,
81,
cf,
c6,
f3,
0d,
27,
45,
21,
0a,
40,
de,
1d,
21,
05,
18,
fd,
ea,
aa,
16,
43,
e8,
1a,
02,
f4,
11,
19,
13,
d0,
e5,
ed,
ed,
0e,
02,
0a,
14,
1e,
be,
e2,
f9,
e2,
fd,
0d,
ef,
ee,
f8,
13,
ea,
12,
16,
03,
02,
f3,
e2,
d9,
fd,
18,
fb,
07,
0a,
ea,
fb,
0a,
0a,
d0,
d7,
ca,
fa,
20,
f8,
03,
0c,
e0,
46,
26,
be,
f9,
0b,
fd,
de,
01,
03,
f5,
dc,
2c,
0c,
ef,
0a,
fb,
eb,
18,
fc,
fb,
0c,
fa,
11,
05,
05,
0e,
ff,
e4,
e4,
ed,
0d,
ff,
eb,
0d,
0e,
47,
40,
f8,
fa,
f6,
04,
d8,
e8,
f7,
df,
e2,
0a,
2c,
2d,
2a,
16,
15,
0a,
fb,
29,
14,
30,
2a,
d8,
11,
0c,
ed,
93,
97,
df,
90,
aa,
1b,
e2,
ea,
0e,
37,
1f,
d9,
e6,
dd,
0e,
f9,
0a,
0b,
ed,
d9,
0f,
0f,
12,
0c,
15,
08,
e0,
09,
e5,
f0,
04,
1c,
e7,
e9,
11,
f9,
37,
06,
15,
21,
12,
1a,
41,
22,
2e,
99,
8e,
92,
e9,
ef,
43,
17,
43,
4c,
15,
e1,
b2,
09,
0a,
fd,
f8,
1c,
0a,
fd,
07,
29,
d1,
00,
19,
07,
1d,
26,
23,
2c,
1c,
c3,
d6,
c8,
cf,
dd,
ca,
1f,
e8,
d2,
ea,
e2,
29,
0d,
00,
06,
01,
e8,
e4,
05,
de,
fe,
ff,
05,
19,
fd,
17,
fb,
01,
11,
0c,
d8,
fc,
e2,
ed,
ea,
d1,
1a,
0f,
25,
0c,
f5,
10,
f1,
0e,
2a,
0d,
0f,
12,
ea,
d0,
d9,
ff,
fe,
ee,
e7,
de,
e1,
de,
1b,
ef,
22,
11,
e6,
ed,
fc,
08,
e2,
0c,
05,
f7,
20,
10,
5d,
3e,
13,
f1,
fc,
0f,
ce,
9f,
9f,
2a,
e3,
04,
13,
28,
50,
9c,
93,
9d,
20,
2a,
1f,
2d,
32,
0d,
14,
20,
2c,
3d,
3f,
f5,
de,
e0,
dc,
81,
b1,
e8,
bd,
dc,
17,
29,
2e,
f7,
07,
cb,
e7,
fc,
20,
2d,
ff,
03,
0b,
bb,
c1,
b4,
10,
3a,
fc,
1c,
f1,
02,
2c,
47,
2e,
f7,
fd,
20,
24,
19,
21,
c0,
bf,
c6,
ed,
ec,
e5,
1c,
20,
13,
11,
4d,
29,
05,
19,
ef,
f5,
f1,
00,
e3,
c3,
d7,
16,
f0,
f1,
1b,
0a,
0f,
fb,
c5,
f2,
e3,
d2,
d2,
15,
ff,
ff,
f5,
14,
e4,
f2,
09,
05,
01,
01,
2a,
24,
14,
dc,
d6,
e4,
e0,
1c,
ff,
0e,
c6,
bf,
a5,
25,
37,
1f,
24,
43,
fd,
e9,
20,
2a,
16,
e8,
f8,
01,
e1,
e6,
2f,
03,
f2,
12,
28,
0a,
16,
1d,
19,
45,
d9,
0f,
13,
d0,
12,
0b,
eb,
23,
1e,
f2,
13,
ee,
f9,
fa,
fa,
08,
06,
02,
09,
d9,
18,
02,
f0,
ff,
01,
ff,
06,
04,
3e,
f9,
f0,
1f,
03,
f3,
01,
fe,
fa,
f6,
38,
07,
1c,
f1,
de,
0a,
fb,
28,
f8,
24,
43,
ee,
fc,
e3,
07,
f4,
eb,
04,
09,
18,
01,
fc,
1b,
17,
2b,
cc,
f4,
0f,
c4,
06,
fd,
d1,
01,
df,
cc,
15,
f1,
22,
2f,
f3,
25,
14,
ad,
9c,
d9,
ac,
b8,
ed,
a4,
de,
19,
29,
e3,
fb,
0a,
eb,
ef,
0c,
04,
11,
d1,
d1,
fd,
de,
36,
00,
06,
12,
cf,
2e,
c6,
27,
f9,
98,
0e,
22,
d6,
06,
fa,
f0,
09,
39,
f3,
f0,
44,
e2,
00,
e1,
d7,
d3,
06,
c6,
0e,
f7,
d4,
0c,
ef,
d4,
25,
d3,
d4,
07,
ef,
e8,
23,
d8,
c3,
db,
ea,
f7,
ef,
e5,
0a,
dd,
dc,
e6,
0c,
de,
46,
0e,
c1,
21,
e6,
03,
01,
15,
f6,
1f,
0f,
f8,
34,
1d,
fc,
e9,
14,
ea,
f8,
2b,
d4,
08,
37,
f6,
3a,
ae,
29,
18,
d6,
2e,
f9,
e7,
fb,
f1,
1e,
e1,
06,
fb,
e1,
ee,
ce,
f1,
f5,
d5,
15,
14,
dd,
0e,
16,
01,
33,
0a,
df,
1e,
e4,
12,
ed,
f8,
17,
0d,
d3,
15,
dc,
a9,
e4,
f7,
e6,
ed,
dc,
22,
01,
10,
25,
e5,
01,
fa,
dc,
10,
f4,
ef,
11,
d3,
e9,
04,
ea,
f1,
0f,
cf,
0d,
dc,
ee,
35,
e7,
f5,
03,
f3,
f8,
07,
fa,
d1,
f5,
cf,
e1,
f0,
e0,
08,
23,
f8,
03,
0f,
f8,
ee,
f2,
0a,
f9,
5b,
c4,
f2,
32,
81,
e7,
d9,
23,
e9,
14,
fb,
e5,
e7,
05,
ef,
f9,
06,
f9,
22,
c5,
d7,
dd,
f9,
01,
f9,
0f,
09,
13,
c4,
d6,
dc,
24,
ee,
e1,
07,
08,
07,
e3,
d7,
d7,
ce,
00,
03,
24,
fe,
30,
19,
f9,
19,
1b,
0c,
01,
ff,
09,
09,
b3,
ac,
9f,
22,
19,
1c,
11,
0f,
04,
f9,
ee,
b3,
0a,
15,
1d,
f4,
f7,
11,
10,
dc,
fc,
de,
f6,
f6,
fc,
07,
0b,
1c,
10,
17,
d1,
00,
ba,
11,
0f,
13,
e8,
d6,
d1,
13,
05,
34,
ff,
10,
16,
0a,
07,
df,
04,
f0,
f0,
16,
07,
fb,
db,
dc,
f3,
01,
15,
1e,
da,
f6,
11,
22,
f0,
f5,
16,
fd,
06,
02,
fe,
f9,
ff,
01,
de,
ed,
fc,
e5,
05,
15,
0a,
30,
1a,
25,
1b,
23,
10,
04,
f5,
09,
f6,
f3,
d7,
15,
fb,
11,
fd,
07,
09,
f5,
00,
f6,
ff,
0f,
04,
1e,
09,
fa,
c3,
b8,
9d,
16,
04,
06,
1c,
0e,
00,
b1,
a9,
91,
fa,
06,
18,
e4,
07,
00,
1c,
15,
23,
0e,
10,
00,
29,
1d,
1c,
b7,
cb,
d0,
d6,
02,
0d,
07,
01,
ea,
f3,
e4,
fe,
fe,
0b,
09,
03,
04,
0c,
c1,
b8,
ae,
09,
fc,
f9,
fc,
00,
01,
29,
2d,
27,
08,
1c,
fb,
04,
09,
05,
fa,
01,
0e,
0f,
08,
f8,
fa,
fe,
03,
cb,
e4,
ec,
f5,
0b,
1f,
d4,
d7,
e0,
81,
a8,
dd,
2e,
f6,
fd,
fe,
04,
1d,
0b,
02,
28,
e8,
ee,
f1,
03,
0e,
0b,
b0,
d4,
be,
f1,
f7,
0b,
05,
06,
f1,
f8,
08,
03,
03,
07,
e8,
13,
0f,
24,
d3,
d0,
cd,
04,
fb,
07,
16,
20,
2a,
ba,
d7,
d9,
12,
11,
07,
e7,
0b,
0a,
11,
09,
29,
f9,
12,
08,
21,
2a,
15,
e7,
1e,
0a,
ef,
e5,
ec,
e8,
fc,
16,
1e,
f9,
04,
fc,
1b,
27,
0b,
1f,
04,
f9,
07,
05,
15,
16,
ff,
0d,
21,
43,
2b,
2e,
4e,
05,
08,
25,
e5,
f9,
f9,
97,
81,
bc,
13,
d1,
c7,
31,
4b,
5c,
d6,
f5,
15,
df,
ad,
b3,
bb,
e6,
0e,
fc,
e3,
bb,
18,
ed,
e1,
f8,
07,
ec,
03,
00,
f8,
da,
f9,
ee,
fd,
e0,
f4,
db,
b6,
e5,
10,
d5,
13,
17,
25,
35,
b2,
ee,
d7,
ae,
b8,
b5,
50,
43,
0b,
09,
51,
3a,
e0,
e0,
06,
0b,
23,
17,
fc,
f2,
fa,
3d,
00,
28,
24,
12,
16,
41,
45,
fa,
15,
0c,
0b,
2c,
32,
0d,
01,
ee,
df,
04,
0d,
f4,
f7,
28,
1f,
f9,
dc,
0f,
08,
23,
02,
35,
18,
eb,
21,
38,
28,
fd,
19,
2c,
22,
03,
f8,
f3,
1b,
fb,
e7,
13,
3c,
08,
ff,
f1,
ca,
ca,
f4,
e4,
b2,
d3,
ed,
05,
31,
d2,
c7,
04,
fe,
ae,
e0,
13,
2d,
0e,
af,
06,
36,
9d,
8d,
f4,
13,
1c,
0d,
a2,
b5,
b3,
df,
0b,
fa,
ef,
ed,
e5,
ed,
d8,
d6,
cb,
03,
f4,
fe,
37,
33,
ed,
0e,
f9,
d1,
de,
d6,
06,
1f,
0d,
c2,
f7,
03,
f2,
06,
d0,
e9,
da,
d6,
df,
c8,
d0,
06,
00,
d8,
00,
d7,
fd,
f7,
8f,
d6,
1a,
ef,
0d,
08,
23,
22,
ff,
04,
fb,
1b,
e0,
e3,
ee,
07,
ec,
27,
00,
e9,
4a,
48,
20,
2b,
e3,
db,
ee,
d8,
ce,
03,
07,
df,
0a,
e0,
ee,
1e,
1c,
26,
f0,
f7,
19,
ee,
04,
0e,
ec,
cb,
cd,
00,
c2,
d8,
e0,
e7,
17,
22,
4f,
23,
f1,
1e,
3e,
da,
eb,
0a,
fa,
e8,
ff,
ff,
e6,
08,
f7,
2e,
0f,
d5,
1e,
0d,
ef,
ee,
0d,
22,
ff,
f9,
20,
fc,
e6,
12,
0a,
eb,
f4,
16,
12,
0f,
fb,
03,
03,
16,
0b,
f9,
fa,
f0,
05,
17,
f4,
e9,
27,
02,
e9,
d7,
f0,
e2,
e4,
fc,
14,
e5,
e8,
e1,
ed,
01,
d9,
d8,
e9,
e1,
ef,
d5,
ed,
db,
0d,
f7,
e6,
f4,
eb,
ec,
f0,
c9,
bf,
1b,
e6,
82,
f3,
0b,
a1,
d8,
08,
0f,
eb,
ee,
28,
06,
f7,
c9,
0e,
f1,
21,
ed,
14,
10,
22,
09,
e9,
fa,
18,
09,
f7,
12,
10,
eb,
05,
00,
0f,
bb,
cd,
29,
12,
81,
13,
2e,
cf,
e7,
04,
bd,
f3,
14,
d0,
f9,
26,
f5,
04,
27,
e2,
1c,
32,
06,
20,
10,
2d,
f8,
10,
f2,
f5,
05,
c5,
fd,
08,
d6,
cf,
00,
33,
ec,
fc,
2a,
09,
f8,
d4,
16,
d0,
00,
e2,
fd,
d5,
12,
14,
c4,
fd,
d6,
12,
2b,
fd,
e2,
2b,
15,
fe,
f7,
11,
01,
fb,
f1,
15,
25,
d0,
fc,
03,
e6,
c2,
ed,
ee,
cb,
bc,
f1,
f6,
b9,
02,
ef,
f7,
10,
f6,
eb,
ed,
11,
cf,
04,
eb,
01,
08,
0b,
07,
12,
ff,
08,
ef,
e4,
fe,
09,
b1,
f7,
2f,
e3,
d0,
19,
c2,
f2,
10,
ff,
e1,
e6,
31,
fe,
20,
10,
ec,
de,
1b,
f4,
eb,
0e,
0a,
01,
fd,
09,
03,
ed,
14,
27,
f5,
ea,
c5,
ef,
12,
f4,
cb,
da,
f8,
f1,
e8,
ee,
fc,
02,
06,
06,
02,
15,
0f,
04,
f8,
e5,
0a,
04,
00,
fb,
09,
10,
0a,
f6,
ca,
21,
21,
b6,
ea,
4a,
12,
ee,
04,
09,
1e,
eb,
0e,
09,
ff,
f4,
f8,
21,
4e,
0c,
17,
1e,
b9,
05,
03,
e4,
81,
96,
f6,
c1,
cd,
13,
e6,
f5,
16,
fe,
01,
f5,
2f,
2c,
f9,
34,
0f,
f3,
27,
0a,
f4,
17,
c4,
eb,
18,
f8,
f6,
d9,
dc,
de,
fe,
fd,
13,
f9,
e2,
ec,
eb,
b6,
fb,
1b,
04,
09,
27,
17,
e7,
36,
77,
00,
09,
02,
be,
fe,
f7,
e5,
cf,
c2,
f3,
e6,
c1,
e1,
e9,
de,
f6,
dd,
9e,
19,
fe,
bd,
e1,
08,
1f,
e1,
ef,
d0,
f7,
df,
d8,
f1,
f2,
d4,
fd,
3d,
31,
f6,
2e,
34,
e7,
0f,
08,
c7,
e5,
fe,
f6,
eb,
21,
db,
16,
1c,
da,
f4,
fb,
36,
19,
e1,
e7,
13,
e7,
ed,
4c,
fe,
d0,
0e,
e1,
17,
fa,
f0,
36,
dd,
d9,
12,
d4,
e0,
06,
0a,
f4,
13,
07,
ea,
f4,
1d,
e6,
01,
19,
e1,
11,
ef,
de,
0a,
08,
1b,
2b,
07,
23,
e2,
f3,
10,
23,
01,
09,
fc,
02,
05,
f7,
2e,
e6,
02,
0f,
03,
dc,
1e,
16,
f4,
c6,
09,
ea,
da,
19,
03,
df,
24,
fe,
17,
cd,
d5,
07,
10,
f5,
f4,
e1,
f4,
0a,
0d,
1f,
30,
fe,
f1,
fa,
c3,
da,
01,
02,
0f,
04,
0f,
ed,
0f,
f7,
e6,
ef,
f2,
08,
e6,
d7,
03,
f6,
df,
09,
db,
18,
f0,
fa,
3b,
f5,
0a,
00,
e2,
b9,
bb,
ed,
c7,
ea,
04,
25,
1e,
07,
0e,
1c,
14,
f7,
fc,
16,
f7,
e4,
28,
15,
18,
f5,
17,
03,
c6,
18,
e8,
d2,
f4,
ec,
1a,
f1,
31,
37,
0a,
24,
0f,
f1,
e0,
e8,
19,
0c,
f3,
1f,
0f,
17,
ed,
f4,
cf,
f3,
0e,
cf,
ed,
19,
e1,
c9,
f4,
f5,
f6,
d9,
0e,
e6,
f5,
29,
c5,
bb,
f5,
b1,
94,
12,
f4,
f0,
4a,
07,
04,
09,
f5,
da,
00,
d7,
d8,
0a,
f0,
f1,
f0,
f9,
27,
fc,
1d,
1e,
ee,
03,
4a,
3f,
1b,
16,
02,
40,
e8,
ed,
01,
d8,
b1,
d5,
a5,
12,
09,
29,
4c,
31,
21,
e8,
f2,
df,
e9,
d0,
ae,
04,
f0,
09,
fe,
dc,
b8,
bd,
f4,
e5,
eb,
d3,
ee,
0a,
a2,
03,
f8,
d3,
21,
f6,
e0,
18,
23,
06,
f3,
ee,
38,
f9,
e8,
f4,
f5,
e6,
8f,
de,
50,
e5,
08,
44,
24,
d9,
dc,
0d,
a7,
cc,
d8,
cc,
02,
00,
d6,
d0,
df,
bd,
eb,
0b,
e4,
f9,
f3,
18,
1d,
0d,
07,
02,
f8,
01,
06,
d7,
cc,
eb,
c0,
da,
1c,
ed,
f5,
0c,
ec,
ee,
e7,
cd,
d2,
12,
de,
25,
42,
14,
41,
20,
3c,
36,
28,
0e,
29,
39,
00,
cc,
d4,
3d,
d1,
f3,
5b,
02,
01,
2d,
0f,
df,
2e,
e5,
20,
05,
08,
2d,
34,
d8,
9e,
d2,
9d,
dd,
11,
d8,
ed,
7f,
32,
0c,
4c,
1b,
ef,
0e,
23,
e2,
fd,
c9,
d6,
b0,
d2,
0e,
fb,
f5,
ee,
2b,
1e,
12,
28,
e0,
0d,
c2,
d8,
08,
f0,
ef,
fd,
bc,
f4,
1d,
f3,
2c,
05,
09,
e8,
fa,
f6,
e8,
26,
d6,
fb,
35,
dc,
f3,
fd,
c4,
d6,
10,
cb,
d6,
01,
f1,
d8,
eb,
ef,
f9,
06,
1d,
24,
08,
e5,
e4,
19,
a9,
dc,
fd,
d0,
ea,
27,
c8,
ff,
f5,
d6,
22,
fc,
13,
09,
f3,
f2,
ec,
0e,
f6,
1e,
14,
dd,
2c,
06,
10,
23,
25,
29,
f4,
de,
03,
17,
e7,
0a,
61,
2c,
2a,
0c,
e3,
fc,
dd,
e8,
ef,
11,
f2,
09,
0c,
d9,
01,
0a,
f9,
b6,
fe,
03,
f6,
ec,
1f,
19,
0c,
e5,
2c,
16,
f4,
df,
35,
ed,
d6,
06,
15,
0e,
0e,
07,
36,
07,
e3,
ec,
0e,
f5,
05,
06,
21,
f9,
f1,
f2,
f1,
12,
ed,
ef,
c4,
bf,
3e,
f1,
ed,
33,
0e,
f9,
f1,
27,
09,
b3,
f2,
08,
e8,
d7,
08,
15,
06,
1c,
1b,
fc,
ed,
f6,
f3,
0e,
db,
0c,
11,
06,
d7,
2c,
ea,
c6,
ee,
de,
32,
12,
cb,
05,
16,
1d,
dc,
0c,
16,
ec,
f5,
0e,
3a,
03,
f7,
ec,
0f,
d6,
ec,
e7,
fa,
fd,
09,
7f,
db,
33,
d0,
0f,
0b,
01,
01,
1f,
34,
0d,
3b,
19,
3a,
fa,
c0,
41,
3e,
d6,
c8,
24,
03,
0c,
e4,
ef,
01,
fd,
f6,
02,
e6,
07,
24,
eb,
f9,
17,
1c,
0b,
ea,
0b,
29,
22,
21,
03,
f6,
26,
0d,
f8,
0a,
df,
bc,
cb,
05,
f1,
ee,
3e,
e6,
e6,
e7,
11,
0b,
e5,
1e,
2a,
e6,
f2,
38,
ba,
15,
dc,
cd,
f6,
14,
16,
ba,
f1,
f6,
ce,
d7,
27,
d8,
e0,
48,
ef,
0e,
f6,
0e,
2b,
20,
f8,
1e,
18,
f1,
eb,
e0,
3c,
db,
e2,
32,
07,
ec,
05,
1f,
08,
08,
30,
26,
ff,
10,
fa,
eb,
08,
23,
20,
09,
04,
3e,
36,
0e,
24,
42,
d1,
b4,
f9,
26,
b7,
f6,
69,
df,
cf,
cc,
b9,
f5,
19,
b9,
f3,
07,
14,
ce,
e1,
f7,
f7,
06,
f7,
16,
05,
07,
13,
e1,
dc,
fa,
e4,
cf,
02,
13,
d3,
fc,
3d,
da,
f9,
48,
13,
fc,
1f,
42,
eb,
08,
ff,
0f,
08,
f1,
dc,
0e,
0c,
03,
d4,
2d,
3b,
b5,
f9,
39,
e2,
dc,
1a,
24,
d6,
19,
0b,
ec,
e0,
f9,
27,
d7,
2e,
f0,
df,
20,
0b,
cf,
22,
f9,
d4,
1b,
fa,
0d,
20,
f3,
0d,
17,
de,
1d,
f9,
0a,
23,
de,
07,
1e,
ef,
0a,
f1,
05,
fb,
e2,
0c,
f4,
ec,
03,
11,
0f,
e5,
ed,
db,
ef,
08,
dd,
ed,
1e,
fa,
f9,
00,
15,
ea,
f6,
21,
f2,
e4,
f6,
f8,
ec,
ef,
f1,
e6,
e6,
02,
09,
db,
06,
20,
ae,
03,
17,
b3,
14,
0e,
97,
0f,
24,
d7,
f8,
07,
f0,
16,
fa,
15,
16,
ba,
32,
04,
ae,
0d,
1e,
ad,
06,
31,
fb,
f3,
24,
f3,
f0,
27,
f6,
eb,
00,
da,
ed,
0c,
df,
03,
0b,
e9,
06,
26,
e9,
95,
31,
08,
81,
16,
0a,
a9,
1b,
21,
01,
0e,
1c,
f4,
11,
04,
ec,
f7,
04,
02,
06,
06,
00,
11,
0b,
03,
0e,
fa,
fd,
24,
fe,
f2,
23,
ee,
e8,
ff,
e5,
1d,
04,
e9,
2d,
f7,
e5,
f6,
08,
f9,
04,
f8,
dd,
14,
ea,
d9,
18,
f5,
d4,
2f,
fc,
e8,
0a,
ff,
fa,
f7,
f0,
f4,
fe,
f1,
ea,
f4,
ff,
f5,
f4,
e9,
fa,
15,
ef,
fd,
20,
fa,
f3,
24,
f7,
e0,
14,
03,
ee,
12,
09,
d8,
e3,
02,
0a,
e9,
05,
fd,
fd,
29,
0e,
ff,
18,
f0,
f8,
1a,
ff,
f1,
18,
fd,
e4,
02,
1c,
b5,
0e,
08,
ce,
ff,
0a,
cb,
f2,
0e,
1b,
0a,
f7,
1b,
00,
e8,
09,
12,
1b,
e4,
14,
18,
eb,
1f,
0f,
ce,
f3,
ca,
c0,
ec,
dc,
e0,
eb,
dc,
ce,
1d,
ff,
db,
19,
0d,
dd,
15,
12,
f1,
12,
f4,
fa,
22,
f6,
f2,
25,
09,
e9,
10,
06,
d6,
11,
17,
b5,
15,
34,
dd,
05,
ef,
fc,
10,
f9,
ee,
f9,
f3,
f6,
20,
dd,
ea,
07,
eb,
11,
21,
15,
12,
24,
47,
f8,
04,
11,
17,
d3,
de,
db,
1f,
0c,
12,
d2,
f9,
14,
94,
bb,
ff,
f1,
d8,
d9,
18,
f3,
d3,
f8,
e2,
00,
12,
0e,
22,
d4,
f0,
e3,
bb,
b3,
e3,
04,
08,
1c,
f7,
f5,
fa,
f9,
f1,
14,
0d,
e9,
13,
f0,
d4,
17,
24,
c6,
03,
1a,
1e,
02,
18,
40,
33,
1d,
ff,
23,
ff,
02,
3c,
04,
ff,
1f,
fa,
df,
e9,
df,
fc,
dd,
08,
a9,
f9,
59,
da,
cd,
ec,
15,
35,
e7,
ea,
fc,
d7,
f0,
e7,
eb,
0a,
26,
b7,
dc,
2d,
e8,
e2,
40,
ef,
e9,
22,
39,
21,
5b,
30,
55,
1e,
18,
01,
06,
02,
f1,
df,
cb,
1d,
dd,
40,
12,
fe,
1e,
5f,
04,
09,
52,
1b,
ea,
f0,
e7,
03,
03,
d9,
38,
05,
fa,
d6,
2a,
3e,
da,
e5,
3c,
ba,
c6,
13,
ee,
e4,
fc,
ec,
ae,
0b,
03,
b2,
c5,
f8,
f0,
f3,
e6,
d8,
ce,
f0,
15,
0e,
e7,
ea,
23,
ff,
e1,
12,
f7,
ef,
e7,
32,
3b,
18,
07,
14,
df,
07,
35,
11,
1f,
23,
d7,
fe,
1e,
d8,
f9,
13,
ec,
19,
2d,
f9,
00,
46,
06,
f5,
44,
36,
2a,
04,
02,
3c,
fc,
d5,
19,
4d,
0e,
1d,
fb,
e2,
1b,
19,
dc,
13,
44,
3a,
14,
32,
35,
cf,
e4,
20,
cb,
c6,
ec,
e0,
d7,
df,
ef,
e2,
e1,
f8,
f5,
e6,
f7,
fd,
01,
da,
01,
ff,
c9,
f4,
1a,
ee,
d3,
b7,
40,
15,
e8,
ff,
f3,
0d,
b6,
da,
07,
81,
be,
e3,
a1,
ca,
00,
0f,
e0,
ce,
ef,
a7,
8b,
3d,
29,
c5,
03,
d7,
d9,
ed,
e1,
ef,
04,
fc,
10,
cd,
cd,
e3,
ed,
e1,
e4,
e7,
fb,
fa,
04,
13,
03,
29,
1e,
1a,
dd,
00,
f2,
ed,
07,
16,
f2,
f7,
0c,
e8,
e8,
ff,
10,
e4,
c3,
e0,
f3,
f3,
25,
33,
15,
01,
e6,
fd,
f8,
10,
13,
ed,
fd,
f3,
f5,
14,
29,
f8,
1d,
1c,
f4,
17,
25,
19,
fe,
10,
09,
00,
f5,
e6,
3b,
2d,
d3,
c5,
d0,
d1,
dc,
c4,
ed,
11,
1b,
f4,
1d,
13,
04,
21,
3e,
ed,
f4,
eb,
a4,
cc,
03,
9b,
b6,
b6,
b6,
ba,
f0,
1c,
04,
1e,
21,
ff,
1e,
df,
c4,
f0,
15,
fb,
1b,
54,
38,
1d,
41,
3f,
46,
03,
dc,
dc,
e1,
c5,
d7,
09,
02,
ec,
ea,
f3,
1c,
e9,
d5,
e1,
36,
4c,
42,
1c,
11,
05,
0a,
1c,
27,
0a,
16,
10,
3e,
fb,
00,
f1,
f6,
fe,
0d,
f1,
d6,
0e,
46,
37,
3a,
5b,
1a,
2c,
d8,
b9,
15,
2e,
12,
25,
37,
43,
fd,
0f,
45,
e9,
ed,
fd,
08,
24,
fa,
f3,
0a,
f8,
4e,
45,
0e,
48,
15,
e1,
19,
10,
cb,
24,
26,
20,
f1,
06,
0c,
d6,
db,
df,
d9,
ca,
b4,
da,
e4,
e4,
d6,
ab,
95,
e4,
dc,
b4,
b6,
bb,
96,
30,
26,
0b,
fe,
05,
08,
0f,
f0,
ec,
00,
da,
d6,
22,
e9,
d6,
2a,
e1,
d0,
f5,
ca,
ea,
3d,
44,
15,
e5,
2f,
3f,
a6,
b6,
08,
cb,
d5,
c5,
c2,
bc,
ca,
49,
43,
31,
02,
08,
fc,
f2,
f0,
e9,
eb,
d5,
e9,
0e,
f4,
01,
b8,
e1,
4e,
4f,
50,
20,
29,
33,
1d,
20,
05,
11,
29,
7f,
24,
0b,
f5,
d8,
03,
d7,
be,
c3,
da,
f2,
2a,
0a,
ee,
22,
16,
f6,
f9,
f6,
d5,
1d,
38,
ff,
de,
8a,
90,
e3,
ee,
05,
0d,
09,
26,
fd,
d7,
cd,
cf,
0e,
f6,
04,
02,
00,
ec,
17,
03,
11,
ef,
02,
02,
ff,
0b,
1a,
0d,
17,
03,
1b,
49,
1a,
13,
ab,
ba,
81,
d4,
b8,
16,
45,
0d,
ff,
15,
0f,
10,
07,
ff,
03,
f8,
f6,
fc,
f9,
ea,
b6,
da,
ee,
ef,
f3,
ea,
e4,
0f,
0b,
01,
dd,
d3,
e8,
e6,
1c,
0e,
f7,
0a,
f0,
01,
05,
0c,
21,
10,
27,
f4,
f2,
11,
16,
31,
f9,
f3,
17,
f1,
d2,
ec,
c1,
e0,
e4,
fc,
22,
fd,
eb,
fe,
c3,
c7,
e1,
22,
16,
13,
e8,
00,
e3,
14,
3d,
2b,
2c,
22,
fc,
1c,
10,
e0,
0c,
0e,
f8,
e6,
d7,
d3,
f2,
d2,
c2,
ce,
b2,
db,
01,
16,
3b,
fb,
02,
22,
21,
05,
e1,
26,
17,
09,
35,
04,
e8,
df,
af,
cd,
ec,
e4,
10,
27,
24,
f1,
f9,
c3,
e5,
cf,
0f,
13,
08,
f1,
af,
d5,
19,
29,
2a,
0a,
c1,
24,
21,
19,
06,
e2,
eb,
8e,
c1,
16,
11,
f1,
de,
e0,
da,
0d,
f3,
f0,
02,
ed,
01,
dc,
f6,
06,
03,
37,
30,
e7,
15,
0c,
16,
fc,
07,
0b,
ed,
f5,
0d,
05,
ff,
17,
19,
04,
ef,
dc,
dc,
f4,
fb,
04,
25,
08,
27,
1e,
00,
db,
c6,
15,
ea,
0d,
e2,
d3,
ff,
fc,
fc,
fa,
f3,
1b,
f7,
09,
ec,
ee,
fa,
0a,
ef,
1c,
22,
09,
df,
d2,
e6,
d5,
f7,
f9,
fb,
00,
25,
3d,
48,
0f,
03,
08,
13,
13,
23,
f8,
e0,
c1,
b5,
d6,
f0,
15,
df,
17,
05,
ca,
01,
2f,
eb,
1c,
c1,
02,
d3,
f2,
04,
e4,
ae,
06,
da,
d8,
06,
12,
2e,
ec,
33,
1f,
0a,
07,
00,
ef,
f7,
f3,
f8,
00,
16,
0f,
0e,
ee,
10,
19,
04,
db,
df,
04,
04,
16,
02,
0d,
00,
03,
1c,
0e,
03,
29,
1d,
01,
dd,
e5,
03,
12,
eb,
dd,
f8,
18,
f8,
0b,
0f,
2e,
ce,
9f,
bf,
2b,
15,
c4,
16,
15,
01,
ea,
11,
47,
19,
f8,
e0,
06,
f9,
03,
d4,
f8,
0f,
f1,
f9,
e1,
d6,
e9,
23,
ee,
8a,
81,
19,
0e,
c9,
fe,
11,
05,
0d,
fb,
e1,
fb,
fa,
e5,
f4,
1f,
17,
18,
2b,
0d,
e4,
04,
fe,
ef,
fe,
0f,
e2,
e3,
ee,
f3,
ff,
00,
f7,
06,
15,
08,
eb,
ec,
0c,
0b,
ec,
ff,
01,
d8,
f7,
1c,
f6,
0e,
ef,
14,
18,
1c,
2c,
fc,
ec,
05,
03,
f3,
ca,
e9,
f0,
07,
fb,
b6,
cd,
17,
e7,
c1,
03,
10,
19,
0e,
d9,
e0,
06,
05,
03,
bc,
e7,
38,
f2,
b2,
9f,
29,
1f,
f7,
ce,
cd,
0f,
10,
27,
c4,
f7,
f6,
02,
c6,
09,
0c,
e1,
d6,
05,
11,
0d,
e9,
e3,
e3,
01,
09,
0c,
e0,
02,
fb,
31,
05,
da,
fd,
fc,
f3,
fa,
ff,
f5,
fd,
28,
1b,
08,
21,
3a,
43,
09,
0d,
25,
e6,
fe,
02,
0b,
df,
ec,
11,
10,
17,
fa,
e7,
e1,
0a,
0a,
fa,
fe,
05,
2e,
d6,
ae,
cc,
20,
df,
b8,
ff,
fe,
0e,
e5,
10,
02,
04,
f7,
0b,
09,
fb,
f8,
e2,
e5,
f9,
ef,
ea,
cc,
ee,
f6,
fd,
00,
e1,
c7,
02,
da,
d9,
07,
f2,
0d,
18,
16,
0e,
f7,
11,
16,
16,
19,
12,
d1,
d4,
10,
01,
b7,
b2,
31,
36,
1c,
ff,
13,
f1,
ec,
ef,
19,
f3,
ec,
03,
74,
67,
17,
19,
1c,
65,
22,
19,
25,
d1,
be,
c6,
1f,
e9,
a0,
ee,
f1,
c3,
20,
1f,
28,
16,
ee,
2a,
25,
fa,
3c,
ea,
ef,
00,
f9,
0e,
e6,
f6,
15,
09,
0c,
57,
03,
1f,
45,
47,
fe,
22,
44,
d4,
d0,
58,
ef,
10,
56,
0f,
51,
16,
ef,
19,
0f,
f2,
c5,
f3,
e4,
c9,
e2,
f9,
fc,
d5,
fd,
f4,
e2,
29,
0e,
1a,
b7,
bf,
d4,
03,
a9,
ba,
1d,
e5,
e9,
2a,
e3,
eb,
d2,
d6,
dd,
dc,
e0,
cb,
7a,
52,
f3,
38,
61,
35,
13,
0b,
2d,
01,
03,
e9,
cf,
f2,
1c,
c7,
ce,
40,
ea,
9a,
ef,
4d,
d6,
a1,
30,
15,
fb,
25,
18,
da,
f9,
c4,
ad,
14,
ea,
c8,
03,
cc,
f7,
f5,
9b,
b3,
16,
e8,
c2,
ee,
d7,
09,
fb,
c7,
28,
f1,
08,
02,
21,
31,
12,
10,
0e,
e0,
f4,
d7,
34,
db,
f7,
42,
12,
f3,
fd,
19,
0e,
fc,
25,
d5,
8a,
bb,
dc,
df,
ca,
d6,
16,
f7,
19,
fd,
04,
09,
d5,
e8,
e3,
de,
17,
d7,
e9,
2b,
01,
f6,
31,
e7,
e7,
21,
02,
06,
08,
40,
59,
02,
3f,
32,
23,
fe,
d4,
06,
f5,
bf,
29,
24,
1e,
dc,
f3,
22,
2b,
d4,
a1,
20,
d8,
c0,
e8,
f6,
d8,
e3,
e8,
27,
01,
02,
15,
f3,
12,
f8,
05,
0b,
37,
e0,
e9,
09,
ea,
21,
37,
fa,
06,
1a,
f6,
f8,
29,
f2,
f6,
1e,
00,
3a,
14,
14,
02,
1f,
cb,
f2,
50,
ff,
11,
06,
42,
2e,
39,
0b,
1d,
e3,
06,
27,
20,
f4,
1f,
10,
be,
be,
fb,
00,
e2,
7f,
03,
41,
6a,
0b,
e1,
0c,
1b,
f2,
fa,
1f,
2f,
10,
04,
12,
09,
f1,
1c,
12,
c1,
0a,
fa,
f7,
ee,
0a,
7f,
fd,
00,
2a,
58,
3a,
bc,
ff,
f7,
c5,
cc,
dc,
f8,
e6,
e5,
06,
fa,
09,
0c,
f1,
0b,
22,
f7,
eb,
1a,
2d,
f8,
f9,
2a,
18,
f2,
ed,
fe,
13,
13,
12,
e6,
fd,
08,
d7,
c3,
d2,
0f,
0e,
fc,
24,
14,
09,
06,
04,
0f,
ff,
0c,
08,
f8,
0f,
1d,
1c,
fb,
26,
fb,
1a,
18,
cd,
e7,
25,
d2,
c7,
fa,
f5,
09,
14,
36,
ff,
0a,
11,
2b,
08,
11,
eb,
d1,
27,
13,
e9,
10,
35,
d6,
31,
17,
08,
23,
f8,
ee,
11,
ff,
f7,
e0,
13,
17,
c2,
1e,
31,
e7,
02,
21,
db,
06,
15,
9e,
d2,
04,
f5,
cf,
e9,
f1,
f2,
04,
d1,
11,
20,
ef,
df,
1e,
f9,
fa,
fd,
c2,
f7,
14,
c7,
c2,
06,
23,
18,
eb,
0c,
16,
fb,
eb,
ef,
d8,
df,
fe,
fe,
a1,
f4,
0a,
df,
be,
c2,
f4,
00,
0d,
cd,
fd,
06,
05,
ec,
fa,
23,
1b,
06,
26,
44,
09,
15,
4f,
46,
02,
f5,
f8,
eb,
de,
e2,
e3,
e7,
e3,
f4,
fb,
e2,
17,
f3,
e8,
28,
f2,
b3,
f4,
f0,
03,
fc,
0d,
f6,
23,
23,
1d,
f2,
f0,
f8,
c6,
d5,
0b,
09,
cc,
d3,
e7,
f7,
e7,
fe,
e3,
f5,
25,
29,
ed,
ee,
f4,
ed,
4b,
cf,
f0,
1a,
1e,
ed,
f5,
05,
f3,
f9,
1b,
08,
19,
f2,
fa,
fd,
0e,
ec,
e5,
f1,
fb,
0e,
e6,
f5,
04,
0e,
01,
c8,
df,
f1,
db,
e2,
e4,
fb,
25,
06,
11,
16,
10,
0c,
09,
09,
e2,
1b,
04,
bb,
d5,
01,
0c,
e5,
f6,
f3,
0b,
09,
02,
f5,
f5,
f7,
12,
29,
fd,
d8,
e1,
d7,
de,
df,
db,
b4,
b7,
2a,
27,
f4,
0c,
23,
e7,
0b,
0a,
f6,
d2,
cc,
f4,
e9,
c2,
e9,
ee,
ce,
d2,
5f,
ef,
ee,
50,
f2,
bb,
3f,
fc,
ec,
fb,
09,
0d,
f1,
e6,
ea,
18,
ff,
06,
1a,
f5,
fa,
fa,
d9,
fa,
dc,
f2,
07,
f5,
ce,
d7,
0a,
e9,
e2,
25,
f4,
01,
81,
d0,
eb,
a2,
d0,
07,
1a,
37,
45,
bb,
c7,
aa,
c3,
b3,
c7,
c8,
cd,
e9,
fc,
b3,
db,
0e,
e6,
f2,
14,
06,
d2,
fe,
32,
05,
0c,
5e,
36,
f8,
1c,
28,
05,
28,
0b,
0f,
39,
24,
1b,
6c,
3f,
e3,
25,
3c,
f1,
1e,
4f,
e6,
ed,
03,
d3,
c7,
c3,
ab,
ab,
c2,
ee,
c6,
ee,
b4,
08,
fd,
e1,
e4,
fb,
fb,
c8,
e6,
be,
c1,
ff,
bf,
ad,
00,
dd,
c1,
2f,
03,
ba,
be,
15,
e9,
d8,
1e,
10,
ca,
f9,
06,
fd,
0a,
27,
1c,
12,
6b,
36,
0a,
06,
ef,
05,
06,
eb,
ef,
2a,
02,
05,
42,
17,
fd,
10,
1d,
ec,
10,
fa,
e9,
f1,
ee,
ef,
ee,
d8,
fa,
b6,
c2,
63,
16,
0f,
34,
da,
f4,
da,
e0,
cb,
d4,
33,
5a,
cc,
d9,
14,
fb,
f8,
29,
ee,
ce,
e4,
df,
cd,
02,
b4,
cc,
dd,
ed,
52,
15,
ac,
f7,
24,
a1,
c0,
20,
f4,
b4,
e1,
3b,
c3,
da,
f2,
c2,
cd,
fd,
d7,
ee,
df,
fb,
08,
b4,
f4,
e4,
11,
15,
f4,
e2,
42,
18,
aa,
21,
15,
d7,
db,
ed,
ae,
af,
e2,
d5,
f4,
0e,
00,
e3,
ea,
ec,
e5,
da,
ce,
b3,
e2,
e7,
4d,
09,
e9,
16,
1f,
c6,
05,
0b,
9a,
c1,
c2,
c0,
e8,
0f,
43,
15,
39;
