memory_initialization_radix=16;
memory_initialization_vector=
07,
fb,
fe,
06,
e3,
f3,
02,
fe,
04,
0b,
0d,
05,
02,
ff,
f8,
fe,
eb,
f6,
f9,
f7,
fc,
f3,
03,
f9,
0b,
0b,
0a,
09,
f4,
15,
ea,
57,
28,
02,
ee,
03,
fb,
eb,
f3,
ed,
ee,
ee,
f8,
fe,
f6,
f6,
ee,
01,
f5,
ee,
fe,
f4,
ed,
fa,
f9,
01,
07,
fd,
01,
02,
fc,
02,
03,
f0,
2d,
09,
cd,
7f,
fe,
06,
00,
12,
fb,
fb,
fa,
0f,
0a,
0c,
f7,
09,
fe,
00,
fc,
00,
f3,
f5,
f4,
fb,
f1,
fa,
0a,
0f,
ff,
03,
f1,
fa,
fa,
f0,
f4,
0a,
ff,
03,
ef,
f4,
f3,
02,
01,
04,
f0,
04,
01,
ea,
fa,
01,
fc,
fe,
fd,
f2,
f3,
f0,
de,
ec,
f9,
f4,
03,
02,
0a,
f3,
05,
16,
e3,
09,
07,
0e,
01,
fb,
ff,
fa,
f8,
f5,
fe,
f7,
fe,
fb,
01,
05,
fe,
03,
03,
04,
fd,
fe,
f8,
fd,
f7,
fc,
04,
fc,
05,
05,
ff,
ff,
05,
fc,
fb,
05,
ec,
fb,
01,
07,
02,
05,
fb,
f2,
06,
f2,
f9,
00,
07,
ff,
01,
ec,
01,
f3,
d0,
f2,
fc,
f5,
01,
f7,
fe,
fd,
03,
06,
ff,
02,
0c,
09,
01,
02,
03,
0c,
f8,
00,
04,
09,
02,
ff,
04,
04,
07,
ed,
06,
fd,
fd,
ff,
f0,
05,
fc,
fa,
f9,
f5,
07,
fc,
05,
02,
ea,
fb,
f3,
d2,
e0,
f1,
c1,
d1,
04,
fe,
ee,
08,
ed,
fa,
08,
ae,
f6,
e2,
e7,
f1,
35,
71,
71,
00,
fa,
0f,
0a,
19,
22,
f1,
43,
12,
fc,
2a,
10,
00,
fa,
d9,
12,
f8,
d9,
10,
0d,
f7,
ec,
14,
0f,
e4,
f8,
13,
e8,
08,
ff,
1d,
1b,
19,
5c,
7f,
6b,
e8,
c1,
ee,
f2,
16,
06,
e2,
fd,
07,
dc,
2c,
0a,
09,
06,
0a,
05,
0e,
0b,
03,
f1,
09,
f1,
f1,
f8,
f7,
e8,
ed,
f4,
fb,
fe,
f7,
f0,
f5,
0c,
0b,
03,
ff,
ea,
f0,
27,
ed,
f2,
27,
ed,
f5,
2c,
0f,
0c,
03,
11,
f3,
15,
12,
fc,
11,
05,
f7,
f9,
07,
0e,
03,
ed,
21,
f7,
19,
1a,
0c,
18,
05,
0b,
0b,
0c,
0d,
1a,
ff,
09,
15,
00,
0f,
01,
0e,
08,
05,
02,
12,
0d,
01,
01,
fe,
f8,
fd,
ef,
fe,
12,
13,
00,
14,
fb,
fb,
0a,
09,
fa,
19,
05,
f5,
04,
df,
d8,
27,
20,
f5,
e6,
fc,
fe,
07,
0a,
ff,
fd,
09,
0e,
f4,
0a,
08,
ef,
f7,
f4,
06,
f6,
05,
fc,
f4,
00,
f6,
f2,
fc,
e6,
f5,
ff,
fb,
fe,
00,
f7,
00,
0e,
f9,
30,
01,
f5,
05,
03,
ff,
0a,
03,
e9,
fe,
05,
e3,
ca,
db,
01,
df,
02,
f0,
17,
ff,
0f,
ec,
06,
22,
27,
0f,
04,
2d,
04,
07,
12,
1c,
51,
22,
52,
41,
62,
54,
0c,
14,
07,
f2,
05,
0e,
e5,
f1,
07,
ff,
08,
0a,
0f,
37,
16,
04,
20,
11,
fc,
17,
06,
0f,
0f,
10,
e8,
01,
03,
52,
72,
43,
66,
7f,
44,
20,
31,
20,
fe,
0a,
f7,
fe,
f9,
e8,
e5,
9a,
e8,
02,
13,
f4,
09,
17,
f5,
0b,
22,
02,
07,
fb,
05,
04,
21,
07,
fe,
f5,
f7,
ee,
f8,
e8,
ff,
0b,
ff,
02,
01,
09,
f0,
ef,
e1,
fc,
13,
de,
ff,
de,
e7,
15,
2a,
f7,
1a,
44,
06,
1b,
47,
f5,
ff,
00,
ff,
11,
1b,
03,
fd,
fa,
0e,
03,
1f,
f2,
fb,
03,
e5,
ff,
fb,
e3,
ec,
01,
eb,
ee,
03,
f1,
f8,
fc,
fd,
fb,
0d,
06,
07,
27,
06,
ed,
f7,
ed,
03,
0e,
ee,
f9,
00,
ee,
f7,
de,
e8,
e2,
d0,
de,
eb,
04,
e9,
cb,
ca,
c9,
01,
fc,
02,
0d,
1b,
0c,
f9,
26,
09,
03,
0b,
fe,
11,
1e,
15,
00,
29,
12,
ef,
f1,
ff,
fd,
fb,
07,
f2,
f0,
03,
f7,
06,
01,
f8,
09,
fa,
ed,
e1,
f6,
ef,
f1,
f1,
ed,
fd,
eb,
fe,
01,
f3,
0e,
fb,
0f,
21,
7f,
1f,
16,
f0,
fa,
00,
e9,
f8,
f2,
0d,
d9,
fb,
18,
04,
15,
1b,
08,
e2,
d8,
cb,
cd,
9e,
b0,
47,
11,
32,
39,
de,
16,
42,
09,
32,
18,
1f,
28,
35,
3d,
35,
38,
48,
47,
df,
07,
ed,
e7,
0e,
e1,
02,
05,
f1,
2b,
31,
f9,
fe,
ca,
e4,
05,
c7,
04,
17,
d9,
19,
16,
1b,
fc,
01,
e4,
f7,
0a,
0d,
17,
18,
fc,
15,
05,
08,
1d,
10,
f0,
02,
fa,
07,
0a,
2d,
24,
34,
0b,
3c,
05,
05,
0a,
05,
01,
12,
fa,
0a,
4c,
09,
ec,
2d,
e1,
13,
04,
03,
e3,
b2,
e5,
e5,
ba,
d5,
0e,
0a,
0b,
ce,
12,
12,
f9,
59,
27,
f4,
eb,
f3,
e0,
29,
06,
e1,
2b,
12,
03,
1b,
0a,
20,
f2,
09,
ff,
02,
f8,
0a,
02,
11,
16,
05,
14,
2d,
40,
23,
e8,
de,
ec,
f7,
fe,
00,
fa,
17,
eb,
06,
0f,
18,
e4,
df,
e3,
0b,
b6,
ec,
05,
0e,
f4,
f2,
e7,
16,
e8,
c8,
eb,
f6,
e0,
03,
cf,
bf,
c6,
f7,
1e,
ef,
e8,
f1,
e4,
07,
f0,
f9,
f9,
14,
0e,
0c,
12,
03,
05,
29,
fc,
14,
f0,
05,
ff,
eb,
ec,
00,
f5,
05,
f6,
d1,
f6,
f8,
0c,
fc,
08,
08,
05,
04,
f1,
01,
06,
d7,
04,
f2,
ee,
f5,
eb,
b6,
f7,
f4,
ad,
fd,
f8,
fd,
f8,
f3,
e8,
f1,
f2,
ff,
f6,
08,
08,
09,
0f,
02,
03,
07,
fd,
f9,
f8,
f5,
f1,
f0,
ff,
e7,
f5,
f7,
ef,
05,
06,
07,
0c,
19,
05,
ff,
0b,
08,
ec,
e1,
f0,
02,
ce,
f8,
08,
25,
fa,
03,
06,
06,
ff,
21,
fd,
01,
36,
fd,
00,
0a,
fc,
13,
12,
10,
f8,
e2,
fb,
07,
fc,
06,
10,
f1,
10,
09,
e7,
fa,
01,
05,
03,
f8,
de,
f9,
13,
21,
12,
fd,
fd,
04,
f3,
e4,
f7,
eb,
00,
f4,
fa,
f5,
fb,
05,
f8,
09,
17,
11,
0d,
fa,
07,
fb,
17,
2f,
14,
0b,
c9,
fc,
03,
04,
ff,
04,
0d,
ff,
fa,
1e,
fd,
0b,
02,
08,
0c,
26,
06,
fe,
13,
fe,
01,
ff,
06,
ef,
ee,
e8,
00,
f5,
ff,
fd,
f6,
fd,
04,
e6,
fb,
f3,
19,
fd,
0a,
03,
09,
f0,
9f,
ee,
f0,
7f,
08,
fe,
fe,
fb,
fb,
c4,
ec,
08,
07,
fe,
fb,
fa,
f6,
fc,
fe,
00,
01,
fa,
05,
03,
fd,
02,
ff,
f8,
07,
f9,
f5,
0b,
05,
02,
00,
07,
f7,
ff,
f5,
10,
f7,
f9,
fe,
08,
f7,
e9,
03,
fe,
03,
fd,
00,
e3,
de,
f6,
f9,
f4,
01,
df,
f5,
00,
0d,
03,
ff,
18,
f2,
05,
e9,
ef,
04,
0c,
f8,
08,
0b,
16,
f5,
e4,
e9,
de,
f8,
0c,
ea,
ea,
16,
f2,
fc,
05,
ed,
05,
19,
f1,
f3,
12,
fb,
f8,
fe,
02,
f7,
fc,
fd,
02,
f1,
08,
12,
04,
fb,
2c,
16,
f3,
ff,
05,
05,
fa,
ef,
02,
f8,
03,
04,
81,
d8,
fe,
0d,
01,
f2,
04,
f1,
f0,
19,
fd,
f1,
fa,
06,
f8,
00,
ed,
ff,
ec,
ea,
ef,
e5,
f5,
0e,
05,
08,
04,
e9,
e6,
04,
ff,
03,
ec,
09,
03,
e8,
18,
f7,
05,
f9,
ff,
0d,
11,
08,
fc,
4e,
f9,
f8,
e9,
0b,
10,
b4,
ca,
26,
95,
84,
08,
19,
fa,
0b,
fe,
ee,
00,
fd,
e3,
05,
0a,
06,
ff,
f4,
0a,
03,
06,
04,
00,
00,
04,
fa,
06,
15,
0c,
08,
04,
03,
fa,
ff,
02,
f9,
01,
f9,
f1,
ef,
fb,
f9,
fd,
f2,
33,
27,
e4,
38,
4c,
ff,
0b,
23,
05,
03,
05,
00,
fb,
42,
03,
02,
04,
08,
f8,
f5,
04,
02,
0f,
00,
f5,
04,
01,
f5,
00,
01,
c0,
f0,
f7,
fc,
00,
f9,
02,
01,
fc,
f6,
fd,
f4,
04,
fb,
f5,
08,
13,
f0,
fc,
fb,
ff,
f3,
0f,
a6,
95,
bf,
fe,
1b,
d8,
0c,
04,
0b,
18,
03,
24,
27,
5b,
1c,
fb,
24,
01,
d9,
ab,
c4,
f0,
c9,
e2,
fa,
f5,
fa,
09,
1a,
ec,
1b,
2c,
f5,
18,
21,
f2,
ff,
1d,
17,
0d,
29,
06,
f9,
13,
fe,
ce,
d8,
de,
ec,
01,
f7,
ec,
01,
04,
e5,
bd,
ec,
d8,
bd,
e3,
ed,
f5,
fb,
d2,
c5,
01,
f4,
e2,
de,
01,
cf,
f5,
0e,
04,
dd,
09,
f0,
10,
1e,
13,
09,
19,
2b,
fd,
f7,
1e,
f2,
b6,
d0,
ca,
f9,
d0,
00,
dd,
d8,
f4,
ec,
e8,
fb,
f4,
f4,
ba,
da,
05,
d6,
ed,
f7,
fb,
4e,
28,
50,
2e,
ff,
05,
04,
fe,
f0,
ad,
81,
c2,
c1,
91,
a9,
da,
aa,
ff,
d7,
d9,
07,
ea,
fd,
02,
e0,
fb,
31,
ed,
cf,
f5,
03,
fd,
e2,
07,
fb,
fa,
e2,
ef,
cb,
22,
35,
f6,
da,
df,
ec,
f6,
f9,
29,
e5,
08,
f5,
f2,
f1,
fa,
40,
47,
11,
2e,
2a,
fa,
02,
ff,
ff,
f4,
1a,
f7,
d6,
21,
0a,
f0,
0e,
08,
fa,
de,
3a,
f4,
22,
0f,
fa,
14,
13,
f4,
ee,
09,
fb,
ff,
04,
05,
00,
f8,
05,
1b,
f0,
fb,
e6,
f7,
01,
f6,
0b,
05,
fb,
ff,
ff,
35,
12,
ff,
f7,
01,
1c,
0f,
1a,
04,
22,
01,
09,
1b,
10,
da,
da,
d5,
02,
3f,
f8,
ff,
1d,
0e,
e5,
ef,
e6,
fb,
0c,
fe,
08,
01,
ff,
cd,
fd,
cd,
9c,
20,
b3,
d5,
09,
ca,
dd,
03,
c9,
0e,
54,
2e,
fc,
23,
03,
fa,
0a,
15,
e2,
23,
14,
f4,
05,
14,
02,
19,
11,
f3,
29,
13,
fe,
f1,
02,
fd,
0b,
02,
f0,
98,
f9,
f6,
d5,
ff,
f3,
0b,
f3,
f0,
14,
c3,
ed,
d3,
e3,
f3,
d6,
eb,
06,
37,
fb,
e7,
e3,
e7,
e4,
e0,
e4,
0a,
0a,
ef,
f4,
e9,
e3,
0e,
2f,
fd,
18,
7f,
f7,
08,
fe,
08,
f1,
af,
e9,
f0,
b2,
a7,
06,
04,
e8,
0a,
f8,
f9,
0d,
41,
19,
0f,
fc,
10,
02,
00,
f6,
fc,
25,
d1,
12,
02,
f9,
f7,
1e,
ef,
fd,
1c,
fa,
f6,
08,
f4,
f0,
02,
f1,
14,
45,
13,
f2,
fb,
f4,
fe,
ee,
ef,
04,
19,
f1,
f6,
fb,
f6,
fd,
0a,
f7,
07,
41,
01,
fb,
f7,
fd,
ec,
f3,
ee,
01,
1f,
15,
f9,
f8,
f0,
14,
f7,
16,
03,
e6,
10,
07,
20,
04,
07,
ff,
f7,
fc,
ea,
20,
02,
f7,
fb,
f6,
12,
f4,
00,
f6,
06,
04,
00,
01,
fa,
fe,
ff,
00,
f6,
ff,
f8,
13,
fc,
04,
08,
06,
0d,
2e,
0e,
f6,
c5,
ef,
01,
00,
fe,
f1,
e9,
f5,
de,
81,
e5,
fc,
04,
02,
ec,
00,
f7,
06,
ec,
0a,
02,
f8,
ff,
17,
f0,
fe,
e1,
01,
e5,
01,
ef,
ff,
de,
c5,
d0,
ed,
e9,
e2,
fb,
fc,
02,
08,
0d,
06,
f3,
f7,
ff,
01,
fd,
fb,
fa,
d4,
fb,
12,
3c,
0c,
01,
04,
01,
fd,
fd,
02,
02,
29,
0c,
fa,
06,
fe,
02,
1c,
14,
01,
09,
fc,
08,
0d,
00,
06,
e3,
fe,
fe,
05,
fe,
ff,
00,
03,
02,
04,
0c,
f5,
00,
f3,
fc,
ff,
fd,
e1,
df,
fd,
1c,
44,
0b,
fe,
07,
f7,
14,
1d,
03,
e7,
cc,
db,
fc,
f7,
fd,
f3,
c3,
f8,
0b,
42,
0c,
03,
fe,
fe,
fd,
f9,
f7,
02,
15,
f8,
ff,
fc,
fb,
08,
06,
07,
06,
ff,
00,
00,
f6,
ff,
ec,
c6,
ec,
ed,
f4,
f6,
00,
fc,
ff,
fe,
e9,
fa,
fe,
0b,
f5,
0c,
04,
0c,
f6,
e6,
f4,
10,
1c,
0a,
fa,
fc,
fe,
fe,
05,
05,
f0,
18,
07,
fc,
07,
01,
f7,
f8,
f3,
f8,
cf,
fd,
01,
ff,
01,
fb,
eb,
fb,
fc,
00,
fb,
02,
fc,
03,
fa,
fc,
01,
fc,
19,
fe,
f5,
e9,
e8,
e8,
b2,
ec,
f6,
e2,
f7,
09,
12,
06,
16,
fe,
10,
f9,
f0,
fc,
f1,
de,
f9,
02,
de,
1e,
0b,
08,
2a,
f2,
08,
f5,
09,
e8,
03,
f3,
0c,
ff,
f3,
f9,
f5,
e4,
e4,
df,
fe,
f6,
f5,
e7,
c7,
bf,
eb,
ff,
ea,
f5,
d3,
db,
fa,
fe,
0a,
f7,
e1,
fa,
ef,
05,
0b,
10,
ed,
01,
18,
ae,
28,
06,
19,
05,
01,
fe,
09,
ec,
a3,
fd,
04,
f9,
f9,
ff,
17,
01,
f5,
f0,
f8,
04,
0c,
01,
13,
15,
04,
f6,
fd,
f6,
f0,
ea,
e8,
fe,
0e,
09,
1d,
14,
11,
05,
16,
0e,
f4,
c3,
0f,
e7,
b0,
0a,
0c,
f4,
0d,
0d,
05,
ed,
f4,
b7,
df,
01,
e7,
fb,
f1,
c0,
09,
f7,
81,
0f,
f5,
dc,
02,
02,
ec,
fc,
f5,
cd,
fa,
09,
04,
f6,
01,
f3,
fe,
fe,
f8,
f9,
fc,
02,
f8,
07,
dc,
fb,
fc,
ee,
f6,
fc,
e3,
ed,
f8,
e7,
f1,
f4,
9e,
f1,
f9,
e3,
f1,
f7,
e0,
06,
fa,
96,
03,
14,
da,
0d,
f7,
e7,
f0,
fa,
e7,
f7,
07,
f4,
05,
f6,
e0,
ff,
f8,
b2,
fc,
ff,
e7,
04,
f8,
f3,
f7,
f6,
d5,
07,
fa,
f3,
f4,
f5,
f6,
05,
f0,
e4,
f4,
f6,
ec,
f0,
01,
f7,
21,
f7,
f7,
f9,
02,
e9,
03,
0a,
ec,
ef,
0d,
00,
c7,
0e,
0f,
ef,
ee,
ff,
ee,
05,
1d,
e7,
02,
00,
e0,
ff,
01,
0c,
0a,
0e,
f7,
fa,
04,
13,
b2,
20,
0b,
de,
4d,
42,
cb,
26,
17,
09,
2a,
03,
25,
1f,
06,
11,
33,
1a,
f6,
0c,
05,
de,
1c,
fb,
fc,
10,
07,
f3,
13,
e4,
fd,
2b,
c7,
06,
08,
fa,
fd,
0b,
f0,
f6,
e8,
91,
01,
0b,
f9,
00,
14,
05,
dd,
fe,
39,
fa,
f0,
06,
01,
f6,
fd,
f9,
f5,
04,
f8,
fb,
18,
eb,
f9,
dd,
f6,
ef,
ac,
f3,
f8,
e0,
31,
1b,
e7,
44,
71,
bf,
1d,
0a,
f5,
d9,
fd,
02,
de,
40,
d1,
f3,
1c,
f0,
ef,
fb,
fc,
f3,
15,
cd,
f7,
ff,
fd,
10,
07,
e2,
29,
2c,
a3,
15,
0f,
f7,
05,
0e,
01,
f7,
12,
e3,
f5,
ff,
05,
04,
1e,
fe,
ff,
16,
f4,
e8,
06,
ea,
02,
f5,
fa,
14,
20,
a9,
ff,
fe,
f6,
f3,
14,
e1,
ed,
32,
81,
ee,
fc,
f2,
f4,
fc,
0b,
fa,
fb,
5d,
fb,
fb,
07,
fe,
f2,
0a,
01,
06,
01,
04,
fd,
fc,
0c,
07,
07,
09,
11,
29,
05,
03,
08,
fb,
00,
fe,
fa,
08,
f0,
fd,
02,
ff,
00,
f4,
0b,
16,
19,
04,
0d,
0d,
06,
f7,
cc,
e4,
1c,
2c,
1d,
0b,
4f,
32,
09,
0a,
0d,
2a,
16,
f7,
ed,
fb,
c3,
f9,
fc,
f9,
06,
f5,
ed,
22,
e9,
f4,
d8,
31,
0b,
c3,
26,
52,
81,
cf,
02,
25,
02,
f1,
0e,
3a,
31,
fb,
45,
4a,
0a,
e9,
ef,
07,
0a,
09,
fe,
dc,
fa,
10,
f7,
03,
fe,
fb,
fe,
f7,
e2,
ed,
10,
df,
e8,
0b,
2e,
29,
f2,
ed,
00,
e9,
45,
33,
f0,
17,
01,
ea,
c5,
d2,
20,
07,
11,
1f,
78,
57,
83,
d7,
b6,
02,
ec,
f1,
f5,
e8,
e2,
f4,
e8,
d3,
0c,
f3,
fb,
37,
fe,
b2,
fa,
19,
f0,
ec,
dc,
ee,
fd,
48,
14,
ee,
f1,
0c,
eb,
d0,
eb,
e4,
e7,
fb,
01,
12,
09,
37,
05,
c9,
04,
15,
de,
29,
0c,
d4,
f0,
ee,
04,
ee,
fa,
1c,
ed,
05,
07,
e9,
18,
13,
df,
3b,
22,
f9,
e6,
cb,
11,
f6,
0a,
1a,
2d,
21,
f7,
20,
0d,
e1,
e3,
eb,
c9,
f8,
15,
c4,
f4,
df,
ee,
f9,
f1,
05,
f2,
f7,
d5,
02,
08,
f7,
df,
dc,
15,
da,
e8,
1d,
1f,
17,
03,
17,
f9,
03,
18,
0f,
ed,
f4,
f9,
f2,
16,
11,
fa,
01,
14,
07,
06,
0e,
e5,
0e,
00,
d9,
ad,
ff,
f2,
ca,
06,
2c,
23,
28,
e6,
9e,
d6,
0f,
41,
2e,
e9,
e2,
cf,
d2,
dc,
c6,
e2,
f1,
d7,
bf,
b6,
dc,
1c,
4c,
36,
12,
32,
2b,
f0,
1a,
e8,
f1,
51,
26,
c6,
36,
1b,
c4,
c1,
c4,
97,
b1,
c6,
b0,
df,
ea,
f7,
2e,
05,
08,
24,
16,
fe,
fe,
f4,
0c,
f6,
04,
2d,
e4,
e8,
28,
d0,
12,
03,
28,
07,
f8,
12,
10,
22,
f4,
19,
0a,
10,
04,
19,
0a,
1b,
e6,
05,
03,
b5,
97,
d5,
50,
59,
3b,
0d,
26,
e1,
05,
ef,
fa,
a5,
81,
9e,
fb,
ba,
ef,
10,
11,
e0,
f1,
e8,
b6,
04,
c9,
a9,
ff,
0a,
ec,
62,
64,
19,
2c,
4e,
01,
0f,
0e,
fb,
c5,
d6,
bb,
c0,
b8,
c5,
f0,
35,
e9,
0f,
ee,
99,
02,
dc,
d4,
ee,
fa,
e8,
e1,
cc,
e6,
e0,
ed,
02,
06,
f9,
05,
af,
c3,
c2,
c9,
cd,
b6,
f9,
fa,
e3,
e7,
b5,
d2,
0f,
e4,
03,
01,
1c,
e3,
b2,
b3,
97,
cb,
9e,
b3,
0a,
25,
2f,
cf,
de,
1d,
07,
f4,
1d,
f6,
1d,
f7,
e3,
e7,
e3,
e8,
ee,
e0,
ef,
e3,
f9,
d8,
c6,
04,
ef,
dc,
03,
00,
06,
fa,
d3,
e7,
e9,
06,
e8,
11,
00,
f3,
08,
f8,
19,
06,
00,
05,
01,
20,
fb,
16,
21,
4c,
26,
30,
3b,
26,
ea,
05,
ec,
f6,
f9,
e0,
f6,
04,
f0,
fd,
ef,
f4,
ea,
df,
e4,
f0,
ee,
f2,
fa,
f0,
08,
08,
f2,
13,
ec,
ed,
f2,
02,
06,
00,
22,
15,
1a,
21,
27,
19,
ef,
01,
19,
dd,
00,
ef,
ed,
fd,
12,
eb,
cb,
db,
fd,
dc,
f4,
1e,
24,
11,
1b,
e2,
15,
f3,
ee,
01,
f9,
f5,
04,
fe,
13,
fa,
11,
33,
1b,
03,
0b,
04,
df,
12,
eb,
f3,
27,
fd,
d9,
e9,
db,
fd,
e8,
fd,
fe,
e5,
f2,
fa,
02,
f1,
1c,
1b,
15,
39,
3e,
11,
08,
06,
e8,
e3,
cd,
d5,
ec,
d7,
c4,
0b,
e6,
ec,
cf,
c5,
d4,
a6,
94,
a3,
b8,
91,
bd,
21,
03,
fc,
0f,
fd,
dc,
18,
0b,
f5,
16,
00,
11,
fa,
10,
f6,
f6,
01,
ed,
12,
07,
07,
10,
13,
03,
e9,
e3,
ed,
07,
ef,
05,
15,
0b,
fa,
05,
03,
f4,
25,
32,
39,
63,
7f,
56,
42,
5b,
2b,
f8,
f5,
f4,
ea,
09,
1c,
ea,
ec,
f4,
fe,
f8,
f6,
ff,
0d,
07,
19,
1b,
19,
13,
00,
fa,
fc,
07,
12,
f8,
11,
0a,
ff,
05,
fe,
07,
04,
00,
fe,
f7,
f9,
02,
08,
02,
00,
0b,
0a,
04,
04,
02,
f7,
00,
f8,
f0,
0e,
f2,
f3,
09,
fa,
ff,
0f,
fd,
08,
ef,
f3,
05,
26,
ff,
1d,
21,
24,
27,
b0,
d0,
18,
d9,
f1,
e6,
f2,
ed,
cd,
e9,
ea,
e2,
f1,
f5,
fb,
f2,
f7,
f3,
12,
06,
f6,
f4,
f1,
f9,
f6,
f7,
f2,
04,
01,
fe,
03,
04,
10,
d1,
f7,
23,
81,
d2,
1a,
ed,
10,
fc,
f8,
fb,
fe,
21,
12,
fb,
f3,
fd,
f5,
04,
fb,
12,
d0,
f6,
0a,
f8,
03,
fd,
f5,
f7,
06,
11,
0b,
f3,
e6,
ee,
02,
07,
04,
07,
eb,
ef,
fe,
f8,
fa,
ef,
03,
02,
d7,
17,
ff,
f4,
fa,
f9,
fb,
fa,
ff,
f5,
fb,
fe,
f9,
fe,
00,
06,
01,
03,
12,
f3,
ff,
06,
01,
02,
f7,
f2,
01,
f6,
0e,
03,
f8,
fe,
fc,
04,
fb,
fa,
ff,
08,
ff,
05,
fc,
fb,
08,
f9,
01,
0e,
19,
0c,
10,
03,
06,
fc,
01,
fd,
fc,
27,
06,
fb,
05,
f8,
ea,
0b,
f1,
f2,
6f,
11,
03,
1d,
fc,
ff,
fe,
02,
fa,
d7,
08,
01,
f6,
fc,
fa,
01,
00,
02,
15,
09,
02,
15,
02,
02,
04,
ff,
06,
08,
02,
fb,
0b,
fe,
fe,
02,
ff,
fe,
15,
06,
03,
f8,
02,
f0,
04,
f8,
0e,
0d,
0d,
02,
08,
fa,
07,
05,
f8,
23,
10,
12,
ed,
f5,
e9,
00,
fc,
f8,
16,
08,
10,
06,
10,
0a,
c1,
d0,
da,
8c,
92,
aa,
c4,
c3,
db,
eb,
15,
f9,
f9,
1d,
19,
f4,
12,
05,
ee,
fb,
ee,
15,
19,
13,
ff,
0d,
f6,
02,
14,
0e,
fe,
18,
03,
f9,
14,
05,
b5,
90,
9f,
a4,
81,
a0,
e5,
cc,
f3,
fb,
22,
08,
f5,
04,
08,
f6,
0d,
fd,
fc,
fc,
fa,
ef,
e9,
d6,
0e,
05,
fd,
10,
16,
0c,
09,
1c,
05,
ee,
fe,
ee,
ec,
dd,
e4,
ff,
ed,
f0,
f7,
d9,
e6,
06,
f6,
f2,
22,
24,
0a,
03,
00,
f8,
07,
00,
de,
0e,
0a,
f6,
13,
18,
ed,
1a,
20,
22,
0d,
30,
0f,
0b,
1d,
08,
08,
0d,
ef,
08,
11,
01,
0a,
10,
ed,
f9,
0c,
fb,
01,
06,
14,
00,
05,
06,
07,
13,
07,
0d,
0e,
10,
f6,
eb,
f0,
06,
ff,
f1,
25,
0d,
07,
0a,
fb,
f7,
15,
18,
06,
2e,
23,
34,
fd,
f6,
ff,
f6,
f9,
07,
1a,
0f,
1c,
fe,
0c,
08,
fc,
0a,
f5,
09,
13,
05,
06,
12,
fb,
f3,
fc,
0b,
f7,
f7,
12,
fa,
fb,
ff,
05,
00,
0b,
f9,
03,
ff,
f4,
fc,
f5,
fc,
fe,
16,
bc,
13,
1e,
f5,
f8,
14,
f7,
ed,
06,
d4,
f2,
06,
fa,
1b,
0e,
f1,
02,
f1,
fd,
0e,
09,
f3,
f7,
05,
11,
ff,
0f,
01,
fb,
1f,
13,
0a,
0f,
03,
0a,
00,
03,
56,
4a,
00,
41,
0e,
f0,
0e,
07,
f7,
15,
25,
04,
40,
21,
f4,
09,
0f,
b4,
0a,
0a,
fa,
11,
0f,
f6,
00,
f2,
f6,
1a,
f5,
03,
fd,
fc,
f7,
05,
f3,
81,
08,
f5,
f8,
0a,
fe,
0d,
1e,
f1,
4c,
14,
b7,
11,
0a,
d3,
e5,
e8,
01,
05,
0a,
1b,
0e,
f9,
dc,
f0,
e7,
dc,
ef,
e5,
de,
f8,
f7,
da,
ff,
13,
16,
24,
18,
24,
08,
f2,
22,
16,
ec,
bc,
45,
eb,
9b,
22,
f7,
c9,
02,
fd,
f7,
f4,
fc,
fa,
04,
f6,
06,
06,
fd,
e9,
0f,
1d,
cf,
0a,
06,
da,
0d,
10,
0d,
01,
05,
08,
0b,
06,
f3,
07,
19,
0e,
08,
1b,
f4,
e2,
03,
d7,
0d,
03,
e2,
fe,
28,
f4,
12,
17,
df,
f7,
08,
0a,
c7,
18,
0b,
e8,
f1,
ed,
ef,
fb,
f1,
ca,
34,
04,
ed,
05,
f5,
fc,
f8,
01,
d2,
f3,
ff,
ee,
05,
08,
fc,
fc,
0c,
cf,
eb,
15,
f6,
f8,
0b,
00,
06,
fd,
f5,
0b,
fe,
05,
04,
01,
f9,
00,
fb,
0a,
73,
e1,
ff,
0a,
fd,
0d,
14,
0c,
fe,
43,
f0,
03,
12,
ec,
ea,
d5,
05,
1a,
2d,
0c,
04,
0d,
0d,
f3,
d4,
06,
f3,
f7,
06,
04,
fe,
f7,
08,
17,
08,
be,
e9,
9e,
ee,
ef,
f0,
e8,
d3,
bc,
f4,
e0,
95,
e3,
e0,
c0,
f0,
0b,
02,
ff,
14,
f2,
fe,
06,
fd,
15,
3d,
ec,
25,
6a,
ce,
06,
fc,
05,
02,
09,
0a,
02,
6b,
ea,
03,
f4,
07,
00,
14,
19,
f6,
ee,
53,
f4,
f6,
17,
fc,
c8,
07,
09,
0c,
0c,
fc,
cc,
12,
e1,
f7,
ff,
fe,
29,
29,
f5,
fa,
05,
0e,
e2,
01,
17,
9a,
f8,
04,
f5,
06,
e5,
bb,
0e,
e2,
8c,
45,
f7,
dd,
0c,
02,
fc,
fe,
1a,
78,
f8,
14,
21,
fa,
04,
0a,
02,
03,
05,
ee,
01,
fe,
04,
fe,
0a,
01,
0d,
f9,
14,
fe,
0a,
02,
ef,
f4,
f3,
01,
24,
ea,
fc,
ef,
e8,
fa,
01,
09,
0e,
32,
fa,
04,
09,
06,
00,
fe,
fd,
20,
7f,
18,
fa,
15,
08,
f1,
f4,
ef,
f4,
56,
91,
08,
f8,
03,
03,
ff,
0a,
03,
24,
ee,
fe,
1f,
ef,
fb,
09,
03,
05,
5f,
fe,
fb,
0d,
f9,
fa,
09,
00,
0c,
22,
04,
00,
f2,
00,
fc,
02,
fe,
fe,
13,
01,
02,
fa,
fd,
ff,
fe,
00,
11,
3a,
16,
e8,
81,
e3,
fd,
03,
fc,
07,
19,
03,
06,
fd,
0f,
fe,
fc,
01,
01,
0c,
05,
f2,
e4,
e7,
f9,
04,
00,
f2,
0a,
07,
11,
f7,
f6,
04,
06,
09,
f9,
ef,
f4,
eb,
c8,
db,
00,
ff,
02,
fb,
12,
01,
01,
fd,
fd,
00,
05,
fa,
ff,
09,
02,
0e,
fe,
0f,
05,
05,
06,
02,
1f,
09,
01,
0f,
04,
fc,
05,
f5,
fa,
d6,
f2,
05,
17,
0b,
01,
08,
00,
e5,
ae,
da,
e7,
c7,
e4,
ff,
fa,
f8,
fd,
f9,
f7,
0c,
12,
0a,
05,
07,
ff,
ff,
1c,
05,
fc,
fa,
07,
fe,
ff,
f7,
fd,
0b,
ef,
f8,
fd,
fd,
fe,
10,
00,
05,
34,
00,
09,
f8,
07,
00,
06,
fb,
f4,
11,
f3,
ff,
01,
06,
fd,
0c,
fd,
0b,
16,
05,
09,
08,
08,
08,
07,
07,
03,
00,
03,
f4,
d5,
f6,
fd,
05,
f9,
01,
23,
fe,
fc,
ea,
fa,
03,
04,
ff,
04,
20,
02,
0c,
0f,
03,
fe,
01,
02,
ff,
14,
05,
ff,
01,
04,
00,
0b,
06,
01,
32,
09,
f7,
eb,
f8,
fe,
05,
ff,
ff,
06,
06,
fe,
f6,
01,
fe,
ff,
fb,
f7,
fa,
fb,
fa,
06,
fd,
f2,
1b,
f0,
f6,
28,
f7,
fa,
f2,
08,
09,
fb,
08,
0e,
16,
fd,
04,
e5,
04,
db,
f9,
c9,
da,
f9,
de,
d2,
b9,
e8,
e9,
03,
f5,
17,
33,
2e,
0d,
3c,
20,
fd,
f2,
07,
00,
00,
02,
ec,
fa,
ed,
07,
08,
fb,
fb,
f7,
e3,
cc,
d0,
c9,
ee,
fc,
08,
ff,
1b,
14,
06,
12,
07,
e9,
f4,
e0,
ec,
be,
ed,
14,
18,
09,
00,
ea,
04,
0f,
30,
17,
06,
23,
02,
17,
15,
fc,
0e,
0b,
08,
ff,
1f,
f8,
11,
26,
05,
40,
3f,
3c,
3a,
2a,
35,
fa,
07,
f9,
f4,
05,
f7,
0c,
03,
0d,
0f,
00,
00,
e0,
e4,
e1,
f5,
e4,
f3,
e9,
ea,
d8,
2a,
35,
0d,
08,
12,
03,
08,
10,
07,
14,
b0,
1d,
ed,
09,
ee,
05,
f7,
fb,
fa,
10,
f4,
05,
0b,
0b,
04,
0a,
0b,
f2,
19,
f0,
00,
ff,
04,
0b,
10,
0e,
f5,
ff,
fc,
f3,
ec,
ff,
f5,
ff,
ef,
0a,
12,
fe,
fd,
f5,
03,
1c,
31,
0f,
10,
7f,
fb,
ec,
cb,
01,
f6,
1b,
fc,
fb,
1a,
d4,
fc,
fa,
fa,
e1,
e6,
e4,
fa,
1f,
f9,
ec,
ec,
f6,
f8,
06,
fd,
00,
f2,
fb,
f7,
f3,
f9,
04,
07,
0a,
f5,
fa,
00,
fa,
11,
fc,
04,
f5,
09,
08,
18,
f9,
02,
03,
00,
fb,
ed,
fe,
f5,
e5,
f7,
f0,
f0,
f3,
06,
10,
02,
08,
0c,
0a,
07,
11,
0c,
0b,
14,
07,
05,
0b,
fc,
f9,
03,
fa,
f3,
fe,
f5,
03,
0d,
09,
fa,
00,
00,
f8,
e8,
e8,
f5,
ed,
f2,
f5,
f5,
f4,
fa,
09,
f7,
02,
fa,
08,
06,
04,
04,
f5,
f6,
f8,
ee,
e2,
fa,
03,
fa,
fa,
00,
0b,
f8,
0b,
ef,
10,
0c,
ff,
03,
f8,
ed,
03,
f2,
1a,
ef,
f1,
f9,
fa,
f8,
ea,
f9,
fe,
fc,
fd,
f1,
f1,
f3,
02,
f3,
05,
eb,
d5,
ee,
f7,
eb,
fb,
e8,
e0,
f3,
03,
e9,
fe,
fd,
fa,
02,
17,
17,
10,
10,
0a,
08,
05,
0b,
06,
0d,
fd,
0d,
ed,
81,
17,
08,
ef,
0e,
ff,
f9,
00,
f8,
ee,
fd,
01,
fc,
03,
f5,
fb,
f8,
ff,
f7,
03,
ff,
f9,
04,
01,
00,
fa,
0b,
03,
06,
fa,
f9,
fa,
06,
07,
00,
03,
e7,
05,
fe,
fd,
01,
f1,
f0,
fd,
1a,
61,
f7,
fb,
1b,
f9,
02,
fc,
03,
07,
1a,
d9,
03,
ff,
fa,
03,
18,
06,
13,
10,
0b,
01,
13,
fc,
00,
00,
04,
04,
f6,
ff,
fe,
01,
02,
fc,
f7,
fe,
02,
04,
02,
02,
03,
02,
e7,
0a,
fa,
f6,
ee,
f4,
0d,
e1,
0e,
05,
e0,
f7,
ee,
f9,
f1,
fb,
f0,
f0,
05,
4f,
06,
30,
66,
19,
0e,
25,
16,
07,
ea,
05,
11,
0a,
1d,
09,
0d,
14,
9f,
21,
ff,
e5,
06,
22,
eb,
f7,
fa,
1e,
30,
29,
34,
31,
49,
17,
fd,
1d,
d2,
cc,
f4,
e8,
f1,
fa,
f9,
04,
0f,
eb,
18,
ee,
f0,
df,
e9,
1e,
ef,
15,
05,
f2,
fe,
05,
0b,
01,
f6,
a6,
f3,
21,
eb,
e6,
fd,
fa,
f8,
19,
30,
1a,
e3,
14,
f9,
1d,
3c,
22,
0b,
f6,
f7,
de,
d2,
c9,
10,
08,
11,
f5,
e3,
f9,
72,
51,
37,
f1,
d4,
c3,
e6,
d5,
f8,
93,
81,
9e,
22,
36,
0c,
1c,
1a,
1e,
e6,
24,
ff,
eb,
ff,
f5,
ff,
c2,
ea,
1d,
e4,
be,
1f,
ec,
cc,
1c,
e8,
da,
09,
2a,
2a,
f9,
e1,
17,
01,
f0,
0e,
46,
5c,
49,
20,
28,
0d,
df,
cb,
d3,
de,
ee,
d2,
15,
1c,
06,
14,
e5,
06,
17,
4d,
33,
00,
09,
13,
ef,
b7,
ef,
d6,
e8,
03,
eb,
04,
e9,
e4,
f2,
f1,
db,
de,
ec,
fb,
17,
fb,
17,
11,
15,
03,
13,
04,
07,
16,
13,
10,
fd,
04,
fb,
f8,
e5,
fc,
ea,
02,
f6,
f6,
fd,
f2,
fd,
06,
f0,
e5,
02,
00,
0d,
0c,
fe,
ee,
ee,
0c,
f7,
00,
0e,
70,
09,
2d,
29,
1e,
f1,
06,
fe,
fd,
ea,
07,
fa,
06,
f7,
1c,
27,
37,
0c,
54,
1d,
11,
36,
29,
0f,
09,
f1,
0d,
ff,
ed,
2e,
15,
2f,
1f,
21,
29,
1e,
29,
0c,
e1,
05,
0a,
e3,
02,
11,
ea,
0c,
06,
ea,
df,
ec,
e0,
e8,
e4,
0a,
28,
f6,
fb,
e3,
f8,
11,
bf,
09,
e9,
2e,
e1,
e9,
e7,
cb,
0a,
20,
f7,
f5,
ca,
e1,
19,
28,
22,
1a,
7f,
13,
f0,
01,
cf,
13,
f2,
f7,
f5,
eb,
e2,
f2,
ef,
09,
ef,
f1,
df,
df,
1e,
fe,
1c,
13,
10,
f9,
0b,
fe,
f2,
eb,
f4,
ec,
df,
d2,
fd,
05,
02,
12,
19,
18,
32,
56,
08,
fd,
f0,
f8,
ec,
fa,
fc,
00,
13,
01,
08,
0a,
02,
ef,
8f,
ee,
08,
12,
fc,
09,
fd,
e6,
0a,
0d,
f1,
09,
1b,
f9,
13,
0f,
09,
f6,
ec,
f8,
03,
29,
df,
23,
33,
13,
15,
23,
ee,
e5,
fd,
de,
10,
e9,
f5,
03,
fa,
f8,
f5,
ec,
fb,
ea,
0d,
00,
09,
e3,
1f,
1b,
44,
1d,
04,
07,
13,
fa,
ef,
0e,
f9,
1f,
0a,
fb,
03,
ff,
fb,
0e,
fc,
ef,
17,
f3,
fc,
f5,
fc,
fe,
f6,
fb,
ff,
fd,
ff,
fb,
fc,
fb,
f3,
fb,
f5,
f6,
f8,
f7,
00,
04,
03,
00,
07,
ff,
01,
03,
fa,
0d,
0a,
07,
fc,
ee,
f4,
f7,
f9,
f8,
f6,
04,
fe,
f0,
ff,
fe,
fc,
04,
00,
02,
06,
01,
00,
0f,
03,
fc,
ff,
f8,
fe,
01,
00,
01,
16,
03,
fd,
00,
ff,
fa,
e7,
fc,
f3,
d0,
f3,
03,
f8,
0a,
fa,
02,
ff,
fe,
1b,
fc,
f7,
f1,
fb,
fe,
07,
ff,
ff,
e2,
01,
01,
0c,
03,
03,
fa,
ff,
00,
0e,
05,
f4,
01,
fe,
05,
fa,
ff,
fb,
ee,
f1,
01,
f7,
fe,
06,
fb,
fb,
fd,
07,
f6,
09,
08,
03,
01,
06,
03,
02,
03,
02,
fd,
05,
fb,
14,
1d,
12,
1c,
7f,
17,
02,
0d,
03,
ff,
fe,
ff,
ff,
0a,
07,
fc,
fc,
fe,
fc,
04,
fb,
00,
fd,
00,
02,
03,
ff,
01,
04,
fe,
03,
11,
04,
02,
fc,
fc,
ff,
fb,
00,
01,
04,
f8,
fe,
f5,
fe,
ec,
e0,
e6,
e4,
9f,
e3,
f8,
eb,
f6,
ff,
fa,
ff,
ff,
ef,
fe,
ff,
04,
03,
fe,
fe,
ff,
03,
09,
01,
fc,
04,
f9,
00,
fc,
01,
f8,
04,
00,
ff,
f9,
fd,
fe,
05,
00,
fd,
f1,
00,
fe,
f6,
03;
