-58
60
26
21
-20
72
10
-60
6
-15
-32
15
-97
-41
-3
-39
9
-8
11
41
-13
1
-2
-70
2
42
-70
-17
-15
-44
-16
15
17
12
-16
-9
-8
-52
12
6
-9
8
-6
4
17
13
26
15
-1
-34
-21
14
-59
5
-9
-20
-4
-11
-5
21
-29
3
-39
-29
12
5
-19
3
-25
-21
-1
-17
2
40
-5
-30
68
36
40
45
-3
-16
-34
22
-22
-15
22
6
0
-27
11
-5
-19
-9
4
4
-69
-16
2
35
4
38
-36
-53
11
-41
-32
22
-127
-55
-5
-83
30
25
-9
27
-2
-7
6
-46
-12
32
-70
-7
-29
-8
6
-25
23
43
-9
12
-37
-63
-1
-27
-20
2
16
-6
-7
-15
-19
-2
-28
-17
16
-42
-23
25
-27
22
-39
-10
-1
-3
-59
-13
-40
28
10
56
20
3
-60
-57
24
32
-7
-13
0
-52
61
-21
14
18
-37
-54
20
1
15
-1
44
7
-27
-17
23
-36
-60
-21
-10
69
-21
-17
21
37
-8
20
5
-14
21
-39
-62
18
-49
8
-1
-52
18
28
-6
36
-7
-12
24
-32
-8
-50
6
-26
-4
-11
8
1
40
-6
-15
6
-35
-22
19
-2
-13
15
20
-2
-37
52
6
9
16
25
10
8
-58
28
-14
60
-79
-31
-1
-17
-7
-6
-45
2
5
12
31
-17
-31
5
4
-1
-1
9
34
-39
39
1
16
-10
7
5
-5
29
5
-8
38
20
-8
-2
11
-4
-15
-14
33
15
2
23
-6
22
-4
-7
4
10
8
19
44
-12
-6
27
-1
-24
56
14
92
15
5
-49
4
31
10
-8
13
-4
-4
-10
38
32
-8
35
32
83
1
-32
43
38
70
-30
33
-33
69
52
27
-9
28
-34
6
18
-27
-62
-2
21
-14
-47
5
-29
13
-30
39
-3
-18
50
-3
59
-19
-29
-5
4
20
-65
16
-49
22
0
55
-5
-9
-14
-41
31
1
-52
-9
-11
-38
-27
21
-12
56
-25
-26
-35
27
-4
16
58
24
-46
54
28
20
-25
0
-21
31
17
-12
-33
-5
-20
-3
18
20
-53
-33
21
-39
14
31
-24
17
-20
6
7
-28
-24
21
73
-43
-60
57
-65
-30
-74
-38
-46
-17
56
-17
-42
-71
-37
-127
-29
26
-18
-52
-7
-61
-36
55
34
39
-42
-15
-84
-1
-31
-16
6
1
-12
28
19
-61
9
-54
14
-13
47
-3
-3
-56
39
-5
-40
-55
21
-34
-34
70
-39
15
21
51
16
33
-72
-12
-18
22
19
-11
-27
15
27
-16
-27
4
-46
13
46
11
-24
-26
-42
-62
-33
16
-48
-35
4
-15
-8
29
30
7
11
-14
-32
-29
4
-8
-15
-48
4
27
-70
-41
34
-29
24
-69
-30
-21
-44
-23
52
-34
-59
-14
0
-52
-21
13
54
-7
13
-25
16
5
-63
12
49
-20
9
12
-40
-11
-19
-29
19
9
33
-17
-54
-21
-17
-5
-8
15
12
-45
-31
-1
-7
0
29
-17
16
28
4
28
7
-46
28
30
12
-16
4
31
-47
-34
32
-10
-78
-6
-53
-12
7
-7
-8
-30
-3
-20
-26
-11
-20
0
-19
61
-15
9
63
-25
6
-34
36
19
2
-21
29
38
-23
11
71
24
-52
-7
-84
-50
1
-19
8
-8
-37
47
-10
-36
-44
-46
12
52
-12
-10
39
-61
-30
-32
-11
2
29
36
20
26
-21
-26
7
28
-46
-28
-4
-4
30
50
82
60
-5
50
-2
-57
-59
0
31
94
2
-6
-34
-82
-9
-55
-17
-7
31
-28
-29
5
-37
-59
10
-9
-120
-27
34
31
-9
23
11
-2
28
44
-50
13
-38
19
-22
44
29
29
38
-25
2
-53
67
13
15
-58
-19
36
-45
-67
40
-10
-127
-23
-24
-53
-32
-40
2
-51
-19
25
-27
15
-50
-34
-7
1
12
30
82
-53
32
-73
4
21
11
-15
25
28
-1
-14
29
-1
-47
-28
27
-37
64
-7
81
6
6
21
-26
-28
-106
6
1
41
-18
-18
25
-59
-16
-32
-1
-24
1
-17
-23
25
14
-29
50
46
-46
0
6
2
-1
-1
30
7
37
54
-53
17
-44
18
-47
60
33
4
22
-2
-38
-49
33
-35
14
-47
-52
28
18
-73
31
28
-127
-39
29
42
-25
-33
30
10
1
36
-30
36
-42
-3
-7
47
36
68
53
-34
2
-74
18
-6
4
-1
0
34
22
-12
18
-43
-73
-28
-2
-21
-5
-46
43
11
-57
29
-5
28
-72
-10
-11
17
1
59
85
-17
48
27
-16
39
-2
33
50
-4
-68
-21
-111
-45
70
-20
-12
18
-49
67
-19
-48
6
-14
-34
69
-57
-70
-13
11
-37
-18
-27
-65
-49
-23
-2
-1
-10
-15
-1
-32
-54
63
-86
-75
127
-35
-14
-7
-44
43
36
-51
22
-47
-82
49
-54
-36
31
-28
-14
21
-32
-47
-27
21
12
-21
-27
-33
-9
-17
-15
-8
45
12
-83
27
16
22
17
-39
-14
-31
-22
-58
37
27
4
-2
9
16
-59
-16
-26
7
-11
20
-50
-23
-48
0
-44
-32
-37
-33
-61
-25
2
-14
-10
-11
-49
10
-62
-42
-1
-21
-39
65
-28
-101
-69
64
-35
23
-4
-111
-81
-58
-93
-8
-70
-40
-25
7
17
-46
-39
-98
16
-82
-42
-73
8
-59
-51
0
-26
-60
-54
61
-31
-29
-97
84
-21
22
-27
-30
-90
32
-34
-29
-8
-31
25
-1
-57
-17
-1
-92
-109
11
-4
11
47
-25
-39
-29
-71
-39
36
10
52
-13
-17
46
-61
-47
-44
32
-50
-38
-29
-41
-43
-45
-8
-44
23
-55
45
42
-46
14
-14
-12
-8
-55
19
66
77
-46
51
89
50
-19
-45
88
1
55
-34
-31
-32
9
-71
-11
-52
-17
55
36
19
-77
19
-5
-88
-34
-13
5
99
-97
-20
61
57
-77
52
96
27
2
-83
105
-3
3
-9
32
-48
65
2
-23
35
-7
64
31
-21
15
-28
-47
-59
-15
-27
47
12
-31
-23
3
29
-11
10
21
48
-32
41
33
-15
-32
25
-27
-17
-4
-7
14
28
-28
-32
-7
-2
1
-17
-35
-10
0
8
4
32
-25
-29
80
25
0
4
8
7
33
23
19
-28
16
-11
31
65
1
13
3
35
-11
-5
25
12
-43
-1
-26
-1
12
-25
-15
-27
-18
-12
1
-17
26
-11
1
-4
46
-21
12
-17
9
-25
13
-33
-11
8
-7
3
36
34
18
-26
11
-1
-6
28
-21
-20
17
-25
17
30
-77
30
14
-21
6
-7
-2
17
-23
0
53
-18
-23
-53
-32
-25
6
34
11
-20
-23
-38
51
29
-10
16
25
-15
5
7
-31
-7
75
62
11
-24
-3
19
10
58
-26
-49
-8
18
35
-12
-19
16
-15
43
-19
-53
-7
-25
40
-39
-34
-39
-43
-27
-2
-36
-64
-30
-19
46
24
-34
11
-20
3
127
-11
-34
36
11
-2
-56
-26
72
-37
9
-13
-47
22
26
-28
-44
-3
-25
-13
17
-30
-13
-73
-65
-81
35
5
-43
7
-32
2
42
18
15
9
-5
-16
31
-22
-15
10
36
-18
-6
19
18
22
39
27
-4
25
13
20
22
-19
31
6
86
6
-1
15
15
-22
1
-24
-28
13
10
40
-28
2
-6
-22
7
-21
-72
21
32
-15
-15
-11
4
-42
-4
-22
-44
-10
0
-21
55
17
-7
20
-16
31
11
-9
-43
-12
15
-16
-38
47
39
-20
20
-21
-82
26
-13
-4
8
-14
12
-21
-36
-29
-24
-41
-23
23
-14
5
-20
16
-39
49
36
23
20
-2
16
6
32
30
-44
-31
-54
20
-47
-2
-52
-16
12
-18
0
-14
-20
7
-55
-1
-18
7
4
23
3
0
38
6
-7
-38
-1
-37
-18
30
-34
91
-15
-71
-72
-7
-55
-8
-45
-34
58
26
8
-39
-31
-11
-65
-38
-24
9
-56
10
-18
-5
-1
-16
-6
59
9
-37
-65
14
-34
48
43
-45
-57
22
-33
-9
-27
0
-29
-58
-3
-9
37
17
-68
-13
-46
-30
-86
10
-64
-18
0
22
0
60
-47
14
18
-29
24
-21
-7
-29
12
-15
33
-34
-79
-30
39
-9
-53
-17
-60
-32
-35
-8
13
-10
19
-18
-18
-13
-28
-12
-34
41
55
-38
-61
28
-55
-39
13
-11
-17
3
38
28
-103
-21
45
15
-32
8
-68
-19
-46
1
-13
-11
19
-29
-32
-66
35
24
-26
-9
26
-25
-64
21
-100
24
-6
-26
-8
73
16
-29
-103
-15
-47
18
-71
-41
-24
-2
-41
19
-56
-56
-42
66
-56
-32
21
64
0
2
38
49
-2
8
-64
17
19
-18
9
8
2
28
-96
-8
50
29
-49
31
-27
-16
-34
-26
-30
0
-46
32
-6
-52
39
-40
-49
51
42
-14
-62
-33
-27
12
31
-26
-13
5
19
-6
-89
-14
12
18
-53
5
-38
22
-7
-42
-80
21
-41
58
-21
-66
-9
-30
-41
-4
31
-10
-69
10
-57
5
5
-19
-14
77
20
0
-23
7
-22
-50
-98
-20
-46
52
-61
1
-45
-127
-41
81
-18
-4
-9
6
-3
17
32
25
20
31
-22
-20
65
-20
-6
-26
-36
1
-6
19
-10
28
-15
-46
4
-18
43
-3
-19
-70
-29
-32
-16
47
-27
-20
90
11
-6
-27
36
-20
-13
-35
19
-20
66
-16
42
11
-16
-38
-29
41
59
8
-40
-49
46
12
-11
-39
-11
-44
9
4
-30
24
31
47
77
-41
23
-33
-23
-28
-51
44
-4
-46
7
-30
-2
-28
-57
-27
61
7
-12
-2
68
32
4
-66
-20
6
-33
31
-24
80
-9
9
-8
-8
9
7
0
1
65
26
-25
-17
-88
19
8
-67
-60
30
-67
-1
-39
-26
70
13
-84
-34
-14
47
-28
62
-21
-17
72
-23
-90
-37
-4
-43
15
-51
55
60
10
-65
-18
-37
75
-46
-12
-10
-33
6
-103
-48
26
19
-54
-81
-33
68
-12
52
-38
-28
58
33
-68
-14
-14
-48
66
-54
66
89
14
-67
51
-71
38
-18
31
-43
-24
-14
-61
-45
39
14
-25
-104
-72
50
33
0
-40
38
-8
79
-98
-5
1
-26
47
50
53
-2
-17
13
8
-38
48
-42
-12
37
-36
-11
-58
-53
23
-44
20
-1
60
-63
30
34
28
29
-35
70
-89
-17
-23
15
8
-4
17
-21
7
26
-47
-82
10
5
20
-15
-37
6
-88
9
-36
-10
-39
-16
16
-19
49
10
14
1
-22
127
-117
-35
-59
-33
12
-37
34
25
44
67
1
-62
24
5
24
-11
-45
37
-50
12
45
-51
6
-3
-36
31
24
9
11
2
28
93
-108
5
-32
14
-4
-13
4
4
25
-1
-39
-15
26
14
22
17
12
-5
-1
2
-3
7
-18
24
-20
16
-22
0
25
-5
-13
7
-5
17
-6
-20
33
-1
-8
53
27
38
12
2
-1
11
-14
-1
-15
33
0
-41
-9
-34
11
58
-6
-14
-11
-31
4
19
-34
14
14
6
15
-7
-16
-66
-28
50
-30
-10
72
-41
-28
20
-77
-41
11
-66
-59
-99
-33
-57
-19
-95
7
38
-65
12
-48
38
26
0
-57
-24
0
24
-21
-35
1
-1
21
-8
15
-7
-13
1
3
25
9
41
-13
-10
30
-29
39
61
-24
6
19
4
-7
8
-27
30
-18
6
12
-16
15
-44
-55
46
18
26
116
19
-27
27
-84
-67
-28
-7
-51
-104
33
-69
33
-11
10
-24
-23
-36
-13
-2
-25
-31
-32
-15
25
34
-72
-20
-24
50
0
-34
43
-24
0
-2
7
-69
-46
-101
-8
-127
-34
-28
26
-61
-14
27
1
13
-33
-12
11
-22
-27
-33
-2
3
-4
-14
-30
49
11
15
53
15
-22
-4
-44
-35
-3
32
-9
-64
40
7
13
-25
-40
-20
-13
27
15
19
-35
-19
-18
25
22
17
0
-28
-50
49
4
-27
51
5
-20
27
-29
-79
4
-44
-26
-108
7
-32
5
-52
-13
7
-27
17
-66
-16
-11
-35
-18
6
-2
25
-26
98
36
-6
3
6
-55
21
32
-10
40
4
6
-31
48
-15
-12
15
24
-3
10
-42
21
19
39
-38
-51
42
-6
-27
-24
-19
8
-8
-51
-11
-2
29
29
15
47
15
-11
-47
54
15
-10
-30
27
15
62
-59
74
27
-15
2
-3
12
10
-25
8
-3
2
-23
-14
25
-11
27
-36
-39
-44
57
-17
-16
-20
-42
-31
-52
-82
-52
-13
-16
-2
-79
0
26
9
-25
-29
24
51
17
-34
-13
25
0
-1
16
72
8
-10
-62
-23
-7
-28
-41
35
35
9
-9
60
-6
-38
23
-16
10
-29
44
-5
-6
-37
-3
-60
1
-59
-57
15
-88
23
-6
-44
78
-14
-107
41
-23
76
-46
-52
-60
11
62
-23
-81
84
3
-25
-55
-94
-6
15
-62
-45
-1
-127
3
-33
16
-19
-24
82
-30
-25
29
-29
-53
103
26
-43
-102
67
-75
-25
-92
-25
-54
-15
92
47
-51
-79
14
-22
-23
-107
40
-106
-9
-69
39
-3
-12
-69
50
42
-41
24
22
56
69
-88
1
95
41
19
-63
5
42
-1
92
62
6
-11
0
3
-18
27
7
-64
-33
-29
-19
23
-73
-75
-33
-62
33
5
-39
6
-31
-25
29
52
-41
54
4
-42
-20
5
26
-57
49
-93
12
-24
-35
-25
-22
-56
11
11
17
-30
4
20
-19
-34
7
12
-26
72
2
-1
9
62
4
-11
-8
18
18
44
52
54
-32
-49
15
14
-23
-38
-27
27
-21
-41
34
-26
-23
-80
46
56
-11
47
17
76
58
16
-41
-12
45
-2
-44
2
47
23
29
53
-26
64
-12
5
4
25
-3
-46
1
3
18
16
-15
-41
-27
-44
38
16
30
-4
41
22
24
21
-68
26
-12
-21
30
-18
-3
20
-110
74
46
-41
-14
10
-14
-18
16
43
18
39
4
-15
2
-11
10
0
53
5
-7
-1
42
2
-46
-12
13
23
-11
-4
21
24
-72
16
24
-27
-21
-17
0
-42
25
67
32
11
16
-14
-15
10
33
1
20
39
-20
2
44
-9
-21
-18
16
8
-15
29
48
35
-43
14
-9
-9
-40
-30
10
-1
-24
35
31
0
58
27
89
8
-10
-7
-16
23
51
15
-38
30
50
2
-18
-9
-28
-28
-17
-46
71
-42
-5
-30
11
-18
-15
19
36
-56
-23
-72
-87
11
34
-20
1
6
17
44
51
53
-23
17
-58
-5
-13
17
22
-28
-41
-23
54
43
-23
-68
26
-36
16
-66
28
-20
-31
-21
-19
-27
-18
-2
42
17
10
-1
34
42
-6
17
-72
40
20
-4
18
-15
-23
-22
-29
39
-49
-93
19
-30
40
-51
19
37
-7
40
127
-39
-28
-3
29
54
-34
51
-55
-28
-36
-25
-10
-18
-3
0
-9
6
29
-17
12
-21
-60
32
-3
-38
40
-29
6
-40
-30
25
-44
34
-21
30
33
21
-67
8
-49
-31
-38
-32
97
-25
33
-48
-44
-15
-18
-27
50
-36
-44
10
-15
-2
18
4
5
-31
-75
-2
28
-16
51
30
-32
2
-79
-83
-13
9
-60
12
33
-32
2
23
-49
5
-17
-44
51
-11
-47
-32
33
-16
17
0
6
-28
-83
6
-18
-20
-11
-22
-23
90
10
-76
29
-7
39
-36
-40
-89
-2
28
-33
-39
-52
13
21
-53
20
-20
-26
17
14
17
-8
-36
-18
-25
-26
2
-26
-67
-28
20
-24
-69
16
-72
-34
-48
-39
-17
29
-23
-64
-49
-37
-36
-31
-32
-71
-66
-21
-19
-10
-84
-57
-18
-35
-28
-41
-47
44
-61
-18
-29
23
-26
-22
-34
8
-7
8
-8
2
17
-4
-11
-5
-28
40
-41
-32
-26
-32
-18
-6
-61
-29
-53
-12
-9
-44
-46
-68
-19
-41
24
36
-81
-2
-24
-15
-67
-93
-29
1
-68
-32
-70
-87
6
-10
-47
21
-29
19
-7
-37
75
-43
-72
-45
-12
-54
-35
-90
7
-34
-41
-12
3
-34
11
-95
-16
-79
11
-92
-123
-63
-56
-92
-63
16
-52
-29
-33
-12
-86
49
-7
-71
-50
-59
-35
-127
1
-34
-30
23
-19
24
43
9
-20
-10
-37
-77
-17
-3
-54
-14
-38
9
-51
39
-33
-21
-38
-5
-8
29
-80
-27
-66
16
-25
-106
-9
-5
60
2
15
8
5
-11
34
-9
-15
-4
-17
-19
-45
23
-36
-48
23
-4
-82
-19
-9
-19
-36
-9
-105
-38
-66
-44
-39
2
21
-12
-7
34
-23
-14
-11
-67
15
-6
23
-1
13
35
-60
-4
-12
-3
-25
71
-65
-6
3
-12
-18
-38
-21
-65
-68
-47
-82
-35
25
-24
36
59
37
-15
-16
2
-12
18
-28
-21
-40
7
-26
22
24
-58
-53
47
-11
-2
4
-10
-33
-7
-26
-2
-35
14
-37
-25
-3
-21
4
2
-13
-96
18
-23
-37
-26
-7
-9
8
-79
-19
0
0
-65
-9
-34
12
5
-9
-18
-5
-9
30
17
19
25
39
0
-31
-38
53
39
28
-108
-23
2
2
-53
-14
-46
-6
-56
-25
-23
38
-5
-40
-57
34
6
16
-15
-23
33
34
-48
-5
13
105
-1
18
-33
14
26
21
-104
-58
-21
-3
-9
-60
0
-4
-22
-37
-57
97
-29
-14
-126
-3
13
-27
4
-23
59
-22
-52
6
-1
62
-35
-28
-19
38
36
-3
-75
-8
24
-16
-55
-37
9
-17
-49
-68
-43
21
-35
-36
-45
13
-14
13
18
-22
15
5
-64
7
17
35
-7
17
-41
23
64
51
-95
-45
15
-8
-56
-103
-71
25
-36
-20
-43
17
-61
-53
-124
-1
-9
-21
22
-24
14
-35
-101
47
50
65
-38
22
-47
-1
19
4
-51
2
-3
-5
6
-52
-76
41
-63
23
-23
-20
-51
13
-118
-38
-20
-5
18
-28
25
-25
-41
68
38
-7
-93
-83
16
-16
31
27
23
-3
17
6
-10
-114
-24
43
-41
-17
-30
-5
-14
-26
-21
-36
-14
19
-32
-14
-39
-39
-38
41
-4
15
-93
-16
-8
-21
2
30
11
-28
-19
5
-19
-127
18
37
-48
58
-4
-7
-45
17
-23
-15
-22
18
-5
37
-23
-27
-42
96
39
-20
-81
-56
10
-17
-36
-2
48
-69
-7
37
-37
-69
-21
5
-33
-15
37
-37
-41
32
-39
-45
-74
-8
-33
17
-22
-11
-13
24
31
45
20
-39
68
10
-24
-15
35
28
-24
0
57
69
58
-57
35
8
51
34
103
68
43
21
-14
-16
10
43
-77
-76
-16
-34
11
-84
28
21
63
22
10
4
23
-16
-38
31
59
3
51
-47
44
0
41
4
-11
53
81
48
-5
-15
14
11
-21
13
18
-41
12
-32
34
6
-9
15
29
1
-22
-14
-16
6
30
33
11
6
-53
-25
-9
-25
-33
-37
27
21
15
-52
26
-24
-8
-13
14
-50
-36
-16
36
40
54
-34
43
26
-6
6
70
-47
-19
3
-44
-50
49
-11
-6
6
-20
38
-89
-2
-48
-9
17
-13
47
-120
-25
23
-3
-76
9
-13
68
16
6
-24
24
34
-39
-50
41
82
4
-18
50
-11
80
-15
80
82
31
51
-33
14
20
1
-77
-60
-37
-50
-4
-91
46
-13
52
9
11
-5
69
18
-92
-22
72
31
-6
-29
-5
-17
54
6
43
43
127
31
29
22
35
7
-95
54
-14
-33
21
-44
18
-2
-23
-69
2
-7
14
-35
5
-21
3
-53
-54
62
-54
-44
21
-7
-39
-10
-26
-82
53
-6
-46
-37
87
-44
-11
99
-23
-44
-64
-22
20
-2
-11
13
6
53
37
-54
32
-19
-23
-23
-19
7
47
-9
39
19
-50
-23
-56
-11
4
-13
-12
-10
-9
4
26
-98
-16
31
53
20
37
11
57
43
3
-19
46
-4
34
-36
81
-4
51
-14
91
37
-14
14
-46
8
-4
-8
-59
14
13
-1
9
-73
36
-18
58
-18
41
-48
-18
29
-25
-12
-9
-49
41
36
-4
-3
-19
-23
-35
-5
0
14
-5
-55
-3
-22
97
-32
-17
-62
-9
4
25
-27
-82
24
-7
-16
12
-21
-69
-89
-37
28
-76
-62
-127
7
-8
-32
61
-34
-62
20
17
-24
8
-71
60
12
0
-68
-21
-12
-71
12
23
33
8
24
-1
24
19
21
67
24
22
10
-24
17
13
44
27
-3
-4
-28
5
52
2
35
-79
-21
35
-24
-46
8
53
8
-12
10
13
-26
11
14
11
-1
45
-71
1
66
-27
-6
26
-41
6
-2
20
32
-19
-51
18
-24
35
22
-21
-41
1
4
54
-32
-54
-2
-1
-38
26
-41
-53
-70
-16
-2
-80
-28
-94
7
6
-59
-20
-17
-65
8
12
-14
26
-39
44
32
6
-40
-18
16
-80
8
25
0
-11
-16
-14
5
39
6
14
3
60
30
8
5
20
54
-16
3
12
-11
21
24
-13
15
-23
8
66
-14
-42
15
65
-8
5
-7
4
16
-9
-3
37
22
6
-103
-46
-32
-43
-20
-9
-6
33
2
2
21
-22
-37
-34
-40
63
35
-48
-47
12
8
47
-9
2
12
7
-35
27
-85
-88
-74
5
-10
-78
-38
-73
-11
-30
-57
2
-30
-102
-26
55
-5
-35
-19
-9
11
16
-31
-38
22
-63
36
15
7
-9
-51
-56
-48
-34
-4
27
9
69
52
21
4
46
18
-10
30
4
-21
23
41
26
12
-56
-25
58
-28
-29
27
55
-13
16
-6
21
-26
40
48
-29
-79
-26
-18
23
-30
34
5
20
9
-10
37
-44
-35
-34
-18
41
-21
-75
-16
-11
7
21
-17
-10
13
-97
2
59
-60
-17
127
-25
-71
-58
-13
-26
50
-62
-27
-4
-20
0
-28
58
61
-44
-62
10
-104
9
80
-87
-100
25
-96
-43
3
-56
29
49
-22
3
-23
12
-39
-24
11
-19
-52
-110
-8
5
13
-11
-6
-7
44
-18
-49
7
-40
23
7
4
1
3
-22
-76
12
-2
-23
43
53
30
-5
-28
-42
-20
-7
-26
-7
50
5
-14
26
-21
32
4
-37
-21
2
14
8
-46
-33
-7
5
17
-5
14
26
-88
-41
57
70
1
56
-13
-91
12
-63
-46
43
-45
-64
-5
-67
14
-16
54
19
-7
-36
2
-106
-1
13
-100
-48
-16
-71
23
-18
0
4
3
65
41
-27
11
-32
13
33
-19
19
-111
-14
-1
-9
21
8
-19
16
-5
10
-5
-22
-1
-10
6
38
-19
14
-81
7
-11
-2
84
-15
2
64
-43
-26
-61
-14
-51
-53
69
4
-26
66
2
24
-30
-86
-20
38
-3
7
-6
-27
8
12
20
-13
30
31
-73
-43
52
55
-5
-31
-29
-94
-6
-92
-79
5
-36
-87
-69
-59
35
5
-12
-13
-9
-40
-25
-96
56
63
-110
-25
-20
-57
16
9
17
37
-12
21
13
-89
-69
-33
3
40
15
-2
-70
-3
0
-33
25
-18
-59
21
-26
-17
-2
-5
-35
1
18
16
4
-24
-95
35
-46
-4
-76
87
1
-22
-11
-25
17
-47
-65
-44
-2
35
-50
10
-103
10
-86
19
30
-8
-39
10
-32
3
24
-1
71
-33
-5
-109
-3
-52
-120
8
1
-41
-21
-43
-35
-2
-74
-23
47
75
14
20
-127
64
22
-48
-66
19
-3
-48
70
-11
-4
-28
64
-30
41
-105
18
-32
-79
31
-16
-34
-2
-7
-2
17
1
-12
43
35
5
15
-49
-34
67
-27
-30
-22
24
-41
38
-36
-5
-28
-8
10
20
-33
-37
-17
-70
-12
-32
-7
42
-57
-11
29
-73
3
-27
-17
4
-3
-58
29
-24
-19
-7
18
-5
-54
-66
44
12
-19
-6
44
48
-112
12
14
-47
-21
29
-18
13
-45
-1
1
-14
8
43
-23
11
17
-13
33
26
-19
-30
22
7
-6
-7
12
-6
13
-10
45
42
-86
38
-15
-37
26
-27
-20
-6
-1
25
-4
44
-6
30
17
3
14
13
5
2
14
-3
3
10
32
11
-17
17
-1
4
42
-40
27
2
44
3
12
-19
-3
19
-22
10
-3
-1
-16
-36
-38
11
-17
39
24
-12
2
13
2
-22
-8
-3
10
5
-21
-40
22
17
-30
1
19
-2
2
20
-24
31
-16
6
12
32
22
7
-19
-17
-10
69
-3
17
10
-17
-13
-5
3
-34
-5
5
13
-24
21
12
-22
1
16
0
20
9
-44
11
-10
-19
10
27
16
17
18
-2
10
33
-22
25
20
-18
-30
10
12
1
-21
14
14
-9
10
-19
14
55
-19
9
55
-103
21
-3
35
31
1
-3
-19
-15
-1
34
-9
-50
-100
20
-127
7
-69
44
-64
17
-29
-5
-11
36
-58
-23
47
31
-39
-27
6
-114
-31
7
44
-24
-24
23
-22
14
-2
17
32
-97
-109
32
-79
-53
-63
71
-65
77
-61
-59
20
20
-65
32
3
-39
15
-16
21
-110
-78
41
28
-46
-28
-5
-47
42
-18
-26
16
-97
-99
44
-24
-25
-76
46
-58
41
-41
-14
-28
-36
-91
42
-14
-26
15
4
33
-23
9
-47
-61
-22
5
1
26
13
-25
-19
93
42
32
61
-67
-4
16
-9
-19
5
22
-29
-14
-42
37
22
18
-35
18
28
18
-17
10
0
-42
-30
-34
17
15
15
-34
-4
62
-29
42
63
-36
32
58
-3
-20
25
-16
-46
9
-28
55
-24
40
14
12
-25
26
67
-3
25
-56
41
-2
12
37
18
-31
8
19
4
31
-11
23
45
-4
32
-27
-17
-15
-46
5
-32
31
-8
10
-7
21
-23
65
23
-8
7
-49
13
-1
-40
12
-22
-34
-30
-15
19
45
-34
41
-1
28
36
28
-11
27
21
1
28
36
1
22
10
8
17
34
67
28
29
-35
0
5
-4
-11
-48
27
12
-4
40
50
-32
46
3
-15
25
32
-15
10
-1
1
-1
67
-31
29
11
-32
-7
46
76
10
38
-54
6
25
-30
16
-39
-17
5
15
80
13
-36
-9
11
2
33
19
0
15
-1
42
14
-3
-26
25
69
30
2
6
-2
-5
-12
43
-33
-83
41
-47
46
-6
-31
-17
-40
-36
3
-4
-10
-5
-15
51
13
-36
16
15
-13
-32
10
35
-39
-14
9
4
-6
40
-21
-52
-52
-100
-29
-47
-58
-16
-41
-44
-61
-26
1
-23
58
-15
-11
10
-45
34
-12
-49
-8
8
-7
-23
15
19
-39
62
-10
-8
4
-12
21
-39
-5
-3
39
9
-45
37
-37
12
21
20
-82
30
-43
-33
21
1
-17
13
7
35
91
20
19
-18
24
-7
56
36
9
15
-15
-84
10
-34
-7
57
6
-45
-22
-34
-10
-22
41
-31
21
30
-36
16
17
-36
-6
-8
-60
-5
-48
-7
2
-16
7
67
24
-60
34
-72
-21
54
-104
-13
-58
-44
-9
70
31
-8
24
6
20
-28
-87
37
-45
-18
-47
3
-14
-27
18
-6
-16
31
28
-18
1
6
47
-19
-17
0
14
-16
14
7
-17
14
15
43
-42
-5
-35
18
-28
-27
-23
53
-11
15
50
-25
11
-6
-1
3
-15
-4
-4
-3
-13
-92
12
6
34
68
-9
-17
-27
-63
-8
-44
46
-31
14
-19
-9
1
4
-25
-49
-8
-127
5
-21
8
1
-13
-34
-29
27
-47
37
-34
4
18
-42
-30
-44
-24
10
33
52
8
-7
-18
22
-8
-26
-6
-22
-11
-31
-18
-25
-17
35
6
-1
1
10
7
23
1
20
25
17
-49
6
0
12
35
-35
-26
29
55
-25
-50
1
23
-19
-36
-15
3
-16
-14
-39
-7
6
15
7
36
-1
17
-12
-4
17
-1
22
-38
2
5
4
-3
30
28
-28
41
7
3
-4
4
-6
-44
-2
3
5
19
22
-25
-7
9
8
-2
9
15
-9
7
15
16
7
-10
-2
21
-11
7
9
14
7
29
1
4
0
9
-2
-41
4
14
6
15
32
11
34
19
7
48
9
4
17
11
19
22
-5
17
-7
10
9
9
-6
0
0
28
-22
12
1
5
3
-32
29
11
-15
36
42
10
-59
-60
-29
25
-77
-7
16
28
-24
10
-37
34
-1
48
-10
-11
-61
-79
28
-73
-13
-63
41
-6
-53
-127
11
-80
-8
-45
-70
17
-41
-42
-41
-7
-84
-18
-36
16
-42
7
-36
-16
1
26
-13
0
-72
-87
21
-53
-28
-72
45
1
-28
-88
2
-44
8
-48
-41
9
-35
-36
-41
25
-97
-77
-4
23
-47
-33
-13
-11
-34
37
-41
-10
-99
-111
35
-48
-2
-82
39
14
-20
-35
40
-66
3
-51
-39
41
-7
36
-50
27
34
10
-34
-47
19
4
1
22
-19
27
21
-1
22
-6
14
-42
-2
9
8
15
-11
46
-24
-15
3
4
18
-7
1
-18
0
12
25
21
-10
0
5
-16
21
-3
-4
35
-5
15
4
6
16
2
11
-4
28
8
11
-10
-18
-9
7
-5
17
18
-7
-31
3
1
28
29
-10
-70
52
-16
30
6
-27
16
17
4
6
24
0
13
9
-7
-5
-8
31
-3
-15
11
-24
7
7
8
33
-24
11
13
-27
49
-69
-8
-3
23
80
11
36
44
-9
53
34
8
-19
19
19
-17
-2
6
-23
0
8
-18
43
10
-18
-32
42
-4
31
33
-7
75
-26
7
-32
37
67
35
18
50
40
24
3
-1
5
45
28
-19
55
31
-38
-41
35
7
-29
-32
4
-25
21
22
4
67
-7
92
14
-20
-12
53
11
23
22
13
31
-21
-8
-15
49
14
13
-27
51
13
-42
-3
34
-20
-37
-18
14
23
-25
30
-7
43
-105
-42
-4
3
-37
-78
9
-4
65
1
-7
33
-13
-54
-46
-81
-94
-19
-19
-62
-33
-9
-1
39
-18
30
-20
34
30
-7
7
46
-127
-11
-29
0
-74
-18
81
-14
69
-18
-36
56
27
-54
-57
6
-75
-40
14
-9
-56
-113
4
0
-40
28
-53
79
10
4
5
78
-68
21
-69
-8
-27
-41
58
-6
-6
-33
15
40
-5
-12
4
54
-77
-42
-7
3
-48
-42
-5
-23
-50
38
-51
35
-17
-4
21
5
19
-33
24
-38
16
-82
-32
61
21
4
8
-3
-25
-28
-2
-99
-33
-53
-47
-14
6
26
27
74
3
-16
0
-15
-27
27
22
8
-47
-83
-19
-7
-43
-72
-32
0
12
13
35
25
19
-78
-82
-115
11
3
-34
6
0
-17
-32
72
7
-9
-62
30
-20
39
-1
37
-57
-77
-31
-18
19
-75
6
40
11
-12
2
44
60
-45
-32
-12
-6
-12
-42
-48
-40
13
-29
32
-33
25
-40
62
-38
-9
34
-12
-7
-23
-31
-19
-55
8
-15
24
-69
4
39
16
0
-48
-42
17
-26
2
4
-17
25
32
1
-59
-18
-8
-10
4
-21
46
-1
22
-6
-41
-19
-37
-65
15
33
9
-51
-67
-30
-14
51
0
18
1
-62
-17
-21
-28
-62
16
-3
-17
-4
-27
-54
9
10
15
-7
18
-16
-16
1
13
27
-21
-19
-9
41
-13
28
-11
-20
-30
43
-5
-19
-9
1
-2
-14
-20
9
18
2
10
33
30
-6
-43
32
15
5
-30
-39
-9
-26
-18
20
18
18
20
50
5
-4
-3
-3
-15
-18
16
8
9
16
-34
3
-12
6
4
33
-21
-24
30
-4
-5
23
-28
-40
-26
-126
40
16
16
-127
-48
6
-59
42
-43
-30
21
-53
-10
11
-79
-1
27
-19
-53
6
0
-74
14
-1
13
-26
3
-12
-4
-23
-12
-13
6
34
-21
19
-7
32
-3
9
18
43
37
-68
-21
7
-9
-31
-12
20
-38
2
-5
-22
9
-1
-17
18
3
-23
20
-31
-21
11
-9
9
5
46
38
16
8
-8
20
21
-48
-15
-19
18
47
-26
-21
39
-8
21
9
74
-1
-26
-18
10
22
39
-27
-17
-20
-95
-55
-23
0
-49
-11
45
-42
-44
-60
-2
-4
-10
17
-1
-29
49
14
-11
-15
15
16
18
-12
8
13
-21
11
2
-24
-43
-16
-40
14
-6
15
-25
4
-8
-49
22
-3
-9
3
-71
-49
8
-48
-2
10
-22
-24
4
10
-18
-8
33
-127
-2
39
-39
-21
54
-49
-35
-17
61
-27
-12
76
-35
7
-17
-13
46
-58
23
10
1
-17
-37
-71
14
21
-12
-15
-19
-55
78
-106
1
10
-36
-74
119
-62
-98
-48
49
-2
-5
-2
-39
-22
-34
16
-26
9
-51
13
2
-14
24
-69
28
24
-20
-32
-12
-12
12
-10
-11
-12
-34
-5
0
-13
25
-9
-10
-10
54
-48
18
-12
10
35
2
-22
-43
31
15
8
-16
-19
20
-11
26
-24
-49
-11
23
-63
47
23
-2
27
9
-26
-2
-33
46
-21
25
14
-44
29
8
1
15
-38
7
48
4
-26
-6
-57
-9
23
-15
25
-13
-10
30
-51
44
-60
-3
4
2
-63
-67
-40
52
33
-31
-31
-32
-26
27
9
3
25
16
-2
15
-41
59
-22
-4
3
49
12
14
-39
-71
19
-7
-21
19
9
-66
-31
-31
-15
-25
-37
-25
23
6
1
43
-4
-36
3
-11
-15
-19
3
-11
4
22
-58
55
-13
-49
14
5
-26
52
24
-7
39
-2
-23
8
-14
15
22
19
-6
10
25
7
2
30
-33
-12
-6
15
-10
10
37
-9
24
10
31
-19
-26
3
-11
15
-8
-30
23
-9
-34
31
-44
8
28
-25
-16
-12
-31
35
5
22
36
-31
-61
-9
-33
0
30
-28
-24
36
15
25
-11
-28
22
-13
-10
-20
-25
-27
-10
-31
-3
-57
-38
-19
54
19
17
-30
-9
-12
-2
-12
-38
-26
9
-30
7
40
-46
15
23
-31
41
-59
7
-16
3
1
49
-16
-45
-32
-12
36
0
-13
-41
-20
20
0
45
52
127
-3
43
-16
9
-36
-15
-27
-56
-14
16
10
-17
-69
4
-15
74
-40
33
9
-18
24
-11
-39
-42
24
-52
-18
65
-52
15
-40
50
-55
30
-17
-24
-13
-40
-28
-1
-20
35
97
17
-11
9
-16
63
-79
-24
-2
10
35
-26
-36
-48
29
-21
-25
32
-44
-33
-98
12
-42
18
-3
-6
-3
-21
25
-11
14
37
44
-14
-79
-11
-7
27
-43
-14
-36
-94
6
-113
13
-33
13
-64
-51
60
61
46
-46
76
-80
40
-68
-10
-60
-17
-87
-42
-10
41
42
9
-108
-38
39
22
-91
-33
-72
3
-13
-34
-89
-67
7
-38
-46
54
-47
-27
-99
27
-46
-32
-12
-24
-42
-7
-36
34
30
-12
12
12
18
0
-4
2
18
-23
-67
-8
-18
80
-52
-21
2
28
18
40
-13
32
-35
-17
14
13
29
38
16
6
-3
-4
20
-34
-29
-39
-12
-41
29
64
9
-48
-12
-45
56
-27
-40
11
-8
-19
-34
14
91
5
17
14
-5
-62
-13
-42
-53
29
-48
19
-35
3
-4
1
-16
-40
30
-24
41
-82
-27
33
-7
8
-52
-28
1
-11
37
41
2
8
-40
35
-11
-40
44
-5
-42
36
-22
9
44
23
-35
10
74
10
-18
-19
76
4
-21
-10
-24
68
2
-7
6
12
66
57
1
45
-19
-30
-18
8
5
53
1
8
39
-13
6
-25
-24
-7
-74
44
14
5
-17
-15
21
-37
-34
22
-42
-48
25
3
7
41
-33
-25
-70
-10
-10
-32
8
35
-47
-52
-31
-31
61
8
-44
36
-2
22
14
6
-60
39
6
12
50
-20
-20
15
58
12
36
34
-68
17
21
-50
14
60
8
32
-76
-71
-9
-36
-38
-1
45
-42
3
-12
7
33
-65
9
28
17
18
-11
-25
11
-6
-28
-21
33
-53
11
-36
-41
43
-37
48
9
-7
-11
-9
-6
-7
15
59
25
-10
-33
54
-7
62
-77
27
6
-53
14
-6
1
-64
-17
-7
3
5
-27
-51
39
32
-30
38
4
38
25
6
-28
72
8
-75
11
-20
53
7
-15
-15
-14
-4
-41
5
58
-3
1
65
1
23
-10
-15
30
-10
-40
-8
50
-1
62
-73
-71
-9
-49
19
-15
-7
-20
31
-19
-29
-14
-19
8
-19
44
22
3
9
31
62
-3
28
38
-18
42
20
-32
30
7
16
54
-10
-13
22
2
-4
-36
57
-32
25
-42
-20
-15
51
-24
-10
-22
29
-9
127
52
-42
-10
11
13
62
-26
22
72
24
-20
-6
14
105
7
5
19
31
14
-30
-7
12
6
14
18
14
-41
-13
-58
-36
-20
-37
13
-56
2
-22
-8
-26
-14
-70
-17
-15
5
-21
36
-33
20
7
-45
66
12
-36
39
-27
21
-11
-19
-7
8
14
-18
12
15
51
59
36
-26
11
10
-26
56
-15
14
-21
31
8
66
-49
-50
19
-4
-21
3
26
-41
46
27
-7
5
-27
-7
-8
6
15
22
49
0
38
27
-9
14
-1
8
-11
-16
-23
-9
2
24
2
-14
18
-13
29
18
16
5
-16
-6
10
-5
-19
0
-20
32
36
-70
-5
-38
-23
33
4
-6
-27
-7
-44
-12
-6
-32
10
-16
28
14
27
-54
-1
-12
6
-17
-33
13
35
-30
-37
21
-17
-82
-41
50
-13
-19
-107
1
2
-3
29
4
47
-2
21
20
-23
-8
-75
27
-28
-64
-37
-6
-42
-4
32
32
-34
12
-17
-22
-15
3
-8
4
36
12
49
14
6
36
4
-8
-4
-15
-17
3
5
26
14
10
20
-20
25
34
17
16
11
-13
7
-12
8
-10
-26
23
7
-82
-13
-33
8
28
6
-2
-23
-35
-24
-22
-3
-18
-3
-1
8
-9
24
-36
13
-10
23
-7
-49
13
30
-20
-35
33
-26
-77
-16
13
-16
3
-127
-12
0
-14
45
20
10
-12
32
18
-3
-15
-50
27
-21
-32
-35
-14
-75
-18
34
23
-17
3
-19
-14
2
20
22
30
39
11
22
17
17
35
-9
-22
-1
-1
-6
9
41
24
-1
0
31
-21
21
37
21
-7
-7
-34
10
17
30
-28
9
14
-6
-83
-10
-23
10
4
11
-18
-27
-39
-6
-11
-13
-40
14
-3
10
-24
15
-36
18
9
52
-13
-44
29
-15
15
-6
-10
-37
-105
21
6
-21
6
-87
-20
3
-24
-10
24
-9
-12
36
-29
-1
-28
-53
9
-50
-50
-15
-23
-35
-10
32
36
31
-15
18
4
13
26
-1
-33
-20
-21
-17
24
64
-22
-42
-18
-8
-25
50
31
25
42
29
20
-32
-9
-18
-74
15
3
-35
71
12
-40
14
8
-23
30
2
-4
21
10
-23
1
18
-16
42
-28
-16
-22
59
35
45
4
-5
50
-41
-3
-45
-38
-32
-41
-22
-8
18
-39
34
28
19
2
60
-35
53
38
34
6
-2
-25
62
-4
-13
35
24
-41
-7
2
-30
53
-33
1
-73
7
-50
-39
7
4
-46
24
-44
-9
-16
24
4
8
-25
-73
57
2
30
3
-38
-20
-26
-1
7
-2
0
60
27
-49
-17
-38
64
-127
-17
-19
-21
17
-7
-13
-16
-11
-44
64
-1
-87
-22
-36
33
-15
95
3
-27
-82
-40
-31
20
30
70
-4
25
-28
-30
1
21
-66
-89
-31
17
23
20
-45
-29
-6
23
51
31
-7
-4
45
91
-33
4
-39
60
11
-50
18
-33
-40
6
-43
-36
32
-31
-1
-24
-29
-117
-17
33
-45
-108
-8
-69
-7
36
29
-6
89
-41
-24
48
-53
9
56
-70
3
-16
-9
7
-7
-11
25
19
-53
-8
-55
-1
-95
61
4
21
-34
-69
-30
-77
-15
-58
-1
-33
-38
-16
-30
85
29
82
5
-58
-78
21
-17
53
19
68
77
68
-58
-11
-12
-13
-54
41
-4
18
-37
-1
0
-29
20
3
35
-23
-51
-25
64
30
-35
27
-6
19
-59
14
-25
17
-20
54
14
58
-20
-26
26
13
0
-59
16
-51
4
-19
16
1
-11
25
-45
-12
-92
28
21
3
-22
28
62
14
21
-23
78
36
-39
-28
-2
34
61
-53
2
14
41
11
42
-51
19
7
-28
-26
20
-2
-59
29
-52
4
-5
-36
-13
17
-5
70
46
-19
69
38
-54
-36
5
-23
68
-43
8
-12
51
-11
10
-29
3
22
-61
-3
41
16
-48
19
3
30
27
-36
28
5
0
55
18
-3
14
32
-76
-76
8
-42
21
-59
-4
1
29
-40
-18
-19
41
-14
-32
-8
-8
9
-47
4
-101
33
84
-31
-23
10
-15
58
37
8
72
-15
-38
-74
15
42
-27
-62
-14
-72
32
3
34
-31
30
-9
-13
16
29
0
-36
33
-74
-1
56
-59
-43
28
-10
91
55
36
21
6
-28
-69
-16
-31
47
-68
-16
-31
5
-41
22
-28
26
12
-13
19
28
-11
-60
62
-74
30
29
-41
-31
39
-2
26
67
-6
-31
12
-28
-106
-20
-48
63
-54
-23
78
17
-66
-10
-25
-35
-24
37
-19
-12
-26
-19
-19
-74
-33
65
9
54
10
13
44
-3
-13
25
-42
-42
48
0
-11
-90
73
-21
79
41
-61
-7
-5
0
-24
51
-3
23
59
17
-12
-70
-60
63
2
76
22
-15
-40
15
10
16
-37
-85
38
-38
-54
-74
67
-43
80
127
-38
-10
-6
-14
-1
21
-13
37
45
27
-21
-16
-16
70
-20
66
16
-42
-71
69
-8
-53
-33
-107
11
-42
-22
8
49
-23
32
36
-14
-43
29
13
4
2
26
13
-10
-22
28
16
23
-3
-24
28
-14
-5
53
39
8
36
17
-19
21
5
-5
21
-13
28
-5
19
-33
2
56
9
2
-1
19
-1
-4
-28
14
39
-15
-21
0
16
-46
2
4
36
-15
33
-15
1
12
-1
4
-22
27
34
0
35
23
-45
-1
38
0
11
-85
21
-7
15
-9
-12
-46
-2
-29
-32
-62
34
-24
-15
-81
25
-34
-36
22
23
37
13
-9
9
37
-8
5
-14
-34
-3
-20
26
-70
15
-22
11
10
-14
-20
-61
20
12
-50
33
-33
-7
-43
6
-32
-10
-4
25
8
-30
9
-33
61
-32
-54
4
-118
-41
23
13
-127
16
-74
1
-16
17
-63
-57
61
14
-78
5
-81
-61
25
-30
-38
6
7
4
39
-45
-20
-46
72
-63
1
-28
-112
-51
3
23
-44
7
-38
-35
1
22
-32
-31
43
-8
-37
-31
-51
-27
41
-21
13
3
11
-17
30
-1
-18
-26
15
-75
47
-82
-29
-49
17
3
-72
-1
-18
-45
5
49
-28
34
44
-26
1
38
-20
-49
42
-114
-13
55
-19
-36
0
-4
-6
-43
3
-42
-21
6
-18
14
-17
27
22
3
-17
-24
12
-7
-4
22
34
-41
22
23
-28
15
10
-63
-16
48
-11
-36
-37
-4
10
-9
8
-16
28
-38
5
-10
2
73
69
-8
-13
-26
33
-13
34
19
-4
-45
59
9
16
19
-63
22
2
-25
13
-12
-58
-6
-17
-7
19
21
-63
-40
6
-17
16
13
-35
11
22
6
-42
-2
-12
-17
-9
-1
24
-23
3
-68
-50
-58
-29
5
40
-26
-6
-42
-27
-30
0
24
-47
-1
18
-9
25
0
-27
15
21
-7
-23
17
31
-2
6
1
28
-16
16
-25
-51
9
-29
-38
27
-2
-25
-82
16
-27
-31
22
-44
19
46
-13
4
3
3
46
1
3
35
5
23
15
21
-40
44
7
25
56
15
12
1
-3
8
2
-31
-52
2
-7
-57
14
16
-15
-20
-8
-37
28
18
-50
-22
-44
-18
13
24
-30
8
-9
-4
-5
14
-14
16
-31
9
-4
33
11
10
32
4
-17
2
-9
1
-20
51
0
-33
14
-21
-97
17
-8
-118
-5
43
-29
-21
28
-20
-74
-39
-78
39
-42
12
-13
58
-33
10
-33
-9
-22
-38
17
-73
-17
31
22
4
3
-35
-65
71
15
-127
-31
13
-18
-20
-10
5
-51
-32
-97
-60
5
-32
-6
67
-20
-6
-72
11
-52
-39
22
-78
25
10
15
4
41
-8
43
25
-15
25
-5
-28
-13
12
14
3
23
6
41
-9
17
2
-1
9
17
-2
-1
9
-18
7
22
49
-13
7
14
22
29
24
21
-8
-7
14
-6
4
-1
11
-17
-13
-25
5
31
-10
13
-5
-11
13
16
5
-2
-5
-10
-14
25
54
-20
0
-18
2
1
-8
-60
-32
-31
-55
-27
-2
0
-20
20
-54
-63
3
-9
2
-23
49
-3
37
23
46
14
-8
-3
13
18
28
3
116
-47
32
-22
12
-44
-17
-7
-73
42
122
1
-22
37
3
-18
33
-37
37
-9
23
33
35
-36
-24
-13
-22
-14
-53
11
-66
11
103
-66
31
-17
87
-48
25
-4
-65
-29
82
3
-102
24
-52
-41
49
-9
-43
25
-41
2
-2
-13
-10
18
33
-10
-14
29
-66
-31
23
-58
40
0
3
88
15
-43
-44
-21
-13
-23
-17
-38
-9
9
18
66
-118
-3
-23
6
-44
34
-40
-8
55
30
80
-29
-5
12
25
31
22
-7
31
-17
-14
-3
3
-46
56
-49
77
-7
-11
-5
16
18
-69
4
43
8
6
43
-29
5
-6
0
-1
6
0
27
28
-23
-18
14
69
16
-59
-12
-87
-42
97
-14
-42
-60
-101
-57
14
-13
-36
9
1
64
-11
-44
-24
11
6
58
17
39
-30
-14
101
-96
42
-26
71
86
-13
-30
-70
-35
53
28
-95
-83
-77
40
-32
-3
-33
-43
-10
89
-65
-95
39
55
26
20
6
32
127
-6
34
-18
37
-10
-2
15
-28
41
29
-36
19
-57
48
20
22
-15
-12
25
-54
-24
49
2
41
32
1
-32
-10
20
66
-12
3
31
25
-15
-6
21
34
81
-55
14
-27
-32
11
-50
21
-22
-24
8
-41
14
-42
-29
-25
63
36
-40
2
-23
-8
2
46
31
65
47
37
-61
60
9
68
22
-30
26
-23
-53
45
64
-5
-56
-62
2
52
-4
22
-34
-25
50
30
-64
21
9
41
31
57
16
106
16
4
-9
-68
6
26
19
15
-1
-5
-11
17
49
-32
-37
-15
-7
35
-33
-12
35
2
-12
-12
-14
-25
-18
-11
-3
4
-5
-30
-13
18
-18
-1
-6
45
19
14
12
26
9
-21
23
19
6
-14
-6
24
-2
0
27
-11
-5
-16
-16
-9
-12
5
14
14
37
27
11
9
10
-9
9
-8
18
-4
8
24
20
-47
8
23
21
4
-3
-21
-2
13
6
-8
-30
3
-8
-25
-19
-13
-20
1
6
4
9
-15
127
-59
12
-7
-26
36
-8
-51
54
39
35
-62
-98
-47
-62
12
-95
-51
38
-21
23
-4
-58
-2
75
-7
-27
-56
17
-69
2
28
-3
-52
-15
42
-3
20
15
-25
-1
19
-8
30
-46
17
-9
22
-12
-3
68
-34
-13
13
-43
-29
-49
27
-15
-33
22
-43
-11
18
0
-36
11
24
8
9
29
37
10
-23
-18
49
4
32
20
-5
10
6
9
-30
-24
-10
11
-11
-16
8
-5
-15
16
1
-11
-63
42
-8
34
-14
-41
6
28
-46
17
16
17
-25
-11
-17
-57
-21
-33
5
21
-29
40
35
9
37
26
25
14
-37
12
12
-9
10
88
-26
-9
-19
-61
4
-5
-57
43
53
-1
2
-49
-33
-62
-17
-66
-20
79
-25
-14
35
-52
41
30
-14
-26
-30
9
-27
18
-6
58
-27
-21
-2
-46
15
38
-6
8
-42
-9
33
-23
30
6
-40
-62
-6
70
-29
-77
29
-45
-19
-19
-6
-11
-28
9
-10
41
-3
42
-46
95
-5
26
-11
-127
-69
-4
-2
5
-29
-45
-76
-66
3
-7
10
5
-23
99
-44
-18
-19
-12
-3
17
-41
0
-25
-102
-40
39
-52
-17
9
-11
-50
-48
-57
-77
50
40
37
-57
8
-63
-70
6
6
66
-15
22
51
-50
82
-76
-41
21
-37
-29
77
-63
-31
-12
-12
-18
13
-6
-41
-21
-86
-37
5
11
60
-61
-3
-1
-66
-3
-17
23
-18
15
90
-28
21
-31
-18
-12
-19
-22
9
-62
-41
12
-23
80
-15
-6
10
-94
-61
14
12
15
-15
-85
-31
-65
21
10
5
-3
-17
52
-52
-33
-84
59
-33
-30
-82
-20
-23
-64
-34
35
-62
-14
-26
-39
-23
-48
-77
-26
94
57
30
-85
-28
-83
-23
39
6
16
-18
-38
-39
-51
-9
-61
-5
66
-81
-27
22
-24
-33
-25
-23
-69
-22
-6
-30
7
-57
-14
54
36
79
-62
-5
0
-40
28
-21
29
-40
-12
20
2
36
-38
8
24
-30
-38
31
15
-37
11
-18
63
24
-36
37
26
-56
20
-8
27
-26
-18
-5
-35
30
18
-17
-20
-6
-38
-5
-76
-95
-14
-76
-86
-43
-50
-58
67
-76
10
-50
-4
-1
-14
-12
55
-51
6
28
108
-19
-58
-56
-63
16
107
42
16
-74
-32
-8
-52
-64
-62
-12
33
-12
-77
5
21
-73
-10
-46
-20
6
7
1
69
-23
-46
40
63
3
-18
-26
47
-54
54
2
-6
-62
-53
41
-35
32
-51
-28
21
14
-30
11
57
