10969
30742
8202
-580
-108
13448
2192
88990
4213
1994
-31
14052
9970
-6515
9395
-9709
9268
12227
9217
16136
9662
8561
8342
-5753
5335
-10554
540
49136
5559
12104
8441
29888
19970
-2590
8079
16915
10431
-2572
15888
606
18195
739
20128
-9761
56543
15648
3068
18480
17840
23557
-7502
-10394
24627
14610
-6288
14647
-3451
9752
11804
-3996
29159
-16872
17185
12498
