// per-channel multiplier (Q31 unsigned, stored as int32)
1549666104
1820165929
1154324099
2019589335
1254530077
1422507857
1116141587
1088074689
1957671279
1248972385
1726982752
1811247716
1408638330
1132398339
1249202791
1620531407
1273399933
1258476011
1287071632
2102399425
2051553842
1226449794
1689795778
1166228238
1433256226
1960304461
1174555820
1489012968
2072409263
1296122419
1337459258
1091664040
1731812713
1282296591
1888026901
1583574839
2007831254
1672696928
1203698667
1571568932
1081791725
2056658990
1206511272
1165414682
1873896063
1536665643
1612765815
1776987418
1571641272
1815256837
1264863303
1636546927
1181053836
1889720152
1829732742
1492057849
1207136448
1511722265
1806231738
2067819255
1559803864
2079176955
1987958675
1210411637
