-9
21
22
16
-23
-24
-9
9
22
-4
17
-39
-4
17
-52
0
-5
22
16
-23
27
45
3
25
-10
26
-25
13
-13
-4
9
-11
25
1
27
-30
-25
75
9
-1
9
17
6
7
-14
-33
18
18
-28
-13
12
-9
5
2
65
33
12
24
-4
-28
-34
4
-3
42
-48
0
-25
-18
-25
-77
-8
9
40
33
-29
-9
-61
4
-54
-67
4
-1
-82
-3
26
-8
38
-13
19
-7
-36
-23
-29
12
18
16
-61
-9
9
-9
-13
64
-53
-26
13
28
9
33
-19
-1
-3
25
-71
27
7
-1
29
19
-55
-11
-15
43
-27
-3
-11
-41
-19
54
-70
-4
-17
7
27
6
12
40
-30
14
-79
-7
-8
-30
-20
-27
7
-73
-30
-88
22
-37
-8
-12
-8
-38
-27
20
-35
-11
31
61
-34
19
40
33
-19
-4
4
-5
-25
30
6
-7
1
-17
26
7
-60
-19
17
-48
7
27
-66
40
-17
39
-32
3
6
-10
-22
-28
-10
-16
38
9
11
-48
-17
-28
-5
-28
30
-33
3
11
0
-30
-5
29
-12
45
5
95
-5
49
-41
84
3
27
-35
44
21
-10
-30
-15
34
4
-35
13
-49
19
-8
12
-56
-35
36
17
-29
4
-16
46
20
-16
26
-17
20
7
6
12
-38
5
-71
-19
-14
16
-22
18
8
-94
10
-63
-30
-23
57
49
-29
-41
-50
-46
-31
-105
4
10
-110
27
27
38
34
47
17
127
-27
5
-33
2
13
-24
-100
-2
-16
15
-35
37
-61
0
16
23
-17
23
47
51
-50
38
-47
41
-22
-9
10
13
-59
-37
17
30
-45
2
-51
-32
-50
5
-47
2
-37
-36
-21
10
44
8
-17
21
-71
-28
3
-44
-11
-62
-9
-47
-7
-51
21
-52
38
-14
56
-11
-42
38
-24
-25
51
19
-19
-17
44
53
-56
-19
-12
18
-30
17
36
-5
47
7
-22
-4
-14
21
-44
-59
42
-8
-75
46
-12
29
-97
-37
-16
-24
-27
-18
7
-33
11
-71
1
-31
-4
-33
-13
-59
-1
-7
15
-3
1
15
20
-32
-4
42
20
44
34
-7
-51
24
17
0
-41
-4
1
9
1
22
19
13
60
-27
-17
39
-37
-1
-49
-41
1
25
40
-15
-3
48
13
-23
16
10
-31
-16
6
-10
13
-7
-30
-6
18
-5
18
12
7
-37
3
-17
20
-3
27
19
-20
-65
16
-2
-6
-17
19
-25
-66
86
16
41
32
-16
-39
-14
-28
-2
-42
15
-15
8
-16
-12
-3
18
57
-32
-53
54
9
6
-78
-26
-48
48
7
-6
15
40
17
6
3
35
-47
21
17
5
-13
-21
-39
-24
6
22
-17
-2
-44
-81
-9
-19
75
-39
8
56
-43
-53
14
4
9
-35
3
-58
24
6
-18
-13
0
-14
0
-12
-8
2
-14
-1
29
-18
-30
-17
-55
56
24
1
7
31
-29
-22
-11
37
-20
5
-30
-10
10
22
3
-1
9
31
-52
2
30
-4
-51
-38
-16
-16
8
20
65
-5
12
-12
20
-38
12
-15
0
1
-17
-20
6
24
4
-23
-1
-32
10
10
-44
-6
-22
15
-19
-10
-7
-42
16
-11
-27
22
27
18
-28
-31
2
12
8
15
31
3
16
-8
-9
24
28
-21
-18
-57
-37
9
-35
-9
-30
16
8
-29
-11
-17
-30
1
18
29
8
58
64
-30
-8
-2
-12
3
-12
32
12
-18
-28
12
-33
-18
-11
-25
-20
-38
11
-47
15
-22
-21
29
-67
-15
-12
-26
-27
-25
60
-16
-33
-22
-13
28
12
2
31
-16
14
39
4
12
-20
-37
-17
-22
11
3
17
22
-2
12
34
3
-37
-41
2
-15
-39
-18
15
22
57
-28
-5
-1
17
-15
7
16
-4
3
-11
28
0
-22
-13
-16
31
-3
42
-38
29
-25
-5
11
-85
-10
31
-10
-29
12
49
-29
13
-28
17
-19
31
-31
-12
40
12
0
20
-16
-30
-31
-8
6
-41
-9
53
22
8
19
-31
25
-7
-12
-48
-17
-11
-2
35
5
-35
-9
9
-33
-23
-11
18
-36
26
-29
15
19
39
-43
-14
-55
17
1
-38
-10
-16
13
-21
-14
-26
-72
18
6
-5
-21
27
33
-28
-47
-14
52
19
-4
36
-32
-5
17
-29
-8
-22
-10
-23
-45
-48
-7
-53
7
-34
16
-80
-16
-1
-52
-6
51
31
38
-32
64
30
-36
-32
-67
-127
-35
-33
-45
59
3
2
6
-6
-33
-35
-78
-5
-15
-28
-41
-11
35
-21
-21
-46
-81
-52
1
26
-5
-3
-4
-21
-34
-44
21
-27
20
-72
-26
-33
-56
-46
98
-34
44
-5
-43
30
-46
-31
-61
-44
-84
-72
-29
-59
-58
-18
35
27
-17
-46
37
53
3
-7
-45
-71
-17
-5
2
-44
40
5
47
-24
-27
-20
-38
40
40
9
-33
21
2
-36
-5
-44
-30
1
-13
1
2
-60
-12
27
-25
-73
-9
-2
5
-59
13
-18
12
-39
34
-58
-2
-23
16
-48
-5
28
-1
-24
-48
53
14
-51
-54
14
-67
18
-20
-11
70
-21
17
16
-14
-25
68
48
-25
33
30
-14
12
14
-34
0
-13
5
3
-39
1
0
18
-29
-52
5
-68
6
0
51
27
31
31
-14
-28
-22
21
-42
-1
-19
-11
8
-39
-11
4
0
29
-33
-44
14
-18
-22
6
17
39
-64
2
-16
-26
-7
31
24
-29
-17
-100
24
-2
21
-22
-83
-49
5
-34
67
31
-22
-4
37
8
-20
-57
-27
42
-35
-14
18
1
-6
-48
-19
-88
-41
-23
57
21
33
4
9
-31
-12
51
-49
2
-70
-7
-4
-71
11
42
-9
34
-12
26
8
-45
27
-14
-31
-37
-17
0
-30
-51
-15
58
53
-32
-59
-25
31
21
38
-25
-76
-2
-10
4
18
-23
-21
-2
2
-35
-24
-32
-13
55
10
-10
-18
-8
-45
-19
-38
-57
-1
-4
28
23
10
-24
3
-16
9
29
-21
29
-44
22
25
-25
38
-9
-17
7
-35
13
22
-47
-4
29
-68
-22
54
14
-44
-16
11
-10
5
-11
14
-26
-12
-9
-11
-24
14
0
16
15
-10
-13
-12
11
21
22
14
-19
9
9
10
9
23
27
-48
-24
5
5
-5
-13
12
12
13
25
-3
18
79
-47
12
20
23
-1
-20
6
-12
-29
25
-24
-6
27
-8
-16
-3
3
29
8
19
-17
-32
22
-5
-13
-1
12
-30
-5
4
14
20
-54
0
25
12
-3
-33
-34
-12
-2
-1
-30
35
-21
-16
15
-1
10
-27
40
-69
-35
-1
53
-23
17
26
23
13
25
6
-54
12
-41
-33
19
13
-31
-52
5
-32
-14
10
-67
45
15
-3
-19
49
17
18
35
11
-6
-26
67
-27
-15
-4
-18
-23
-25
22
26
-16
-64
8
9
-29
2
-2
3
-34
-33
9
-21
48
-50
-22
-38
2
23
-14
11
-48
-27
21
-6
-20
-13
34
-3
-10
0
14
-50
9
12
-5
-2
6
-40
-32
31
-11
-3
6
-36
4
6
9
-19
-3
-8
31
24
-7
7
39
-2
-22
29
15
-14
2
-26
-7
4
7
-5
7
-16
27
-10
-19
40
-26
17
2
1
52
-22
21
-16
15
6
11
50
-9
64
17
-41
12
-16
21
8
16
38
-23
45
46
24
2
-37
16
-2
-13
27
26
-14
-3
-9
-6
-12
-31
-18
-10
10
10
-24
28
4
-30
42
-12
23
16
-27
-21
-49
31
-47
-1
-4
-25
6
8
-26
-30
9
-38
-21
18
-32
76
-5
-12
-11
10
-1
-17
16
-31
12
16
-24
1
31
73
34
44
17
1
66
72
-43
-13
-28
-23
-32
7
2
-7
-13
28
56
8
12
-21
-40
-1
-4
-14
-31
-9
20
-29
127
-37
-8
-41
-21
19
-50
47
35
-12
51
52
7
-22
-7
-7
-1
-51
-7
11
32
44
-45
1
-6
-13
5
24
4
-16
-50
-8
-3
10
-19
55
1
-3
-1
7
-58
8
-26
9
-15
4
-29
-16
-33
-20
-18
-10
55
-1
8
-11
-33
-24
-23
18
6
4
14
14
17
-35
-18
-12
69
14
2
26
-6
-1
12
12
4
16
-33
-4
-28
-10
23
5
17
24
-24
5
5
-8
-42
21
19
-24
-44
11
-27
7
26
9
9
-1
16
18
-18
30
-51
-13
-16
-13
-10
-22
-20
-11
-26
-2
-16
-12
7
4
29
-12
46
16
1
24
-8
-23
24
1
1
35
-12
1
-5
27
-22
-1
-30
43
-23
21
2
-17
-24
-9
-3
-25
14
48
-17
0
25
24
-43
29
36
-42
-25
-12
-20
-16
20
4
14
33
17
4
30
53
-19
-3
-40
-2
-18
-14
22
-26
-47
25
-1
-5
-4
3
32
-9
42
-3
1
-6
16
12
45
-24
8
27
-46
7
15
-1
29
-15
-33
49
-22
-7
-5
20
-11
-27
-1
8
11
57
-30
10
-45
8
-37
10
-11
-41
-43
-2
-25
3
4
-3
2
41
3
-12
-23
42
15
-15
-42
1
-6
19
-4
-9
-29
3
44
10
0
-18
16
-7
13
-11
16
0
-10
20
25
-3
20
17
-34
9
-26
-63
-26
-6
36
31
-20
30
30
-20
32
-10
-77
-39
11
10
-31
29
9
40
2
40
-51
50
-14
-18
28
18
-63
18
13
-22
6
-41
68
32
56
-20
-7
-20
22
-12
-19
-12
-13
11
25
-40
-58
-21
5
4
-12
-18
-13
-18
-27
-38
-3
-58
-27
41
6
-5
-12
-62
-21
12
41
49
16
14
1
23
25
-35
-32
3
-19
29
28
-61
-16
-24
5
-102
-11
24
14
-7
44
12
-16
25
26
-51
3
15
52
11
-48
-55
32
-11
17
-25
-17
-52
1
-2
49
-17
-65
-12
4
44
-2
-9
-2
28
15
-7
78
-31
-42
-10
23
19
-15
-54
-29
3
16
21
-4
11
-11
5
-42
29
-10
-16
-8
12
-41
-11
15
-13
-20
-33
-9
-2
34
-37
9
17
-11
47
-9
-22
76
9
21
-29
8
8
-3
-8
7
-28
-16
-19
-25
-13
31
-38
-10
-30
9
-17
-16
16
0
14
12
9
7
-32
-51
19
31
-1
-22
-21
14
-4
45
-39
-6
35
30
-11
-4
5
-46
5
12
43
-28
17
-9
3
51
3
-96
17
8
-36
-82
-7
-65
-17
-46
-36
10
-66
-13
45
106
3
-35
28
-19
-6
37
27
26
-6
5
-36
-81
-56
4
-13
-11
-19
-14
-1
-29
-32
-45
-19
16
16
38
39
-3
-51
-30
-6
57
-95
-8
9
24
13
29
-21
-46
11
-5
32
5
-31
-50
-9
53
-81
-127
10
42
-22
-34
-5
-74
-40
-2
-64
-18
-10
-5
36
5
-25
21
-19
9
1
-39
-16
85
-10
29
-47
-49
-41
11
36
7
-13
-33
88
-47
-43
13
-25
-21
-9
23
47
-28
-33
-87
-6
53
-95
-21
37
-3
7
-23
37
-62
-13
-25
22
-45
13
36
5
30
-8
-37
-17
-22
-40
-17
-8
-27
15
-13
-39
23
-23
7
-2
29
-1
-11
-6
20
-34
-7
-42
2
-24
-5
-44
16
-29
18
-18
-5
36
14
33
-74
-43
-8
-26
-47
28
-2
-25
-47
-59
-18
-10
17
-45
-19
-1
-3
-4
40
-13
-48
-1
3
34
-24
18
-23
-7
19
25
17
-67
-54
39
-4
-21
2
34
-28
-76
2
19
-19
66
39
12
9
11
-18
6
72
73
-15
4
-62
-15
-32
11
-1
4
-12
-22
-31
-14
-34
7
-41
-36
7
-27
26
17
-16
-82
-22
-9
35
-12
5
-1
15
1
15
-40
-30
20
14
17
56
-56
-62
4
10
-57
11
-24
90
-1
-13
-4
-63
-31
-12
-69
-6
5
28
13
-22
-1
23
-26
18
9
43
106
50
-31
-59
-41
-22
-12
-4
9
29
-12
23
43
-22
-33
19
-25
8
-54
40
42
-14
-78
-23
14
53
-35
8
-7
-7
-8
9
33
-22
7
4
9
-20
11
62
8
-7
-6
4
-19
14
-31
25
-30
-10
5
-18
-53
4
-1
-3
-36
-27
-3
18
6
14
-15
11
7
21
-34
-91
-19
23
-4
-2
-4
10
57
58
44
-33
-43
-19
-34
-33
-24
11
-9
2
27
15
-20
5
-23
3
-15
-39
-9
-37
-3
54
-7
-17
-28
-38
-21
37
29
18
-12
18
2
-47
-27
23
13
7
-34
9
6
8
21
15
31
22
-6
-6
-2
24
32
-12
-16
15
4
19
13
-22
-20
55
-14
-31
-15
-7
10
15
5
-21
-20
-2
-1
4
-25
12
5
10
36
13
-26
22
-9
-54
3
30
-3
16
-11
-4
-34
-32
-10
14
13
-10
2
3
21
-37
-29
-1
-5
18
-28
29
12
18
4
25
24
4
5
15
23
11
45
13
-5
29
17
12
17
-27
-23
52
-19
3
-11
-5
13
39
0
-12
-13
-12
8
15
4
-8
7
28
-10
6
-33
13
2
-20
12
44
-15
3
-7
3
-31
-49
-19
8
11
7
-10
13
-2
15
4
3
-6
11
-28
4
9
25
-4
5
-6
18
-18
-5
-5
19
37
-13
-6
33
9
9
-8
-25
-23
40
-12
-8
-1
-19
-3
29
-3
-13
-31
-9
23
-23
-18
-5
-13
7
-20
-12
9
-3
-46
-51
8
-29
2
52
0
-1
-23
-9
-8
31
37
55
-19
-20
4
49
-28
-15
-4
1
-52
-24
23
-28
4
17
21
-23
-17
-10
-12
-13
11
-7
2
48
-15
-43
-5
-46
-36
9
-31
-44
-30
-8
30
-11
-7
-7
-11
-8
25
36
-32
9
16
-5
3
-43
66
18
1
-69
-13
22
-49
2
-37
-3
-29
-9
-40
12
-1
38
-12
-20
35
36
-40
-19
-10
24
-40
33
3
-15
-22
-10
50
-17
-32
-13
-37
-3
4
-57
-29
127
40
-9
-3
-49
-15
9
-42
-57
-8
-57
-17
27
-19
2
7
-56
-11
51
37
-16
44
35
-15
-18
38
-24
-9
-27
29
22
-43
4
-35
38
-42
-31
-5
-13
-26
43
21
-30
26
11
-5
-16
-26
-8
-27
-24
-3
-3
2
-29
-11
16
-4
0
-5
-5
8
0
5
85
-12
-10
-25
-14
-40
2
5
-52
34
-28
9
11
-22
-13
-19
-43
26
4
-8
25
-1
38
-13
-14
52
12
-15
-13
6
3
9
7
22
-1
9
-22
-5
-27
-10
-11
-8
-6
19
26
-12
-13
-19
-20
-22
7
-7
20
-38
24
-16
-24
2
-21
12
12
29
-16
-14
-13
9
-39
3
-30
-4
-26
-19
21
-12
42
4
-1
-3
-25
14
16
9
34
0
3
3
-1
-8
-17
66
-8
-21
5
6
19
-24
-10
7
-16
14
-10
-26
11
-14
-38
-9
-36
57
31
-45
-16
0
-11
-15
28
12
-2
10
5
22
-3
4
23
25
22
16
-12
-17
-24
33
-13
0
-13
3
-21
4
-19
-2
-33
31
24
-17
-22
-31
-26
-13
38
11
28
18
14
-4
3
69
5
-10
25
-46
-28
-11
16
-27
-16
-29
-41
-4
8
1
-11
17
-13
23
17
-33
-15
-28
-8
-1
2
14
-3
7
-5
-7
-1
-9
1
4
58
42
21
14
-16
-27
-20
8
5
-9
-6
-21
11
-7
-10
18
24
-22
-20
14
-44
-6
14
-10
14
10
-7
25
-34
40
53
9
-20
19
-29
-7
-36
14
-10
-8
-21
49
-12
49
-26
-11
33
-10
-25
18
-17
8
-27
-13
50
16
12
6
-14
-28
29
-19
-1
-7
8
-24
-8
0
-10
14
33
13
44
40
21
-12
17
6
-10
30
-16
51
17
-7
33
14
57
-40
34
-22
9
17
-34
43
65
39
-49
-15
23
-39
17
0
12
19
12
-65
-55
24
-20
-61
-1
23
-20
-6
-29
26
-11
-8
36
-40
10
1
-31
-12
-4
-31
-20
-36
18
-19
-45
-22
16
4
18
-5
-32
14
34
-53
24
-69
7
-10
-10
25
28
11
-13
-8
20
-26
25
-31
16
24
-24
28
31
23
-30
-16
60
-25
-1
-6
-7
5
-6
27
-30
46
-4
11
30
-1
38
30
-30
-9
-11
-19
47
-16
-15
-1
-28
-28
43
11
25
2
-19
-21
-2
5
28
0
0
4
-42
-6
-2
-21
15
-59
14
22
-18
35
-20
12
2
24
-4
1
-111
-8
-76
-46
-1
-20
-83
37
-32
-21
-24
-7
-21
16
-16
28
-6
41
16
-15
-7
-19
-84
-3
-24
-25
-68
25
59
-32
-70
41
15
-14
-53
-5
-44
2
-7
-12
-7
-15
10
-27
-30
11
-23
-32
17
-45
24
-15
22
13
-26
-22
-4
7
11
-9
38
23
43
-33
-124
3
-77
-11
46
-31
-110
33
-55
-3
7
-42
-64
-8
-90
39
7
-26
-68
-28
-38
-69
-79
45
-12
-73
-67
15
-12
-46
-36
15
-43
-19
-63
-5
-40
-36
4
-60
-3
13
-20
-27
-41
-10
-14
-49
-43
-12
45
-33
43
-121
-4
-47
19
-27
13
0
7
-2
6
13
-79
19
-27
0
26
-43
-92
53
-28
-28
127
-46
-17
18
-77
69
7
10
-49
-26
-10
5
-17
-44
46
58
-33
15
-46
-25
-80
-20
-38
-26
-66
10
23
17
8
-17
-15
-9
-17
-21
-6
-1
-58
-20
28
-41
53
13
28
-92
-3
-10
20
19
-45
-15
-2
-14
0
18
-33
3
-58
39
-5
-33
17
-8
14
0
44
18
25
6
10
21
-41
48
53
-5
-14
-22
-28
-14
25
2
-34
50
-15
16
12
72
-17
-13
-32
38
-28
32
10
-21
-17
-7
-9
-22
0
-14
-18
-29
-14
-16
26
3
-11
37
-9
11
-14
17
20
34
10
24
-3
-11
-64
-16
-76
13
1
-19
7
39
-29
37
12
-38
9
8
-6
21
-21
59
-37
-5
-5
-30
-21
-16
-14
-35
-37
12
14
25
17
32
-53
11
-60
8
-46
23
38
-2
-6
0
-12
-27
-21
10
-5
-5
27
-8
68
12
-1
-124
-54
-13
-10
18
16
30
22
31
-6
15
-42
53
-15
29
27
-6
29
50
-31
-3
30
-58
-19
-3
8
19
-29
29
-34
10
17
4
-28
-59
-15
-10
-12
53
7
28
-6
-20
-11
-14
-13
17
18
15
24
-21
9
-4
-14
-30
8
8
-7
-16
10
-8
32
-14
13
-7
10
-26
-18
29
7
-1
9
16
32
2
21
32
-1
26
-9
-6
-50
-31
-10
38
-26
13
5
-12
-3
7
-28
-2
7
15
43
-25
16
-3
6
-11
-31
-3
-38
-11
-10
-15
4
-18
37
18
13
-16
-8
4
-12
-48
23
-3
5
-45
0
-41
-32
-37
-32
44
32
-8
8
0
-21
-42
-60
1
20
-8
21
31
1
-1
8
21
-23
44
-6
-52
60
23
20
-47
38
-43
4
-3
-33
-9
-17
58
14
-14
45
-29
30
14
-43
58
4
-18
-6
-18
7
-36
-2
-15
122
6
-25
15
-10
83
51
-19
-53
28
-16
-19
-23
0
-6
-31
-5
14
51
3
-18
8
-54
2
-10
-20
5
78
-12
-30
37
-7
-15
46
-28
-13
16
1
17
-35
50
-13
3
-28
-35
14
-23
-23
-15
10
28
9
-3
-29
-5
31
-16
-20
-37
1
7
-12
-4
-39
9
18
-20
30
-25
7
-33
-40
-16
-6
-8
-3
-5
-13
-37
17
11
-23
50
17
-24
4
-23
24
-18
13
12
-14
35
76
11
-2
-18
-42
-32
16
-1
4
8
-11
2
4
-28
-26
14
17
46
-35
-14
-17
22
9
-57
7
-28
-26
5
3
-11
-6
0
5
-10
-8
-58
15
7
-14
-13
-48
-67
-42
28
-52
-14
-4
-40
-54
-16
29
29
15
-11
-22
-13
-26
-6
6
62
5
30
-48
-64
71
21
30
-53
58
-65
22
19
3
21
-74
3
-25
15
-9
-12
20
34
32
-36
-3
-15
-23
127
-4
-32
46
-39
-67
-50
21
-15
-43
17
-20
73
29
-46
77
-62
-35
28
-30
7
-8
11
-88
-46
-37
37
-26
119
-17
12
-35
-7
-14
-9
10
48
-8
-22
5
-25
18
22
32
-25
58
-54
10
-3
3
32
-36
15
-6
16
-3
-41
5
-40
-35
-15
18
-19
2
67
-5
-43
36
-16
-63
-59
46
19
-3
-7
-26
28
-7
-20
69
-20
-1
-12
-5
8
11
20
-47
2
-19
8
-20
40
-45
33
-8
-12
-12
-4
9
-24
-24
-16
17
38
23
-46
8
-7
-30
-32
11
31
18
-23
-48
-8
-8
-22
-19
-31
12
4
-21
3
-12
-12
4
-64
17
-45
-11
-24
55
-29
33
14
32
-40
-27
-70
-4
50
-81
-22
-17
-49
-12
42
-11
5
-11
-52
7
-26
-33
-12
0
-26
90
-35
6
-13
-30
19
17
-1
-45
38
95
-39
-7
-61
22
-57
70
71
-16
5
-70
71
-2
-47
-23
-11
-41
30
-3
-22
22
-40
-11
-37
1
-47
27
-51
53
-13
55
-4
6
-10
-16
-6
-9
-10
-16
-34
-77
-85
-28
31
-17
18
-27
-33
25
1
-44
101
-4
-21
39
-1
-5
-14
-58
10
17
-18
-47
72
61
-10
-6
-36
8
-31
58
-9
-14
-8
-46
34
5
-10
-13
-70
-13
19
-9
13
16
35
-6
74
-8
-36
45
-34
43
-8
48
-7
-16
5
20
25
-9
-36
-9
-37
5
21
0
37
2
4
-13
-2
18
10
-4
17
-37
6
5
-14
-30
-14
-38
1
28
-24
-7
-6
-16
-11
5
7
-5
-5
6
-2
-16
-9
-1
-6
4
-1
1
-123
-8
2
-10
-2
-15
0
8
-10
2
-1
0
-14
-7
-2
-12
-4
-20
-8
1
-9
-13
1
-27
-5
-9
-3
-1
-26
3
-2
-11
-13
9
14
-8
-10
-3
3
-1
-1
11
-10
6
6
-9
14
-20
3
2
-14
19
6
-3
2
22
5
-11
1
-4
-2
-14
-4
8
-58
-22
-6
-3
7
12
6
10
4
-1
6
8
10
11
11
-8
-4
-10
5
-19
-7
-6
-3
-24
5
-8
2
-4
-11
-14
5
0
-4
-11
5
-4
-17
-5
3
-1
3
8
4
-1
-8
-10
-11
-13
-10
-13
-2
-3
1
2
0
-2
-10
-13
7
-5
8
-10
-4
9
-113
-4
-4
-4
7
-9
-2
11
1
1
-1
-7
-11
-4
-4
3
-7
1
-5
-1
-3
-4
-6
-28
12
-11
-3
-4
-18
-2
-3
-18
-6
-1
24
-8
-13
5
-1
6
7
-7
-2
1
3
1
-29
2
5
1
-11
-10
3
-2
-6
10
0
-6
-17
2
-4
-7
-9
3
-79
-3
0
-2
9
12
-6
-1
-20
14
-8
4
-13
-2
-5
-10
2
-6
-3
-4
17
-22
1
-10
-1
1
2
3
-14
9
-1
2
-18
-28
1
-5
-1
6
18
-3
-5
-5
-10
-4
4
-4
0
-14
2
-7
-9
-20
6
-1
-1
17
18
-9
8
12
-16
-14
7
15
33
-29
3
-11
5
15
6
2
0
3
0
8
10
23
14
-5
1
-2
17
-20
12
-7
8
0
28
25
30
9
5
4
9
-1
0
-41
-7
2
15
5
21
-1
-15
16
10
5
5
-1
-2
-2
-3
-10
-4
-4
2
0
-3
-6
-2
6
-6
10
1
4
-6
2
-76
3
17
3
9
-1
-6
-4
-3
-11
-6
-6
-4
-5
1
9
-4
3
-3
-17
-6
-8
1
-13
6
-6
5
-4
-18
-4
-3
-3
-4
-24
6
1
1
12
9
-2
-8
-4
-14
-8
-9
-7
-11
3
3
-13
-12
2
10
3
3
-5
-2
1
0
-5
5
-1
-2
-1
-127
10
0
4
-6
-1
-2
12
0
11
0
-7
-9
7
-10
-14
-7
-4
-15
-16
0
-1
-8
-18
7
-13
-21
2
-39
-3
-5
-7
-1
-1
-12
-12
-10
6
5
15
0
-8
-14
-6
-15
-6
15
-4
3
-16
-15
-6
-8
9
8
2
-3
-3
21
-9
-16
-4
-8
6
-56
-14
-7
-4
-7
-14
6
9
10
-6
-12
-8
4
21
-12
-12
2
-9
10
5
-7
-4
6
-14
3
-1
-17
-1
-17
-11
11
-2
6
-2
-25
-5
-5
-3
-3
13
5
-3
0
-3
-8
1
17
-10
-6
-8
-8
9
-3
9
8
3
0
-14
6
-5
-11
-3
6
-4
-119
0
-3
-4
3
-7
-2
7
5
-14
-9
-3
0
8
-6
-12
3
3
5
-10
-10
-2
-4
-16
-4
1
-10
-6
-37
-7
-9
-8
-9
4
-9
2
-9
-17
5
11
3
-8
-10
-5
-12
-19
6
14
13
5
3
25
3
-10
-13
-5
-26
13
1
-14
14
11
8
11
15
10
-2
7
-5
-7
-3
1
16
-4
14
13
24
13
15
3
-14
-99
-5
11
-43
-9
-21
-18
7
-4
34
9
9
11
14
-13
-26
6
26
-31
6
-10
-9
2
13
-6
4
27
-18
5
17
-13
18
-5
12
54
-23
-5
14
-1
7
-11
6
-19
2
-16
2
13
-46
4
21
-12
-17
24
5
5
-6
-20
-22
-35
10
15
5
1
-18
33
-16
-4
-43
-23
-6
19
-2
-28
-39
-20
-18
-34
10
7
6
-10
-21
-25
1
-12
-8
-11
13
-17
-5
-19
-2
18
14
-10
5
2
5
-12
-23
-22
8
9
9
-4
17
-4
7
0
-21
15
-5
22
9
-8
-6
26
2
-15
-18
-4
-9
-9
8
-22
-11
-2
-1
13
24
6
6
1
9
-4
11
-29
-20
-18
7
9
3
10
11
-12
23
2
-11
-15
-6
13
-40
-18
-6
25
6
5
3
2
3
30
5
14
26
8
6
-21
-95
18
19
9
4
10
10
11
18
-27
-29
-91
-6
13
21
17
-8
4
-52
25
1
20
4
-10
-17
-127
-10
-1
-111
14
8
-62
22
18
-49
-20
-3
20
19
-5
-72
14
-42
2
-11
9
-5
-67
20
6
13
38
-25
28
-7
-30
-11
-68
-20
7
0
-34
20
1
56
-18
-26
-38
-11
26
-8
11
-49
18
30
83
101
-11
23
34
-33
-21
7
26
84
58
19
0
-49
115
19
21
45
-42
4
74
95
55
111
-53
-58
-12
-12
8
-35
2
105
21
80
-32
-30
79
12
-17
-25
100
14
-59
-26
13
-8
2
23
-21
20
16
-9
20
7
28
-7
36
-5
10
71
4
-2
23
17
-82
-31
14
-11
-10
9
-15
-14
-17
-12
-29
-1
-7
5
-15
42
-42
1
-3
52
32
-22
-6
-74
-7
0
7
30
18
11
7
-13
26
-15
-25
16
15
-20
-35
18
-11
16
3
-31
9
5
7
16
0
16
17
19
-18
-55
33
24
-6
8
0
-8
-3
4
7
-26
-21
14
-24
0
19
12
5
-26
1
4
8
3
16
-29
11
1
2
-28
-10
-13
-30
-3
12
24
-14
-22
-12
14
-9
4
10
0
-10
-10
-1
12
-48
15
4
1
6
4
-6
28
-28
28
-14
-2
6
-28
-25
-7
-8
8
2
18
-13
8
-1
5
-17
-35
-22
0
-7
5
-11
38
-6
-8
13
-2
5
8
4
14
0
-12
-56
9
-2
25
0
-32
30
-42
7
-4
-48
21
19
-27
-7
7
10
29
-26
40
-2
-24
29
-2
-5
-7
25
14
-17
-1
7
23
-15
17
10
-19
27
-6
10
-6
-9
-2
7
-24
-11
-1
-11
-20
30
-3
-34
-3
11
-7
-13
23
-17
-3
-4
-10
-21
19
22
-16
16
22
-9
-3
-21
-16
19
-14
15
-2
11
0
-7
3
2
-2
7
-5
19
-13
10
6
14
-6
-12
-7
-18
-2
-20
-6
26
20
-47
-30
33
-22
-41
19
-17
4
-25
-41
-25
7
26
20
51
18
-14
-33
-25
-17
2
17
-25
34
53
-9
-4
-47
-21
-23
12
-69
-33
13
-16
-61
-67
17
-18
20
-49
-17
-3
-1
-29
24
-7
78
43
44
8
69
-19
-49
1
-96
-28
35
-1
62
-18
-97
11
11
-27
-7
21
25
-45
9
-23
6
-4
-16
-49
3
65
20
53
-19
-52
-49
-9
25
2
-14
-2
-4
92
8
-38
-61
-15
-5
6
-88
-11
12
-20
-12
12
31
4
-27
-24
-35
-18
-1
-33
4
17
52
52
62
16
56
-68
-48
4
-58
-23
27
-11
79
2
-64
19
41
-9
12
-2
-4
-33
11
18
29
-24
-63
-19
-24
30
16
33
-47
45
-84
-45
11
2
-38
-2
-76
27
-1
24
-79
-1
2
22
-60
-38
-21
-8
-46
-12
23
5
-38
-25
-11
10
-27
-1
17
-16
12
21
10
15
91
-58
25
-8
-91
-10
29
-14
116
-32
-40
-15
32
-61
-9
27
-9
-30
61
-24
41
8
-17
18
-14
1
63
7
23
-22
-23
-34
51
-10
-10
-55
51
74
-14
22
-73
-7
11
-34
-91
-32
15
-56
-83
-21
69
-17
30
-24
6
-71
25
-17
30
-26
-29
5
23
32
29
7
6
-27
33
-29
45
25
10
-51
-50
-12
-5
-30
-40
37
-21
30
59
-2
52
-6
-34
9
-28
-32
26
-12
-26
-47
-84
-39
61
-19
6
-45
46
67
-11
-11
-95
5
7
-46
-112
-50
16
-46
-39
29
30
-37
-80
-24
-30
-80
35
-63
59
-46
-18
-15
-24
25
20
-37
7
-40
26
-28
98
1
52
-78
-49
37
22
-14
-68
-12
9
-13
62
45
38
21
-57
34
-25
-25
9
7
-54
30
-96
-38
13
13
-6
-43
4
2
-30
23
-61
21
-18
-18
-84
20
-21
-50
-34
25
12
36
-49
-56
35
-13
33
-50
31
-38
32
-42
-12
17
6
-41
34
8
-46
15
72
3
102
-74
2
35
-5
-25
-26
38
-17
-15
25
-18
64
-4
-49
32
-50
21
29
-78
24
-52
-3
47
13
-42
-61
0
48
-19
-28
2
-52
-20
-3
-46
4
35
10
-15
18
-45
16
76
30
47
15
47
-23
-7
33
-1
-19
-11
6
57
11
18
30
10
45
3
12
-24
21
-72
-30
-21
-25
4
-51
-17
14
38
-15
-12
71
-44
-11
17
-94
7
-60
-48
8
-71
-73
74
-26
22
10
54
42
-13
17
13
-37
-13
-9
-58
52
38
35
-57
-22
73
-17
28
90
85
26
42
-49
-12
71
-32
60
-9
-35
-22
-27
-9
23
-46
26
-22
46
-65
33
-127
85
11
17
0
-16
-5
50
-32
22
25
56
63
-24
57
-8
33
-58
-54
-7
53
17
-14
-62
10
24
-5
33
-29
57
-4
-51
-13
-21
-54
78
-1
1
-47
-50
40
-2
104
70
-34
56
31
-57
-60
50
9
18
-14
1
-7
-16
14
62
-16
-34
8
12
-24
16
-10
-4
-1
4
-11
3
-13
10
4
-11
-18
5
10
9
3
5
7
-1
1
-4
8
3
-2
7
-5
-3
-12
14
7
-1
11
-4
-5
23
4
-2
-5
5
-2
-2
-6
-5
4
1
-9
1
-4
-4
9
5
-21
-2
11
-3
-3
7
7
-16
-3
3
-8
-6
2
9
8
8
-4
1
9
3
-69
-6
1
-10
-9
-1
21
5
-6
3
-21
5
2
8
16
2
-2
15
6
-2
-8
7
-11
-1
2
-1
-8
-16
7
-20
-8
1
0
-7
7
20
10
-1
-3
8
-8
-4
17
-4
-35
-6
1
10
10
2
-3
-1
-5
-31
-12
-7
-7
3
14
0
-2
2
6
11
-5
16
2
7
0
-4
-5
0
0
1
-7
-5
-6
-2
14
3
-7
-7
1
-2
-8
0
-6
0
8
4
-3
11
5
-14
5
0
8
0
-1
2
5
0
12
3
-5
-1
11
1
-16
17
7
-2
-3
1
-9
-4
4
2
-15
-5
-1
8
5
6
9
1
-3
2
20
-7
-4
20
10
8
-2
1
7
1
-8
9
-17
-25
-1
-6
-31
-4
-25
7
10
10
5
-17
9
-31
-8
-11
4
8
31
-21
-17
-20
13
53
-8
-4
-16
-16
-22
-5
-15
-2
9
-10
4
18
-13
-8
4
-5
17
13
-14
4
-7
7
1
9
-5
2
-10
5
127
65
-14
-4
17
-8
-15
-8
-34
-2
47
-9
-9
-24
6
-11
-16
10
11
4
-17
7
-15
-8
-3
-17
-12
89
-3
-36
31
12
-14
-3
-9
5
-9
5
-12
-9
-36
18
13
10
35
11
2
3
4
7
-31
1
-13
48
-12
-3
-11
-20
-14
-2
7
0
-11
17
-1
-1
4
15
1
9
13
4
-21
-9
14
-30
-11
-27
2
-9
12
1
12
2
5
4
-18
-8
4
-6
7
-2
-6
-33
-12
6
8
8
-10
15
-11
-14
0
-1
-20
-2
10
-17
21
12
3
11
10
-13
-25
-3
3
-8
3
2
1
-22
-24
-14
13
-2
-16
5
18
-2
-8
8
7
1
0
10
2
-5
-1
17
-5
-7
4
7
25
1
9
-1
-7
-2
-15
-10
-4
21
-3
0
2
-6
-23
-3
-2
17
10
-1
21
4
2
-8
-9
8
7
1
0
3
9
16
4
-15
-3
-3
0
-8
6
14
-4
0
-4
3
1
-9
8
-6
1
-8
-5
37
12
-3
-11
-3
-7
-19
-38
25
11
1
-2
7
18
10
-9
54
-15
-12
-17
-1
-12
32
4
-52
0
30
-23
-1
10
4
14
-16
-14
10
-2
2
-17
16
-25
15
6
6
-3
9
-15
4
-1
7
-12
-27
11
19
26
8
12
3
-8
3
17
-7
17
-5
-1
2
3
2
-6
14
-5
9
-17
40
9
-7
11
11
1
4
3
-10
-3
-18
0
5
5
4
-7
-1
2
25
7
0
11
8
12
-3
4
1
-7
9
-20
6
3
0
4
-2
2
13
2
-7
-4
1
2
6
7
9
0
-3
-5
-6
19
-4
5
-18
6
18
23
-55
-28
-29
-16
-16
2
-23
8
6
6
-20
8
22
4
-9
41
-24
45
-12
-28
-20
-12
-10
24
-3
15
-15
8
30
-15
-41
8
24
1
11
10
0
36
-19
-23
20
-35
-28
41
14
-8
14
7
-6
14
-30
0
3
-19
-13
0
4
3
22
-2
-23
-5
-28
38
-17
20
23
-53
-25
5
0
34
-25
-13
-19
-17
28
5
-1
4
-5
7
-28
-45
6
-21
0
9
-13
-13
-9
-8
21
47
-8
-41
12
20
12
-15
-6
3
2
6
-12
18
64
27
14
12
-28
-14
44
-26
23
-6
12
-6
-35
-53
44
7
-15
13
14
-14
-30
0
-21
46
21
-31
-6
3
-10
6
-16
-4
-56
28
0
-10
-4
41
-2
9
-26
-14
17
-14
19
15
-12
20
-21
-9
-2
-14
2
16
-1
24
-30
2
13
-6
8
35
-46
12
12
14
4
39
-5
-13
43
9
0
-31
22
-8
-3
-7
23
9
-29
42
-21
-26
-20
-6
-57
-42
-15
-2
12
-12
-16
4
27
50
-3
19
-32
-36
-23
39
0
14
-19
4
-24
8
-56
12
-26
-10
1
-17
9
-26
30
25
34
15
7
28
19
-1
-18
-2
26
-20
-64
7
10
53
-7
-26
-21
-4
-30
-14
-14
-15
6
-1
-42
-23
10
-41
-37
-56
-49
22
-46
3
21
-30
40
-38
-30
28
-26
-7
27
2
0
82
30
-36
-55
-39
33
15
-6
-5
9
18
-3
-22
-14
2
19
71
32
-49
22
-6
43
3
-23
-44
-11
4
5
-43
5
7
-25
29
-45
-51
-10
-20
-15
43
27
-61
26
-58
37
-18
5
-10
-27
-10
-62
1
-11
37
21
-25
58
-21
9
26
-52
-2
-7
5
-36
-56
-17
-1
-22
-25
46
27
16
0
18
29
8
-4
4
-37
-22
-20
-5
-1
13
1
-47
2
13
-38
-20
41
-25
-6
19
29
12
17
-7
-36
8
31
11
52
55
-28
34
-29
53
-20
-16
-9
1
2
8
19
-18
-3
-20
-14
19
-14
24
-7
22
52
-29
-14
-35
-69
-17
-46
8
29
-20
7
-43
14
-17
22
-4
11
-24
15
-14
-34
44
-38
-14
21
-13
7
-16
-20
-9
-17
-19
-2
-49
3
-3
13
12
-2
-3
-13
-17
-46
-5
24
5
-28
17
-5
18
-24
39
7
-34
1
-6
-62
27
16
33
-48
-7
2
12
9
6
-57
-6
-61
30
-66
-47
-9
103
-19
-6
-9
-24
-17
-35
14
11
-33
-6
127
86
-30
11
-29
2
-19
-16
38
-20
-7
-5
-35
-11
6
-9
-11
-53
-52
-23
-5
13
-5
-3
-51
17
-60
41
-32
-17
-5
6
0
-13
4
24
-36
23
9
43
-32
38
3
29
-2
-29
2
-8
-54
13
-10
-39
14
91
-4
35
-11
-35
-2
-36
34
35
-8
-5
-23
-9
17
16
-24
10
25
8
53
-37
9
-16
10
14
1
-6
-9
-31
-53
-20
28
14
40
6
-18
0
-74
39
22
4
2
-7
-23
-23
24
16
15
-15
-7
5
-1
30
-7
-29
-11
7
40
23
-8
-21
-14
-11
1
37
-2
-19
-7
-23
-17
15
19
-46
5
18
-64
-22
6
27
18
30
-38
1
7
30
-9
-8
-35
37
-96
-15
-41
17
-41
-10
-26
-22
11
37
7
5
-11
11
5
33
1
-1
-100
-14
28
-35
19
-1
-22
111
15
25
27
-6
-12
94
4
44
13
12
11
-13
-5
36
36
10
-41
21
0
-15
-30
18
-36
51
-70
3
14
9
35
26
-2
18
60
19
-30
30
-51
35
-91
-66
-11
-34
-15
-6
7
-1
74
28
1
33
-10
76
-15
27
-26
16
-50
1
34
-2
-21
5
27
18
14
30
-42
-5
-15
25
13
-47
14
0
6
9
-5
15
-14
-18
-13
2
-8
-25
-27
1
-3
21
-10
28
22
13
13
-36
-7
0
-5
4
-53
17
-69
4
-102
9
6
-12
-72
13
21
-16
-14
7
7
9
1
53
13
-11
5
15
-56
-2
24
-59
5
-8
-4
32
5
-52
19
0
-1
-42
8
-27
-2
-34
38
-38
-6
2
14
8
-10
8
26
-23
-3
-10
-34
10
-15
-11
-2
-23
-13
54
-10
-26
-2
18
2
-21
-38
26
-113
-6
-12
-7
-20
-16
-23
-19
9
37
11
29
-3
-54
2
-13
-15
-12
-108
7
21
-85
-4
-7
16
70
15
-3
-34
34
22
63
-17
22
18
-16
-21
7
-10
6
30
9
-22
-7
25
-127
-44
29
-54
54
-2
-18
54
31
8
25
27
-22
37
-11
-103
69
-71
2
-127
-38
-30
-31
41
-34
5
-20
37
15
-8
32
21
41
-40
-22
-36
-15
15
5
32
-45
-27
-12
29
-26
10
-3
-29
41
-8
-19
-7
-10
-6
-10
0
47
-5
-35
4
-25
-15
18
-1
-21
-2
38
26
19
-20
-5
3
1
2
-8
12
5
1
17
-95
39
-11
10
-111
19
1
5
-14
-7
16
1
-4
12
21
26
17
21
-8
-27
-10
8
-10
11
-21
-7
-22
4
22
65
5
-69
7
1
16
-82
14
-18
-57
-24
-7
-12
-38
16
2
-9
-20
-20
27
-27
-11
9
-21
-11
6
55
-6
11
-15
15
8
-10
10
1
21
-11
-4
5
19
-20
-21
-23
-18
-20
-56
1
47
32
-18
2
-19
-29
-15
-30
-6
-1
-18
-20
-42
-36
-34
6
-7
-6
24
13
-22
-34
46
7
-39
45
-25
-28
-49
-8
-2
-5
-22
0
-9
-14
25
-29
-59
13
2
-23
24
29
3
44
-44
-20
30
-39
50
-36
-1
16
8
5
3
-37
-1
-8
25
-56
-8
8
0
16
-74
-5
-19
22
-27
-48
-40
-64
-8
-8
-34
-21
9
-20
-20
-38
11
-24
-25
-21
59
-42
18
49
-5
-8
-27
15
-15
-79
13
-15
4
65
25
-7
-32
23
18
8
-19
11
-4
28
-27
-16
13
4
-3
-11
-4
0
-6
23
30
-2
9
5
-7
-49
19
-6
-12
44
-2
-17
7
-11
-11
-14
-24
2
-21
4
18
27
-47
7
25
12
11
-33
27
10
-7
-94
-2
24
-5
7
-14
34
45
-9
-18
-5
-23
-24
32
-28
-30
18
-2
38
7
-5
5
-15
-17
0
-19
-2
-44
-4
-7
-5
-31
-20
17
9
-2
4
44
32
2
-2
-32
39
4
-23
41
16
45
-15
18
-31
-11
-33
4
44
25
-27
-81
-6
47
10
-32
-3
65
6
-20
79
-22
49
-38
39
-5
-44
-54
-60
-11
-43
20
10
-30
20
-26
50
-6
-37
32
-7
-14
-16
-42
-34
-41
-26
-8
45
-47
-38
16
-31
-17
20
9
6
9
-12
11
-4
-10
-29
-6
60
-11
-28
-14
-11
5
24
13
50
13
22
7
40
-1
7
-3
10
-14
-16
58
42
13
0
12
45
-17
7
-43
-22
3
-35
-20
24
27
-12
-8
21
-8
-28
10
-18
-28
17
-27
32
1
-21
-12
24
-31
-47
14
-6
-6
15
-18
-12
15
-29
0
-30
14
-42
-8
32
-5
-7
-43
-15
-45
6
-65
-13
-12
-37
-7
-8
30
-63
30
-19
-29
-34
-4
-8
-12
18
-11
18
10
56
-24
21
-59
-78
33
-18
-61
43
-11
10
-35
33
-27
-21
-20
14
19
96
39
16
2
-6
-32
-33
-16
-25
-40
16
-63
54
23
-31
-5
11
-5
-23
-20
21
17
-27
-53
-1
-24
127
-42
9
-8
-29
-93
-86
100
64
-46
-50
-18
66
-15
107
-19
9
15
21
46
-35
-53
47
-56
-63
2
-49
-2
8
-16
21
-63
-45
-13
-4
-8
1
-13
29
17
23
0
15
-33
20
-31
-61
-28
-15
23
40
-33
-33
-9
-41
1
-76
-106
108
-12
-48
-41
88
-3
0
44
-28
-9
-23
-24
1
-38
70
8
-25
-20
15
15
33
4
9
38
32
-38
-6
-3
3
-27
-10
5
7
-32
-23
0
-21
-30
-19
-18
-6
-7
7
-20
3
-48
7
11
-10
-6
6
-37
-13
26
-16
-61
-23
6
-15
6
-13
16
-20
-74
-15
6
-25
-39
64
-37
15
72
-31
9
-74
-11
45
8
18
-13
-10
10
-45
-4
23
2
5
7
29
16
-34
5
8
-25
-24
-28
2
-5
9
-23
54
-14
-31
25
-13
-1
-14
-18
-72
-24
20
-18
11
8
-9
-18
-4
-16
30
26
80
3
28
10
1
-16
23
36
1
9
-14
-44
87
5
37
53
-44
24
-28
18
-28
-16
13
-32
-11
-4
25
1
22
-4
-5
37
17
7
-74
-17
-12
-35
6
-9
0
35
35
18
3
-15
-22
4
-10
24
2
23
-21
-24
52
-28
56
-8
21
40
-16
-2
-2
33
23
-25
11
4
0
13
28
23
7
-28
-62
24
-27
6
-8
-9
-79
0
-36
41
3
-66
-78
-17
6
11
-24
-4
-59
-5
23
-16
-37
-42
-17
19
-26
-9
2
26
-61
-21
6
-15
-42
57
29
41
-7
-38
-46
34
-16
-24
-13
-10
15
5
14
-11
6
9
-8
9
-50
-13
-8
16
12
10
-13
27
-18
23
-14
50
-25
12
3
19
-12
-39
25
-17
-16
-18
-55
3
-33
3
-35
-28
30
-59
-2
42
-5
7
-25
5
-32
31
-44
-19
-22
-29
9
-7
19
15
-58
18
-18
-28
1
-35
-33
-8
41
-1
22
-27
15
-10
12
-48
-29
22
-14
-19
-34
36
-70
24
6
7
-37
-41
16
-7
-10
1
-12
-1
-4
25
20
-34
-20
-34
-3
-42
-1
27
6
-27
41
-3
-1
23
22
-16
4
25
-63
-10
19
-46
31
-10
-65
42
-19
27
-98
-71
-17
-11
30
-46
-20
-24
42
-59
1
16
118
-12
29
-10
40
-31
-12
-10
2
7
-69
-2
-24
-104
12
-5
6
-15
-23
25
-32
-12
-9
36
23
0
23
-42
8
46
17
21
-56
5
6
28
-1
-44
5
-45
32
93
-17
-41
24
-52
-38
-28
-27
-3
78
-28
-56
-15
13
-34
37
-57
-41
5
4
-26
20
28
2
-7
-12
-6
1
24
-35
-8
21
29
-57
13
-24
-31
-4
28
16
13
27
46
13
27
18
-54
126
-4
3
-10
-73
5
-12
-1
6
24
26
30
24
66
12
38
-42
1
-35
-12
-56
20
-13
-25
9
-16
-23
8
67
-17
53
43
-44
-73
44
-3
55
-19
-10
44
-3
9
-4
-16
37
17
10
95
27
39
-60
-30
20
-5
-45
4
-40
-19
14
77
36
20
34
82
67
-66
-53
69
24
30
-99
26
67
-91
44
81
18
-41
19
0
42
37
-88
-44
21
-34
-54
-35
10
-31
51
-8
-58
-50
-47
-90
20
13
1
9
28
-91
82
88
-44
-4
2
-98
81
-28
15
-116
56
33
-58
2
-39
-115
-8
18
-28
46
-1
-29
19
9
-10
41
-14
14
-2
61
18
-13
76
32
0
37
127
11
-29
10
-25
-68
8
18
-61
6
15
-95
-104
17
47
-57
41
-90
-54
20
39
42
9
-36
-22
-31
-11
-35
29
1
-44
-22
7
-53
-6
41
11
21
-55
73
-54
10
-30
-21
-5
28
30
-34
15
-33
19
8
-7
34
55
-4
35
-13
6
14
-6
2
-56
-21
-20
5
26
-29
9
-28
-14
19
-11
-34
6
23
45
-41
0
-10
15
-9
-12
-38
-16
-3
4
-25
2
38
42
52
-28
8
5
14
18
14
8
48
23
28
15
26
-36
-42
-5
18
-11
45
-3
-12
57
-19
-8
35
34
75
9
-3
-18
44
18
9
-4
0
-24
-101
61
10
23
-27
35
-37
42
13
-72
-17
-4
1
-18
-35
-1
5
25
-29
-17
-30
-19
-32
71
-3
-48
31
40
62
-9
-8
-54
4
0
-43
18
28
61
-84
-19
51
-30
14
-15
-15
-11
17
16
-6
9
11
10
15
25
-1
8
-14
-3
21
-14
-33
-28
-18
-58
49
69
-8
-32
-8
-2
-12
-1
-16
-19
-2
-31
-15
1
34
-21
-17
-9
-81
-21
-2
-20
-26
-19
2
40
46
-16
-12
29
-14
-26
-3
24
-28
-51
20
-11
1
-20
54
4
-25
-46
-42
30
-1
-42
-25
-45
-12
-12
56
37
-31
-78
-9
82
9
-9
-9
-1
16
-36
4
-9
-26
-31
-14
-46
59
38
-12
-66
-7
-50
62
31
29
-21
8
-60
-7
-48
-41
42
-7
-25
-71
10
-34
26
11
-36
-48
-91
-28
11
8
19
-1
5
5
60
12
-6
-62
-30
-10
39
11
-22
7
-97
-12
-15
38
44
20
-56
-7
12
0
-31
-89
19
-22
13
-40
-12
-18
-60
15
-67
26
64
-78
-60
-5
-25
66
70
40
34
-1
-83
30
-12
-52
30
19
11
-28
12
-18
12
40
-32
-88
-89
0
3
-35
24
-27
-10
-11
3
-32
-21
-33
-75
-32
56
20
-30
7
-127
-12
-17
45
11
20
-9
-12
-40
-6
-15
-46
-15
11
-39
14
-24
-5
-34
-21
-30
58
81
-58
-49
14
19
57
50
4
22
34
-60
3
-22
1
48
12
-48
-26
-15
8
-45
45
-40
-46
12
-23
2
-8
-11
-46
1
12
-10
-82
-31
-38
-97
2
35
55
-33
-14
-39
-19
24
14
72
2
-70
-8
30
-14
10
61
-25
84
-56
13
24
7
7
-11
-36
40
23
-5
-59
-38
-87
33
2
43
-22
-20
-63
27
-43
1
69
44
11
-15
51
-28
5
-35
-4
6
-50
-76
68
3
27
-62
-12
49
36
-1
25
-60
72
6
38
64
-49
12
-116
-35
85
19
31
-4
-35
4
20
-13
-93
-45
-15
38
13
-13
-19
-18
-71
4
-45
113
67
-108
-62
-15
-39
27
38
54
34
-57
-63
50
-40
-9
87
3
-33
-41
19
-16
35
-7
18
-78
-63
-26
25
-42
-8
-30
6
7
-40
-50
10
-73
-35
-16
15
23
4
34
-84
-20
68
20
36
35
-24
-28
1
-10
-27
-27
-12
39
-40
10
-16
-7
8
9
-45
46
42
-30
-50
-6
-23
7
19
27
4
2
-37
41
-16
15
51
24
-29
-15
-24
-16
15
-19
-14
30
64
-76
63
12
41
-17
2
20
41
-62
23
-48
-73
29
-16
40
0
17
14
8
-19
19
29
-18
-21
-16
-15
-14
49
26
-50
34
-33
5
44
-15
-55
-16
-32
23
8
40
-28
-48
-54
7
-22
33
14
-48
-43
6
-59
-7
-12
2
49
30
23
-4
-12
-40
-10
23
-31
-47
44
-28
1
-45
21
38
41
-27
28
-2
22
11
24
47
33
29
-75
-1
-6
3
38
-20
-4
12
10
-47
-16
62
9
17
14
-81
24
-57
-112
7
-57
62
80
-48
-57
-64
-71
26
10
-8
-12
11
-27
15
-27
-26
41
23
44
-59
5
-37
27
-39
11
-16
-13
2
60
85
-6
-1
-16
61
34
-44
-5
-43
-30
18
20
30
-10
47
-43
-28
6
-14
23
1
-13
-53
-17
-25
42
-17
-17
17
-34
-1
-4
4
-36
29
-37
-10
49
7
-38
-34
-44
-35
-25
3
-24
-4
-29
-17
-29
28
-9
-16
104
77
15
-34
-35
-41
-28
35
38
-45
28
30
47
25
-7
-11
19
-63
30
-47
-48
37
1
-22
19
31
-66
57
-42
33
-9
-19
-1
-22
-69
-16
-13
6
-1
11
-29
43
21
-39
11
-6
-18
-35
-19
42
6
34
-14
4
37
75
19
-45
-9
42
5
36
-21
9
8
-35
-19
-18
-6
-3
29
9
-14
-13
-61
-2
-23
71
7
7
-70
63
-23
-13
57
4
42
8
3
-35
-49
21
-11
14
-2
-41
-5
13
-29
-7
-5
51
80
-15
-43
-50
30
-20
-15
-49
-9
-2
9
-22
18
0
6
21
7
42
28
0
-22
5
-19
-41
-1
22
17
-33
24
-15
5
-12
13
32
-25
-15
-45
8
-22
-4
19
-12
-20
19
27
11
22
-27
18
-12
-29
-45
31
-9
40
5
-17
26
5
-11
-25
-27
-6
-2
-1
-1
-28
-19
2
-4
8
-27
-16
12
10
-30
51
10
16
29
-21
-3
-20
4
-3
-24
10
-7
-9
-20
-24
-5
-8
21
-40
43
-31
8
-14
30
-38
18
-10
8
7
-14
9
-54
8
-2
-52
-23
-3
0
21
13
11
-10
22
-4
-17
-80
-46
-27
-72
9
-33
22
-17
24
-34
24
-2
-30
-17
-62
1
-2
-9
-37
-8
25
-108
-20
-18
15
-26
-19
-36
-31
-37
10
18
-24
-9
-26
-17
-43
8
16
45
20
-53
11
-5
-47
0
30
25
-1
23
11
-11
9
0
-4
42
31
-13
21
-5
-24
20
-20
-25
-33
-23
-23
29
56
-20
-11
80
70
-8
17
29
-45
-6
-33
-5
9
16
-9
-36
15
-87
-25
-26
41
31
-12
-56
-64
-15
-23
8
25
12
-41
26
-52
11
-29
35
3
-69
-49
-43
-23
-1
5
-12
9
15
53
-20
2
44
-32
37
31
-15
5
19
-24
-2
3
4
56
-10
24
82
-34
9
5
35
55
9
6
-22
-19
16
19
0
-20
-2
92
18
1
11
-10
15
41
27
-21
-41
-7
11
-6
0
-11
-14
-26
10
12
22
12
-8
0
-2
-45
-26
-5
-17
28
-52
8
-3
127
-15
-13
10
-23
-5
16
0
-27
21
-13
23
-19
23
-28
-31
-3
-21
20
1
29
-8
-1
-57
27
-11
-1
-17
-47
-9
-5
8
21
4
16
-31
-14
5
13
-20
-11
-13
-28
-37
6
32
0
36
3
-5
-37
7
24
24
24
-23
-3
-9
-1
-9
-17
16
-16
22
34
-14
6
-17
13
-33
20
-8
-10
19
-9
19
-23
2
6
9
-14
-39
45
-16
-24
2
27
-7
7
18
-7
2
-33
-5
4
20
-19
-36
32
-22
-2
0
48
-21
12
-19
-43
-16
-24
-26
13
27
-29
-1
-51
-24
-7
9
18
-23
-2
-36
2
16
55
1
24
8
15
-17
-20
-1
3
20
-14
-24
-10
27
25
-8
7
2
22
8
22
-42
-37
-17
-22
7
17
1
2
13
-18
8
-9
2
13
3
25
19
26
-12
8
-3
54
-10
-15
-27
16
22
6
-22
-38
-9
-26
10
11
-28
-5
1
7
4
8
-25
5
21
60
-27
11
3
38
-6
-21
-18
-13
21
19
31
27
-35
-17
45
55
47
14
-10
45
-26
-5
16
5
-7
24
-36
52
-14
19
-10
-4
18
49
76
-22
27
19
-8
-3
-8
-5
-4
-62
57
23
3
-11
7
-25
25
10
-24
67
-31
11
13
-35
-5
7
10
-73
25
14
-26
70
-23
-15
44
-5
-2
44
55
45
0
17
-29
-14
44
3
66
-43
-30
-12
-11
53
61
-119
-24
-25
4
-14
61
-7
9
-16
26
13
-47
-72
3
-8
-67
-16
-9
-1
-10
-37
56
76
3
0
3
-2
-13
-39
-27
43
6
11
4
-35
25
22
7
-6
3
4
-49
41
-45
-10
-15
-3
-56
26
13
3
-36
-6
-15
14
28
27
5
-46
-54
28
37
44
41
-15
32
-16
-19
14
57
-15
29
-28
-27
-7
-14
-16
3
-26
-57
1
38
-1
-17
-26
19
67
34
-5
22
7
9
33
8
20
15
11
9
-47
-11
-46
30
29
8
21
-27
4
2
-17
23
-15
30
39
37
16
7
-63
-25
40
-5
30
21
-12
-47
45
-52
14
18
28
-22
-4
-8
24
10
-63
-11
-2
-4
-34
-25
18
-99
-29
-57
2
21
-58
-18
-74
-32
28
-109
20
-14
-71
-14
-17
-36
-56
-33
0
-11
-24
-95
-9
-37
-69
-2
-5
-78
-97
-22
-32
-28
-66
30
61
9
12
-36
5
-91
15
-57
20
-81
-45
-50
-55
-99
65
23
-114
-61
-33
42
18
70
-22
-26
16
-5
-19
-127
-58
-53
-46
-109
-9
32
-9
-10
-47
-15
26
-28
19
-8
-59
-44
-60
-31
-85
1
18
41
-39
-1
12
-8
-16
-54
-24
-76
36
-32
-50
-81
-43
-76
-13
-33
-8
14
-11
-39
10
28
59
54
10
-4
-60
-43
22
24
-26
-46
-18
10
35
58
5
21
4
7
-18
-41
-29
-6
-48
-15
8
25
-7
-32
-43
25
33
36
-28
21
-8
43
47
24
-45
-31
-5
26
-29
66
-51
25
18
-6
-20
-41
2
-8
-76
-13
22
-29
-11
26
28
-65
4
6
0
12
-26
57
-6
-15
3
12
6
69
15
4
-31
-52
48
27
7
-6
20
-38
6
-4
-4
-5
-15
33
-17
41
-11
6
40
-7
-40
-48
35
-23
-35
41
-32
-28
-16
-30
19
-9
-10
28
16
6
-16
-2
31
8
-7
-2
29
-8
30
18
6
46
74
-109
7
-64
-19
-6
-17
-52
10
-35
27
-34
36
-10
25
37
-17
-27
53
86
15
-21
25
-64
17
-29
-12
-39
-9
42
5
66
33
10
25
-26
-38
8
9
-47
16
1
-54
-3
-30
-35
19
-22
-10
43
4
-18
30
6
11
-73
13
-14
-16
-59
14
-33
11
0
10
24
23
-1
-25
28
10
47
-3
-12
17
8
-34
-16
19
20
-42
-13
6
13
-37
50
-6
-8
-19
13
-10
-48
-3
24
4
57
50
11
-18
6
16
65
-31
-7
3
37
37
26
30
-8
32
-3
-24
13
5
-11
12
-6
-4
-29
9
-14
-10
-40
0
9
-14
-30
-27
1
-3
-11
-3
9
-5
-11
14
-10
20
-34
0
-32
-23
-5
-32
-36
-24
3
22
-7
5
17
-23
7
-24
-7
24
-10
-7
-14
-9
-35
13
-8
-20
-15
-20
-24
1
-17
-17
-13
19
3
-11
-10
30
16
-1
-4
20
-14
-16
-6
-5
-18
14
-27
5
-27
-5
15
-5
5
-5
-14
15
2
30
18
33
-18
-67
-23
30
-16
-19
2
-10
-8
-34
67
16
-22
2
27
-22
17
8
-5
12
30
-4
27
33
25
23
-6
1
-37
-28
-18
20
17
-22
-58
6
-43
21
-12
0
-28
-16
-7
2
-7
17
4
-15
19
16
-34
-9
-30
-38
14
25
0
-8
10
30
-2
13
0
11
-19
10
-22
-23
28
-16
-3
-3
-18
7
29
-8
8
23
-6
-16
9
-11
14
-1
5
-5
12
9
-13
19
7
-9
-30
-1
-10
38
-18
-7
-1
-2
-14
17
-8
-20
-9
-22
-28
-8
-22
34
18
-26
25
-18
-27
-2
-11
-7
-18
-45
-8
43
-2
-8
13
43
-4
18
47
3
-47
-9
3
-38
-8
-31
-19
0
36
24
-24
36
1
13
26
-5
-5
127
13
-24
-44
46
-37
22
-19
37
-23
-9
-13
11
-9
-29
-32
0
-48
-40
-11
-1
-15
-40
-11
12
46
-4
21
11
20
8
-33
-8
-32
18
12
0
-43
-10
9
30
-11
60
-6
19
-3
-40
-44
14
61
-56
-17
-32
-9
2
60
-14
-20
12
-8
2
-6
-22
4
62
19
-24
4
62
-27
18
-25
7
-26
-8
-5
55
-20
-26
-43
-54
-71
4
-8
-22
-20
-28
25
20
33
-11
32
-33
63
31
-7
-30
-23
-17
41
15
-5
8
16
40
-20
-3
-26
8
-26
-2
7
-37
55
-9
-36
-5
-26
2
-18
-2
8
10
4
-25
25
-39
-38
59
-7
7
-5
28
-19
-14
-20
11
-7
-1
-2
33
2
3
10
-32
-17
-13
-16
-10
19
-67
6
-21
-18
-34
10
-18
39
10
-11
-6
-12
8
-9
8
60
14
2
-10
3
19
9
-9
33
12
-20
4
47
-9
-6
-5
-47
5
13
4
-2
1
-8
29
-5
-6
-15
68
-15
48
26
26
-13
-7
-19
29
18
-13
17
0
-41
-5
-5
-32
-10
6
1
6
-12
37
-5
-6
7
26
21
3
6
-2
-20
-25
-13
50
1
9
-23
41
13
13
-8
5
6
19
15
15
-24
-4
54
-29
-13
-31
-25
-18
10
10
-8
-17
-23
13
-4
-39
-23
1
-14
49
13
68
-1
-11
-28
-3
-21
-2
10
35
-25
14
-21
-38
-26
13
-1
-2
6
-3
19
2
3
18
24
-8
11
17
-17
-52
-1
48
2
-8
50
20
-36
4
-5
-46
0
31
-22
26
-9
-16
-20
-4
-10
-30
-26
10
-24
-18
6
-12
-10
-27
24
-1
-36
28
4
38
-19
34
-19
-12
-29
11
-7
5
11
-25
-18
-3
2
-8
11
-3
-5
-19
-3
2
3
-11
-24
-7
4
-22
-44
-2
-37
-17
-4
4
-18
20
-2
3
5
17
1
-11
22
-11
5
5
-7
-8
7
12
-4
-10
-15
5
4
-24
7
-5
-7
5
13
-2
-8
-6
-30
12
5
-5
-1
-25
-12
5
9
14
0
-5
3
-18
10
-2
20
5
-14
13
-5
-64
21
6
19
-4
-4
0
-3
-13
19
-7
14
4
-1
42
-18
-4
-5
-37
-3
-16
-4
-14
21
-9
-20
25
4
-42
13
-3
3
2
2
-1
10
6
-16
4
6
-11
-7
0
-35
7
-43
22
-10
-5
-20
16
20
-2
7
10
-14
1
11
-4
1
-31
-26
-10
-2
-85
-5
11
9
-21
5
-9
-39
-17
31
9
4
1
-12
18
-8
-3
-9
-6
-1
-14
-23
11
-2
-12
-10
14
4
-30
-6
-16
-2
8
6
12
-5
5
1
15
-12
-3
1
-16
-2
3
-21
27
-19
-10
-5
7
15
-10
-13
-12
12
16
6
-3
-3
-18
-4
16
-2
-92
14
0
-2
5
-1
-2
-22
-18
18
1
2
5
3
1
-19
32
-1
-4
13
-14
-27
3
-17
-5
3
-12
6
9
3
-12
-47
0
3
-15
13
-9
11
-4
22
3
-4
12
1
-16
-10
5
4
-9
1
-1
20
16
-10
-3
6
2
-1
24
26
4
-5
13
-1
-110
20
-17
3
-25
-7
-9
-2
-14
3
11
7
14
0
22
-4
11
11
-11
2
-20
-7
-7
2
-18
-9
11
13
-15
13
-16
-29
15
4
14
7
-12
10
-2
10
-5
-1
22
5
-19
-42
17
-13
20
-29
-8
15
17
1
9
-29
-29
10
-1
13
-23
-45
16
12
-119
-15
5
-19
2
19
8
6
-2
4
-17
5
4
-11
9
9
13
21
1
3
-13
-20
-10
-1
8
14
-7
9
4
-11
-18
-17
1
18
10
-17
14
13
-5
16
-10
26
-8
17
-6
-11
17
-4
-2
-7
-15
0
-9
0
2
11
7
12
1
-3
-3
-12
19
-5
-127
2
5
-3
5
-9
6
12
17
27
21
4
-8
-5
-6
-7
9
-8
8
-2
22
-12
11
-12
-12
-12
2
-5
-1
4
-17
-11
10
-1
-20
11
-6
16
8
11
-7
-27
-3
20
-21
-12
-17
16
2
-12
14
7
7
-7
9
14
6
-15
16
21
0
-7
-10
17
-17
0
-13
-7
-9
1
-23
7
-10
10
7
-2
-1
-26
4
28
2
32
4
15
19
7
2
-4
-22
-6
23
9
-1
-10
-15
10
2
1
-13
5
8
14
14
10
6
8
3
10
-23
-49
-22
13
-2
-19
-14
-1
12
-7
28
16
-14
2
12
21
-38
-14
-7
7
-14
-1
-2
-45
41
21
-6
25
5
4
-11
24
-2
28
-9
6
-4
24
-4
-2
-1
-32
-4
5
11
23
9
16
-6
-1
-16
6
-14
13
-1
-10
5
11
2
-9
32
14
-18
3
-1
-36
3
-1
4
-1
0
-28
9
-8
34
25
-1
0
9
7
-30
-14
2
-9
-9
-15
-1
-23
34
-14
8
17
41
4
7
19
23
17
-18
8
21
-8
-23
8
-27
-24
-43
9
29
21
17
-5
-12
2
-12
-17
-3
3
-13
26
-10
-11
-32
41
8
30
-25
-21
31
-62
12
-9
-5
18
-13
25
2
11
4
-18
1
-10
37
-81
34
0
-19
-38
9
1
-9
-40
14
24
-14
-40
13
21
22
6
12
3
-31
11
24
4
89
5
-26
-8
10
37
29
20
-5
-11
-7
19
-6
-6
-13
18
21
-14
62
-4
-28
7
-18
17
-14
38
17
9
33
23
37
39
-15
37
20
6
30
-5
22
-13
-3
12
-18
27
58
12
-17
-34
5
-2
-7
23
-59
-105
-27
-15
22
2
-25
29
-34
9
2
-6
24
-7
-18
-6
31
30
5
30
-14
13
-3
10
-23
-6
22
11
2
-8
61
-19
-28
19
8
23
18
15
-3
15
15
-36
7
50
33
13
11
-7
-4
15
-15
-7
-7
-30
-18
11
9
31
-24
-29
6
-4
1
3
-27
-46
-7
-33
6
-1
5
13
8
-9
-9
1
-1
-14
-14
21
49
29
-12
12
15
-13
2
14
11
-32
-11
11
48
46
113
8
-19
-5
19
-69
-30
29
-9
-51
20
-17
11
-20
-66
27
26
48
57
-21
-3
-35
-10
-29
-16
4
-7
11
-45
-16
-27
-9
-11
8
-16
-4
-8
-20
-3
17
18
2
5
-21
-24
-10
-124
13
-45
-101
98
11
-55
11
44
-43
10
54
42
10
-16
58
62
16
-11
-127
61
26
-6
-89
7
114
28
-1
-14
46
12
97
-63
19
-9
1
8
11
-34
-52
-58
85
-11
80
42
-28
-51
-39
-39
35
-41
-28
-98
-76
1
-12
68
-18
-5
17
-10
12
8
6
-5
-9
5
-45
9
11
9
-5
2
19
10
66
14
-36
27
-10
23
-26
3
-14
13
9
-9
-12
-20
-30
-8
-15
7
-2
9
91
-1
11
13
34
-10
-25
-29
6
-62
8
-7
14
62
6
-44
0
1
-19
-17
19
-32
-4
9
-16
4
33
-39
-22
1
-30
-31
8
11
-24
-11
29
69
23
-7
-13
25
-36
4
18
13
-55
39
13
6
72
44
17
-32
-19
53
-40
13
10
-34
-11
-28
14
-20
-27
37
31
22
-59
9
10
3
-24
-32
-66
36
-12
7
-25
35
1
3
-19
8
41
-20
2
37
-23
-25
11
-14
-36
-2
-20
-31
16
-12
14
-64
20
26
67
-18
-44
33
-10
2
6
12
-14
6
31
-32
19
-20
13
73
13
-3
-8
58
-16
26
-33
-44
-10
11
34
-2
67
17
-36
-9
41
-6
77
-2
-22
-31
53
46
20
8
15
1
-27
12
14
-36
20
-26
14
-2
22
-10
-54
-16
-18
-3
28
0
5
-45
2
24
27
-32
-26
39
11
3
-13
4
-53
31
-6
22
-40
-4
-3
11
5
39
-10
-11
42
21
6
-29
-1
21
7
-8
22
2
-15
-10
0
18
23
-19
0
30
6
31
38
28
-1
-6
-32
11
-2
-15
19
-13
-7
8
-7
-3
-14
8
21
-47
31
3
-14
1
-51
-24
73
22
-33
44
9
33
52
29
25
0
16
-2
69
-22
-8
17
26
35
17
-2
-43
-35
-32
16
21
-56
6
-32
5
16
-55
58
-39
-77
59
1
-47
66
7
0
-27
4
-34
-3
8
27
32
41
-37
37
50
-37
34
-17
-11
5
-10
-8
21
-56
-12
41
-38
-7
46
25
-92
33
10
-35
35
42
74
-57
17
-14
2
-2
10
-20
43
8
15
30
-80
-46
-67
-9
-33
-2
-22
-63
8
25
-27
92
53
12
58
24
-127
-4
-53
-31
16
-2
-15
51
10
15
62
10
-64
18
35
-42
31
-66
-36
5
-4
5
19
27
-18
11
-29
32
1
9
-18
-25
28
2
5
21
-1
5
50
35
51
57
8
-24
-4
29
6
6
-37
-34
-14
-40
-89
22
-8
-32
2
24
-22
60
13
17
-15
-8
-96
20
-41
-5
56
23
-38
24
16
44
2
-20
-41
-15
0
5
-12
11
16
9
-11
-38
17
26
-13
-35
14
8
-2
-32
17
49
-10
7
27
16
-18
1
-10
-7
1
-30
-6
5
-8
42
-24
-3
-41
-2
12
9
68
32
14
-18
-25
23
3
1
38
7
43
-27
-31
41
9
25
-48
-20
5
5
2
2
53
4
-13
41
49
-14
60
-7
-50
6
66
-10
29
76
29
10
45
0
56
17
-57
-26
-33
17
23
10
25
-16
21
-8
-72
22
39
-44
-21
-45
-34
0
-70
-40
-10
-46
-61
-5
-25
-7
-4
16
49
86
8
-26
7
-33
-81
-75
-20
-9
-24
-34
9
63
47
10
54
25
-16
10
39
-19
8
-75
-49
36
-5
-33
-4
-15
8
-12
-17
31
29
-3
-51
-5
1
-2
-4
18
-22
27
68
43
-14
12
-16
1
-5
26
-15
-21
-20
-26
-47
1
-11
10
-16
15
13
18
1
47
72
22
-18
-75
-111
-22
10
-3
32
-37
-9
-15
58
-16
-27
-43
-31
-10
-20
-11
-60
18
41
15
-11
-39
11
-2
-31
8
-2
-10
-17
-11
39
26
-20
-9
8
-18
-25
9
-17
-5
-22
-11
25
5
-37
-8
-44
12
-42
-11
8
24
-17
13
3
-4
32
19
-11
-39
-13
32
-30
6
50
-35
2
10
-37
-40
72
48
-9
14
45
-73
3
20
33
25
56
38
-71
-8
72
-20
-25
-18
-17
-51
-15
-17
24
-13
50
-14
-72
-10
18
-24
-41
23
-10
-30
-47
8
-42
-5
-66
-41
-69
-32
-9
6
13
-11
13
6
-48
-24
-14
3
10
-7
5
-22
-70
-5
26
-18
66
17
32
14
5
22
55
-60
21
-51
-21
10
10
62
9
2
-20
42
36
14
-10
3
-21
-38
-20
-33
28
-49
10
-4
-34
2
14
-22
-21
50
57
29
-19
-6
-16
24
-21
-11
-11
13
-11
-47
-31
2
74
-13
-25
21
-11
-1
3
-12
17
-28
-33
-26
-51
35
37
16
29
-20
9
2
61
-51
22
-35
-5
-39
-23
16
-57
-21
27
-4
-23
-14
8
18
26
30
42
-23
-27
30
-5
14
-1
17
-16
6
5
-58
-3
-24
30
-1
-2
-23
33
16
22
9
-26
23
42
-60
2
-17
-1
-23
-6
-32
-1
32
5
-23
-10
-8
11
27
6
-12
-20
9
22
-89
7
-8
9
-1
-9
-14
13
25
-48
-4
19
7
36
-7
-12
-32
-8
-20
44
-6
-1
-2
7
30
-51
21
-4
-10
-24
-94
-34
-54
9
-3
25
-3
21
-10
18
35
-19
3
-7
4
2
-36
-20
12
8
-39
-1
46
-3
-10
-11
3
-6
9
-16
-31
-74
-10
2
-15
0
-54
-11
41
3
-33
14
11
-31
-13
-10
-13
-2
13
-14
18
-22
-21
0
10
24
-16
20
19
-28
21
-46
3
-9
-23
32
-34
-2
0
10
-21
4
33
12
6
-23
-3
-3
-7
-1
-10
-33
-4
8
-43
7
11
19
3
-7
16
-10
38
-2
3
-51
6
12
21
12
-32
-26
5
13
-33
6
13
18
-7
-29
-20
-4
-41
-25
38
-1
35
48
-41
-25
20
-6
-9
-6
23
13
-4
52
-71
-37
-81
-5
0
27
-24
46
-5
-8
34
-43
20
102
-9
62
-24
-19
-23
-26
-62
-32
-14
21
0
-49
8
-25
61
18
-36
-32
9
-20
-109
37
-53
-9
-86
-5
7
-19
11
-45
23
-15
51
17
-16
-2
-35
-46
2
6
2
-1
-17
30
3
-30
22
-12
-17
-1
-67
-4
-99
-21
7
-12
0
20
18
23
50
-23
-14
-9
27
32
-68
-31
-9
0
-30
-15
4
-23
-21
-83
3
-5
5
-12
-23
-76
-30
-21
-34
-14
-18
30
-15
-9
-21
-13
-72
-19
2
45
93
-4
26
20
-31
-3
-22
-9
-6
15
22
25
11
21
11
-7
28
11
-3
9
-24
-31
19
13
10
-19
40
24
28
-26
-7
-83
44
36
-41
-64
-27
-6
8
4
65
-32
-4
4
19
-6
-39
-15
12
-32
-127
13
12
-59
47
56
-3
10
45
6
-3
58
10
22
-24
2
35
-31
1
30
15
40
-11
-11
-3
25
10
-39
-5
11
5
-2
-29
-15
-47
5
31
4
6
11
0
12
24
-18
-2
31
26
23
-1
-35
-24
4
-29
8
5
-4
0
-24
-8
7
40
-4
-26
-7
-20
27
-32
20
-19
34
-82
13
13
-23
-7
18
3
-11
-17
6
-5
-20
10
-63
-31
20
-3
38
-13
-8
-15
33
-11
-3
-18
-43
-83
17
-43
-9
-16
-15
49
0
-14
42
44
-26
-22
12
42
-5
6
-42
-20
31
-39
-2
-5
-18
2
-16
-7
-10
-4
-35
-14
-22
1
-5
13
-5
-6
37
-19
45
-31
-14
-54
2
-6
19
24
20
-2
-30
17
-19
-21
32
34
-5
8
-14
-22
41
0
-4
17
-38
-3
-44
0
-34
-13
24
16
-31
56
-9
51
2
13
-13
56
2
4
-31
20
-5
5
20
40
7
13
-2
-3
-27
-31
-16
-27
-17
31
-26
16
-39
10
51
-10
12
24
18
4
9
35
-31
-6
18
-6
3
29
-13
2
1
-13
-7
26
3
9
6
-5
-1
9
-6
11
-9
4
-12
-29
8
-13
-22
-12
-5
-4
-11
-14
26
5
22
17
-3
-6
-4
14
19
-8
0
-9
2
10
23
-8
24
6
-1
1
-11
-7
-5
-7
-1
-6
3
11
-4
4
14
-16
-3
9
16
-32
-6
4
-3
-5
11
4
2
47
-7
-12
6
36
-1
-20
-22
-5
3
-7
10
-1
3
-6
28
-15
1
11
1
-12
-47
-18
-27
-27
-15
14
0
10
18
26
-24
-1
12
6
0
-18
-21
-26
7
0
4
5
-4
-13
-8
3
-2
-32
-4
-7
-19
25
4
-2
7
9
24
0
16
2
-7
-10
-1
-57
8
6
1
15
9
-5
0
7
-7
-2
-8
2
-10
-7
-5
-1
-1
-8
-2
-11
1
1
-27
-2
6
-4
16
3
-13
10
5
8
-12
10
6
10
1
-11
8
11
-10
5
11
-15
-9
6
-1
-19
3
15
10
19
21
-18
-3
36
0
-38
15
28
12
-8
-12
-3
18
23
-10
0
-29
46
16
-13
23
-10
13
13
4
0
-28
-12
12
34
-3
17
-3
2
49
21
-9
-14
8
9
-13
-20
72
28
34
-16
-19
11
14
2
13
3
85
4
9
13
40
29
-15
35
4
82
-11
-97
-7
29
20
-47
10
-14
-15
-38
19
10
5
100
-4
6
-5
21
114
-38
-9
9
11
11
22
-21
-6
-9
20
-25
-37
8
8
1
-3
14
-48
-14
-23
8
-4
22
54
73
-9
-41
4
-31
-19
-32
-42
-15
12
3
-30
-3
1
19
-25
-12
-4
-48
6
-47
-7
122
0
-4
-1
7
5
11
0
12
24
-21
3
-127
29
13
-19
9
-31
-19
27
-7
-1
17
12
14
5
-6
0
-22
-8
-13
19
-4
14
-24
-38
10
2
0
5
-1
-4
-27
13
16
-24
1
22
15
-5
-11
13
3
-4
0
-3
-24
-11
10
13
-13
8
19
-16
3
5
2
21
-1
4
6
14
20
18
4
-17
11
13
7
-3
2
-8
-4
-14
14
22
13
4
2
14
6
-5
-7
-6
-2
-2
-11
9
8
-4
-12
-16
12
-14
24
-11
-16
-21
5
6
-19
9
0
-1
-5
6
12
-11
-24
14
28
18
-20
2
11
9
21
11
-34
-7
13
23
-8
14
4
-19
-29
-10
-20
-14
7
18
-9
8
2
8
-23
-24
5
1
11
12
11
-7
10
7
-26
-10
0
23
2
29
20
-37
-5
-15
-7
-11
-11
-20
-5
2
-33
7
-30
21
-12
3
0
4
-7
12
-21
-21
-10
-33
0
23
-7
-2
-20
16
24
-2
-15
-3
-8
-10
11
-8
2
4
3
-3
-17
14
8
-15
19
0
-15
-9
-1
8
16
8
-3
-10
3
-5
-6
1
9
9
-11
6
-13
-17
16
10
-8
8
-6
7
1
-12
-11
-26
-7
-12
8
-9
-5
5
4
6
1
3
-18
-7
13
12
-20
5
4
-4
17
-10
-9
18
2
11
-7
13
-9
6
-20
2
2
3
-30
27
1
10
-16
-27
3
-25
-6
4
-2
11
-2
2
-2
-7
-8
5
2
-12
-15
-19
-8
-2
-3
14
7
12
14
-7
16
-7
-1
4
8
3
-9
-3
-5
-8
5
17
-24
-17
-4
-12
-7
10
10
-3
7
11
-5
7
-1
12
26
-12
-4
-9
-13
-13
-26
4
8
4
32
28
-10
-24
-34
11
-22
-13
-25
16
-12
-11
-16
-5
-6
-15
18
-10
-22
3
12
-29
-25
2
-3
27
-12
19
8
2
-30
4
-12
-24
-9
-24
3
18
-8
14
-25
5
-7
-20
4
9
26
4
43
7
-2
26
14
20
-11
5
6
26
-18
-7
-25
29
-13
17
-33
-13
-15
-11
-13
-4
3
25
-8
10
-16
6
-7
16
14
11
-16
8
-21
-36
19
13
8
-6
9
2
4
13
-7
7
-3
-6
8
3
-18
-18
1
12
-9
9
14
-18
3
5
-7
10
24
-12
8
37
-19
9
-17
20
9
7
-14
1
-6
-6
22
-5
-18
33
5
14
-6
-37
-11
-6
-30
17
-2
5
-14
-8
-1
-6
-1
18
0
-23
-8
-23
6
7
-21
11
10
17
13
-6
-4
5
-10
-3
4
-5
-10
-9
2
16
-10
12
-6
-9
24
-2
3
-6
-5
-8
-3
23
7
42
-18
28
-20
89
-6
33
-11
-43
-25
-18
96
-16
15
57
3
-39
-29
13
-89
58
-27
10
68
-47
-40
-8
27
0
32
-27
-48
-47
15
-33
-37
-2
0
27
-15
30
27
35
-33
-6
-12
-41
-23
-15
-6
101
-3
103
-36
54
-27
-33
-10
-16
127
-30
32
9
-17
6
-10
-8
4
-57
-10
-25
-14
-15
-11
39
-39
-14
-14
-25
-10
-18
11
-25
13
32
-10
11
-29
14
-6
-11
-1
10
-7
9
-13
-38
5
-12
3
-6
-21
10
-15
0
-44
-3
-32
25
4
-28
-24
-19
-4
21
-1
-7
-9
-55
32
7
-2
-12
22
-15
-39
51
-1
-2
-19
21
15
-3
3
-2
11
-22
8
4
0
19
3
4
-6
-6
4
5
14
31
-3
4
-5
23
-1
-10
-7
24
-3
-2
14
-8
9
-9
10
-15
15
-2
6
8
-2
-23
-2
-10
8
-10
-1
14
1
-14
-13
-13
17
-13
-7
-5
6
-2
9
0
12
8
-17
35
-13
15
9
-19
-16
-22
7
-14
32
12
-40
-25
14
5
0
-19
-12
-5
5
23
14
6
1
-9
-17
-19
-21
20
-11
1
0
-18
-3
-23
0
-14
-11
-4
-11
4
-26
-24
-16
65
-4
-17
-6
12
-4
3
-10
-5
1
-31
3
5
9
15
-6
2
-12
5
9
-25
19
15
18
2
21
-16
-1
13
5
12
-16
-12
10
15
-3
0
-13
18
12
15
8
-17
2
-1
-15
5
12
3
-20
-6
-16
7
-10
-2
26
-2
16
-13
12
4
6
-20
-6
3
9
-9
-3
-8
15
-8
0
1
-2
-24
36
8
-10
-11
10
-16
-10
7
-4
8
8
-44
-6
-35
0
-50
-45
12
-78
5
-18
-5
117
-53
10
-16
-39
-71
6
-41
-7
-15
-48
-3
9
-16
6
15
5
-21
7
93
1
32
13
45
-27
-27
-5
-35
59
4
40
-5
19
-37
29
-35
-61
-13
12
-30
69
22
25
56
1
-25
-21
84
-17
-33
28
6
14
5
-53
-22
15
7
-29
6
23
5
9
56
19
-18
2
-22
-8
-75
10
-2
-34
-16
8
18
6
-1
21
-15
3
-49
55
32
-1
-44
-11
13
27
-14
27
-38
9
38
-44
43
-21
-43
4
-9
-40
31
-35
22
0
14
25
18
4
-22
-34
66
26
-16
-61
23
9
-17
-9
-16
6
68
12
-24
-34
9
-3
34
-24
-8
-3
-55
25
-19
38
-24
-25
12
37
78
-36
-26
4
5
2
16
31
-24
10
-15
-14
-26
-38
-9
-21
-37
39
-10
-11
101
-6
-10
-28
-26
-34
35
43
14
-42
-12
19
59
-28
-4
-15
28
3
-2
-64
-21
-55
-30
-42
-20
-47
-4
-32
2
16
-30
-34
17
42
-3
-10
11
6
-115
-13
-25
8
2
-1
-6
-87
-26
-41
13
27
-22
60
58
-68
78
-22
45
-13
-41
8
-36
87
64
34
-29
1
-9
35
-59
-59
-17
-15
-40
21
3
52
-63
37
15
-14
120
-4
23
-29
29
40
7
41
-34
22
5
-23
34
-59
-26
-55
-6
7
-6
16
1
-34
-110
0
-4
-12
69
20
-8
-52
31
-30
-7
20
2
65
-48
-32
16
17
19
-17
1
-27
-93
4
40
-21
18
-38
-74
127
-64
-64
18
-5
26
-69
53
32
-31
-29
26
-52
74
-62
28
42
42
51
3
-4
-44
-6
-16
80
16
13
15
-39
-20
49
-32
41
-35
5
-48
18
-36
-53
14
22
89
46
-16
27
7
-12
27
-20
-35
-17
21
2
-37
-14
23
28
-27
-14
-19
-38
-9
63
-42
-2
-49
-38
30
39
35
-36
-13
-22
33
-66
-30
-20
15
-50
-22
-23
-27
-6
-5
1
-37
-9
0
-12
52
32
-9
0
17
30
11
-28
-4
-6
50
-45
-43
35
10
35
37
-18
-30
6
-32
-8
-3
64
87
-72
-16
-54
-28
-45
-25
1
19
36
36
79
-45
-5
33
29
-59
27
5
-47
58
-37
-28
18
-72
41
-16
-30
-20
-11
-4
-6
-7
29
56
-19
-61
94
29
44
55
-62
2
-17
-9
38
19
-65
0
-49
-15
-53
0
-5
22
-15
0
-2
47
-20
-30
-22
-3
82
49
-29
-7
-51
-20
-10
-12
-32
8
-38
-60
2
-30
18
-79
40
-65
-20
-13
-20
64
-14
29
-10
-20
-20
-20
11
-27
-79
9
55
10
64
34
-11
-43
-44
4
66
35
52
-34
15
32
15
-5
-33
-62
12
-24
18
-20
-29
6
8
46
29
38
9
-8
-2
22
18
42
-30
21
-63
-41
13
6
73
-1
-61
32
-36
-34
15
-24
14
-45
28
31
-3
-12
21
63
-9
-9
-32
-28
-11
-11
-23
39
2
9
2
12
28
-1
1
-23
-51
-7
-11
-18
-5
8
10
11
6
-4
-6
2
-27
2
63
3
2
2
-15
-27
6
-19
-21
2
24
-5
-5
-3
5
30
7
3
-1
-10
7
6
40
-35
22
-18
1
-38
19
-33
6
-19
14
13
-1
-7
16
-9
2
-2
28
-3
2
-13
-27
-7
-16
4
12
-8
-38
-9
-12
4
-25
-47
-30
-7
-27
-35
-31
29
57
-20
63
-14
71
-14
-44
-27
11
13
17
1
0
2
39
35
-31
33
-14
-11
52
-19
35
6
48
23
11
19
4
-52
6
-43
43
37
-3
-25
-29
-14
-24
-24
14
-5
22
-56
-14
7
-16
-5
11
17
8
3
-38
-12
-12
12
10
-2
-7
13
1
-33
9
33
20
-18
-32
6
16
36
-28
-3
14
-23
-16
23
-13
16
1
31
-7
-63
-2
17
35
-13
2
7
24
1
4
8
28
-28
15
-20
-4
47
-1
-7
1
-5
-31
-37
-15
-41
15
-54
-17
17
5
0
4
0
-17
-19
-28
-7
16
-10
-1
18
12
14
-12
9
13
27
-49
-7
72
15
-24
-13
-12
-19
-11
9
2
-29
12
13
-32
1
-41
-11
32
1
-26
25
-23
11
-7
-33
24
3
9
20
-55
-16
-34
-7
15
24
-7
-14
4
-4
2
21
12
17
-18
-71
-5
-34
-87
2
1
-43
-52
23
-18
-37
12
-60
-66
-10
-23
6
44
80
-15
-17
40
-104
32
-55
-39
-24
32
-61
44
-92
27
12
-86
5
-36
42
16
-33
4
5
-58
65
-15
-30
-9
-23
5
-51
-70
-27
9
20
12
-13
1
-68
-15
-49
-3
0
15
-39
6
-28
-11
-47
-14
16
40
4
-9
-23
-19
-8
53
-12
-48
-10
-16
-12
7
48
7
6
-1
-22
-37
-43
-12
-20
1
-9
4
0
2
0
5
23
17
-36
11
-9
21
0
-11
-27
-32
-11
11
-16
18
4
-11
-12
2
4
-30
3
-6
-18
-22
-37
-7
-21
15
-32
-3
-19
10
-12
1
-12
-37
-23
-26
-14
16
46
-13
-6
-1
0
36
-34
-34
27
-9
23
54
-1
-36
-10
24
5
-11
45
9
17
-10
-11
-6
-20
-35
-6
-42
-12
-11
-4
-36
4
-35
-2
-4
12
0
25
2
-38
17
-22
15
15
54
-20
16
20
5
20
-14
-2
-32
58
-4
12
-2
-1
-45
7
-35
42
-26
21
-3
-13
14
8
-26
-24
-41
32
9
53
37
34
34
-75
-15
-59
16
-29
44
12
-21
7
-29
34
7
69
6
-37
6
8
-22
127
27
23
14
-25
15
37
-16
2
3
28
1
17
41
10
-2
-11
17
18
-25
-33
-21
-42
-10
34
-6
3
-14
13
-10
-33
-14
-1
38
-34
-3
-11
-2
-9
48
21
15
-10
28
-17
-5
-76
-14
-43
-3
17
2
13
-17
13
0
21
-6
-23
6
-27
-14
8
18
8
20
11
-3
2
-5
45
8
7
17
-4
-15
33
-20
-3
-4
-29
26
-21
1
-52
-3
5
-8
10
-7
4
-18
-14
-4
-9
-12
1
13
-11
20
-9
6
-45
11
-7
-9
-17
-16
-13
0
-12
7
4
15
-9
13
8
-3
30
18
-10
9
5
-30
2
-42
-3
-11
10
-11
-19
41
4
13
-35
31
-20
-20
-1
-4
-8
-18
21
49
16
9
-21
0
27
38
20
10
3
41
-17
-10
-17
-2
16
9
-14
37
-15
-13
30
-11
-67
-76
26
-3
-23
4
1
8
-4
6
14
25
-50
3
0
26
30
-32
11
28
31
-31
-18
7
-53
5
-37
-14
-58
-18
22
28
-2
9
3
16
-8
20
-2
7
52
11
15
-38
-28
13
-20
19
16
-1
-9
-5
21
-34
1
-12
30
-10
-27
26
-16
8
18
15
-39
-12
36
28
14
36
19
15
-12
-28
4
-12
-3
3
-21
36
-20
8
10
1
37
8
-5
-24
4
-10
5
-2
-42
-9
14
11
30
-5
-8
5
-14
-4
7
-13
-22
2
20
-10
-35
23
-28
6
37
16
15
-15
5
-3
21
5
18
-17
32
1
8
6
6
-24
-15
10
-10
28
-17
4
-13
28
-40
1
1
-11
3
-19
-29
10
12
77
-35
15
40
5
40
48
26
-12
3
2
-79
-6
1
14
16
-83
0
84
-16
14
7
36
10
37
-14
-7
10
-20
15
-16
65
-2
-2
-49
-3
-69
75
58
28
-23
-12
-5
38
11
-26
-11
-14
-127
17
56
-35
-49
15
22
24
3
9
14
52
1
17
27
13
1
-9
-6
39
-29
-64
2
24
32
-7
22
-79
46
36
4
44
-48
-8
-16
9
20
-18
-23
3
-3
11
-38
20
-89
35
4
26
-18
6
-26
8
-40
20
-35
26
-14
-18
17
15
13
33
4
-28
-13
33
-31
-3
15
13
4
-30
-8
-6
-15
-3
14
-11
6
41
14
4
-40
-5
36
34
16
-15
-29
6
0
-35
17
24
2
32
-86
-16
5
13
-11
6
-6
2
-11
25
0
6
-20
4
-6
-17
-1
-5
-1
18
-44
0
-19
-15
2
34
12
22
5
7
-18
-34
31
-18
12
-24
21
-27
4
-23
0
2
-28
-3
-6
18
7
20
20
3
-38
16
9
19
3
-12
-8
46
-9
-28
3
20
5
15
4
20
13
-32
-5
0
5
2
12
2
23
-7
-17
14
-7
-20
-10
-28
15
2
-44
17
-9
7
-3
38
-17
32
14
6
-13
-36
-108
1
13
16
7
19
-36
8
-2
-1
-24
9
21
20
-11
-6
25
11
-10
6
-45
20
-26
-2
-1
-11
13
31
34
13
9
13
23
24
-2
-7
1
-20
7
-10
8
23
8
-4
-61
21
8
-36
-12
3
-7
21
-28
-14
-13
8
-29
-3
-1
-16
8
-9
-13
-29
12
-2
16
24
12
-6
8
-18
-13
11
-22
30
0
5
-37
-17
12
4
-29
-4
1
45
-7
6
-4
3
-6
19
-2
4
16
-2
-26
1
-18
-4
-4
-24
0
-4
-29
10
10
-16
-7
12
-26
17
-9
-2
8
6
35
-7
0
-11
-16
-50
-32
-10
-32
-15
41
-10
18
-78
-25
-52
-49
-4
9
-32
-2
-5
-12
74
30
21
13
-4
-33
-19
-41
36
0
19
-11
-31
31
-16
21
13
-18
40
-13
-25
-6
-13
-13
-15
25
5
5
-14
-4
-27
3
-5
-2
66
13
28
6
10
2
-2
0
-15
-9
-40
12
-127
-4
-1
-22
28
19
-24
3
-75
-34
-24
-42
-7
1
-42
-40
-17
6
24
9
1
19
-16
-21
-33
6
33
-39
10
47
-30
-10
-11
-23
49
35
10
21
-15
-1
-6
-49
-12
1
-6
44
9
2
-22
-7
42
9
57
38
-8
-30
-57
3
-17
6
-3
5
5
-10
-50
53
-63
-74
29
5
-41
0
-44
11
-3
-23
-6
25
-34
-73
-49
10
-6
-12
5
67
22
30
-36
21
23
-20
-20
17
-5
22
22
-7
-5
12
-16
-17
-14
11
0
-8
5
-61
-25
34
33
15
-28
-7
47
-17
70
-6
-27
-45
25
7
-4
2
-3
24
2
-5
-37
-29
-14
-48
17
-4
-15
18
-89
41
-23
-19
-27
-48
21
-42
-36
1
-42
-18
7
64
-34
6
8
-34
53
-2
-5
7
-29
48
13
9
28
-4
71
-31
-52
-25
-7
23
5
-21
-29
-18
-13
26
3
-7
1
-6
26
-27
-6
-31
28
-17
6
21
-5
-2
-66
-52
-95
-13
-27
-63
-8
-15
8
-14
-101
6
-7
-51
-27
-35
-53
-42
6
-13
-53
5
11
-11
-88
7
-53
-24
28
-20
-23
-11
-12
26
3
-55
45
15
50
22
-25
-20
-25
-12
-16
10
5
-13
-6
0
-39
-2
-27
-43
5
54
32
0
19
-36
22
-9
9
0
-8
50
-51
93
-68
-73
37
-20
1
33
-21
8
-2
-24
-29
15
-26
-86
15
-6
-35
-25
-34
49
12
2
-17
-2
15
-25
-12
28
-10
-12
-32
-23
-7
-5
11
9
13
-21
20
-15
-3
-18
27
19
8
-29
-60
-31
38
-6
-8
28
33
-5
-21
2
-29
-31
-5
30
-20
23
-74
-54
-23
1
23
26
-31
37
-70
8
-18
7
21
5
22
-18
-29
-14
-26
12
-3
42
-29
-12
-42
-27
85
15
-7
34
-12
52
20
24
1
-2
11
-4
27
-3
-12
29
5
-69
-15
-15
-39
8
-9
-15
3
2
33
-15
-23
-52
-5
-12
36
11
14
10
-27
-22
-55
-42
-20
-12
-16
31
-6
-8
-87
16
12
-15
58
19
-72
5
5
-48
-21
7
-7
1
-28
6
-50
-16
47
-28
-10
-4
6
-1
25
-35
-11
-2
-16
16
66
-18
-20
35
-39
29
41
-21
-8
-18
-33
-2
-30
-51
-29
4
15
-23
52
-43
32
-18
29
-4
-16
8
-13
28
-55
-22
56
15
-22
-40
-33
13
19
-13
-10
17
-22
-17
49
-40
46
19
13
2
-23
3
-27
21
-16
-37
-30
0
-10
-12
-45
-27
2
-11
-47
15
31
2
24
7
-35
77
35
-6
25
-15
-14
-21
28
1
7
-3
2
-10
-12
-3
18
-6
0
-1
-4
-2
-27
11
0
-21
0
-6
-19
12
-13
-3
-11
10
-1
4
-11
4
7
9
9
-8
3
14
-11
-3
-13
-27
15
-10
6
-14
-9
9
7
5
-19
-8
-1
13
9
-13
2
3
-6
-2
-3
-6
-12
17
10
-6
10
-10
1
-22
4
3
13
-9
9
6
7
-4
1
-10
-17
18
4
-18
7
10
-14
-59
17
5
-5
13
-7
11
7
6
17
-5
9
-10
5
4
4
16
-1
-8
5
-40
-6
-6
14
21
-13
-9
-23
1
-4
11
11
-3
1
13
3
10
-2
-9
-1
7
6
-6
0
-7
12
-37
-9
-9
3
28
18
16
2
10
-11
2
7
9
1
-13
13
-31
33
-51
-7
-8
0
8
-11
-7
4
6
8
9
0
-1
15
-11
-20
7
7
5
7
-104
-2
11
-6
-2
-4
-7
14
-6
-6
8
-9
6
-6
15
4
-2
-3
-8
8
18
11
3
0
-4
14
-8
-2
-10
-8
1
-19
-4
7
12
20
0
8
22
-8
-2
15
6
-12
6
13
-2
1
-1
-7
-21
-4
7
-1
13
-11
10
4
5
-8
-11
-2
4
-16
0
18
-16
-4
-10
11
14
3
-6
-14
3
0
-54
-5
0
-2
2
-5
4
0
8
12
-16
2
9
-13
-10
9
-10
-4
20
-22
15
9
-9
11
-4
-2
-27
8
5
-20
-5
-11
-58
5
-6
-1
18
5
-19
2
2
-2
3
-14
5
19
-8
-27
-13
-5
-6
9
-59
5
-16
-2
1
-12
0
14
-6
-8
-8
-24
3
19
6
10
-11
-6
12
-4
-14
18
-3
-8
-8
7
-10
1
-16
6
12
-19
13
12
13
10
-30
6
-8
0
5
-40
-18
49
-56
-13
-6
3
9
8
2
-9
-14
3
15
6
8
5
-22
-29
18
-8
2
21
-127
14
-12
8
0
12
-5
21
11
-3
0
2
6
14
4
15
-23
-7
-8
1
-5
17
17
4
-16
29
-2
-16
-4
-15
5
-5
-3
6
-6
16
-5
-2
2
-19
-7
-6
0
-19
8
6
10
8
-5
-8
4
15
6
-10
18
-12
10
4
-4
6
4
-1
6
8
-6
-2
2
-1
6
8
12
-21
-8
-5
-17
-6
19
-6
3
9
-6
9
-2
-2
-11
14
1
-7
-8
-21
6
-5
15
-19
-14
-2
-5
0
-12
-1
1
6
25
-17
2
17
5
-27
-67
-16
-20
-12
-14
-4
21
12
-1
-4
8
-13
11
3
23
33
5
1
5
2
-30
-16
-6
-2
9
-19
-1
-10
7
21
-12
6
1
7
-13
10
1
2
-3
5
2
8
5
14
-2
-4
-1
-15
-1
-6
12
-12
4
7
0
13
1
-1
15
-14
16
36
-25
26
-48
-6
3
-8
-9
-15
8
-22
-2
-5
12
-9
11
-10
10
16
4
-15
21
7
-76
4
16
3
-5
4
-1
10
-5
-5
-11
7
5
8
14
9
0
7
14
8
8
18
8
23
-15
22
-22
6
47
-34
32
-35
-38
-22
-13
7
-13
8
-5
-12
25
21
42
-24
14
50
-11
-25
22
7
14
21
16
2
-33
-11
33
23
35
52
5
-19
20
57
-15
-41
-55
-18
7
12
-31
2
43
34
18
16
-30
38
-30
-28
48
55
-22
36
55
6
-15
26
-42
0
-19
-38
5
-45
0
-13
-22
-11
2
19
-14
-24
37
-9
33
7
6
-32
-45
92
43
-47
43
-16
48
2
-15
0
-32
-30
57
24
66
13
18
-56
32
65
-2
-17
-29
47
18
19
-16
20
10
7
-1
31
16
29
-14
-7
29
42
-47
58
22
11
15
13
-23
-59
-7
-18
-1
-37
-4
-9
-46
-35
-29
-7
-39
-29
-23
25
24
16
5
-6
4
43
40
-17
50
-25
69
-3
9
-2
-32
24
19
8
20
9
30
16
57
-16
12
-42
-53
34
7
-1
9
-42
28
24
37
31
-34
32
-14
-28
24
66
-47
39
8
-19
-17
-15
-8
-14
-50
4
-27
-8
-6
-57
-35
25
6
-36
-2
14
-14
37
15
-10
6
-15
13
7
-44
-41
-76
-3
-47
44
9
30
-76
81
38
41
-40
-16
-25
1
-50
-29
-73
-26
-79
-2
28
-24
-61
73
18
26
-9
36
-73
30
-89
14
-2
87
-74
45
0
94
-8
49
-28
104
-94
15
29
-26
-26
-6
9
41
40
-16
-94
113
-39
-20
13
-108
29
-7
-85
-32
-127
-98
-20
8
-22
8
-11
5
-103
-9
46
58
-38
-58
-34
-58
-32
-18
-89
-10
-101
31
-50
-57
-63
64
18
16
25
42
-3
-17
-45
20
-86
21
-71
16
48
86
-61
41
-111
66
-57
-15
42
-72
16
-41
13
-4
-11
0
-16
117
-8
72
58
7
22
18
8
35
-6
-26
19
-18
-43
14
-6
8
-78
-23
34
37
-29
-1
-6
-73
-8
8
1
17
-14
-30
-66
10
-35
66
8
46
-15
-13
-117
22
-1
-35
-9
14
-22
13
20
16
-45
49
-50
22
-1
6
-13
22
16
-30
-24
-21
-56
-28
9
-40
-42
28
35
19
5
-67
42
-32
28
-27
-41
30
-5
79
11
36
-60
-23
-25
-9
-67
19
-14
-39
-64
-14
9
-41
-86
26
80
23
32
46
24
16
10
-42
9
4
-67
8
-3
49
-17
-7
19
28
12
42
-18
16
-55
40
-18
41
6
30
50
-19
0
-25
-11
-31
-1
-7
56
-60
-11
-17
-42
-61
-56
-29
0
41
33
9
-65
53
-54
-27
-38
-26
14
-2
73
-28
-30
-24
-12
6
-69
40
26
-32
15
-11
-17
9
25
28
-2
-19
22
64
-31
23
1
4
-16
38
33
12
-58
-7
-81
-25
-1
10
51
-5
-2
-33
-22
0
-48
7
31
97
-2
-37
-5
-39
24
24
28
1
-14
24
-31
-5
-25
37
-58
-56
-6
14
-22
-4
14
-34
14
20
45
-3
-49
-9
0
15
4
82
8
40
-2
7
3
-2
-3
26
-17
10
-14
-1
-48
6
-9
-28
-20
-38
-16
28
8
-39
33
9
-6
-19
35
-32
15
-3
-15
-7
-12
-16
20
-66
1
20
2
-39
-25
-36
2
-15
-18
-18
-49
-43
-28
46
22
23
-24
-13
-52
-2
2
31
-26
-30
-29
43
19
-2
26
2
-29
13
10
16
-12
64
-14
28
-44
-43
0
55
17
14
21
13
-35
12
16
-41
26
9
19
6
24
-20
13
5
-24
7
-25
-16
-13
-67
-43
24
23
-19
-21
-25
-1
-4
-23
-27
-29
-47
-27
56
4
18
-10
17
-20
12
-12
17
-23
-40
1
-25
42
0
27
3
-39
36
-14
8
19
69
-7
11
-30
-36
-4
28
18
19
29
13
-65
19
-4
-43
13
9
-22
-16
-3
-5
-4
-4
-14
8
-35
-12
-4
-61
-12
10
40
-34
-10
-29
1
11
-31
-36
-48
-52
-24
50
-7
-5
-5
8
-35
32
20
36
-22
-32
14
-10
19
-26
13
7
-27
26
2
33
35
73
-34
3
-22
-38
-19
33
1
-2
20
2
4
2
-2
-44
22
27
-11
26
26
-11
35
-18
-5
-28
-15
-14
13
-105
2
7
-16
-16
-19
-67
-66
-10
-5
-35
-47
-45
-41
25
1
-16
-24
-45
53
-27
6
64
0
-21
-2
38
122
-16
0
43
-30
46
-47
-15
13
17
-27
15
-41
-71
7
79
25
23
5
37
-19
5
8
-52
5
-14
0
33
0
1
25
-2
-12
-23
-11
-18
-4
-107
-18
10
1
-2
-20
-38
-73
5
-13
-32
-35
-42
-38
36
-14
-15
-22
-9
67
-12
-18
45
0
-28
20
-4
117
-21
9
18
-38
54
-18
-21
39
16
-25
2
-11
-52
13
41
18
28
0
39
-13
-5
9
-62
12
7
-20
16
-1
5
14
-21
-18
-25
-5
-17
1
-94
7
-14
3
-2
1
-34
-69
-3
-20
-44
-48
-46
-35
48
-9
-12
-31
-1
62
4
27
50
7
-20
27
33
127
-24
9
19
-32
46
-42
6
33
20
-48
-2
11
-71
-12
67
31
21
5
4
27
-4
11
-33
23
36
28
15
37
-22
57
-18
-11
-13
25
-15
29
-51
18
19
38
-11
2
-65
23
1
21
-56
-55
-55
-20
3
29
-10
-7
-26
24
-58
-4
15
35
2
-32
40
-45
-2
-45
23
-46
49
-69
3
5
-42
-31
14
-5
-61
8
23
27
51
-45
31
-3
-10
20
-53
30
21
15
25
22
-8
34
-4
-25
-5
7
-19
11
-46
-30
1
29
-1
-6
-62
15
28
8
-61
-52
-64
-11
33
-6
-17
-23
-1
15
-31
-17
2
14
-13
-33
-12
-42
-1
-26
8
-59
45
-36
8
10
-51
-35
-10
5
-57
2
8
13
45
-58
19
19
-17
29
-66
25
35
17
7
22
9
39
-20
-22
-7
0
-8
19
-50
15
-27
30
5
26
-27
15
21
1
-66
-56
-56
-22
31
1
-28
-24
3
16
-22
53
3
23
-10
-14
8
-35
11
-22
3
-43
51
-69
21
13
-46
-36
-18
24
-68
-11
0
25
57
-40
-14
-19
-8
-17
-5
7
-40
10
11
-23
-13
8
1
-8
8
-28
-2
9
-43
23
3
11
-27
23
-5
-8
-10
-20
-29
12
19
12
42
5
1
36
6
-20
22
-17
12
29
19
6
1
-46
6
-15
3
-4
14
1
15
11
-15
-10
1
-39
10
1
3
-22
18
28
-6
9
-16
-20
-17
5
-32
12
-46
-27
-10
-5
18
25
0
17
5
-13
-19
21
27
-45
-26
15
8
-17
2
-5
-7
8
-20
2
12
3
25
-72
-12
-21
-9
-5
42
49
10
12
-91
-45
23
56
5
-14
-16
-4
7
2
9
18
-4
-2
-20
-5
-15
-5
13
49
2
-24
11
11
9
27
5
4
30
1
-10
17
30
22
10
10
-16
-15
-31
33
12
-2
-20
-6
1
-4
5
-14
26
0
9
-5
11
15
-1
17
10
8
2
4
-23
-10
18
-1
26
3
-24
-15
15
0
1
11
4
-5
-8
-24
0
-2
0
10
4
5
-1
3
-1
-28
10
-4
-1
9
-17
-3
21
-33
16
32
-15
-7
-12
15
-11
11
-21
2
7
-1
7
10
6
14
9
-10
36
6
-15
15
-15
9
13
-59
-6
-17
21
-49
2
34
5
-2
55
29
20
-39
-4
2
3
0
23
-3
-4
-26
3
20
-5
13
9
37
20
-9
-15
2
26
21
57
41
51
12
86
-13
-1
-17
9
58
10
-28
15
-6
-6
36
36
-95
-6
23
9
46
-13
-9
3
29
-66
-1
-67
5
31
-96
-8
-26
-20
34
28
66
-43
8
-127
48
43
-66
19
0
-14
10
-31
22
1
23
51
14
22
-9
-9
-35
23
10
-6
-24
-10
9
8
12
4
-3
-17
7
6
20
31
0
12
-5
11
9
-40
23
-5
-12
8
-9
-8
-3
-20
11
-4
16
-11
8
-15
15
-1
19
4
11
18
18
-23
-25
2
-2
19
3
9
-29
23
19
4
-3
5
2
-11
-12
-13
-5
17
24
0
-3
-6
-4
16
-16
-4
-6
-6
-11
8
9
-25
8
-9
-3
11
13
-5
7
20
-6
-16
3
8
8
2
2
-17
-24
-28
15
-26
-4
10
13
-13
-10
25
1
0
-8
-8
-29
17
0
20
8
0
-10
33
-25
11
-10
-3
-3
-1
6
-15
2
-16
5
-17
14
7
-7
12
17
-2
-5
13
-1
-4
-31
20
8
-4
-1
-35
-10
30
-15
-19
4
18
7
-6
-13
-14
-12
4
-10
-18
-15
-41
1
-10
10
34
11
40
-21
10
19
-13
-26
-4
-28
15
-2
32
25
-70
-32
40
26
1
-13
9
10
7
-1
-9
-1
-28
11
-9
0
11
4
19
19
-5
-9
-3
17
1
-9
23
10
8
8
6
18
17
1
-16
8
-6
1
-24
9
1
-10
-12
-16
-18
3
-10
-2
11
13
2
-8
-1
9
7
-9
-5
22
13
6
3
-16
-13
6
24
-4
-9
5
-8
8
22
5
-19
11
8
0
-10
6
4
-1
8
-1
-17
2
10
41
8
28
-19
11
24
47
5
-8
-35
15
5
2
0
3
-31
5
-53
-18
-14
3
-20
-10
-2
20
5
-14
2
-11
-6
0
9
-40
29
-7
-29
9
29
-17
-17
43
-6
20
-19
7
46
-14
12
8
-6
-13
8
38
-6
1
24
-6
38
0
-36
-25
-36
-1
27
39
9
35
32
-5
57
-17
1
-13
29
-19
-6
12
-11
21
-26
-23
-38
-19
-12
23
-35
55
5
-9
-10
-6
10
-28
-26
26
-46
15
25
27
-45
3
-35
-27
-29
23
18
-14
22
-30
-4
13
-19
43
53
-33
-32
10
30
22
21
53
44
-22
-10
-18
36
6
-44
8
-8
34
19
-10
32
8
-16
-15
23
-5
-3
13
-47
15
-12
-9
-18
-29
37
7
-50
-17
1
-20
-10
-18
-3
-13
-39
14
-26
16
49
-1
-23
38
-6
-33
-25
-15
89
-48
52
27
-22
-18
-30
58
57
-27
-57
-27
3
-10
17
14
45
-21
-39
-44
33
-15
-21
34
12
1
-38
-3
14
-6
-14
16
-23
-8
-21
-19
87
33
11
15
-17
1
-26
9
-32
-39
4
16
8
-38
4
-18
-30
10
-4
32
25
1
-34
-37
5
24
28
50
-12
-10
44
-25
8
2
-3
27
-25
-44
27
29
17
-11
-23
-22
11
29
-33
-20
-25
-29
11
22
2
59
56
-12
-28
1
23
-30
-1
16
-25
-59
88
-18
19
-36
-7
-12
-44
-33
-26
66
28
-9
31
2
-5
-9
-49
21
-1
29
-37
13
-57
-61
-76
-33
-27
-4
-33
79
27
-14
25
-18
-26
115
-29
-53
12
-52
-38
-5
-2
-19
-22
20
23
-29
-34
8
-67
40
-21
79
58
-13
3
21
9
-16
22
-44
-25
3
-46
-15
2
-38
-24
21
19
-6
-49
45
44
21
8
-37
16
-24
-32
20
-3
22
-18
53
6
-19
-38
18
6
-10
60
-63
-13
-12
-2
-52
-30
69
-14
-59
2
0
-6
3
61
12
-19
-5
13
-10
0
4
-45
-14
-13
24
11
-6
-27
-41
26
-8
32
-24
13
-3
21
24
-27
-26
-46
-2
1
61
-22
22
-4
-8
49
10
32
-29
-3
12
-11
33
7
-2
2
-58
-62
-4
15
9
-7
-9
48
19
15
-5
-35
-7
-26
5
-7
66
28
-24
20
52
7
46
-29
-20
-14
-35
-1
-11
-14
20
-23
-8
-64
73
25
4
14
-33
-53
-53
66
16
13
-27
-16
-21
-22
28
-23
67
-11
13
69
-9
-4
36
-20
6
1
96
-48
20
-34
-58
-24
-38
-43
34
-40
-3
-6
15
-2
-2
-27
4
3
-3
-10
-20
55
-17
23
-69
-20
25
-21
31
-39
-51
-40
51
-4
42
12
-1
-22
61
-14
9
39
-33
-53
-20
25
-37
10
-58
-61
-10
-31
13
-40
46
-17
34
-49
-15
11
15
16
-6
-12
127
-4
36
-14
-24
-12
-2
-21
12
3
23
-73
-3
-6
-25
1
-10
11
23
-12
2
-8
-8
104
-37
-4
-5
-12
8
-21
2
-9
-31
-8
42
-2
11
-10
-3
11
-5
10
-24
-15
22
-12
-8
3
-15
-35
-1
22
-10
-8
22
13
-53
-2
-5
17
-10
21
-11
-6
14
1
9
-22
-14
20
16
16
10
-27
-18
39
-6
0
-14
-7
-41
0
20
-35
-22
14
52
-16
-31
-4
0
28
-22
-17
-19
4
57
-28
29
-4
8
-20
-34
-11
26
27
39
47
-19
-38
-37
-30
56
-35
-39
-27
-10
24
3
17
-52
-2
-2
27
0
-40
28
-16
-25
10
-9
-38
10
31
-8
28
-7
-10
-5
38
-4
-32
8
-40
-7
8
1
-36
-35
-8
-32
20
-35
-2
3
50
-13
-21
2
-12
22
-60
-18
-37
11
-40
1
-8
-7
-21
18
51
-16
-90
-7
11
-27
-13
-13
-33
-10
-23
-5
-24
-31
-26
-19
9
11
-22
12
7
36
11
-1
-46
31
26
27
-6
12
-15
-3
8
-13
-31
-30
9
-7
-33
12
-29
1
-33
29
26
12
-13
14
9
-29
29
17
12
-37
-34
26
1
-1
-2
-40
39
5
-3
-14
-29
23
-20
-8
13
-7
-29
-25
-4
-21
-2
-1
9
-51
-76
23
-5
16
18
21
32
16
29
-5
-118
-6
-9
-5
52
5
-1
-1
-7
-54
10
-1
4
-33
-14
28
-27
-9
26
38
18
-34
7
-5
46
14
1
-16
16
25
-46
13
-41
-17
-31
-57
-10
25
1
15
-64
-46
-50
-40
-22
37
-9
-42
-40
-27
18
-16
-35
-14
-23
-31
-12
37
-16
20
-11
-19
17
-1
-74
25
37
-30
42
-52
-3
12
-13
-54
13
14
21
-11
-14
-10
-26
-25
39
-41
14
-42
33
-26
62
3
-57
30
65
1
-53
-9
-64
-47
23
-6
-64
-8
-36
-30
-11
15
-7
-79
-16
-4
39
13
39
-19
-27
-24
-21
-18
-23
-30
13
30
-30
0
-21
6
13
-12
-30
41
41
19
-14
-22
-17
33
-13
-24
27
10
55
-18
-32
-67
-22
-7
14
54
0
-24
-14
5
-26
0
-49
32
81
-21
-45
-3
15
4
-14
44
22
-5
-8
-3
-24
7
-25
-8
3
-4
-23
0
-24
-14
21
13
-14
-26
-12
29
28
13
-52
-2
27
20
-7
3
-50
5
-1
-31
13
-19
11
9
-15
5
21
-10
37
-17
-21
-29
-35
12
9
34
9
-28
-2
-20
20
-15
-2
-24
1
33
-49
-24
16
20
13
75
-4
2
16
-62
-83
-24
3
-10
-57
45
-11
-55
-27
8
39
30
-44
33
-18
-34
13
29
-44
-41
-12
-35
0
4
-57
19
27
-31
27
-70
21
10
-57
-34
0
-17
40
-16
-36
-27
-22
0
25
71
0
-59
-5
-15
25
1
6
-59
109
-7
-31
-65
38
18
26
68
-16
-21
4
-3
-59
-4
44
-25
-45
48
0
13
37
28
24
21
-12
-15
-12
-10
7
16
-26
-1
-28
-25
-13
3
-28
30
36
22
4
-7
13
11
-20
-19
-8
-59
-10
-16
-29
37
-34
-17
0
127
-42
-33
-28
-12
-12
22
-40
-2
74
18
2
36
-30
-9
18
-6
19
23
-15
-4
12
3
24
9
12
-7
-2
-4
17
-18
-8
17
18
2
-25
-14
-15
20
15
23
-23
-23
5
19
-17
16
1
-17
-4
37
14
4
-42
0
-22
-8
17
20
71
-21
-23
37
-28
4
-4
-27
29
6
-10
-7
0
-3
5
-28
13
-24
-29
-48
-24
-17
33
7
-20
-2
-51
-22
2
-35
-21
-21
17
0
-17
-28
-15
-30
11
-23
-21
-57
4
46
29
19
-14
-14
-84
-8
-58
-7
-49
-13
27
56
21
-24
-31
-30
0
-42
-45
-8
0
-11
15
21
-10
8
-2
11
5
-36
13
-14
-18
2
76
-33
-14
-20
-23
21
24
-2
41
-12
-12
-32
-8
2
4
6
-39
3
-18
22
17
-15
1
-22
-3
-10
6
-37
8
3
-33
2
63
1
-29
13
-11
17
5
-2
-6
19
3
-12
27
-35
23
38
-2
-19
-5
5
2
6
13
15
-4
-3
33
-41
12
-13
-25
6
26
41
-3
37
-24
-5
35
-21
-12
12
33
-12
11
-9
21
-24
0
14
-17
15
19
22
11
41
-9
20
10
-12
6
15
51
-13
-109
13
0
-46
-16
30
18
27
-1
37
-15
15
20
-2
-31
-72
-32
43
38
-127
-31
5
-32
20
-12
8
-17
-18
-32
2
-19
42
12
-25
-12
-15
-48
-63
-36
-49
-15
-25
-2
-1
-10
-23
15
-92
-33
-12
7
3
-15
-20
21
-44
-42
22
33
-34
23
39
-14
-20
-98
25
-24
-41
-44
5
-58
22
29
0
-16
-15
-27
10
1
-111
-58
-3
-43
-77
4
17
-39
-33
-46
31
-48
0
2
-9
-34
-10
44
-30
22
19
3
-4
33
9
23
20
12
-32
19
5
23
-4
-1
-1
-19
14
13
2
15
-29
15
17
-12
4
-3
28
-11
-8
8
7
10
41
-10
-9
-16
8
-2
11
28
9
-19
6
28
5
6
14
7
-17
5
-11
9
-16
-19
10
22
3
-1
1
-4
19
-4
32
38
22
21
-16
16
-18
8
8
49
1
4
-6
14
6
-16
-2
-39
15
8
8
-4
6
14
-10
3
0
-3
31
24
-5
-21
18
12
-24
-35
35
9
-4
-5
41
12
3
36
-5
-39
6
-38
20
4
19
-36
20
-10
6
23
12
1
-27
-5
16
-3
23
3
-3
6
12
-39
-8
-48
-4
12
-17
26
2
11
-16
42
-5
-21
11
2
-19
-17
-2
5
-21
-17
4
92
-5
13
37
-25
-12
-8
32
-42
-23
3
4
-28
9
21
9
2
-30
11
23
-14
-11
-23
-6
-24
-3
-24
-12
-19
-59
-31
2
36
-10
15
-38
-24
-25
-13
-27
8
7
-16
3
-10
43
23
17
-8
-34
-7
-5
14
-27
-32
-9
-8
20
-15
2
-2
5
6
10
13
-17
-6
18
10
-32
20
14
-26
-4
17
-18
-18
6
-1
-4
-2
8
15
2
14
3
-2
-7
-3
11
-18
-11
-13
-26
-13
4
15
-34
9
4
-4
-29
-35
12
15
5
-14
2
-4
-10
-3
15
16
-8
5
-15
5
10
-3
-7
-26
-4
-13
-5
9
25
7
-2
3
1
3
-1
27
14
1
-15
-20
10
-8
16
-6
59
24
-9
22
0
-32
-4
-27
-10
-10
16
18
12
5
18
11
-3
-25
3
-6
9
4
-4
-1
6
-17
7
13
0
13
-4
-10
6
-3
41
-23
29
8
-12
8
-7
-13
12
6
49
-26
2
2
-41
-11
-4
14
22
-2
15
15
4
9
5
-21
6
-9
30
-5
-103
-18
3
10
7
17
-13
-10
-30
-27
10
22
17
-1
-6
-16
-11
5
5
6
2
-7
12
9
-14
25
0
18
-11
-8
-4
-17
-1
23
5
1
-1
-2
-23
-19
19
14
-3
-3
-9
-14
-12
-16
-9
15
-2
-2
14
1
11
-5
1
-1
0
-22
-8
-12
3
14
-36
-2
9
-5
7
-8
-10
-8
2
-11
-11
3
27
5
7
-13
26
-16
1
-11
-5
-5
-13
8
-6
2
7
16
17
-16
16
-5
-6
-12
-5
26
-16
4
6
-20
-4
26
7
-20
-6
-13
7
-8
40
10
20
14
-7
11
-11
17
12
-42
-14
16
-70
18
7
3
57
23
6
28
-6
-39
20
-24
-29
6
8
-2
24
-3
8
20
4
-9
10
10
15
0
13
-16
6
3
-17
22
-2
-20
62
3
24
10
-7
7
31
4
-34
-2
-59
-44
12
46
51
-14
23
-6
-7
-6
51
22
-5
8
5
8
-2
-70
-3
-37
-45
16
16
-9
-98
17
-18
-7
9
17
21
-30
-127
1
-1
8
38
6
-11
-40
-25
32
10
22
-13
1
4
-37
-37
38
9
-6
-17
-10
40
0
-6
1
-15
2
-35
20
-14
8
-13
-23
16
11
-2
-7
-12
-11
-18
1
-10
17
-1
-1
5
12
-7
-33
-11
-24
12
6
-12
8
4
7
20
-3
-9
-30
-5
-2
-68
1
-9
6
28
28
-9
-14
23
3
4
13
7
-2
10
-11
-5
25
-11
-3
-1
-23
-18
-3
-10
-28
7
1
-18
-15
10
8
-6
-15
-15
-42
22
-13
3
15
41
13
-4
7
-1
-7
13
3
-15
-1
9
5
18
41
-8
24
83
34
8
9
2
9
40
-16
25
4
3
-17
-14
17
2
25
-14
-2
-9
2
0
7
-18
12
9
30
-19
-12
-12
-20
-6
21
1
-15
-17
-17
21
-33
-30
-17
29
-15
-4
2
63
11
5
2
-5
-16
-8
-21
-30
-7
14
-8
-1
38
-16
-14
26
-4
-26
-12
-96
4
-15
1
-9
23
6
0
-14
26
-12
-18
9
25
-10
-16
-18
23
-18
5
-10
19
0
-7
-6
11
3
10
-7
6
-14
20
-25
2
-17
-7
0
-1
8
6
20
12
3
-31
-10
27
8
-17
-13
-2
6
1
-10
12
1
-24
-9
24
-16
11
-7
7
-12
18
-15
5
16
-5
2
-9
-12
14
27
23
-7
-4
-16
43
-5
5
12
14
0
-16
16
4
-7
7
-5
-3
8
18
-43
-40
9
-1
-5
-3
19
11
-11
-25
6
24
23
22
-14
-20
-14
15
26
-9
55
-39
-2
-35
37
-4
2
8
32
4
8
38
38
16
-15
7
-25
-8
-13
16
6
-8
-4
-29
6
1
72
120
-66
-30
85
61
8
1
-22
23
14
-11
11
-28
13
-58
-49
63
1
-7
7
6
0
68
22
24
-26
30
-17
13
-21
46
-23
-22
-17
-33
9
-29
0
-16
10
-4
24
-9
6
5
49
94
2
-7
73
55
-13
-31
5
-22
-21
44
-15
-15
-4
16
8
-7
80
24
-25
-4
14
36
-18
-7
1
127
15
-1
-1
-70
-45
-27
2
56
36
-10
-14
12
-30
9
15
-20
-59
16
-4
-10
20
-6
-12
-38
61
-24
12
-34
59
-2
62
25
31
-41
-2
7
19
23
2
-14
-26
59
8
-36
20
-15
-46
-33
-20
-3
-19
36
36
37
34
8
-68
15
9
13
-58
-14
29
-47
-29
-36
15
-2
-26
-21
1
-21
-5
11
-38
1
-34
-30
36
59
-32
-32
-1
2
14
2
5
-8
-3
35
84
-33
53
-14
1
-16
11
-7
27
1
16
-60
62
4
-10
-68
-3
30
-3
-47
-8
40
11
42
23
-56
-26
-11
29
64
-41
-18
124
13
36
-5
-31
-16
8
-54
-24
-32
5
-14
-65
5
-85
10
-40
-26
-51
-41
5
-20
-13
37
-25
37
27
8
-4
18
-4
-3
53
-14
-47
4
-18
23
-26
-18
74
-88
22
16
79
-47
-30
18
-37
-30
-41
-43
-49
33
-21
15
12
-35
35
-77
-27
7
-19
-2
-46
25
-29
-47
-23
21
62
-36
-36
-17
-7
-19
-16
31
-27
-10
21
-47
-18
-5
-33
-15
-56
-3
-26
8
-3
-35
-27
6
22
-37
-46
-4
22
18
-13
-9
-11
-10
24
-83
-11
40
-6
75
5
65
-33
-26
-22
-58
-41
-58
-31
-34
-16
-27
34
-51
-9
38
13
31
6
14
-28
-16
27
16
-48
-44
-33
43
-14
-22
11
25
45
23
-27
-24
-15
1
-18
36
-2
-28
6
-75
24
3
-10
0
-40
-5
-41
-54
21
22
21
10
34
13
63
-30
-11
-25
12
18
-29
-70
0
32
-11
-53
5
3
-22
-11
18
-24
-10
13
5
-25
-4
-8
-40
31
23
11
-32
22
-17
-28
0
-37
-6
1
-42
-30
-29
-17
8
-13
-75
-19
-31
-31
2
-3
-11
-57
42
40
-21
1
1
-40
-17
-59
-35
30
4
27
-16
12
15
-67
-10
18
63
-29
-46
-47
-21
8
11
-32
-17
-6
13
8
5
-40
33
-54
-15
-4
-11
3
-50
47
-17
-61
-16
53
-5
-36
-15
4
14
-14
-20
-25
35
-41
16
-8
-24
-13
-5
0
13
-34
-32
-30
10
34
-42
5
-3
-10
7
-37
32
-8
-32
-1
-27
-17
24
-54
-32
28
-26
-25
14
20
-12
-27
13
-76
-7
30
19
-50
23
-67
27
-78
3
25
-11
13
4
20
28
6
-17
23
-22
-43
-5
-4
12
-25
18
17
25
3
3
7
16
-10
0
-18
5
-9
1
-14
3
-6
-16
-31
-1
10
13
-29
-11
-6
20
-8
-41
-29
6
-11
-16
4
-12
-5
-2
-25
17
-3
5
-20
-6
-9
5
9
-4
32
8
-6
27
9
31
23
10
-1
16
-21
-11
15
3
-24
-7
-38
1
14
-1
-11
-8
40
-16
-27
24
-19
32
0
-27
-26
7
8
46
-11
-19
-36
-10
-6
13
-19
17
35
-26
-30
14
-27
-22
-22
-7
-11
10
6
-10
-23
-2
-28
3
-3
-19
71
42
26
-22
-9
-37
-47
35
29
-4
38
-20
-16
-20
19
-2
14
11
5
-15
36
-6
-30
-12
38
18
0
9
-24
-13
-3
22
-16
13
-3
-6
10
7
-20
-5
-41
0
-14
-13
12
6
11
21
25
4
-40
6
-2
-1
2
-8
7
-7
-10
22
9
-3
-21
-10
9
-22
-7
5
23
-7
-17
7
-8
43
22
-21
-9
-17
-4
10
5
2
-3
-13
39
7
-11
-6
56
27
14
-6
-27
-23
7
-14
28
17
21
-10
-26
30
11
-21
-38
0
25
22
-48
-30
-12
10
-13
-40
-50
-11
-32
-39
-10
9
-14
5
-21
-5
-20
5
-2
42
-1
12
-6
-13
-13
9
-22
-4
-22
-4
13
13
15
22
-24
76
30
3
-18
-4
-15
-13
3
39
2
5
34
-2
-39
112
24
-3
17
6
-44
-84
12
-24
-27
-24
-29
-12
-22
25
-101
24
-5
-78
-26
-20
-53
-44
-21
-79
-8
33
28
-3
-57
-24
-45
1
-16
-5
27
127
-3
-23
-59
-45
-64
16
3
-18
31
-11
109
-32
82
-1
-8
22
-20
-9
-6
-36
-15
38
53
8
-17
9
-24
-15
10
4
-23
34
-19
-45
-3
12
-33
-22
-47
0
0
-7
-22
11
20
4
22
-34
-38
-13
13
-5
-9
-22
25
19
-12
-27
12
-9
-5
39
32
-28
-2
-17
-28
-1
-23
-12
23
7
23
17
10
-6
12
-15
23
6
-11
-12
-2
-4
12
3
39
3
12
2
0
-26
-10
-4
-17
10
1
33
-8
18
-24
-10
-27
21
-4
-26
4
-14
-22
-11
-6
-11
-18
-9
14
12
9
-19
30
10
-4
-18
2
3
-11
37
16
-2
-30
-6
11
12
17
-22
12
8
-16
-21
-23
-1
3
-13
39
-21
-21
-6
23
29
30
-19
84
8
0
10
-3
12
25
-17
14
30
41
-28
-2
5
-18
-8
-24
-5
-12
-15
-20
-6
-69
-42
1
-5
-15
-23
11
-13
-4
-22
5
8
-11
-50
-16
-10
-6
-6
-10
-30
-37
7
23
-7
5
-35
28
14
-16
7
50
-22
-22
16
14
-13
-32
17
23
-15
24
-40
30
-8
-7
19
9
-17
16
-29
5
-19
37
-7
6
5
-9
-1
-8
26
7
-13
-9
-2
-3
-8
-4
-3
-20
-11
-5
13
5
-35
-5
12
-9
-34
-6
-16
-19
-2
34
12
21
6
17
-3
7
-16
-7
-6
-12
14
-18
-9
-30
19
23
-21
-24
-8
6
-4
-18
-26
-46
-9
-43
-18
3
26
-21
92
-18
-5
-19
-5
19
-6
2
5
1
22
36
-41
-13
-9
22
-21
3
-18
-10
-20
62
15
-10
14
-7
-13
-24
12
-15
-6
27
-10
22
-26
-30
-11
-35
6
-1
24
22
-5
9
38
-41
-35
15
-12
-27
-26
33
-4
-26
-60
56
-39
-26
-37
-42
-7
3
2
-5
46
-14
-18
-7
0
-8
6
1
30
-7
-34
-15
-44
-14
-14
-12
-40
-2
-7
-6
4
32
5
2
31
-7
34
-20
-13
-6
-23
20
8
15
-7
-16
-31
26
-20
-13
-5
-15
-7
7
14
-10
-14
16
-14
8
-18
29
-4
-41
-50
58
-43
-30
-45
-42
0
-23
-12
-19
18
2
-12
31
2
-17
-8
-12
40
-34
-10
-10
-26
-22
26
0
-41
33
11
-2
-1
2
-4
40
29
-30
25
-24
-26
-18
11
18
-1
-1
4
-14
-31
20
4
-10
2
-13
-27
-13
14
20
-40
16
-12
-7
-1
18
-14
-15
-25
-26
-1
-33
-26
-44
-12
14
6
-22
45
-6
-37
-23
-10
0
0
-4
11
7
7
37
-28
-9
-18
-32
-25
-10
-3
-12
9
45
-12
-65
1
-6
0
-10
31
-23
-2
39
14
10
-25
4
-33
27
-34
-28
9
-28
-26
1
-4
11
-12
2
8
7
-12
39
-15
4
-24
20
3
-4
-10
6
4
6
-25
-9
-6
22
-11
-19
24
5
17
-5
-3
-2
-26
20
-21
-11
-27
17
-28
-12
-21
19
18
-26
-5
-33
11
20
14
-29
-56
2
-19
13
22
-2
5
12
-24
14
-15
-16
26
-41
-22
0
13
11
14
20
3
36
-21
40
1
-5
12
-7
-9
7
6
22
-5
-26
-25
-23
-20
41
-10
-16
5
16
0
-15
13
-38
-11
-3
-8
-11
-7
18
-36
14
-21
9
11
-11
10
-39
-4
-17
6
-28
1
-4
-7
22
13
-16
-2
-7
-26
15
3
-34
27
12
-43
-16
16
12
-30
40
-23
28
-29
50
-21
-15
-6
-63
-7
-12
-30
-5
-19
-4
-16
-14
-2
32
-22
8
-9
-14
-10
3
8
-7
19
11
-37
0
-49
-22
-18
26
7
-30
2
-20
-5
-37
-26
-12
13
42
127
-6
-9
34
-5
0
-12
31
13
8
0
-14
3
-20
-6
-28
-9
10
-12
7
-10
30
11
31
-11
3
3
-53
13
-5
-5
-4
-29
-18
-21
-13
9
25
-19
-24
29
21
-4
-1
-4
-12
-36
0
-39
-24
-28
18
-27
-35
4
7
18
28
5
-11
-18
-15
-8
-9
-35
1
-20
30
-2
-13
-15
-8
-31
-4
13
-23
20
17
-5
-21
6
14
-6
31
13
25
9
9
-3
-13
-11
-56
-15
-13
2
2
-13
-13
-28
-21
-16
13
-33
-50
22
-7
-9
-10
-29
-41
-12
3
-39
-9
-17
21
-28
-37
-4
-3
19
36
9
-14
-17
-15
1
-34
17
2
15
43
7
-22
2
17
-39
13
8
-9
9
12
-2
-26
19
6
-33
20
-15
26
-1
23
-17
-30
3
-54
43
13
-23
-15
0
-11
-11
-18
4
-7
-9
-18
-1
-10
53
16
-4
-36
26
-7
-4
-12
-5
-30
4
-16
35
-31
-7
-24
-12
-4
11
28
-19
26
33
-3
19
11
25
-19
-15
13
0
1
5
-19
39
-17
-21
3
-2
3
-7
5
5
75
52
19
3
-12
9
15
35
3
-21
-5
15
-35
-22
-34
-27
-21
-20
-21
-23
-25
100
-10
-14
-22
-4
-9
-21
-8
11
-18
22
-17
-38
-17
15
-30
-17
-38
10
-26
-34
-11
25
-5
-25
8
1
-34
-35
29
18
22
-11
-3
-3
-14
-7
25
-13
18
-44
-3
9
54
-37
12
-2
4
-8
-35
27
-19
27
-28
-27
16
-8
21
-27
-35
-25
4
-13
15
-75
-3
-2
-4
10
-10
-3
21
11
-23
4
12
-35
-16
-13
-37
-25
-2
-22
-45
4
-14
-7
14
4
25
-23
-9
23
-27
-4
12
-18
6
-35
28
-20
39
0
-4
1
-20
-6
-25
-43
13
-11
-13
-10
-14
-5
-5
27
19
-51
-21
-20
-5
12
-16
19
9
11
-4
25
25
-16
-31
25
-30
29
-18
9
18
-21
21
-24
-37
-11
-3
-18
-33
-16
4
-6
-16
-8
45
-28
-25
14
2
25
7
-17
-37
-2
-44
-5
-18
-14
4
65
-45
-18
-1
23
-3
39
-26
-15
23
-18
4
4
-4
-2
9
-86
-37
-34
-14
19
-13
-13
88
-21
-52
24
15
9
-12
-22
-30
-17
-34
-12
8
-73
-2
57
-24
18
6
-16
-44
28
127
-28
-15
23
33
13
-26
63
70
23
20
-5
-80
-27
-62
-2
-25
-24
16
10
15
-6
54
50
-57
69
-72
-17
102
4
-29
-44
1
-6
-19
40
18
11
6
-8
14
19
-51
-18
20
-2
-37
-13
-11
-11
-26
13
35
-5
-16
31
36
-61
-36
12
-7
-29
-5
-23
-80
10
-7
20
9
-15
-32
-16
-14
-15
12
17
11
-53
6
-11
18
21
10
9
1
-25
-40
14
-9
-53
-5
26
-6
-13
3
-17
-17
18
3
-19
-12
-8
-17
-6
23
3
-32
3
13
18
18
-22
-61
13
-21
20
-37
12
19
32
3
-36
-3
-24
-30
-33
-27
1
-22
-17
2
-13
-9
28
18
-9
-1
-4
8
16
-20
11
4
35
-57
5
-5
-32
25
-14
16
29
14
10
15
11
-9
-20
-4
86
17
-3
7
-4
-25
33
-2
32
-1
16
13
-13
-12
9
11
23
-43
-2
-7
1
-58
5
-7
-41
11
-13
-27
25
-40
-50
-23
19
-19
-13
-14
20
7
1
0
31
-47
37
41
-15
-91
-24
-10
39
-12
-1
-8
11
49
48
86
15
-11
9
-16
44
13
-37
-23
19
11
35
-14
5
-12
-33
16
29
6
46
28
-46
-12
34
29
26
-31
4
-7
2
23
4
-5
-12
9
-8
-43
1
-2
-6
5
20
15
-10
-15
-7
-25
-13
-6
9
23
-1
27
-17
-14
8
7
13
26
26
15
25
1
-11
-5
36
-1
14
9
9
6
-29
5
9
39
-5
5
-17
3
-44
32
24
63
-4
-7
56
-10
-4
-3
28
-21
-29
14
4
50
8
14
-40
5
98
1
16
-20
25
-50
14
-11
-11
8
-36
20
-4
-20
33
-25
-10
5
17
-24
-54
-16
-27
-8
-28
-2
-5
-29
6
0
11
32
-39
37
31
69
-13
-8
-5
19
3
-19
13
-29
-34
-2
-4
39
-2
-50
38
-1
1
-11
20
-48
-52
17
25
-8
7
-23
20
-9
23
-7
27
-10
1
7
61
7
-28
-2
-10
5
-39
-43
24
13
-2
19
4
-48
13
4
32
-46
-25
-17
-54
-8
-2
-3
34
10
-23
41
-12
127
21
-16
1
-14
-25
-36
27
-63
-8
-32
-16
-13
-8
-11
-6
-5
22
-5
-14
-24
-29
10
17
-12
-27
-1
10
35
48
-29
0
-19
14
34
23
49
-22
2
20
-10
3
-3
-9
3
-14
7
-28
-19
41
1
64
-49
-23
-18
-21
20
18
-3
-19
9
24
3
-1
7
36
-32
-26
-8
-51
32
-2
11
-54
13
-9
3
1
80
55
-1
16
-1
-12
-10
-31
-9
-41
51
-22
18
-57
17
18
10
-11
-3
34
-5
-69
-37
-6
-19
-25
-12
-34
22
51
-26
-32
4
0
25
5
-14
-28
-36
-49
12
-18
8
-37
-24
-54
-2
-39
33
42
36
-3
-26
16
3
33
19
-12
-11
-60
21
1
-30
-4
52
38
-43
35
-7
21
-31
-35
-1
-9
-3
-25
-23
-24
36
-22
14
2
-38
-8
-25
-16
-17
-25
-6
-7
-37
-21
-37
64
12
-29
11
-1
-10
-9
-12
-22
-74
-53
-16
-1
-17
-9
-19
20
6
-23
28
-25
75
-37
-36
14
35
50
-15
-8
-36
-48
34
-18
56
15
-12
-24
-34
57
13
43
9
-4
35
6
-21
-27
-18
31
66
0
18
20
-40
-6
19
-22
21
-48
15
29
-20
8
-20
36
36
-20
8
34
-55
31
-4
19
-31
-64
-23
-15
21
41
17
11
15
16
-5
-10
-23
8
-49
-32
-41
-21
16
8
19
5
34
-20
4
19
-13
52
20
-17
18
-26
0
-39
-4
-43
24
-22
2
-34
9
-12
14
-8
-19
-14
-7
-34
0
-18
-10
-50
6
-56
-1
0
-5
-7
-23
8
61
-17
-3
-1
-56
-21
8
15
-18
-24
-14
-31
-34
-22
11
16
-15
-19
13
27
-55
11
27
20
13
-10
10
3
-40
14
35
32
-17
-1
20
-19
-49
-40
-4
-1
-19
-8
-30
-39
15
41
20
-12
-38
-6
-33
1
-5
-8
-16
-38
17
-25
-29
63
-8
-13
-17
-24
43
-38
-8
-10
-56
-4
7
22
-22
-8
7
-23
-7
-37
-15
-30
87
-23
-9
26
21
25
27
4
-33
-37
-2
-17
22
17
78
-9
-12
8
18
18
-23
16
-7
2
-54
-1
-29
-5
19
34
-6
-5
-17
-20
27
9
12
-25
11
-13
-21
-5
-15
37
4
-13
-2
-9
-14
39
-2
19
-25
-15
11
-2
-53
11
-1
-28
9
14
-14
1
83
-11
-57
45
6
-23
-3
-32
24
-25
23
-2
-30
-5
-23
-18
3
2
-6
-5
-7
2
-35
-25
-35
8
-10
20
-31
35
-3
-1
-42
8
-11
19
-4
-6
-24
34
6
-2
4
-33
-9
-23
18
-18
19
9
5
13
13
-34
15
-6
35
-24
-47
-20
-29
-29
-14
-20
41
24
11
18
18
8
-1
-15
-19
-33
19
-22
-21
9
-47
11
-8
4
-14
-10
-39
21
-34
-23
-39
17
-15
42
-33
-13
11
-2
-41
-7
-3
12
-23
-14
-20
-4
-11
-4
-16
-30
-49
-29
24
-4
44
16
10
39
2
-28
20
7
20
-8
-12
0
31
-32
-20
-15
8
27
-43
13
13
6
-20
-18
2
-20
10
21
-13
-26
-31
8
-11
8
0
-10
-19
33
-3
0
-33
7
-9
33
-25
-33
-17
8
-18
-7
10
2
-22
0
-7
9
-38
0
-9
-37
5
16
-3
8
0
13
-6
27
19
-23
42
5
19
-3
7
23
-6
-56
-5
-27
19
10
-29
16
-40
-25
10
-8
17
15
13
-5
2
0
-16
9
-3
1
11
-12
-54
25
-12
0
10
-40
-31
9
-43
-3
3
-7
-16
20
-32
-7
-23
-16
-7
11
8
5
5
2
-11
-31
10
-14
9
-38
21
-10
3
-79
-10
57
-8
-4
-26
-7
-30
-13
-10
3
36
6
2
18
-14
1
-14
11
-55
-8
-21
10
16
12
-33
-1
-23
84
5
-13
-47
-6
-22
-1
-64
5
-1
-13
-18
6
21
3
-28
4
1
-11
7
26
-31
-46
-7
-22
-12
24
127
0
11
-6
-18
-7
26
60
10
-55
-24
-10
-4
-1
13
-6
79
11
-21
-24
-13
-28
-14
45
-19
22
-39
-12
-37
-15
-11
4
-10
24
-11
11
-26
36
-18
11
-47
6
10
1
16
26
3
8
6
49
-7
20
-9
0
-7
-9
24
-2
-4
-26
-2
5
-12
23
5
3
17
8
-25
5
-9
28
2
-92
-1
-9
3
-18
7
15
-14
8
-3
0
22
24
-27
15
-12
9
12
26
-6
13
21
-10
10
0
15
11
-14
0
2
-19
-14
0
-29
-5
-32
-9
1
10
-16
26
-11
-5
-57
22
14
-23
15
-8
-46
0
-7
6
-8
40
-12
-12
11
-13
-11
-21
-8
2
-15
-9
15
54
-2
-7
-26
-23
-3
-12
9
-15
9
-6
-10
24
-31
-14
5
-14
-23
2
-4
-6
29
16
-25
-24
7
5
-6
-19
-2
-25
24
13
-111
17
-4
-89
-27
19
-13
27
1
-17
1
12
13
-10
-62
-13
3
-5
-10
26
53
64
14
-12
-99
-27
-52
-10
-2
-9
5
2
7
-9
39
-15
-28
6
-11
-50
-25
13
-50
18
-14
12
1
12
-22
1
12
-2
-4
0
-34
-9
10
-13
-23
-7
-18
2
-5
6
17
-6
26
21
-6
15
2
1
10
0
18
27
23
13
-26
-29
-19
15
18
18
-38
-14
8
-15
-47
-9
-26
-1
25
-9
20
16
10
-17
23
4
7
-15
-12
-8
-22
6
-33
-31
-32
-33
-25
0
-27
10
17
21
0
1
30
34
33
-19
-1
-16
-24
0
-37
2
-17
-44
18
-39
-21
9
42
5
-1
16
9
-4
-35
7
-2
5
-56
-30
16
-25
-24
9
5
-48
-16
4
-34
-20
0
-29
-49
9
-27
60
23
17
8
-24
40
-20
-3
-18
-19
-36
-23
8
5
0
-18
17
13
-8
30
-5
-17
23
16
-11
-8
-10
-40
-35
0
-32
0
-12
-10
-55
-1
29
24
21
3
54
-3
25
-31
32
-18
-15
14
-16
-3
13
-8
-21
18
-23
-3
4
-21
0
47
-12
-40
-4
-28
58
39
-1
-11
-17
31
-41
54
-5
-26
-31
6
1
11
-1
-30
31
11
-21
33
-11
-4
11
9
8
-15
-35
-49
-21
-5
-34
-17
-2
19
-23
-37
8
22
-7
-16
31
23
16
-12
5
-24
19
9
-6
26
-1
2
-20
23
-5
5
18
-11
22
55
-15
-37
5
-19
-18
-5
-3
27
-42
-12
-42
31
-6
-40
-35
-31
-36
-11
-42
-59
-34
-13
-8
17
12
61
-6
1
-20
-4
17
23
-9
-54
1
0
-52
-28
18
89
1
10
-10
-55
20
4
-11
-15
-52
76
10
-7
-50
-28
-22
4
55
5
60
35
11
29
-12
-20
-118
-38
-24
-17
25
26
57
2
-38
40
-29
-41
12
-43
-24
-35
-20
-28
-4
-84
-33
30
-6
18
-1
11
-14
-2
-12
29
17
7
-35
-44
-45
0
-2
-12
-3
-16
13
-17
-3
-23
68
59
29
12
-3
-33
-51
-17
-7
23
22
27
14
-32
-40
-6
29
4
6
24
-3
-8
7
17
-14
15
43
-11
-51
29
9
-36
7
-48
-11
-39
3
-34
-18
-27
-51
46
-5
25
-24
-6
-7
-28
-15
11
-11
-15
-16
-50
-44
-29
21
23
-11
-62
-10
24
-28
-27
101
55
30
8
-5
-21
5
12
-11
10
-25
-2
15
-1
-38
-14
3
24
-6
11
-34
-16
-7
2
-29
23
-1
-10
-53
7
-12
-22
-22
-17
-55
-27
-3
-14
18
-33
-19
4
11
10
13
68
-6
-18
-21
0
35
16
13
-3
-28
-6
-4
37
13
127
-7
-5
-6
-40
4
-26
2
22
-43
55
25
-10
-39
-36
-21
-1
1
6
74
-5
-26
3
-32
12
18
-5
-42
20
0
-29
14
-29
-28
-2
-27
-28
10
-30
-31
-22
-13
-57
14
-28
22
-3
-14
15
8
44
-49
-5
-3
48
36
12
-31
-15
-49
-7
38
5
30
52
5
-10
6
-33
36
32
59
44
-20
26
-21
-54
-17
-23
-33
25
28
-26
23
-3
33
16
-27
18
0
-8
-22
37
-33
-12
15
1
-60
-11
-16
-33
12
-27
-25
-6
-70
-19
-2
-39
86
17
8
14
7
-12
-43
-4
-19
11
-16
2
-2
-44
-34
-10
47
25
21
-66
-42
50
-2
-47
42
18
50
15
-1
15
-13
5
-5
-25
-64
-12
28
-33
54
-18
-14
27
-38
-13
-22
-20
-25
13
-31
28
-1
16
-59
-24
-34
-20
-20
36
-17
-24
22
19
13
-30
9
0
-39
-35
13
-14
-23
32
10
4
-66
-47
16
-13
-33
33
3
80
-18
-20
4
8
23
54
-28
26
3
-13
-68
-22
3
-2
12
-19
-7
9
-11
-17
15
0
31
-5
-16
-7
-5
18
-20
33
-7
-17
13
-16
0
-21
10
20
36
21
-14
-47
18
13
29
-58
-5
-26
-48
-28
5
68
-24
-5
-28
-22
-3
-92
9
15
-9
23
11
21
-49
-25
4
16
8
58
-8
27
6
-17
-29
-28
-3
1
-22
5
19
-18
-22
13
-12
13
5
-66
-23
13
17
17
18
9
29
-8
-40
-36
21
31
-24
-6
44
15
-26
-38
16
61
-9
-15
25
-19
-72
-24
-13
44
-2
18
-39
-45
-31
-48
21
1
14
44
10
31
-1
-45
-6
11
24
24
-34
28
3
-27
13
12
8
-14
-23
-41
17
4
-2
27
29
1
-6
-23
-21
10
4
-3
-31
29
-38
17
22
-7
-34
-6
13
-58
29
-40
3
-34
-7
15
-2
-39
-23
-4
-29
-28
-14
-21
-18
-2
15
2
-65
-109
-3
-20
-12
15
2
-20
-105
-42
11
49
-29
77
-12
-24
14
-24
-18
-20
38
7
2
59
21
-19
-35
9
-8
2
13
-67
7
6
-27
-36
-50
22
26
9
46
3
-18
52
-57
12
-3
-2
-8
-61
103
-22
-97
79
-81
2
-10
-17
-68
100
-79
-33
24
6
17
-127
-16
15
48
30
-60
23
-96
23
26
97
-39
124
32
11
-6
-66
-7
76
52
10
63
51
-54
-40
-15
21
-24
-22
3
100
-40
12
-57
-63
27
1
66
-57
-1
0
44
112
-18
0
0
35
-22
-76
47
1
-13
10
-21
8
-43
-21
37
96
-76
32
4
48
-22
-106
17
-25
21
1
14
-13
-83
-30
7
6
22
-10
-3
0
-19
-68
-25
-12
15
2
8
22
17
-25
-3
12
-15
-23
-13
-35
-15
-18
-10
-21
16
3
33
-26
9
-46
-4
-24
-34
-40
0
-28
-7
-30
-18
-5
4
-6
-1
39
-10
-46
7
-19
3
8
20
28
-16
-74
16
-15
-40
9
-37
-7
-43
26
-4
26
-13
-4
-12
-8
13
9
-31
38
57
2
8
3
-11
20
-23
22
14
30
27
-12
-4
28
12
-34
4
-8
-6
-2
-37
-35
10
17
-5
-8
9
-23
-8
-24
-7
2
24
-1
30
-30
-8
-31
18
-18
-40
0
-15
5
44
-69
2
4
-4
2
51
33
-30
23
-9
58
-10
-32
0
14
30
-29
2
53
89
-3
31
55
-33
-11
-68
22
10
29
-32
59
1
-13
4
-36
-4
-31
87
-54
-2
-13
10
2
-30
-6
17
65
4
-37
-5
4
1
1
17
-18
7
-12
2
5
-40
-11
-2
-30
31
-55
8
18
32
30
40
1
-34
-34
21
44
-3
-20
-24
1
-17
-43
9
16
-1
24
1
-1
23
1
-18
4
0
21
-24
-10
9
-25
9
-13
-8
-4
17
-41
11
-35
22
6
1
-7
8
9
51
-4
37
35
-53
51
29
17
-17
7
8
-40
-18
19
-87
4
2
-46
33
31
10
-25
-12
-25
54
-43
9
30
-10
-76
12
-32
13
-13
9
-14
1
-29
-10
-27
-8
-13
-41
23
4
33
-16
7
-53
50
-44
16
36
13
-16
45
-9
25
-17
-41
6
-18
-21
-9
0
19
-12
19
27
-8
38
-2
0
-13
-43
4
-1
-1
80
-22
35
-53
-48
1
51
-29
2
4
31
-48
61
12
-15
-37
29
12
-12
12
44
-23
24
1
-45
-28
-11
46
-10
-3
35
43
18
1
50
82
-19
-36
0
9
52
-9
-18
90
32
-6
-46
19
-51
-14
15
3
22
-42
11
-46
-13
-39
-26
-20
86
-2
-12
-46
103
-3
13
-61
-6
-56
-24
-51
-46
-21
38
5
34
-26
3
10
51
33
-3
41
9
-32
-23
-17
-33
-21
-45
-6
-26
10
31
-15
-4
18
46
-24
1
-10
-35
-2
65
-5
-8
67
-25
0
-12
15
33
-18
53
17
37
61
45
19
73
27
28
10
24
-63
-17
58
-57
13
-56
-6
0
33
31
-51
17
25
-20
-37
-39
9
-12
14
15
12
-43
-53
-8
-82
-55
-107
-51
-34
10
-38
-48
0
-26
-6
-79
0
31
58
-66
58
-89
9
74
32
-73
68
-4
3
-52
-21
-26
57
-14
-29
-52
35
-105
-7
12
-49
58
-2
-54
-50
10
9
-78
-60
-21
15
-47
101
-38
-52
21
10
-44
-86
10
31
-1
59
3
-64
-35
30
35
-83
-28
-122
-13
8
-13
127
-23
-80
3
-74
-30
-17
-68
71
-71
-44
-7
19
6
-10
-24
-13
-49
3
-39
-78
29
79
-8
11
49
-22
-52
-6
-14
-48
1
-15
5
-44
54
-15
1
-39
18
-46
19
73
26
-9
-25
-15
-21
-53
-29
50
-32
-17
23
-51
16
77
2
-24
25
-7
17
-17
27
6
-35
12
15
-54
-4
38
-33
-25
-91
-34
-3
25
17
26
22
29
-35
-32
-34
-56
67
28
32
-12
7
-5
-7
-31
1
10
23
19
-34
-107
-9
21
-4
1
-37
-7
7
36
108
-45
45
-15
-69
30
13
11
-5
-12
-13
7
-1
-42
70
-59
-3
-72
-22
-31
25
25
32
31
18
-28
11
-45
75
15
-15
-15
-31
75
69
-36
3
-9
33
37
4
-12
24
4
45
-68
9
-10
-23
-25
49
-13
19
-15
-49
-94
-4
-2
-42
-44
-66
-10
10
35
-3
-61
54
11
0
-18
-40
22
7
-9
-24
-15
-14
-48
44
-48
-24
-94
5
1
-7
6
48
-100
28
-69
-52
-43
2
25
-7
-31
17
56
7
22
-32
-10
-33
24
-15
-67
4
-5
9
9
30
-43
-28
-11
-34
-15
21
-16
-20
-37
41
-53
-9
-46
-15
-81
26
47
49
-45
38
27
22
-17
-16
25
-28
3
5
-23
-12
13
27
-10
6
2
3
-1
2
11
20
-9
-18
3
-34
36
-22
48
23
6
-6
43
-26
25
11
39
-34
-5
2
-57
-25
6
12
41
-10
15
-14
-34
-45
-3
-15
5
-32
-53
-8
-18
29
4
-65
-17
14
-16
9
-33
-12
-22
0
-49
16
1
26
-7
13
-60
-5
46
-21
-98
14
0
-19
29
4
39
41
34
-24
94
-3
25
-57
-7
12
30
3
-8
-11
-19
-18
22
-9
26
-18
41
13
19
24
73
42
34
23
9
-15
-7
-30
-17
-16
-29
1
43
-9
39
-50
-58
-100
39
15
-38
-51
1
5
-28
17
45
8
14
-9
22
-13
16
-13
17
-45
-27
-50
8
11
-7
18
1
-33
82
9
47
-31
-87
-12
34
58
38
19
19
-27
-14
5
53
-30
-5
-21
-42
37
33
48
-30
-11
-13
-19
-32
-22
26
-23
41
39
-16
-20
-22
-55
-14
9
2
13
-37
-19
-15
23
13
-39
15
40
-24
-17
-27
-9
-4
18
20
-13
-35
5
-18
-71
64
5
-21
-14
57
-10
3
-27
-13
-20
32
-9
1
15
17
-5
0
-18
12
-20
-5
29
-114
-7
-11
13
17
-33
21
82
-47
-43
-33
-15
-63
-17
-14
-17
1
-74
-18
-2
-6
-5
-26
20
40
16
-47
-11
51
-18
-7
-5
-38
51
54
-37
-38
10
-5
-4
-7
7
2
75
16
-11
-7
-39
74
3
-67
-53
6
0
23
-39
61
6
-32
-9
-37
12
11
-13
17
72
-35
-13
49
-8
-8
-15
-113
-16
-51
14
-40
45
70
-12
-9
-63
-46
-36
103
29
-44
-31
47
-18
27
-40
83
-21
14
-23
-58
-3
7
1
-18
-42
43
-31
73
31
-40
-42
28
-80
40
-17
17
-47
-69
-42
10
72
91
-71
78
-35
-42
-30
-22
19
-29
-21
-51
39
66
15
-24
-65
-14
43
-56
-40
-22
-22
13
-10
2
-52
-48
-38
-13
-11
-25
-11
-18
60
32
21
25
-39
-9
-4
-44
14
-50
11
4
6
53
-28
-22
8
-8
-23
64
93
-12
19
32
-50
6
23
11
-68
1
-4
21
-10
38
-15
-11
-37
-2
14
-14
-27
-67
50
75
15
39
-3
-46
99
-29
31
-20
23
-12
2
-20
12
-1
-13
-17
-10
-24
-11
1
1
-45
-4
-7
-26
-4
-17
-18
25
-27
38
16
-31
-13
17
-32
-4
-32
24
-59
-29
-16
-46
12
-18
-26
-17
-80
18
-40
0
98
-11
127
-26
-25
-18
-23
9
-6
-33
-16
84
45
-45
-12
2
-12
-83
-47
15
21
61
-58
-6
-28
12
-8
0
-41
-73
-7
-14
-33
-16
-38
-39
13
-65
-11
-7
-36
18
-10
46
-17
2
-11
-9
28
-11
26
18
-3
-48
-25
-71
69
-15
22
-38
-6
27
-22
27
97
-61
26
18
-36
-4
46
-27
-28
-79
4
-16
79
6
-29
7
-41
39
-11
-6
-5
-30
-45
-26
0
-10
-17
-17
-1
-9
-10
27
-5
3
5
1
19
-36
-7
-15
-40
6
-24
42
-31
12
-7
-36
-23
3
-9
-3
-21
47
4
-37
51
-30
-15
23
24
30
-48
30
94
-5
-6
24
13
0
-27
-11
-47
-13
15
-21
7
-23
-18
1
19
-51
10
-5
40
-4
-24
-17
52
-32
-8
-33
-26
24
-28
-74
-17
-20
33
-69
-57
68
12
10
37
44
-17
-15
-20
-9
-22
-33
-43
12
-61
17
-44
-1
-14
-8
-1
-22
-10
44
36
-51
-53
43
-8
27
25
-17
45
15
-89
-38
14
-31
-67
0
-1
-51
-3
42
39
23
-8
-41
-7
-47
14
8
1
22
-23
-46
-20
-17
5
-35
23
-38
34
-55
-26
113
-21
2
51
49
18
-41
-20
3
5
-43
-14
-13
-29
-34
-4
16
-20
27
31
-3
6
5
1
-30
-44
-6
9
-3
-3
-17
92
-12
-113
-25
-3
-37
-29
9
3
-37
-3
-4
18
1
2
-58
23
41
-27
28
-32
19
-49
-29
-41
7
14
-6
31
-9
10
-73
-2
127
20
-39
24
15
-4
-30
-44
-39
16
-40
-13
-15
-21
35
-21
13
13
17
12
10
-12
-11
7
-36
-52
-11
29
36
27
-13
41
16
-68
-42
35
-8
-35
20
-9
33
-15
7
9
-46
-10
17
3
-27
-35
3
12
0
17
7
-71
14
-25
7
-1
42
9
-91
-35
53
89
-24
21
36
-9
-1
-7
-3
-59
-37
-17
-36
16
-1
8
18
29
-32
43
-12
-52
34
14
-51
-30
60
-24
-15
10
62
-30
21
-68
-74
0
6
-21
41
-5
-33
-27
-16
60
-18
51
26
-7
-45
-20
41
-15
-39
-8
-2
-92
-15
9
39
41
-38
-8
-86
-9
54
33
14
32
79
-6
-28
24
-41
11
-29
4
-27
8
-40
-15
56
-16
-16
67
-6
-50
-43
-58
-37
-39
23
20
-18
-15
8
-60
-25
-84
-19
-32
15
-39
32
-17
-24
-20
8
42
-63
33
15
0
35
40
50
25
-20
20
-58
-84
20
-37
2
1
-7
-5
-117
-13
82
45
-47
7
43
-19
34
4
-25
6
-30
-28
-7
29
18
-15
17
-26
-42
57
-47
-65
2
-19
-52
-50
25
10
-9
-11
-5
-44
-24
-64
-49
81
51
-35
54
13
8
-59
-9
-20
-41
17
23
9
-32
-32
25
-18
-13
11
30
-14
-25
-18
3
55
26
10
-66
19
51
99
3
-42
-61
-5
-50
8
-23
-29
-19
-32
-30
-37
-14
-3
32
26
-22
38
-41
-79
19
-36
-15
-26
-4
-3
-6
-61
37
-25
10
-39
-58
16
7
-45
22
74
-58
-27
-7
-2
9
112
48
30
-12
-60
30
21
-34
-4
36
-9
-17
-23
-3
75
1
28
-71
32
8
93
51
-41
-26
26
-50
-21
-3
-25
-21
2
-23
-37
-78
-49
-22
-14
-24
96
-48
-93
-16
-38
-23
-30
31
0
19
-59
-10
-26
-17
-31
-37
-24
-11
-23
6
-27
-25
-15
-11
0
15
26
40
19
6
-11
36
79
-23
-14
-2
-14
-5
-51
-19
5
3
-12
-103
-12
29
86
-14
-53
-29
-28
-15
-9
-1
-19
-57
-22
-51
-29
-6
29
7
-27
-57
78
-76
-79
-15
-18
-24
-29
34
-5
17
-15
-42
-13
14
-29
-32
35
4
-12
2
8
5
-33
-34
2
-37
8
-14
7
-15
-24
14
-32
-22
12
-13
-19
35
17
-47
24
-4
-25
-2
8
-38
30
5
-58
-9
19
-5
14
-13
-41
31
-9
10
-13
-15
-44
-7
-15
-22
16
32
-3
-63
39
10
27
38
-30
-2
20
-28
8
-36
-51
-6
-5
-11
-3
34
-5
-6
-34
-88
-36
-51
-75
35
10
27
68
2
-15
-6
6
38
13
-18
25
7
-16
13
-21
-61
11
69
34
29
67
30
-45
28
80
12
-75
-34
33
-48
-52
68
67
-11
-23
7
-52
39
-62
34
74
1
-45
29
-81
-23
-9
-16
24
84
-21
-12
56
-25
54
-13
-4
12
-49
-32
-18
-36
-35
10
2
15
9
-12
5
10
-12
-12
-61
-13
3
-13
47
29
26
-2
-15
69
22
-4
-14
-10
-10
36
-14
-17
-23
-44
29
22
-18
53
-14
-26
-14
29
-55
-8
-12
-28
0
10
-22
-8
-3
36
-47
19
25
8
-43
-5
48
38
-25
-3
-31
19
-19
35
9
5
7
18
5
15
-14
2
-19
7
-8
-1
-40
-5
-2
-33
6
25
13
-12
34
-57
35
3
-24
-18
30
-6
-32
-14
-24
6
13
13
-30
-10
-26
9
-3
-4
25
-4
-40
-10
16
-42
33
-24
3
-1
4
-33
49
-16
-8
-1
-8
10
14
20
-121
-28
-58
-56
-18
-29
-99
14
8
71
-4
26
-39
-118
-17
19
30
8
34
1
-35
27
-53
-30
25
-51
30
97
7
8
-114
-3
-5
-89
-77
37
71
4
-24
-24
-39
0
-6
13
-68
-83
-83
20
-4
-88
-22
-26
-21
-20
-16
17
-8
25
-11
-22
11
23
-16
-40
-72
-5
-48
2
4
-16
-48
14
-3
-1
-9
5
24
-53
15
-37
-59
5
-4
13
-13
1
19
4
-20
-12
17
17
-27
-19
-10
36
3
-33
-56
7
35
-24
-21
-43
-16
-30
-10
5
-35
-33
-40
26
36
-53
-8
-1
28
25
-45
12
29
23
-70
-18
39
15
-52
-33
-30
44
3
-20
18
-26
9
-38
-26
9
-17
-13
-25
-18
-15
-6
-39
16
-20
-18
-55
13
20
4
-10
25
48
-19
-11
10
16
-21
-5
4
-19
-9
29
30
-24
17
27
10
-8
18
-11
11
-17
31
-3
6
-5
-3
-21
-38
-35
-11
-20
5
-19
18
-3
24
-4
35
-22
54
-27
-57
-16
-29
0
0
48
28
-73
33
-43
18
-12
31
55
-28
27
35
-76
-30
-45
70
18
-13
57
85
-39
13
-40
-11
35
-31
-67
18
68
15
-23
2
-8
49
24
19
-127
-31
-52
47
-28
-16
-65
17
4
34
43
31
16
23
11
12
-26
15
-55
9
-14
4
-70
-20
-27
-35
2
37
-7
35
-34
28
7
6
15
-17
-29
2
44
-3
-95
4
35
27
2
-17
33
14
-8
-8
3
55
44
-25
-43
5
11
17
-25
28
26
70
10
25
-118
-10
-14
34
38
24
-60
1
13
57
-3
10
8
-7
-56
26
15
37
-64
-2
13
5
13
31
-20
4
-27
10
-4
-15
-51
-23
5
14
-16
-24
-99
12
12
25
33
4
-6
-39
-39
12
1
-22
32
23
-8
-25
5
97
16
24
34
-29
13
39
37
0
-22
49
-14
1
-13
6
48
15
-41
89
-8
27
15
-9
85
1
-15
-35
-9
-20
3
-10
5
-45
17
-9
-25
6
-31
39
19
-14
-18
-29
-30
68
-21
10
-41
-109
-29
14
-22
-53
10
27
28
38
-3
2
47
-7
42
-46
31
-102
41
-6
19
-47
-23
-8
17
49
-60
63
-4
46
23
-1
-60
-11
3
-59
9
26
18
-12
-15
8
-44
-1
31
0
-5
-18
3
-44
3
-3
-15
-4
-10
7
13
-5
-31
-11
4
4
-24
6
-34
-22
-11
0
-20
-39
-5
-7
18
12
12
3
-11
-3
-20
-5
31
-17
15
-5
19
-14
-4
36
-43
-3
10
5
-18
41
-8
-36
-38
-11
0
1
-4
27
13
11
-20
11
-8
0
31
-15
15
-4
-8
24
12
-14
-29
7
-35
9
3
16
4
-26
-28
4
-2
-8
-58
4
-18
64
21
-12
14
-20
-11
-11
-25
-6
26
43
-36
-2
-2
-79
45
37
70
-13
-43
57
13
-1
51
47
-10
-9
-15
-27
-32
-86
-13
28
-4
15
-1
-31
-25
2
-31
-28
20
26
-15
-11
-21
-37
1
-30
17
34
-19
-28
51
13
21
46
-52
1
0
17
5
-91
-52
-28
-29
-77
13
26
73
-12
-15
14
-38
18
-66
14
42
-127
20
-10
60
-52
-10
-28
-57
31
-7
31
-27
29
13
9
-78
-54
-22
-21
2
-24
38
7
-36
28
-34
-5
51
-24
-63
22
-2
-38
5
-14
19
18
3
14
2
11
18
28
4
-22
-8
5
-12
8
-36
-9
3
-28
16
-4
32
-7
-7
7
-54
10
-41
16
39
-10
-3
-30
-8
-17
-8
47
-60
-32
-18
15
-2
-10
-28
17
-15
-56
-9
-24
28
23
23
17
38
26
-27
-36
17
-12
-11
-9
-20
36
-20
-12
-20
2
-28
-6
-13
17
5
-27
10
-5
3
-6
-31
23
-23
-23
-35
-4
14
-4
0
-4
-9
9
-1
13
-26
-3
22
-23
20
-23
24
21
-18
37
5
-9
16
9
6
-25
-5
-27
6
-22
-34
11
-17
2
2
-35
-24
7
16
-10
-2
10
13
-13
11
-7
-17
-4
7
32
8
-18
-1
21
11
7
5
1
21
-36
-11
-36
-55
-8
-11
1
13
-5
-32
25
-9
16
-22
16
17
16
25
-29
-34
-13
75
-44
-12
50
12
32
61
13
10
15
9
-1
-24
10
-29
14
22
-26
7
-10
-19
0
-2
-2
23
-35
-55
33
-1
-12
10
-25
5
11
30
11
19
-4
-13
-10
6
-6
-7
-47
-24
-7
-33
-15
43
-34
1
-15
20
2
26
-21
-11
15
6
36
12
-12
-20
-17
-4
-23
-16
36
0
1
8
39
35
0
-17
21
-15
7
-34
-5
-4
24
-9
4
7
-1
-24
-35
12
6
3
17
1
54
-71
24
10
-13
-14
-8
15
-16
-28
-8
-40
-19
-4
-9
-37
-31
-42
21
6
53
-28
28
-11
-26
18
-4
-26
-2
33
-6
10
0
-47
17
21
-40
-24
28
-21
-6
9
-22
-15
9
5
18
25
0
-11
69
22
12
2
-42
28
-8
8
18
-2
-18
-43
23
-6
21
-32
-27
29
5
18
-11
36
-48
-41
10
22
0
8
58
-24
-21
-9
-41
86
48
-15
-15
5
38
26
-2
-33
43
-35
-25
-22
-21
-52
-11
18
-37
-27
-13
-35
-50
14
33
21
4
-3
13
127
3
0
58
-15
3
-1
-17
-16
-9
4
-1
18
-36
-30
29
5
-14
4
-7
14
-13
13
-9
-10
1
-79
28
19
18
-10
27
-27
-17
-4
-22
106
-22
-13
-3
-43
63
30
-3
-27
6
-19
-9
-39
-17
-24
-12
13
-32
-18
21
-50
-30
-1
40
-2
-16
4
-5
1
17
-12
10
-23
-13
21
-3
-3
-29
28
25
17
-26
11
28
2
35
-48
2
27
-37
5
0
0
-6
-42
2
6
6
-9
-16
-27
-21
-47
6
-33
19
-9
6
-8
-30
13
-9
15
-14
6
-6
-6
6
-32
22
10
-7
8
78
26
-2
43
7
-16
1
31
20
62
2
-9
24
4
3
-9
-15
19
-16
9
-1
-6
-1
0
0
-38
8
11
-32
10
-8
27
-9
20
-17
-37
8
53
-1
-8
3
-13
18
-20
-20
49
17
26
-35
16
34
48
14
-10
40
-58
-55
-43
-13
-58
-71
32
-13
-4
33
-6
-33
49
22
-4
-41
-25
-13
68
3
5
3
-20
3
-10
-6
-38
12
4
15
-9
-23
-9
-28
-15
-10
23
1
-1
-4
19
8
-7
0
-22
25
33
25
-9
0
-2
2
8
-14
26
0
30
-24
-14
42
26
5
-28
-26
-29
-23
-35
-3
-18
-27
-5
-2
5
54
6
-21
9
10
-9
-41
-6
-9
-65
-8
-5
-3
2
-20
7
-4
-2
23
-4
13
36
-27
-16
-8
-5
26
-46
-8
2
-56
-14
2
12
-28
-34
11
15
-11
-10
-20
-17
-19
-30
5
-40
4
-22
-43
-37
-14
-43
4
5
-13
-10
-14
10
-9
19
-17
-16
-3
20
84
28
21
6
6
-15
-3
31
0
93
-10
11
22
-35
-4
17
4
-5
-25
0
-25
-15
-11
-1
-8
-5
20
11
26
-14
-22
8
-5
26
-15
-51
2
30
-1
-16
-12
1
-17
-11
3
44
8
-3
-32
-2
24
8
43
-42
6
-31
-33
-18
-8
-27
-102
19
-30
11
75
38
-15
54
14
1
-54
3
-34
5
-30
-20
-1
-19
11
1
-20
7
-18
-9
-39
-16
-28
-36
-28
6
-1
9
19
-8
8
10
-9
14
-19
-22
25
4
6
-8
-12
3
-20
-22
-20
30
-22
-6
-20
8
59
2
39
-46
-18
-18
-16
-20
-4
-42
-43
20
-16
14
36
20
-13
12
32
-18
-36
-9
-22
-25
-20
-3
8
-17
-16
38
-25
16
14
-42
-27
12
-65
-40
0
-10
19
4
3
9
-3
2
-6
-4
7
20
11
5
-18
0
12
-23
-36
13
3
9
-4
6
-3
11
-13
1
-12
-6
6
2
-5
-6
17
14
2
10
14
-1
3
20
9
-2
12
-13
3
-18
6
6
0
10
-21
19
18
15
6
1
3
5
1
16
-2
-13
8
8
20
-5
-3
7
-12
-23
-13
-3
-17
-1
-6
-23
-9
-25
-5
-36
127
-38
-6
4
26
-17
-10
-36
-25
-18
4
-2
-10
-26
24
-18
-23
8
15
-19
60
34
45
-1
-5
25
11
7
-18
-25
3
5
15
-4
-6
9
8
-1
11
-6
-5
-38
-12
2
28
2
-10
4
-11
-4
2
10
6
-2
8
-2
3
-7
-7
0
6
-2
-7
-9
-11
3
-7
-6
7
7
7
-8
-2
1
15
1
-1
0
2
7
-11
-12
8
11
-13
0
4
2
3
14
5
-7
10
-5
12
8
14
4
13
5
-9
5
-6
-8
-4
9
-5
-5
-7
3
-8
13
-4
11
-8
4
-3
4
5
11
7
7
-2
-2
-2
-7
7
31
-25
8
-2
0
6
1
-5
3
13
6
-8
14
4
1
-2
4
0
3
11
5
-14
-8
-5
8
-7
-2
2
0
5
-16
2
11
7
7
-5
7
-2
-4
4
-13
22
11
-6
-5
-8
2
7
-17
14
-14
0
10
-3
-13
0
-4
-8
18
2
-13
0
-4
5
11
14
-22
7
7
16
-12
10
-4
7
-3
4
12
-10
-29
17
12
-6
1
13
-10
4
25
19
-4
4
14
14
13
4
-22
10
-6
3
-6
-3
4
5
1
9
-15
23
-21
-3
3
8
2
4
2
-5
0
-1
1
-2
-4
7
-3
11
8
-2
-6
14
17
-7
29
-11
-1
-9
-7
3
-9
3
3
4
6
-3
7
-2
4
4
0
-8
-2
0
-8
-2
9
4
-5
-4
-3
4
2
5
-14
10
-3
8
4
-1
-6
-1
2
5
-7
23
6
-7
18
-2
-4
0
2
1
10
8
-7
3
-9
-8
2
5
-1
-8
3
12
-2
-2
-9
-36
5
-8
6
3
2
-6
-9
7
1
-2
-3
9
0
-9
11
-4
3
-4
5
17
-8
-9
7
-3
-11
2
0
3
1
-9
-17
-3
11
2
6
-19
-13
-1
-16
15
13
0
0
-16
2
9
-51
-6
-24
6
1
-11
-23
-10
-28
10
-20
4
-19
3
3
0
-29
100
-21
0
-21
39
-13
10
-12
-6
-8
2
-15
-17
-53
11
17
11
-9
3
-12
53
57
38
-8
4
21
7
-15
-14
-24
-15
-18
9
-16
-3
-16
-21
1
-20
-19
8
-3
2
0
14
-14
13
12
-15
13
2
4
7
3
-3
-7
3
5
-6
8
-7
14
-8
-1
-11
-1
2
-8
-5
-19
-5
4
5
2
-4
-1
-4
2
0
1
-3
-10
-12
-9
-14
-13
-4
4
-3
-14
0
-17
-2
6
-5
7
10
1
-4
-17
6
-1
-9
-3
13
8
5
0
-3
11
-1
-2
-6
15
19
-33
-4
41
2
63
35
45
5
-1
-14
30
-17
-13
-10
-9
20
-16
10
-37
-16
-10
13
-8
3
7
6
3
-7
13
-3
-30
39
26
-80
6
-50
32
-9
-27
9
-12
0
13
6
42
22
-19
18
-21
-10
7
-5
-22
14
11
-17
-14
-26
12
-38
-26
-19
-25
24
-36
-18
42
51
-3
-8
27
-19
-11
-2
-10
-9
-49
-41
-4
-9
-11
8
-16
-17
-13
32
-12
32
29
-4
-9
10
12
-32
-46
20
10
-3
-5
-40
4
27
-50
4
-28
30
-31
6
-24
8
4
-1
-10
14
5
-13
-29
9
-8
-24
13
-3
11
-11
5
-29
-20
60
0
-21
64
-14
10
7
5
12
-23
15
-5
-5
-41
-1
-36
0
2
-3
-30
-2
-6
4
-15
18
-3
12
19
26
8
-10
-15
3
11
23
22
-22
4
26
21
-3
-43
13
-23
5
-20
55
-5
3
9
34
21
-6
-21
33
27
-18
8
-15
0
-21
15
-5
-17
-45
3
-3
1
0
9
0
-16
28
-27
-41
-8
-1
-11
1
23
1
20
16
-29
17
-1
-10
14
21
-13
-36
65
-25
8
6
-16
34
17
-60
-49
-55
40
5
33
11
25
50
-5
-4
40
56
-17
-9
-18
-3
35
-5
-10
10
-42
-2
-14
-66
-2
-19
13
-22
-37
-9
-18
-30
1
57
-16
6
25
7
1
59
5
22
-59
17
18
-2
32
1
-35
-18
4
13
-27
48
-4
-32
24
15
1
20
-55
29
0
20
-7
18
59
-11
-7
-11
25
118
-55
-7
-18
41
62
12
21
64
19
15
-8
-25
-32
37
26
6
-11
-10
8
-37
-48
-26
-1
-1
4
12
-4
-9
35
-16
-32
-2
-5
-3
-37
2
-37
35
-15
-1
-23
10
-6
-13
-18
2
-20
-6
81
-5
-9
-9
-6
-5
3
-6
-14
-34
47
25
23
-38
15
81
-9
-25
-14
54
12
12
39
16
14
-10
-26
2
6
-8
-16
7
-35
-3
-5
6
1
-6
-17
30
-32
15
-3
-16
16
9
-26
0
-19
2
43
-16
15
11
38
34
9
-2
11
-17
-11
-7
32
-40
-40
-13
13
0
30
37
21
-53
-21
-17
-4
29
1
-1
30
-60
-6
2
20
-122
-25
2
-20
8
16
2
14
40
-12
9
14
-24
11
26
21
4
28
13
1
3
5
13
16
-25
31
20
-1
3
6
-1
5
37
40
33
37
-1
-6
-16
48
15
-29
19
14
-55
-50
10
27
25
-7
28
4
27
0
78
32
31
3
-1
22
-53
-32
-1
26
-64
29
2
-9
61
5
3
12
8
-27
45
32
46
16
3
27
-3
5
-2
15
40
-37
18
11
-12
17
-42
5
38
6
31
35
-17
5
24
-8
-12
-11
3
11
24
-7
-14
14
-26
-21
-4
13
-14
2
-25
-15
-15
0
4
10
2
-9
-9
12
-53
29
7
10
-127
3
23
18
7
-8
-1
16
32
2
7
17
21
43
-6
23
-2
12
2
-25
-6
-14
47
-33
-3
-22
7
0
-40
26
-4
-25
28
5
-3
-24
-10
-9
23
-1
13
-31
13
19
-43
13
6
23
2
55
-8
-14
7
-14
-10
-7
-4
-3
-25
-5
-14
22
57
31
4
2
-22
11
-4
0
-26
-13
34
15
9
7
-12
22
-24
14
-18
-5
-2
-28
-16
-3
34
-11
-87
13
-5
-40
8
36
20
-47
-64
-7
-30
16
-4
5
12
-7
41
-21
-1
-34
3
47
-44
33
-78
1
8
-8
11
-8
-37
-29
-22
-37
3
22
8
-4
39
-60
-1
-21
3
42
-28
-16
-24
-8
71
-15
-4
33
-62
6
33
5
24
-8
3
13
-7
-11
44
12
54
-5
-2
-3
48
2
20
-61
-5
-22
4
-3
-28
-6
7
-20
38
-2
7
-14
-10
-29
5
39
-11
6
6
15
-15
7
20
-42
7
-5
10
-15
25
-12
-8
-2
37
-5
6
32
8
0
-4
-9
40
19
11
42
-2
-36
-14
-27
-72
-39
-36
-13
-23
-29
8
5
-9
-30
14
-27
-17
-29
-18
41
9
-3
48
-9
-46
-46
24
22
-34
-17
17
32
29
-50
3
-17
1
27
16
-16
-41
-3
-51
18
39
-12
50
-17
-2
33
27
-22
-5
-13
-8
33
-45
-55
-37
-39
-13
51
-17
-8
-22
32
4
-41
20
2
12
46
-19
-6
-2
-44
-127
-13
20
10
-48
-38
43
14
-91
42
-88
9
-19
-47
-19
7
18
9
18
-17
-10
-58
-60
16
0
-8
-26
-34
11
6
-96
-17
1
-116
-10
-8
24
21
18
-21
-5
-35
-1
26
16
-6
-59
29
19
-17
-41
-53
-92
46
22
-18
20
-1
18
35
0
15
16
-21
27
-36
14
87
-45
66
2
-14
2
20
-8
-6
-22
-26
-12
-30
15
18
25
10
9
-47
29
55
-5
13
-5
11
37
9
52
-26
13
-10
30
-20
18
0
-18
8
-9
-33
-14
-5
74
35
-1
-6
4
-8
-3
25
-11
30
-15
24
-23
-10
-4
2
25
-12
-24
-14
0
21
22
-17
-17
-4
-15
26
20
0
-20
-13
11
13
21
-25
2
15
-9
7
1
-3
2
5
23
15
25
-5
-4
-13
-42
11
-9
-9
20
-15
14
-2
6
19
-15
-6
30
-12
12
-10
-13
14
-24
-24
-18
8
-12
13
-7
-15
1
17
4
5
-15
1
-17
-16
-22
16
29
31
-1
-26
-22
-7
-38
26
8
14
40
-39
-9
-26
-35
-2
-5
58
-27
12
-12
-21
45
15
8
3
-4
-1
-19
5
-7
-43
-36
-18
28
10
6
20
2
-8
71
-19
24
-10
-2
20
-11
-18
-1
-7
-25
-3
-20
2
-4
1
-10
-16
4
-18
-34
14
-32
3
-13
28
3
-52
-20
-24
1
16
28
4
-9
-17
9
30
-5
-22
9
17
-2
20
11
-49
-4
31
22
11
-14
-5
-11
0
-10
19
-12
-5
26
7
0
12
6
-16
-1
-22
16
-10
14
4
-4
5
32
-7
-23
5
0
-9
-5
4
1
0
-1
-3
-10
-17
-14
1
-6
-2
-1
-5
-6
