// m0_rom.mem - 827 x 32-bit Q31 multipliers
4d9185ff
442de808
6ad00fad
6d0fffee
40a73a59
698ed910
510be8cf
63bad5f0
68cfbd17
7ed5c071
7048912a
670e11dc
6afeb809
7b79a7ec
5a2b4b47
5e47588d
490cb911
5fba1f62
5c7e6dc5
55976ceb
6f108386
4797b2ab
69d25e2c
6379e67a
4f53be4e
5643bbea
40f4f0ae
4b26b01c
70207a69
41a7d793
5dd145c4
7aea0dca
55279a95
4f7bc8b0
4630a796
426b994f
77464f8a
5dcfd8da
6d8225dc
64a2fd40
441d1c16
7c2151d6
79745969
708170ff
7a122833
4d964fd8
5778b2d5
7345c6fa
4f362223
470813eb
4f63dbfd
7f5bc7b5
44fdae8d
4baa3682
71083ebd
5b7be719
5f766b8b
63857bb9
5ea7968c
67970170
4c78e46f
77e076ed
4aadb1e8
4cc4a10b
56d66a08
4bef9542
682c4716
4611c809
6ae9bfb5
4d7b581a
7f2128d4
67007488
4c350c57
42abb025
670eb8d4
644fed6d
7a282a05
5d9ffbf1
4e19cb1f
43a68ffd
5ad036fa
5a433a51
5dbbb357
733fe44d
5bf7658c
56760118
75ceffb8
4b32ab1c
44ac56ca
4e0676d4
741d0d68
507b4528
68eb8584
52dd781b
7979ceb2
5eec0061
7c1a77be
5269488b
66811ad5
68a7cf2d
623d95fa
65be7248
7895eb05
4964ce4f
6d105e1e
608b6969
4863032d
58a08a0e
5a1ad261
5772f6de
4d8861bc
4a74663f
45c5f4fa
570c8edd
476490da
62f17524
5bc2f0a8
7a957361
5560b8a3
4996d118
66b7b89b
502d4a75
53af81e5
4a29191c
5203203b
4e0b76df
58d2af14
7e7793a4
6bfed08a
7e68ae88
466c7aa3
7c528af0
6c917df6
50b0a128
409bc6db
4e1395ba
6c9530e6
481134b1
43a8457a
462f1a1a
727d19f1
4797f1c9
5f8e96fb
70330e34
7a9bf065
474a7a0a
460193c0
607fcb3e
5c74ee70
498e9ca5
614106de
7b8453df
6a74acfe
4260b931
43dffd32
640f612f
5063b370
4a80d8c1
4521d5df
40da743f
676b67b7
5728b28e
537833cf
4a4b09c3
675da5ae
63cc68bd
7c1d2865
50c61e0b
601ab85d
7bc82085
46c9e8ba
40185ec9
42519bbf
5eed6acc
404ca36a
5fad47b8
42b2d342
48cb809a
4c796b08
5bd61050
72af1737
444b7ea7
4bc10b1f
5481f6fa
77202fab
622f4f2d
415d2528
741fde40
4d048205
6807f656
4cef2f11
49197298
7d6df7aa
44206a48
4915f7a4
71508c1a
66ce6612
67ebcf57
6162f098
44e17e20
6803f8ef
79aff418
41779481
7ec04267
5eacf576
67c7a9a7
51afe69d
4c572c2d
5c5de731
7b3579de
502917a8
5a68d68c
4ec5d411
702b8c81
7c24d643
6de285fe
450f6bea
6a23ee36
70be0df8
5addd613
56ffa656
69931684
726d5081
45187747
4b716941
7b9bd54a
75c1ce30
5a3703c8
41bd3442
66fc9f5b
4af2f71d
40d54db9
785df212
7aef091d
546087bb
5bbe66f3
52e89b0d
72674af6
45c92636
68bce9ba
5c5e0738
6c7d8729
44cd9683
78607cd7
4ac69c1d
54c9bf51
4286f813
40dab3c1
74afb16f
4a71ce61
66efaa60
6bf57264
53f61d7a
437f0703
4a755267
609758cf
4be68a7d
4b02d1eb
4cb72790
7d5011c1
7a483a32
491a2382
64b83cc2
45833b0e
556dc122
74d7df4d
46024cac
58c088e8
7b8674af
4d414233
4fb8023a
411178a8
67395d69
4c6e4b0f
70890115
5e636f37
77ad12d6
63b35460
47befbeb
5dac3d24
407ad4ed
7a96202e
47e9e6a8
4576d11a
6fb1627f
5b97a82b
6020da77
69eaad1a
5dad57b8
6c329f05
4b644847
618bb96f
4665738c
70a2d758
6d0f8186
58eefef9
47f370c0
5a1b0d19
6ba8e8ba
7b406af7
5cf8b7d8
7bedb8fb
767dd793
48256a75
50cd5422
60169a14
43d18b15
40cc2d4d
6f30a2d5
6f1fd820
465bc57c
65f16719
682a62ba
65e7f48e
75cb42dd
60bb50b2
40094770
6d745634
518b5b36
40625f01
65bbd952
77f56c89
451579b9
7e0984b6
758cf174
442f95e6
7846ba6a
64dbfa13
659b68b8
4fd27636
70e57531
4813619d
5a41bea3
46bc7e4d
544adeb2
46015d40
77294077
636d482c
7ed0968e
619c6aaf
62d449d5
66ff5577
57d352f4
6f1b46ce
4a423305
683cb5a5
5d62a47d
69257351
5997d3f9
6b14e4e9
6c430adf
44a18e5b
7a71b901
73b26216
457a5c14
4bd9f596
54fc764e
7efa8ea6
5d363959
5f7558bc
73841a72
430b99ac
7197b36d
7da7312c
6e9d7953
60a3c8c1
4048e790
5d880108
75c1724a
68a38510
557069f4
5faf6f10
718f450f
4f3bedd8
48bd64a4
747b7dbd
6c18a814
625d9898
478b0492
76400880
7aa8dd9b
6ab485bd
6be89675
6416ac5e
743c0227
495bb1d3
67dc916d
402b329b
73b041dd
7753583a
51113cfc
62b13c49
55d6cc3d
68109413
45ad7653
513a94c8
76e72f3e
6f90603f
613ccc74
7dc49c8f
48f963a5
60fea37c
738e0748
48265f0e
44471688
4b3476b9
61361704
5838906c
4583046d
7a6ddde7
52c71670
66123d0a
7d7dd117
52f041e6
49534d33
6a4157e7
58ebe4dc
6c482fd1
5419bfa5
605753d1
779c8df9
640000a6
6af23fa0
47c44c51
74d1c726
58f561a2
4ac7bb92
49132794
47b5b7c1
5c66a98c
78c26c0f
744b8381
4771c846
6e6aa5a9
405bd691
5cc7f107
41458556
6f32be48
592b0b09
502a586e
66f1a676
72233366
7fb8ea84
5ba8eb95
73aceda4
64877f6f
7660cacc
788229df
476433e2
7183c3cd
4500b867
5b6c9afd
718d0b7b
7287c690
613fc1fd
5a8e13c2
4a00f50d
4a3ef789
5c9a36b5
6d152201
7efa9dcb
77e4739c
49c69256
5156bf09
430f16fb
45070bf2
771916ba
4db842bd
796af098
548bd73d
73290f05
5484d651
47b5ee23
40867017
73b43c0f
6df0e542
697208de
67b4e334
5e96b6fe
7b26ec18
465d933d
59a72886
55fb1375
5ecd56eb
42b6e388
7ec58bdc
705e4288
636fa4f1
558ce25d
446fdf14
6aff466a
4fc9d3ce
74fa6eee
5cc9015c
7241aa11
74865d01
4f742a19
628797dd
65c0e672
79984867
4e8d6cd6
7e2b92b3
6a2aab0d
4b7e24ab
7350652a
6be3b49b
519ad1a3
5c60eed4
4f3de84f
771ce477
72123a5a
5624af0a
544246c2
606b93a4
5bd9d4b5
50c9e71d
646a2b7d
5f23934c
7e14cba6
4d548bcd
42bdd4b1
40a6deb4
7d1e18f9
413ae356
6b3b3950
624b74ce
68e9ad61
52013327
4bba2de5
44a3f772
4970f865
4e34714d
5580f71c
48aa2f96
7f698818
557cfd96
7b128762
5348ede2
4fcd4529
42bfb3af
4d0b0f77
6b02e15d
53866913
4b6a7dfa
49a5f23f
405a4c84
50ebb07d
41114670
65c57003
5575ba1d
610f6fe9
6a660284
59550681
74a40965
5eae780c
4074c5b9
6169a870
44412660
49e9f896
6b8895c7
6a25f0de
7290c36e
6c17abb1
473ed7d6
4349d529
4039b316
5111d303
7ab6c978
45a6406f
466c579c
74eaf790
6bd29262
403592bb
6fac6e2a
7285c074
61b95ab9
41aa32d8
4b1510b4
6a315465
675bbdbb
56387720
4f57ada3
5105d64c
7a3515e7
64dc6ba1
46b510e8
7c5e1bc1
736a5363
69902925
61f33a88
6f805047
7f9ed8b1
606f7230
5e337b0e
4e231bbc
63731089
734a5158
51c3b258
660eb4e6
6ea5beee
73b683c7
7735c7ed
5fcf7729
777cb987
53b95bee
475e96ae
7ea538db
492b42ef
5e1adf3a
7422fb96
4405e19d
7bbd588a
6b898bfb
710aa1b0
4360ad94
42a573b7
4f043f2e
53e9cfbb
57e4d5df
77251d12
63ec39a2
60e7195c
715e3ecb
77b89683
41165fd2
513ef9c4
6496d37b
471dd93a
7972294c
49870fe4
41e056ef
7705125b
5960be97
56cc86f1
74b6e2e1
786180e7
4bba770e
7ce3a8cf
69ba2b03
67c8b642
40a6435b
66cafc55
5d631657
7069037d
7af0154e
794ae191
592d6bcb
41b2a930
5440700b
4e5bebca
76a2cf96
4baed2c3
42855809
74cbbedd
4d4ed8c7
56656d52
4cc344b7
62c16306
583d6aff
58c7ec01
6372d1f6
4f9323bb
411a38ca
57cebea2
589830ff
428ec46a
7a405142
461cb9bc
4dd263b7
49959212
61d417fa
500a5fd9
69c993ee
77871269
7bd5a3f2
47ea49c2
42dad76c
6688f54d
47ee2298
5bb5a5d8
4f799c66
540c65e7
5e1028d4
4150002d
695cff2a
442bebf9
408cb966
567edc58
5f8b553f
580ef636
432b4ef9
598397f9
42b7bc28
7978b2a3
6780ecc7
492bb264
70807f2d
5c19a5c8
52b8d13e
6c01fe04
4886da1f
4576b0a8
4bdbd1ca
6b21735e
50040e86
48688d5c
4bbf1d9f
58e13fd0
567d7f43
4963b54d
7d851379
46786c53
4ca4452f
50a9419d
751ba939
4446dd7c
69cf603c
539823c3
593e4841
4c8875b7
5ffa8776
550f9468
5cc61f48
6288133f
55a889b6
6ccc2979
75c2860c
5cb83754
4cf7b399
4c42ef40
7a1af0e4
7fa54658
681268b3
4bd3b0f0
4454c56f
540761a5
5bb00492
60243ee2
56791d87
6873bea2
6c176520
41048d5a
5e595f65
48e4cf38
4e3785bb
51db2bcb
688f8e1a
462d8c71
5ec89d47
4efa3207
56bea46c
5fa7190c
627a2bb9
63668f03
5cc61f48
64a66125
6a5a6d97
7342e2a5
4735bfa2
5220b2b0
42445f7c
454f10ad
6989d957
40bf06e4
6110a29a
59f30d08
52f146f0
65ca6360
6c86a303
690cb3f0
6de2442f
66c4ae9d
6102baa6
51e913bf
48c8ffbf
6fad23ac
57564d83
6533e263
525684db
5876f0e8
41ae0ff8
46ce7a3f
5361d1a8
524f8914
53df2096
59cf3d31
418c99e3
7209d288
70097b3f
5862de1f
5600dfb1
68630ef0
406d6ff6
5ef5598b
5e526992
4879c642
57ac7535
617a0753
5771f904
658758e7
603a923a
4152bbfb
65af0991
41eea10d
73b3fb57
584a8a70
49526ab6
7729cdf6
7e607259
41803203
7aaae197
602f474e
4cfca98e
659aab0f
7ddeed60
4a9c2b54
434a7f80
5b14b88f
4379c7ff
70f3b761
785b31a3
6feb168c
4f98628b
47356a17
545c2468
781a8d53
4182d84f
