// nshift_rom.mem - 827 x 32-bit shift amounts
00000029
00000029
00000029
00000029
00000027
0000002a
00000029
0000002b
00000028
00000029
00000028
00000029
00000028
00000029
0000002a
00000029
00000028
00000027
00000029
00000027
00000028
00000027
00000028
00000029
00000028
00000028
00000028
00000029
0000002a
00000027
00000028
00000028
00000027
00000028
00000027
00000028
00000028
00000028
00000028
00000028
00000027
00000028
00000028
00000028
00000028
00000027
00000027
00000029
00000028
00000028
00000028
00000029
00000029
00000028
00000029
00000029
00000028
00000029
00000028
00000029
00000028
00000029
00000028
00000028
00000028
00000028
00000029
00000028
00000029
00000029
00000029
00000028
00000029
00000028
00000029
00000029
00000029
00000029
00000028
00000028
00000028
00000028
00000029
00000029
00000028
00000029
00000029
00000028
00000028
00000028
00000029
00000029
00000029
00000028
00000029
00000028
00000029
00000028
00000028
00000029
00000028
00000028
00000029
00000028
00000028
00000029
00000029
00000028
00000028
00000029
00000028
00000029
00000028
00000029
00000028
00000029
00000029
00000028
00000029
00000028
00000029
00000028
00000029
00000028
00000028
00000028
00000029
00000029
00000028
00000029
00000028
00000029
00000029
00000028
00000028
00000028
00000029
00000029
00000028
00000028
00000029
00000028
00000029
00000029
00000029
00000028
00000028
00000029
00000029
00000028
00000029
00000029
00000029
00000028
00000028
00000029
00000029
00000028
00000028
00000028
00000029
00000028
00000028
00000028
00000029
00000028
00000029
00000028
00000029
00000029
00000028
00000028
00000028
00000028
00000028
00000029
00000028
00000028
00000029
00000029
00000029
00000028
00000029
00000029
00000029
00000029
00000028
00000029
00000028
00000029
00000028
00000028
00000029
0000002b
00000028
00000029
00000029
00000029
00000029
00000028
00000029
00000029
00000028
00000029
00000029
00000029
00000029
00000029
00000029
00000029
00000028
00000028
00000029
00000029
00000029
00000029
00000029
00000029
00000029
00000029
00000029
0000002a
00000029
00000028
00000028
00000029
00000028
00000029
00000028
00000029
00000028
00000028
00000029
00000029
00000028
00000029
00000028
00000029
00000029
00000029
00000029
00000029
00000028
00000029
00000028
00000029
00000028
00000028
00000029
00000029
00000028
00000029
00000029
00000028
00000029
00000029
00000028
00000029
00000028
00000029
00000029
00000029
00000029
00000028
00000028
00000029
00000028
00000029
00000029
00000028
00000029
00000028
00000029
00000028
00000029
00000029
00000029
00000029
00000028
00000028
00000028
00000029
00000028
00000028
00000029
00000029
00000029
00000029
00000029
00000029
00000028
00000028
00000029
00000029
00000028
00000029
00000028
00000029
00000029
00000029
00000029
00000029
00000029
00000028
00000029
00000029
00000028
00000028
00000029
0000002a
00000028
00000029
00000029
00000029
00000029
00000028
00000028
00000029
00000028
00000028
00000029
00000029
00000028
00000029
00000029
00000028
00000029
00000029
00000029
00000028
00000029
00000028
00000029
00000028
00000029
00000028
00000029
00000029
00000029
00000028
00000029
00000028
00000029
00000029
00000027
00000029
00000029
00000029
00000029
00000029
00000029
00000028
00000029
00000029
00000029
00000028
00000028
00000029
00000029
00000029
00000029
00000028
00000029
00000029
00000029
00000029
00000028
00000029
00000029
00000028
00000029
00000029
00000029
00000028
00000028
00000029
00000029
00000029
00000029
00000029
00000029
00000029
00000029
00000029
00000029
00000028
00000029
00000028
00000029
00000029
00000029
00000029
00000028
0000002a
00000028
00000028
00000029
00000029
00000029
00000029
00000028
00000029
00000028
00000028
00000028
00000029
00000029
00000029
00000028
00000029
00000028
00000029
00000029
00000029
00000028
00000029
00000029
00000029
00000029
00000028
00000029
00000029
00000029
00000028
00000029
00000029
00000028
00000028
00000028
00000029
00000029
00000029
00000027
00000029
00000028
00000029
00000028
00000029
00000029
00000029
00000029
00000029
0000002a
00000029
00000028
00000029
0000002a
00000029
00000028
00000028
00000028
00000029
0000002a
00000029
00000028
00000028
00000028
00000029
00000029
00000029
00000029
00000028
00000028
00000028
00000028
00000027
00000029
00000029
00000029
00000029
00000028
00000029
00000029
00000028
0000002a
00000029
00000028
00000029
00000029
00000028
00000029
00000028
00000029
00000029
00000028
00000029
00000029
00000029
00000029
00000027
00000028
00000028
00000029
00000029
00000029
00000028
00000028
00000029
00000029
0000002a
00000027
00000029
00000029
00000029
00000028
00000029
00000029
00000029
00000028
0000002a
0000002a
00000028
00000029
00000029
00000029
00000029
00000028
00000029
00000029
00000028
00000028
00000028
00000029
00000028
00000029
00000028
00000029
00000027
00000027
00000027
00000029
00000029
00000028
00000029
00000028
00000028
0000002a
00000028
00000029
00000028
00000028
00000029
00000028
00000027
00000029
00000028
00000029
00000029
00000029
00000029
00000028
00000029
00000028
00000028
00000028
00000027
00000029
00000027
00000029
0000002a
00000028
00000028
00000027
00000027
00000026
00000026
00000027
00000028
00000026
00000027
00000027
00000028
00000027
00000028
00000028
00000027
00000027
00000026
00000028
00000028
00000027
00000027
00000027
00000027
00000028
00000027
00000028
00000028
00000029
00000028
00000028
00000027
00000028
00000028
00000028
00000028
00000028
00000027
00000028
00000028
00000028
00000027
00000027
00000027
00000028
00000027
00000028
00000027
00000027
00000028
00000027
00000028
00000028
00000029
00000027
00000028
00000027
00000027
00000027
00000028
00000028
00000028
00000028
00000028
00000027
00000028
0000002a
00000027
00000028
00000027
00000027
00000028
00000027
00000028
00000028
00000028
00000027
00000027
00000028
00000028
00000027
00000028
00000028
00000028
00000029
00000028
00000028
00000028
00000028
00000028
0000002a
00000029
00000029
0000002a
00000029
00000028
00000029
00000027
0000002a
00000029
00000028
00000029
00000027
00000029
00000028
00000027
00000029
00000028
00000029
00000028
00000029
00000029
00000028
00000029
00000029
0000002a
00000029
00000029
00000029
00000028
00000028
00000029
00000029
0000002a
00000027
00000028
00000028
00000029
00000028
00000027
00000029
00000027
0000002a
00000029
0000002a
00000029
00000029
0000002a
00000028
00000027
00000029
00000029
00000027
00000028
00000028
00000029
00000029
00000027
00000027
00000029
00000029
00000028
00000027
00000027
00000028
00000027
00000028
00000028
00000028
0000002a
0000002c
0000002c
0000002c
0000002c
0000002c
0000002c
0000002c
0000002b
00000027
00000027
00000028
00000028
00000028
00000028
00000028
0000002b
0000002c
0000002c
0000002c
0000002c
0000002c
0000002b
0000002b
0000002a
00000027
00000027
00000028
00000027
00000028
00000028
00000028
00000029
0000002c
0000002c
0000002c
0000002c
0000002c
0000002c
0000002b
0000002b
00000027
00000027
00000028
00000027
00000028
00000028
00000028
0000002b
0000002c
0000002c
0000002c
0000002c
0000002c
0000002c
0000002b
0000002b
00000027
00000028
00000028
00000028
00000027
00000027
00000028
00000028
00000027
00000028
00000027
00000028
00000029
00000028
00000027
00000028
00000027
00000028
00000027
00000027
00000027
00000028
00000028
00000027
00000027
00000027
00000028
00000026
00000028
00000028
00000028
00000029
00000028
00000028
00000029
00000029
00000028
00000029
00000029
00000028
00000028
00000028
00000028
00000027
00000029
00000028
00000028
00000026
00000028
00000029
00000028
