// qp_packed_rom.mem - 827 x 72-bit packed {bias[31:0], m0[31:0], n_shift[5:0]}
294d9186000000172b
29442de80800001b97
296ad00fad00000c7a
296d0fffee00000bc9
2740a73a59fffffc9e
2a698ed910ffff908d
29510be8cf00001a56
2b63bad5f1ffffbc7c
2868cfbd17fffffc34
297ed5c07100000a34
287048912bfffffc97
29670e11dd000013de
286afeb809fffffc66
297b79a7ec000012ee
2a5a2b4b480000039c
295e47588d0000172a
28490cb911ffff3e31
275fba1f62ffff7951
295c7e6dc5ffff5d66
2755976cecffff6397
286f108387ffff62ad
274797b2abffff4905
2869d25e2dfffe2148
296379e67afffeeb5b
284f53be4efffecd9a
285643bbeaffff364c
2840f4f0aefffeee6e
294b26b01cffffa7c9
2a70207a69fffe773c
2741a7d794ffff3e04
285dd145c4fffe20fc
287aea0dcafffe6d5a
2755279a96ffff85e5
284f7bc8b1ffff9a35
274630a79600001da4
28426b99500000019e
2877464f8a000077db
285dcfd8daffff0241
286d8225dcffffda2a
2864a2fd40ffff9579
27441d1c160000ebf0
287c2151d6ffffee13
2879745969ffff5da2
2870817100ffff3152
287a122833ffff9561
274d964fd8ffff706b
275778b2d5ffffb65e
297345c6fbffffa1f2
284f362223fffeb75a
28470813ecfffe1557
284f63dbfefffed292
297f5bc7b6fffd2ee5
2944fdae8dfffedd89
284baa3682ffff13b9
2971083ebdffff4e07
295b7be71a00004f97
285f766b8bffff9d7d
2963857bbaffff52f0
285ea7968dfffe6928
2967970170fffff6c7
284c78e470fffea5b5
2977e076ee00001fc9
284aadb1e9fffee6bc
284cc4a10bfffe517b
2856d66a09ffff2678
284bef9542fffe76d8
29682c4717ffff9bc1
284611c80afffe609d
296ae9bfb6fffef5f0
294d7b581afffff13a
297f2128d5fffdcce8
2867007489fffe2757
294c350c57000066b3
2842abb02500004201
29670eb8d4fffe7e60
29644fed6e0000235b
297a282a06ffff297c
295d9ffbf2ffff71a6
284e19cb1ffffe81ab
2843a68ffdffff3a92
285ad036fbfffd9560
285a433a52fffe0ea1
295dbbb357fffe8a6e
29733fe44efffa3f60
285bf7658cffff3da8
2956760118fffa709b
2975ceffb9fffdbffb
284b32ab1cfffce64d
2844ac56cafffd6b25
284e0676d4fffeb73e
29741d0d68fff5b2b3
29507b4528fffa810c
2968eb85840000ca69
2852dd781bfffd0b91
297979ceb3fffaf9fc
285eec0061fffdb96a
297c1a77beffff43a2
285269488cfffd2238
2866811ad5fffda5f6
2968a7cf2dfffe6733
28623d95fafffccedb
2865be7248fffd7cce
297895eb05fffd3ce1
284964ce4f000016f5
286d105e1efffddc34
29608b6969fffe33a2
294863032dffff6e4e
2858a08a0efffcef73
285a1ad261fffdd18c
295772f6de0000b0a0
284d8861bcfffe76d6
294a746640fffa88a8
2845c5f4fbffffdf60
29570c8eddfffdbd10
28476490dafffc7788
2962f17524fffef723
295bc2f0a8ffff7979
287a957361000003b2
295560b8a3fffdd8f3
284996d118fffe5a61
2966b7b89bfffc4c50
28502d4a76fffe5d2d
2953af81e5fffcd0b7
284a29191c000008c7
285203203bfffaeb23
284e0b76e0fffe9655
2958d2af14fffef8c1
297e7793a4fffe013b
286bfed08affff6ce3
297e68ae88ffffdea4
28466c7aa3fffca569
297c528af000012b04
296c917df6fffadc11
2850b0a12800010173
28409bc6dbfffd42bf
284e1395ba00001f44
296c9530e6fffeeb20
29481134b1fffd224f
2843a8457a0000d091
28462f1a1bfffe8db3
29727d19f1fffd84b8
284797f1c9fffcf481
295f8e96fcfffd2181
2970330e35fffda3f6
297a9bf065fffb03e6
28474a7a0afffe8ecb
28460193c000003ef3
29607fcb3ffffd9cae
295c74ee700000aa9f
28498e9ca5fffdcebd
29614106defffd29ee
297b8453dffffe65aa
296a74acfefffb7710
284260b932fffdd319
2843dffd32fffcbc1a
29640f612ffffe576f
295063b371fffe4900
284a80d8c1fffeb837
284521d5dfffff55b0
2840da7440fffe8413
29676b67b7fffbe8e6
285728b28effff9c9f
28537833cffffe97d8
284a4b09c3fffd9b2e
29675da5ae00010b64
2863cc68be00004a89
297c1d2865fffb8d17
2850c61e0bfffcf017
29601ab85dffff9251
297bc82085fffd0a5b
2846c9e8bafffe435c
2840185ecafffe53cb
2842519bbffffc61ac
285eed6accfffecf0c
28404ca36b000093b0
295fad47b8ffff3c51
2842b2d342fff93fe3
2848cb809afffb1849
294c796b08fff9fa98
295bd61050fffa1e7d
2972af1737fffd056c
28444b7ea8fffa4475
294bc10b20fff5cdc7
295481f6fafff8e0b0
2977202facfffb08e7
29622f4f2dfff8eafe
28415d2528fffbdad5
29741fde40fffa46df
284d048205fff90a7b
296807f656fff90bb2
284cef2f11fffb6cf8
2849197298fffa72ff
297d6df7aafff95c07
2b44206a48000971bf
284915f7a4fffb0690
2971508c1afff98f63
2966ce6612fffa096c
2967ebcf57fff79bf9
296162f098fff89c9c
2844e17e20fffa24e6
296803f8effffbcf98
2979aff418fffa1b64
2841779481fff7af39
297ec04268fffa00aa
295eacf577fff59545
2967c7a9a7fff74c5e
2951afe69dfff2468b
294c572c2dfff97407
295c5de731fff73796
297b3579dffffc3666
28502917a8fffcf65b
285a68d68dfffa2e11
294ec5d412fffd0270
29702b8c81fff915d4
297c24d643fffc45a9
296de285fefff4ae12
29450f6beafff2a233
296a23ee36fff86a17
2970be0df8fffaf48a
295addd613fff971a8
2956ffa656fffe4e9b
2a69931684fff6a384
29726d5081fffcfb9a
2845187747fff8dbe5
284b716942fffac452
297b9bd54afff91354
2875c1ce31fffd4fc4
295a3703c8fff1fee3
2841bd3443fffad9c5
2966fc9f5bfff5d2f3
284af2f71efffbe665
2840d54db9fffa5d72
29785df213fffaa77e
297aef091dfffb31fe
28546087bbfffa6757
295bbe66f4fff929d3
2852e89b0efffaca1f
2972674af6fff6fe79
2945c92636ffff22b2
2968bce9bafff9f461
295c5e0739fffbe90b
296c7d8729fff90680
2844cd9683ffffdf5a
2978607cd7fffac71b
284ac69c1efffe4758
2954c9bf51fffb4793
284286f813fffcabdc
2840dab3c1fffdcace
2974afb16fffffa8b0
294a71ce61fffc9cb6
2866efaa6100003aba
296bf57264fffdad52
2953f61d7afffc904b
28437f0703fffc4cc1
294a755267fffdf9ea
29609758d0fffad144
284be68a7dfffe07cb
294b02d1ecfffc3887
284cb72790fffe3484
297d5011c1ffff0d90
297a483a32000113d4
29491a2382fffee4be
2964b83cc3fffcd15c
2845833b0e0000390a
28556dc123ffff288d
2974d7df4dfffda8d8
2846024cacfffd0d2d
2958c088e80000adf8
297b8674affffa9a5b
284d414233ffff0bbd
294fb8023afffdd40c
28411178a8fffca426
2967395d690000e64b
284c6e4b10fffeb9a2
2970890115fffb7fde
295e636f37fffd65d9
2977ad12d7fffff34a
2963b35460fffc507a
2847befbebfffde5e8
285dac3d24fffbaa1a
28407ad4edfffded92
297a96202efffd7eb5
2847e9e6a8fffc9ac6
284576d11afffbd191
296fb1627ffffe1d65
295b97a82cfffc1b37
296020da77fffc2811
2969eaad1afff9d144
295dad57b9fffc0d51
296c329f05fffdd7d7
284b644847fffd4642
28618bb970fffffb56
294665738c0001a655
2970a2d759fffe0872
286d0f8186ffffd253
2958eefef9fffcaaa6
2847f370c1fffb9636
295a1b0d1afffc5ae2
296ba8e8ba00013e56
297b406af7000299db
295cf8b7d8fffd5417
297bedb8fbfffffe55
29767dd793fffbdab1
2848256a75fffedf75
2950cd5422fff83812
2960169a15fffabc27
2843d18b15fffc6936
2840cc2d4efff62111
296f30a2d5fffad323
2a6f1fd82000084449
28465bc57cfffbf13a
2965f16719fffc9af3
29682a62bafff55200
2965e7f48ffff6ddc4
2975cb42ddfff6fbbe
2860bb50b2fffb842c
2840094770fff5e062
296d745634fff60872
28518b5b37fffbe8cc
2840625f01fffb36b2
2965bbd952fff83f94
2977f56c8afffae9a6
28451579b9fffbac5d
297e0984b6fffd4e92
29758cf174fff840d8
28442f95e6fff82f45
297846ba6afffdc4de
2964dbfa13ffff2bd8
29659b68b8fff601d6
284fd27637fffb5621
2970e57531fff866f8
284813619dfffc22ec
295a41bea4fffbe9e8
2846bc7e4dfffa5751
29544adeb2fff2f213
2846015d40fff96357
2977294077fff932f0
29636d482cfff55595
297ed0968efff82e28
28619c6aaffffd27ed
2962d449d6fff495d2
2866ff5577fffe4691
2957d352f4fff96f8e
296f1b46cefff52906
274a423305fffe8518
29683cb5a5fffba4ed
295d62a47dfff0262f
2969257351fff7fe8f
295997d3f9fff52695
296b14e4e9fff448db
296c430adffff896ec
2844a18e5bfffb8577
297a71b901fffd7792
2973b26216fff87948
29457a5c15fffa3bd3
284bd9f596fffd3711
2854fc764efffae521
297efa8ea6fffa6f40
295d363959fff6a814
295f7558bcfffe4e72
2973841a73fffb254e
28430b99acfff9218e
297197b36dfffb5067
297da7312cfff65132
296e9d7953fff4cc56
2960a3c8c1fffa6e0f
284048e790fffcbf6a
295d88010800010dfa
2975c1724afff9750e
2868a38511fffe605f
29557069f4fff7639a
295faf6f10fff76c77
29718f450ffff941ba
284f3bedd8fffa5046
2848bd64a4fffb101f
29747b7dbdfff8972f
296c18a814fffe2cf0
29625d9898fff83314
29478b0492ffff197f
2976400880fffd0b9f
297aa8dd9bfffa21d3
296ab485befff37580
296be89675fff8185d
296416ac5efff9e498
29743c0227fffb33be
28495bb1d3fffaeae0
2967dc916efffbff59
28402b329bfffb09ff
2973b041ddfff8339a
297753583afff6e7dc
2951113cfc00021f73
2962b13c49fffe7c04
2855d6cc3dfffb1c2d
2a68109413fff39446
2845ad7653fffc0522
28513a94c8fffc391b
2976e72f3efffcb767
296f90603ffffcec4b
29613ccc74fffa26f4
297dc49c90fffa8ed6
2848f963a5fffc8e49
2960fea37cfff959a1
28738e0748fffd9494
2848265f0ffff70cc1
2844471688fff84eb7
294b3476b9fffe1037
2961361704fffc6e10
295838906cfffa9c53
284583046dfffae92d
297a6ddde7fffb5036
2852c71670fffc9035
2966123d0afffa2968
297d7dd117fffa8014
2952f041e6fff30950
2849534d34fffba35a
296a4157e7fff9b4b2
2958ebe4dcfff726c8
296c482fd1fff65510
295419bfa5fff958e2
28605753d1fffc5974
29779c8dfafff8d818
29640000a6fff5a8d7
296af23fa0fff996da
2847c44c51fffacf98
2974d1c726fffcc863
2958f561a2fff8cee8
284ac7bb93fff998fb
2849132794fffb9180
2847b5b7c1fff97974
295c66a98cfff186f7
2978c26c0ffff8d9ea
29744b8381fff9b69f
274771c846ffff7aa5
296e6aa5a9fff994ce
28405bd691ffff0a59
295cc7f107fffbcb3e
2841458557fffdf1d5
296f32be49fffeb740
29592b0b09fff9db3a
29502a586efffe4436
2966f1a676fff9f8ba
2972233367fff8ff20
2a7fb8ea84ffff0ab2
295ba8eb95fffc0b79
2873aceda4fffea0a3
2964877f70fff9ec5b
2a7660caccfff70caf
29788229dfffff2587
28476433e2fffe7479
287183c3cdffffd55d
284500b868fff8444d
295b6c9afdfffb4b74
2a718d0b7bfff887fd
297287c691fffc697e
28613fc1fdffff83fb
285a8e13c2fffe4dae
284a00f50effff9c09
294a3ef78afffcf3fa
295c9a36b5fffdbac0
296d152201fffb5d2c
297efa9dccfffe9081
2877e4739cfffeb55a
2849c69256ffff5a89
285156bf0afffff538
28430f16fbfffbfe90
2745070bf2fffe0a92
29771916bafff98398
294db842bdfff45dcc
29796af098fff90b42
29548bd73dfff9d34c
2873290f06fffe3350
295484d651ffffa790
2947b5ee23fff9d29c
2840867018fffc57c0
2a73b43c0ffffb8a11
296df0e542fffd5d4c
28697208defffe5405
2967b4e334fffc8a1f
295e96b6fffffbdad6
287b26ec19ffff6a36
29465d933d0000cb89
2859a72886fffdd9b4
2955fb1375fffe7eb3
295ecd56ebfffb6e14
2842b6e388fffd0b55
297ec58bdcffffa8d9
29705e4289fffa7507
29636fa4f2fffa9bfe
29558ce25dfff94a12
27446fdf14ffff3691
286aff466afffc2bc7
284fc9d3cefffec7b8
2974fa6eeefffdcde7
295cc9015cfffc8f33
297241aa12fff9fa1a
2874865d02ffff276a
284f742a1afffe0a61
29628797ddfffc1ed8
2965c0e672fff9bb2e
2a79984867fff80460
274e8d6cd6ffff33a0
297e2b92b3fffd4a34
296a2aab0dfffc6715
294b7e24abfffdf049
287350652afffe7e39
296be3b49bfff9464b
29519ad1a3fffd6365
295c60eed5fffc08ac
284f3de84ffffb1f1a
2a771ce477fff7f817
2a72123a5bfff65814
285624af0affff6f37
29544246c3fff6b3d2
29606b93a4fffbbefc
295bd9d4b5fff68c16
2950c9e71dfffac271
28646a2b7d00004cb6
295f23934cfff7b89c
297e14cba6fffd13f1
284d548bcefffd8a6b
2842bdd4b2fffd445e
2840a6deb400005260
297d1e18f9ffff21ba
28413ae356fffdbb0d
296b3b3950fffaaa81
28624b74ce00000036
2968e9ad61fffe3ced
2752013327ffffb052
274bba2de5ffff5883
2744a3f773ffff485c
294970f865fff64657
294e34714dfffb6a30
285580f71cfffff368
2948aa2f97fffac9f1
287f698818fffeebf4
28557cfd96ffff1d71
2a7b128762fffee4b9
285348ede2fffc27c0
294fcd4529fff9a6f9
2842bfb3affffc8137
284d0b0f77ffff1ff3
296b02e15efffd0502
2853866914fffe055f
274b6a7dfaffffbcd1
2949a5f23ffffe1c7b
28405a4c84fffbf49f
2950ebb07dfffa08c7
2941114670fff649e5
2965c57004fffaff5b
295575ba1dfffa48a6
28610f6feaffffbbe0
296a660284fffdc109
2859550681fffc7387
2874a40965ffffc4cd
285eae780c00007a36
274074c5b9ffff7695
296169a871fffb3585
2744412660ffff092d
2949e9f896fff760b5
2a6b8895c7fff6e733
286a25f0de0001a18a
287290c36e0000850d
276c17abb1fffe944a
27473ed7d6fffe44f1
264349d529fffeae02
264039b317fffdf124
275111d304ffff74a3
287ab6c978000009a6
2645a6406ffffd34ae
27466c579cfffa7503
2774eaf790ffff454a
286bd292620004801c
27403592bbffff5a86
286fac6e2b0000866c
287285c074ffffad72
2761b95ab900004238
2741aa32d8ffffd3cf
264b1510b4ffffbdab
286a3154650000aa0e
28675bbdbcffff5726
275638772000001eb3
274f57ada4fffe5308
275105d64cffffad47
277a3515e7ffffbc60
2864dc6ba2ffffe077
2746b510e800003222
287c5e1bc2ffff4bc6
28736a5363ffff6583
2969902926fffe5d03
2861f33a89ffffeab6
286f805047ffff281d
277f9ed8b1ffff984d
28606f7230ffff80d1
285e337b0efffe8912
284e231bbcfffe7c52
2863731089ffff3d2e
28734a515900009217
2751c3b258ffff365f
28660eb4e6fffea357
286ea5beee00001e98
2873b683c7000016af
277735c7edffffd305
275fcf7729ffff1c0d
27777cb988ffffade3
2853b95beeffff57a2
27475e96afffff6b23
287ea538dbffffd588
27492b42f0ffff6132
275e1adf3afffff2a5
287422fb97ffff580c
274405e19dffffba8d
287bbd588affff21f5
286b898bfbffff6393
29710aa1b0ffff7c85
274360ad94ffffc304
2842a573b7fffe4572
274f043f2effff36d6
2753e9cfbcffffafb0
2757e4d5dfffffc1fc
2877251d12ffff3790
2863ec39a2ffff6e55
2860e7195cfffffbd2
28715e3ecb000004fe
2877b89683ffff9cb3
2741165fd2ffffb5f0
28513ef9c4fffee027
2a6496d37b00025502
27471dd93affff7174
287972294cffff318f
2749870fe4ffff327b
2741e056efffff3a48
287705125cffff84f9
275960be97ffff6a25
2856cc86f1fffefff6
2874b6e2e1ffffbebb
28786180e7ffff8481
274bba770effff671d
277ce3a8d0ffffa46a
2869ba2b03ffffcab2
2867c8b643fffed2ab
2740a6435cffff9e96
2866cafc5500005769
285d631657ffff0ae4
287069037dffff0a3c
297af0154efffe98b3
28794ae191fffeee8d
28592d6bcbffff3e90
2841b2a930fffe7da9
285440700bfffda394
284e5bebcbffffd3ba
2a76a2cf96fffd570c
294baed2c3fffe02dd
294285580afffe9336
2a74cbbede000067cd
294d4ed8c7ffff36cb
2856656d53fffefc72
294cc344b7ffff1c58
2762c16306ffff9f9c
2a583d6b00ffffb4cd
2958c7ec01ffff8a91
286372d1f6fffd827b
294f9323bcfffd6c2b
27411a38cafffe507d
2957cebea2ffff7a22
28589830ffffff9c9a
27428ec46afffe0c9e
297a405142ffff601e
28461cb9bcfffeb82a
294dd263b7fffe9594
2849959212fffd2312
2961d417faffffcbe6
29500a5fd9ffff809b
2869c993effffdca9e
2977871269fffbd9a9
297bd5a3f2fffdc526
2a47ea49c200002dfb
2942dad76cfffe62f3
296688f54dfffeb5b1
2947ee2298fffead66
285bb5a5d9fffd9705
284f799c66fffe18ee
29540c65e7fffdca7c
295e1028d4fffd828c
2a4150002dfffdb7a0
27695cff2affff73a4
28442bebfafffde6ca
28408cb966fffe79a7
29567edc58ffffced7
285f8b553ffffe1873
27580ef636fffe3542
29432b4ef9fffdb771
27598397f9ffff8160
2a42b7bc28ffffdbbe
297978b2a3ffffc367
2a6780ecc8fffec2bb
29492bb264fffeb23d
2970807f2dffffd413
2a5c19a5c8ffffb1c8
2852b8d13fffff7d11
276c01fe04ffff8953
294886da20ffff6f7e
294576b0a8fffefcfd
274bdbd1cafffe48cf
286b21735ffffef617
2850040e87fffe7e1f
2948688d5cffff2a9d
294bbf1d9fffff6df4
2758e13fd0fffe01b6
27567d7f43fffdf87d
294963b54dfffee160
297d85137afffdc1b7
2846786c54ffff4fc0
274ca4452f00003f8c
2750a9419d0000da83
28751ba93900009938
274446dd7c00006b5c
2869cf603c00009d94
28539823c300006b52
28593e484200000caa
2a4c8875b7fffea7cc
2c5ffa8776fff9136f
2c550f9468fff8b04f
2c5cc61f48fff9a764
2c6288133ffffa9543
2c55a889b6fffac659
2c6ccc2979fffc414b
2c75c2860dfffd32d3
2b5cb83754ffff0823
274cf7b39900007871
274c42ef4100012470
287a1af0e400006651
287fa546580000323b
28681268b30000976d
284bd3b0f0000057af
284454c570fffff518
2b540761a6fffcadf9
2c5bb00492fff886e1
2c60243ee2fff8ef34
2c56791d88fff8f165
2c6873bea2fffa7321
2c6c176521fffb715c
2b41048d5bfffcded3
2b5e595f65fffeb48e
2a48e4cf3800003d4b
274e3785bb00006ec8
2751db2bcc0000f4e9
28688f8e1a00009d39
27462d8c7200005492
285ec89d4700006733
284efa320700006b44
2856bea46c00000efe
295fa7190cffffc134
2c627a2bbafff947d3
2c63668f04fff941da
2c5cc61f48fff95b9f
2c64a66125fffa4f84
2c6a5a6d97fffb302a
2c7342e2a6fffc2624
2b4735bfa2fffd9313
2b5220b2b0fffe81a0
2742445f7c000037c8
27454f10ad00013151
286989d9580000a950
2740bf06e4000052b2
286110a29a00007f25
2859f30d0900002bb8
2852f146f0ffffdbfc
2b65ca6360fffdc90f
2c6c86a303fff9c9d9
2c690cb3f0fffa60e0
2c6de2442ffffb05c4
2c66c4ae9efffb7f74
2c6102baa7fffc4690
2c51e913bffffc9858
2b48c8ffc0ffff1e3d
2b6fad23ac00008549
2757564d83ffff85df
286533e2630000c81b
28525684db00018535
285876f0e80000d006
2741ae0ff9ffff432f
2746ce7a3fffff1202
285361d1a9fffd5801
28524f8914ffff33e8
2753df2096fffec652
2859cf3d31fffcf428
27418c99e3ffffb0a0
287209d288ffff8646
2970097b3ffffbe52e
285862de20ffffd688
275600dfb1ffff477c
2868630ef0fffedcca
27406d6ff6ffff9ca1
285ef5598cffffc12f
275e526992ffffa34d
274879c642ffffeaa3
2757ac7535ffff758c
28617a0754ffffd1c9
285771f9040001024c
27658758e7ffff967b
27603a923affff614c
274152bbfcfffe8b51
2865af0991000248ec
2641eea10dffffc42f
2873b3fb58ffffdaaa
28584a8a70ffff8666
2849526ab7fffe32ce
297729cdf6fffd7211
287e60725afffeb11d
2841803204fffcf555
297aaae197000084ac
29602f474efffc1123
284cfca98e0000d9e0
29659aab0fffff5abd
297ddeed600001bcf8
284a9c2b54ffffc850
28434a7f80fffee68e
285b14b88ffffe5133
284379c800fffe7add
2770f3b761ffffc109
29785b31a3fffef516
286feb168c00004ea2
284f98628b00003748
2647356a17ffffc7c6
28545c2468fffef1c3
29781a8d54fffdbaa4
284182d84ffffe56de
