// sigmoid_lut.mem - 17 x 256 entries, layer N at addr N*256
80
80
80
80
80
80
80
80
80
80
80
80
80
80
80
80
80
80
80
80
80
80
80
80
80
80
80
80
80
80
80
80
80
80
80
80
80
80
80
80
80
80
80
80
80
80
80
80
80
80
80
80
80
80
80
80
80
80
80
80
80
80
80
80
80
80
80
80
80
80
80
80
80
80
80
80
80
80
80
80
80
80
80
80
80
80
80
80
80
80
80
80
80
80
80
80
80
80
80
80
80
80
80
80
80
80
80
80
80
80
80
80
80
80
81
81
81
82
83
84
85
88
8b
8f
95
9c
a6
b3
c3
d5
ea
00
16
2b
3d
4d
5a
64
6b
71
75
78
7b
7c
7d
7e
7f
7f
7f
7f
7f
7f
7f
7f
7f
7f
7f
7f
7f
7f
7f
7f
7f
7f
7f
7f
7f
7f
7f
7f
7f
7f
7f
7f
7f
7f
7f
7f
7f
7f
7f
7f
7f
7f
7f
7f
7f
7f
7f
7f
7f
7f
7f
7f
7f
7f
7f
7f
7f
7f
7f
7f
7f
7f
7f
7f
7f
7f
7f
7f
7f
7f
7f
7f
7f
7f
7f
7f
7f
7f
7f
7f
7f
7f
7f
7f
7f
7f
7f
7f
7f
7f
7f
7f
7f
7f
7f
7f
7f
7f
7f
7f
7f
7f
7f
7f
7f
7f
7f
7f
7f
7f
7f
7f
7f
7f
80
80
80
80
80
80
80
80
80
80
80
80
80
80
80
80
80
80
80
80
80
80
80
80
80
80
80
80
80
80
80
80
80
80
80
80
80
80
80
80
80
80
80
80
80
80
80
80
80
80
80
80
80
80
80
80
80
80
80
80
80
80
80
80
80
80
80
80
80
80
80
80
80
80
80
80
80
80
80
80
80
80
80
80
80
80
80
80
80
80
80
80
80
80
80
80
80
80
80
80
80
80
80
80
80
80
80
80
80
80
80
80
80
80
80
80
80
80
80
80
80
80
80
80
80
80
80
80
80
80
80
80
80
80
80
80
80
80
80
80
80
80
80
80
80
80
80
80
80
80
80
80
80
80
80
80
80
80
80
80
80
80
80
80
80
80
80
80
80
80
80
80
80
80
80
80
80
80
81
81
81
81
82
82
83
84
85
86
88
8a
8d
91
95
9b
a2
ab
b5
c2
cf
df
ef
00
11
21
31
3e
4b
55
5e
65
6b
6f
73
76
78
7a
7b
7c
7d
7e
7e
7f
7f
7f
7f
7f
7f
7f
7f
7f
7f
7f
7f
7f
7f
7f
7f
7f
7f
7f
7f
7f
7f
7f
7f
7f
7f
7f
7f
7f
7f
7f
7f
7f
7f
7f
80
80
80
80
80
80
80
80
80
80
80
80
80
80
80
80
80
80
80
80
80
80
80
80
80
80
80
80
80
80
80
80
80
80
80
80
80
80
80
80
80
80
80
80
80
80
80
80
80
80
80
80
80
80
80
80
80
80
80
80
80
80
80
80
80
80
80
80
80
80
80
80
80
80
80
80
80
80
80
80
80
80
80
80
80
80
80
80
80
80
80
80
80
80
80
80
80
80
81
81
81
81
81
81
81
81
81
82
82
82
82
82
83
83
83
84
84
85
85
86
87
87
88
89
8a
8b
8d
8e
90
92
93
96
98
9b
9d
a0
a4
a7
ab
b0
b4
b9
be
c4
ca
d0
d6
dd
e3
ea
f2
f9
00
07
0e
16
1d
23
2a
30
36
3c
42
47
4c
50
55
59
5c
60
63
65
68
6a
6d
6e
70
72
73
75
76
77
78
79
79
7a
7b
7b
7c
7c
7d
7d
7d
7e
7e
7e
7e
7e
7f
7f
7f
7f
7f
7f
7f
7f
7f
7f
7f
7f
7f
7f
7f
7f
7f
7f
7f
7f
7f
7f
7f
7f
7f
7f
7f
7f
7f
7f
7f
7f
7f
7f
7f
7f
7f
7f
7f
7f
7f
7f
7f
7f
7f
7f
7f
7f
7f
7f
7f
7f
7f
7f
7f
7f
7f
7f
80
80
80
80
80
80
80
80
80
80
80
80
80
80
80
80
80
80
80
80
80
80
80
80
80
80
80
80
80
80
80
80
80
80
80
80
80
80
80
80
80
80
80
80
80
80
80
80
80
80
80
80
80
80
80
80
80
80
80
80
80
80
80
80
80
81
81
81
81
81
81
81
81
81
81
81
81
81
81
81
82
82
82
82
82
82
82
83
83
83
83
83
84
84
84
84
85
85
86
86
86
87
87
88
89
89
8a
8b
8b
8c
8d
8e
8f
90
91
92
94
95
96
98
9a
9b
9d
9f
a1
a3
a6
a8
ab
ad
b0
b3
b6
b9
bd
c0
c4
c7
cb
cf
d3
d7
dc
e0
e4
e9
ed
f2
f7
fb
00
05
09
0e
13
17
1c
20
24
29
2d
31
35
39
3c
40
43
47
4a
4d
50
53
55
58
5a
5d
5f
61
63
65
66
68
6a
6b
6c
6e
6f
70
71
72
73
74
75
75
76
77
77
78
79
79
7a
7a
7a
7b
7b
7c
7c
7c
7c
7d
7d
7d
7d
7d
7e
7e
7e
7e
7e
7e
7e
7f
7f
7f
7f
7f
7f
7f
7f
7f
7f
7f
7f
7f
7f
7f
7f
7f
7f
7f
7f
7f
7f
7f
7f
7f
7f
7f
7f
7f
7f
7f
7f
7f
7f
7f
80
80
80
80
80
80
80
80
80
80
80
80
80
80
80
80
80
80
80
80
80
80
80
80
80
81
81
81
81
81
81
81
81
81
81
81
81
81
81
81
81
81
81
81
81
82
82
82
82
82
82
82
82
82
82
83
83
83
83
83
83
84
84
84
84
84
85
85
85
86
86
86
87
87
87
88
88
89
89
8a
8a
8b
8b
8c
8c
8d
8e
8f
8f
90
91
92
93
94
95
96
97
98
99
9b
9c
9d
9f
a0
a2
a4
a5
a7
a9
ab
ad
af
b1
b4
b6
b8
bb
bd
c0
c2
c5
c8
cb
ce
d1
d4
d7
da
de
e1
e4
e8
eb
ee
f2
f5
f9
fc
00
04
07
0b
0e
12
15
18
1c
1f
22
26
29
2c
2f
32
35
38
3b
3e
40
43
45
48
4a
4c
4f
51
53
55
57
59
5b
5c
5e
60
61
63
64
65
67
68
69
6a
6b
6c
6d
6e
6f
70
71
71
72
73
74
74
75
75
76
76
77
77
78
78
79
79
79
7a
7a
7a
7b
7b
7b
7c
7c
7c
7c
7c
7d
7d
7d
7d
7d
7d
7e
7e
7e
7e
7e
7e
7e
7e
7e
7e
7f
7f
7f
7f
7f
7f
7f
7f
7f
7f
7f
7f
7f
7f
7f
7f
7f
7f
7f
7f
7f
7f
7f
7f
80
80
80
80
80
80
80
80
80
80
80
80
80
80
80
80
80
80
80
80
80
80
80
80
80
80
80
80
81
81
81
81
81
81
81
81
81
81
81
81
81
81
81
81
81
81
81
81
82
82
82
82
82
82
82
82
82
83
83
83
83
83
83
84
84
84
84
84
85
85
85
85
86
86
86
87
87
88
88
89
89
89
8a
8b
8b
8c
8c
8d
8e
8f
8f
90
91
92
93
94
95
96
97
98
9a
9b
9c
9e
9f
a1
a3
a4
a6
a8
aa
ac
ae
b0
b2
b5
b7
ba
bc
bf
c2
c4
c7
ca
cd
d0
d3
d6
da
dd
e0
e4
e7
eb
ee
f2
f5
f9
fc
00
04
07
0b
0e
12
15
19
1c
20
23
26
2a
2d
30
33
36
39
3c
3e
41
44
46
49
4b
4e
50
52
54
56
58
5a
5c
5d
5f
61
62
64
65
66
68
69
6a
6b
6c
6d
6e
6f
70
71
71
72
73
74
74
75
75
76
77
77
77
78
78
79
79
7a
7a
7a
7b
7b
7b
7b
7c
7c
7c
7c
7c
7d
7d
7d
7d
7d
7d
7e
7e
7e
7e
7e
7e
7e
7e
7e
7f
7f
7f
7f
7f
7f
7f
7f
7f
7f
7f
7f
7f
7f
7f
7f
7f
7f
7f
7f
7f
7f
7f
7f
7f
80
80
80
80
80
80
80
80
80
80
80
80
80
80
80
80
81
81
81
81
81
81
81
81
81
81
81
81
81
81
81
81
81
81
81
81
81
81
81
82
82
82
82
82
82
82
82
82
82
82
83
83
83
83
83
83
83
84
84
84
84
84
85
85
85
85
85
86
86
86
87
87
87
88
88
88
89
89
8a
8a
8a
8b
8b
8c
8d
8d
8e
8e
8f
90
91
91
92
93
94
95
96
96
97
99
9a
9b
9c
9d
9e
a0
a1
a2
a4
a5
a7
a8
aa
ac
ae
af
b1
b3
b5
b7
b9
bc
be
c0
c2
c5
c7
ca
cc
cf
d1
d4
d7
d9
dc
df
e2
e5
e8
eb
ee
f1
f4
f7
fa
fd
00
03
06
09
0c
0f
12
15
18
1b
1e
21
24
27
29
2c
2f
31
34
36
39
3b
3e
40
42
44
47
49
4b
4d
4f
51
52
54
56
58
59
5b
5c
5e
5f
60
62
63
64
65
66
67
69
6a
6a
6b
6c
6d
6e
6f
6f
70
71
72
72
73
73
74
75
75
76
76
76
77
77
78
78
78
79
79
79
7a
7a
7a
7b
7b
7b
7b
7b
7c
7c
7c
7c
7c
7d
7d
7d
7d
7d
7d
7d
7e
7e
7e
7e
7e
7e
7e
7e
7e
7e
7e
7f
7f
80
80
80
80
80
80
80
80
80
81
81
81
81
81
81
81
81
81
81
81
81
81
81
81
81
81
81
81
81
82
82
82
82
82
82
82
82
82
83
83
83
83
83
83
83
84
84
84
84
85
85
85
85
86
86
86
87
87
87
88
88
89
89
8a
8a
8b
8b
8c
8d
8d
8e
8f
90
91
91
92
93
94
95
97
98
99
9a
9c
9d
9e
a0
a2
a3
a5
a7
a9
ab
ad
af
b1
b3
b5
b8
ba
bd
bf
c2
c5
c8
cb
ce
d1
d4
d7
da
dd
e1
e4
e7
eb
ee
f2
f5
f9
fc
00
04
07
0b
0e
12
15
19
1c
1f
23
26
29
2c
2f
32
35
38
3b
3e
41
43
46
48
4b
4d
4f
51
53
55
57
59
5b
5d
5e
60
62
63
64
66
67
68
69
6b
6c
6d
6e
6f
6f
70
71
72
73
73
74
75
75
76
76
77
77
78
78
79
79
79
7a
7a
7a
7b
7b
7b
7b
7c
7c
7c
7c
7d
7d
7d
7d
7d
7d
7d
7e
7e
7e
7e
7e
7e
7e
7e
7e
7f
7f
7f
7f
7f
7f
7f
7f
7f
7f
7f
7f
7f
7f
7f
7f
7f
7f
7f
7f
7f
7f
7f
7f
7f
7f
7f
7f
7f
7f
7f
7f
7f
7f
7f
7f
7f
7f
7f
7f
7f
7f
80
80
80
80
80
80
80
80
80
80
80
80
80
80
80
80
80
80
80
80
80
80
80
80
80
80
80
80
80
80
80
80
80
80
80
80
80
80
80
80
80
80
81
81
81
81
81
81
81
81
81
81
81
81
81
81
81
81
81
81
82
82
82
82
82
82
82
82
83
83
83
83
83
84
84
84
84
84
85
85
85
86
86
86
87
87
88
88
89
89
8a
8a
8b
8c
8c
8d
8e
8f
90
91
92
93
94
95
96
97
99
9a
9c
9d
9f
a1
a3
a4
a6
a8
ab
ad
af
b2
b4
b7
b9
bc
bf
c2
c5
c8
cc
cf
d2
d6
da
dd
e1
e5
e8
ec
f0
f4
f8
fc
00
04
08
0c
10
14
18
1b
1f
23
26
2a
2e
31
34
38
3b
3e
41
44
47
49
4c
4e
51
53
55
58
5a
5c
5d
5f
61
63
64
66
67
69
6a
6b
6c
6d
6e
6f
70
71
72
73
74
74
75
76
76
77
77
78
78
79
79
7a
7a
7a
7b
7b
7b
7c
7c
7c
7c
7c
7d
7d
7d
7d
7d
7e
7e
7e
7e
7e
7e
7e
7e
7f
7f
7f
7f
7f
7f
7f
7f
7f
7f
7f
7f
7f
7f
7f
7f
7f
7f
7f
7f
7f
7f
7f
7f
7f
7f
7f
7f
7f
7f
7f
80
80
80
80
80
80
80
80
80
80
80
80
80
80
80
80
80
80
80
80
80
80
80
80
80
80
80
80
80
80
80
81
81
81
81
81
81
81
81
81
81
81
81
81
81
81
81
81
82
82
82
82
82
82
82
82
83
83
83
83
83
84
84
84
84
85
85
85
86
86
86
87
87
88
88
89
89
8a
8b
8b
8c
8d
8e
8f
8f
90
91
93
94
95
96
98
99
9b
9c
9e
a0
a1
a3
a5
a8
aa
ac
af
b1
b4
b7
b9
bc
bf
c3
c6
c9
cd
d0
d4
d8
db
df
e3
e7
eb
ef
f3
f8
fc
00
04
08
0d
11
15
19
1d
21
25
28
2c
30
33
37
3a
3d
41
44
47
49
4c
4f
51
54
56
58
5b
5d
5f
60
62
64
65
67
68
6a
6b
6c
6d
6f
70
71
71
72
73
74
75
75
76
77
77
78
78
79
79
7a
7a
7a
7b
7b
7b
7c
7c
7c
7c
7d
7d
7d
7d
7d
7e
7e
7e
7e
7e
7e
7e
7e
7f
7f
7f
7f
7f
7f
7f
7f
7f
7f
7f
7f
7f
7f
7f
7f
7f
7f
7f
7f
7f
7f
7f
7f
7f
7f
7f
7f
7f
7f
7f
7f
7f
7f
7f
7f
7f
7f
7f
7f
7f
7f
7f
7f
7f
7f
7f
7f
7f
7f
7f
80
81
81
81
81
81
81
81
81
81
81
81
81
81
81
81
81
81
81
81
81
81
81
81
81
82
82
82
82
82
82
82
82
82
82
82
82
83
83
83
83
83
83
83
84
84
84
84
84
84
85
85
85
85
85
86
86
86
87
87
87
87
88
88
88
89
89
8a
8a
8b
8b
8b
8c
8c
8d
8e
8e
8f
8f
90
91
92
92
93
94
95
96
96
97
98
99
9a
9c
9d
9e
9f
a0
a2
a3
a4
a6
a7
a9
aa
ac
ae
af
b1
b3
b5
b7
b9
bb
bd
bf
c1
c3
c5
c8
ca
cc
cf
d1
d4
d6
d9
dc
de
e1
e4
e6
e9
ec
ef
f2
f5
f7
fa
fd
00
03
06
09
0b
0e
11
14
17
1a
1c
1f
22
24
27
2a
2c
2f
31
34
36
38
3b
3d
3f
41
43
45
47
49
4b
4d
4f
51
52
54
56
57
59
5a
5c
5d
5e
60
61
62
63
64
66
67
68
69
6a
6a
6b
6c
6d
6e
6e
6f
70
71
71
72
72
73
74
74
75
75
75
76
76
77
77
78
78
78
79
79
79
79
7a
7a
7a
7b
7b
7b
7b
7b
7c
7c
7c
7c
7c
7c
7d
7d
7d
7d
7d
7d
7d
7e
7e
7e
7e
7e
7e
7e
7e
7e
7e
7e
7e
7f
7f
80
80
80
80
80
80
80
80
80
80
80
80
80
80
80
80
80
80
80
80
80
80
80
80
80
80
80
81
81
81
81
81
81
81
81
81
81
81
81
81
81
81
81
81
81
82
82
82
82
82
82
82
82
82
83
83
83
83
83
83
84
84
84
84
85
85
85
86
86
86
87
87
87
88
88
89
89
8a
8a
8b
8c
8c
8d
8e
8f
8f
90
91
92
93
94
96
97
98
99
9b
9c
9e
9f
a1
a3
a5
a7
a9
ab
ad
af
b1
b4
b6
b9
bc
be
c1
c4
c7
ca
cd
d1
d4
d7
db
de
e2
e6
e9
ed
f1
f5
f8
fc
00
04
08
0b
0f
13
17
1a
1e
22
25
29
2c
2f
33
36
39
3c
3f
42
44
47
4a
4c
4f
51
53
55
57
59
5b
5d
5f
61
62
64
65
67
68
69
6a
6c
6d
6e
6f
70
71
71
72
73
74
74
75
76
76
77
77
78
78
79
79
79
7a
7a
7a
7b
7b
7b
7c
7c
7c
7c
7d
7d
7d
7d
7d
7d
7e
7e
7e
7e
7e
7e
7e
7e
7e
7f
7f
7f
7f
7f
7f
7f
7f
7f
7f
7f
7f
7f
7f
7f
7f
7f
7f
7f
7f
7f
7f
7f
7f
7f
7f
7f
7f
7f
7f
7f
7f
7f
7f
7f
7f
7f
7f
80
80
80
80
80
80
80
80
80
80
80
80
80
80
80
80
80
80
80
80
80
80
80
80
80
80
80
80
80
80
80
80
80
80
80
80
80
80
80
80
80
80
81
81
81
81
81
81
81
81
81
81
81
81
81
81
82
82
82
82
82
82
83
83
83
83
84
84
84
85
85
86
86
87
87
88
88
89
8a
8b
8b
8c
8d
8e
90
91
92
94
95
97
99
9b
9d
9f
a1
a4
a6
a9
ac
af
b2
b6
b9
bd
c1
c5
c9
ce
d2
d7
dc
e1
e6
eb
f0
f5
fb
00
05
0b
10
15
1a
1f
24
29
2e
32
37
3b
3f
43
47
4a
4e
51
54
57
5a
5c
5f
61
63
65
67
69
6b
6c
6e
6f
70
72
73
74
75
75
76
77
78
78
79
79
7a
7a
7b
7b
7c
7c
7c
7d
7d
7d
7d
7e
7e
7e
7e
7e
7e
7f
7f
7f
7f
7f
7f
7f
7f
7f
7f
7f
7f
7f
7f
7f
7f
7f
7f
7f
7f
7f
7f
7f
7f
7f
7f
7f
7f
7f
7f
7f
7f
7f
7f
7f
7f
7f
7f
7f
7f
7f
7f
7f
7f
7f
7f
7f
7f
7f
7f
7f
7f
7f
7f
7f
7f
7f
7f
7f
7f
7f
7f
7f
7f
7f
7f
7f
7f
7f
7f
7f
7f
7f
7f
7f
7f
7f
00
00
00
00
00
00
00
00
00
00
00
00
00
00
00
00
00
00
00
00
00
00
00
00
00
00
00
00
00
00
00
00
00
00
00
00
00
00
00
00
00
00
00
00
00
00
00
00
00
00
00
00
00
00
00
00
00
00
00
00
00
00
00
00
00
00
00
00
00
00
00
00
00
00
00
00
00
00
00
00
00
00
00
00
00
00
00
00
00
00
00
00
00
00
00
00
00
00
00
00
00
00
00
00
00
00
00
00
00
00
00
00
00
00
00
00
00
00
00
00
00
00
00
00
00
00
00
00
00
00
00
00
00
00
00
00
00
00
00
00
00
00
00
00
00
00
00
00
00
00
00
00
00
00
00
00
00
00
00
00
00
00
00
00
00
00
00
00
00
00
00
00
00
00
00
00
00
00
00
00
00
00
00
00
00
00
00
00
00
00
00
00
00
00
00
00
00
00
00
00
00
00
00
00
00
00
00
00
00
00
00
00
00
00
00
00
00
00
00
00
00
00
00
00
00
00
00
00
00
00
00
00
00
00
00
00
00
00
00
00
00
00
00
00
00
00
00
00
00
00
00
00
00
00
00
00
82
82
83
83
83
83
83
83
83
83
83
83
84
84
84
84
84
84
84
84
85
85
85
85
85
85
86
86
86
86
87
87
87
87
87
88
88
88
89
89
89
89
8a
8a
8a
8b
8b
8c
8c
8c
8d
8d
8e
8e
8f
8f
8f
90
91
91
92
92
93
93
94
95
95
96
97
98
98
99
9a
9b
9b
9c
9d
9e
9f
a0
a1
a2
a3
a4
a5
a6
a7
a9
aa
ab
ac
ae
af
b0
b2
b3
b5
b6
b7
b9
bb
bc
be
bf
c1
c3
c5
c6
c8
ca
cc
ce
cf
d1
d3
d5
d7
d9
db
dd
df
e1
e4
e6
e8
ea
ec
ee
f1
f3
f5
f7
f9
fc
fe
00
02
04
07
09
0b
0d
0f
12
14
16
18
1a
1c
1f
21
23
25
27
29
2b
2d
2f
31
32
34
36
38
3a
3b
3d
3f
41
42
44
45
47
49
4a
4b
4d
4e
50
51
52
54
55
56
57
59
5a
5b
5c
5d
5e
5f
60
61
62
63
64
65
65
66
67
68
68
69
6a
6b
6b
6c
6d
6d
6e
6e
6f
6f
70
71
71
71
72
72
73
73
74
74
74
75
75
76
76
76
77
77
77
77
78
78
78
79
79
79
79
79
7a
7a
7a
7a
7b
7b
7b
7b
7b
7b
7c
7c
7c
7c
7c
80
80
80
80
80
80
80
80
80
80
80
80
80
80
80
80
80
80
80
80
80
80
80
80
80
80
80
80
80
80
80
80
80
80
80
80
80
80
80
80
80
80
80
80
80
80
80
80
80
81
81
81
81
81
81
81
81
81
81
81
81
81
81
81
81
81
81
82
82
82
82
82
82
82
82
82
83
83
83
83
83
83
84
84
84
84
85
85
85
85
86
86
86
87
87
88
88
89
89
8a
8a
8b
8b
8c
8d
8e
8e
8f
90
91
92
93
94
95
96
97
99
9a
9b
9d
9e
a0
a2
a4
a5
a7
a9
ab
ae
b0
b2
b5
b7
ba
bc
bf
c2
c5
c8
cb
ce
d1
d5
d8
db
df
e2
e6
ea
ed
f1
f5
f8
fc
00
04
08
0b
0f
13
16
1a
1e
21
25
28
2b
2f
32
35
38
3b
3e
41
44
46
49
4b
4e
50
52
55
57
59
5b
5c
5e
60
62
63
65
66
67
69
6a
6b
6c
6d
6e
6f
70
71
72
72
73
74
75
75
76
76
77
77
78
78
79
79
7a
7a
7a
7b
7b
7b
7b
7c
7c
7c
7c
7d
7d
7d
7d
7d
7d
7e
7e
7e
7e
7e
7e
7e
7e
7e
7f
7f
7f
7f
7f
7f
7f
7f
7f
7f
7f
7f
7f
7f
00
00
00
00
00
00
00
00
00
00
00
00
00
00
00
00
00
00
00
00
00
00
00
00
00
00
00
00
00
00
00
00
00
00
00
00
00
00
00
00
00
00
00
00
00
00
00
00
00
00
00
00
00
00
00
00
00
00
00
00
00
00
00
00
00
00
00
00
00
00
00
00
00
00
00
00
00
00
00
00
00
00
00
00
00
00
00
00
00
00
00
00
00
00
00
00
00
00
00
00
00
00
00
00
00
00
00
00
00
00
00
00
00
00
00
00
00
00
00
00
00
00
00
00
00
00
00
00
00
00
00
00
00
00
00
00
00
00
00
00
00
00
00
00
00
00
00
00
00
00
00
00
00
00
00
00
00
00
00
00
00
00
00
00
00
00
00
00
00
00
00
00
00
00
00
00
00
00
00
00
00
00
00
00
00
00
00
00
00
00
00
00
00
00
00
00
00
00
00
00
00
00
00
00
00
00
00
00
00
00
00
00
00
00
00
00
00
00
00
00
00
00
00
00
00
00
00
00
00
00
00
00
00
00
00
00
00
00
00
00
00
00
00
00
00
00
00
00
00
00
00
00
00
00
00
00
