// silu_lut.mem - 17 x 256 entries, layer N at addr N*256
82
82
82
82
82
82
82
82
82
82
82
82
82
82
82
82
82
82
82
82
82
82
82
82
82
82
82
82
82
82
82
82
82
82
82
82
82
82
82
82
82
82
82
82
82
82
82
82
82
82
82
82
82
82
82
82
82
82
82
82
82
82
82
82
82
82
82
82
82
82
82
82
82
82
82
82
82
82
82
82
82
82
82
82
82
82
82
82
82
82
82
82
82
82
82
82
82
82
82
82
82
82
82
82
82
82
82
82
82
82
82
82
82
82
82
82
82
82
82
82
82
81
81
81
81
81
80
80
80
81
81
82
83
85
87
89
8b
8d
8f
91
94
96
98
9a
9c
9e
a1
a3
a5
a7
a9
ab
ad
af
b1
b3
b5
b7
b9
bb
bd
bf
c2
c4
c6
c8
ca
cc
ce
d0
d2
d4
d6
d8
da
dc
de
e0
e2
e4
e6
e8
eb
ed
ef
f1
f3
f5
f7
f9
fb
fd
ff
01
03
05
07
09
0b
0d
0f
11
14
16
18
1a
1c
1e
20
22
24
26
28
2a
2c
2e
30
32
34
36
38
3a
3d
3f
41
43
45
47
49
4b
4d
4f
51
53
55
57
59
5b
5d
5f
61
63
66
68
6a
6c
6e
70
72
74
76
78
7a
7c
7e
7f
85
85
85
85
85
85
85
85
85
85
85
85
85
85
85
85
85
85
85
85
85
85
85
85
85
85
85
85
85
85
85
85
85
85
85
85
85
85
85
85
85
85
85
85
85
85
85
85
85
85
85
85
85
85
85
85
85
85
85
85
85
85
85
85
85
85
85
85
85
85
85
85
85
85
85
85
85
85
85
85
85
85
85
85
85
85
85
85
85
85
85
85
85
85
85
85
85
85
85
85
85
85
85
85
85
85
85
85
85
85
85
85
85
85
85
85
85
85
85
85
85
85
85
85
85
85
85
85
85
85
85
85
85
85
85
85
85
85
85
85
85
85
85
85
85
85
85
85
85
85
85
85
85
85
85
85
85
85
85
85
85
85
85
85
85
85
85
85
85
85
85
85
85
85
85
85
85
85
85
85
85
85
84
84
84
84
84
84
83
83
82
82
82
81
81
80
80
80
81
82
83
85
88
8b
8f
93
97
9c
a1
a6
ab
b0
b5
ba
bf
c4
c9
cd
d2
d7
dc
e0
e5
ea
ee
f3
f8
fc
01
06
0a
0f
13
18
1d
21
26
2a
2f
34
38
3d
41
46
4b
4f
54
58
5d
61
66
6b
6f
74
78
7d
86
86
86
86
86
86
86
86
86
86
86
86
86
86
86
86
86
86
86
86
86
86
86
86
86
86
86
86
86
86
86
86
86
86
86
86
86
86
86
86
86
86
86
86
86
86
86
86
86
86
86
86
86
86
86
86
86
86
86
86
86
86
86
86
86
86
86
86
86
86
86
86
86
86
86
86
86
86
86
86
86
86
86
86
86
86
86
86
86
86
86
86
86
86
86
86
86
86
86
86
86
86
86
86
86
85
85
85
85
85
85
85
85
85
85
85
85
84
84
84
84
84
84
83
83
83
83
83
82
82
82
82
81
81
81
81
81
80
80
80
80
80
80
80
80
81
81
82
82
83
84
85
86
87
89
8a
8c
8e
90
92
94
96
98
9b
9d
a0
a2
a5
a7
aa
ad
af
b2
b5
b7
ba
bd
bf
c2
c4
c7
ca
cc
cf
d1
d4
d7
d9
dc
de
e1
e3
e6
e8
eb
ed
f0
f2
f5
f7
fa
fc
ff
01
04
06
08
0b
0d
10
12
15
17
1a
1c
1e
21
23
26
28
2b
2d
2f
32
34
37
39
3c
3e
40
43
45
48
4a
4d
4f
51
54
56
59
5b
5e
60
62
65
67
6a
6c
6e
71
73
76
78
7b
7d
7f
89
89
89
89
89
89
89
89
89
89
89
89
89
89
89
89
89
89
89
89
89
89
89
89
89
89
89
89
89
89
89
89
89
89
89
89
89
89
89
89
89
89
89
89
89
89
89
89
89
89
89
89
89
89
89
89
89
89
89
89
89
89
89
89
89
89
89
89
89
88
88
88
88
88
88
88
88
88
88
88
88
88
88
88
88
88
88
88
87
87
87
87
87
87
87
87
87
86
86
86
86
86
86
86
85
85
85
85
85
84
84
84
84
84
83
83
83
83
82
82
82
82
81
81
81
81
81
81
80
80
80
80
80
80
80
80
80
80
81
81
81
82
82
83
83
84
85
86
87
88
89
8a
8c
8d
8e
90
92
93
95
97
99
9b
9d
9f
a1
a3
a6
a8
aa
ad
af
b2
b4
b7
b9
bc
be
c1
c3
c6
c8
cb
ce
d0
d3
d5
d8
da
dd
e0
e2
e5
e7
ea
ec
ef
f1
f4
f6
f9
fb
fe
00
03
05
08
0a
0d
0f
12
14
17
19
1b
1e
20
23
25
27
2a
2c
2f
31
34
36
38
3b
3d
3f
42
44
47
49
4b
4e
50
52
55
57
5a
5c
5e
61
63
65
68
6a
6c
6f
71
74
76
78
7b
7d
7f
8b
8b
8b
8b
8b
8b
8b
8b
8b
8b
8b
8b
8b
8b
8b
8b
8b
8b
8b
8b
8b
8b
8b
8b
8b
8b
8b
8a
8a
8a
8a
8a
8a
8a
8a
8a
8a
8a
8a
8a
8a
8a
8a
8a
8a
8a
8a
8a
8a
8a
8a
8a
89
89
89
89
89
89
89
89
89
89
89
89
88
88
88
88
88
88
88
88
87
87
87
87
87
87
87
86
86
86
86
86
86
85
85
85
85
85
84
84
84
84
84
83
83
83
83
82
82
82
82
82
82
81
81
81
81
81
81
81
81
80
80
80
80
81
81
81
81
81
81
81
82
82
82
83
83
84
84
85
86
86
87
88
89
8a
8b
8c
8d
8e
90
91
92
94
95
97
98
9a
9c
9d
9f
a1
a3
a5
a6
a8
aa
ac
ae
b1
b3
b5
b7
b9
bb
bd
c0
c2
c4
c6
c9
cb
cd
cf
d2
d4
d6
d9
db
dd
e0
e2
e4
e6
e9
eb
ed
f0
f2
f4
f6
f9
fb
fd
ff
02
04
06
08
0b
0d
0f
11
14
16
18
1a
1d
1f
21
23
25
27
2a
2c
2e
30
32
35
37
39
3b
3d
3f
42
44
46
48
4a
4c
4e
51
53
55
57
59
5b
5d
5f
62
64
66
68
6a
6c
6e
70
73
75
77
79
7b
7d
7f
8b
8b
8b
8b
8b
8b
8b
8b
8b
8b
8b
8b
8b
8b
8b
8b
8b
8b
8b
8b
8b
8b
8b
8b
8b
8b
8b
8b
8b
8b
8a
8a
8a
8a
8a
8a
8a
8a
8a
8a
8a
8a
8a
8a
8a
8a
8a
8a
8a
8a
8a
8a
8a
8a
89
89
89
89
89
89
89
89
89
89
89
89
88
88
88
88
88
88
88
88
88
87
87
87
87
87
87
86
86
86
86
86
86
85
85
85
85
85
84
84
84
84
84
83
83
83
83
82
82
82
82
82
82
81
81
81
81
81
81
81
81
81
80
81
81
81
81
81
81
81
81
82
82
82
83
83
84
84
85
86
86
87
88
89
8a
8b
8c
8d
8e
90
91
92
94
95
97
98
9a
9c
9e
9f
a1
a3
a5
a7
a9
ab
ad
af
b1
b3
b6
b8
ba
bc
be
c1
c3
c5
c7
ca
cc
ce
d1
d3
d5
d8
da
dc
df
e1
e3
e6
e8
ea
ed
ef
f1
f4
f6
f8
fa
fd
ff
01
04
06
08
0a
0d
0f
11
13
16
18
1a
1c
1f
21
23
25
28
2a
2c
2e
30
33
35
37
39
3b
3e
40
42
44
46
48
4b
4d
4f
51
53
55
58
5a
5c
5e
60
62
65
67
69
6b
6d
6f
71
74
76
78
7a
7c
7e
7f
8d
8d
8d
8d
8d
8d
8d
8d
8d
8d
8d
8d
8d
8c
8c
8c
8c
8c
8c
8c
8c
8c
8c
8c
8c
8c
8c
8c
8c
8c
8c
8c
8c
8c
8c
8c
8c
8c
8c
8c
8c
8b
8b
8b
8b
8b
8b
8b
8b
8b
8b
8b
8b
8b
8a
8a
8a
8a
8a
8a
8a
8a
8a
8a
89
89
89
89
89
89
89
88
88
88
88
88
88
87
87
87
87
87
87
86
86
86
86
86
85
85
85
85
84
84
84
84
84
83
83
83
83
83
82
82
82
82
81
81
81
81
81
81
80
80
80
80
80
80
80
80
80
80
80
80
80
80
81
81
81
81
82
82
82
83
83
84
84
85
86
86
87
88
89
8a
8b
8c
8d
8e
8f
91
92
93
95
96
98
99
9b
9c
9e
a0
a2
a4
a5
a7
a9
ab
ad
af
b1
b4
b6
b8
ba
bc
bf
c1
c3
c5
c8
ca
cc
cf
d1
d4
d6
d8
db
dd
e0
e2
e5
e7
ea
ec
ee
f1
f3
f6
f8
fb
fd
00
02
05
07
09
0c
0e
11
13
16
18
1a
1d
1f
22
24
27
29
2b
2e
30
33
35
37
3a
3c
3e
41
43
45
48
4a
4c
4f
51
53
56
58
5a
5d
5f
61
64
66
68
6b
6d
6f
72
74
76
78
7b
7d
7f
89
89
89
89
89
89
89
89
89
89
89
89
89
89
88
88
88
88
88
88
88
88
88
88
88
88
88
88
88
88
88
88
88
88
88
88
88
88
87
87
87
87
87
87
87
87
87
87
87
87
87
86
86
86
86
86
86
86
86
85
85
85
85
85
85
85
84
84
84
84
84
84
83
83
83
83
83
83
82
82
82
82
82
81
81
81
81
81
81
80
80
80
80
80
80
80
80
80
80
80
80
80
80
80
80
80
81
81
81
82
82
82
83
83
84
84
85
86
86
87
88
89
8a
8b
8c
8d
8e
8f
91
92
93
95
96
98
99
9b
9c
9e
a0
a1
a3
a5
a6
a8
aa
ac
ae
b0
b2
b4
b6
b7
b9
bb
bd
bf
c1
c3
c5
c7
c9
cb
cd
cf
d2
d4
d6
d8
da
dc
de
e0
e2
e4
e6
e8
ea
ec
ee
f0
f2
f4
f6
f8
fa
fc
fe
ff
01
03
05
07
09
0b
0d
0f
11
13
15
17
19
1b
1c
1e
20
22
24
26
28
2a
2c
2e
2f
31
33
35
37
39
3b
3d
3f
40
42
44
46
48
4a
4c
4d
4f
51
53
55
57
59
5a
5c
5e
60
62
64
66
67
69
6b
6d
6f
71
73
74
76
78
7a
7c
7e
7f
8a
8a
8a
8a
8a
8a
8a
8a
8a
8a
8a
8a
8a
8a
8a
8a
8a
8a
8a
8a
8a
8a
8a
8a
8a
8a
8a
8a
8a
8a
8a
8a
8a
8a
8a
8a
8a
8a
8a
8a
8a
8a
8a
8a
8a
89
89
89
89
89
89
89
89
89
89
89
89
89
89
89
89
89
89
89
89
89
89
88
88
88
88
88
88
88
88
88
88
88
87
87
87
87
87
87
87
86
86
86
86
86
86
86
85
85
85
85
85
84
84
84
84
84
83
83
83
83
82
82
82
82
82
81
81
81
81
81
81
81
80
80
80
80
80
80
80
80
81
81
81
81
82
82
82
83
83
84
85
85
86
87
88
89
8a
8b
8c
8e
8f
90
92
93
95
96
98
9a
9c
9d
9f
a1
a3
a5
a7
a9
ac
ae
b0
b2
b4
b7
b9
bb
be
c0
c2
c5
c7
c9
cc
ce
d0
d3
d5
d8
da
dc
df
e1
e3
e6
e8
eb
ed
ef
f2
f4
f6
f9
fb
fd
00
02
04
07
09
0b
0d
10
12
14
17
19
1b
1d
20
22
24
26
29
2b
2d
2f
32
34
36
38
3b
3d
3f
41
43
46
48
4a
4c
4e
51
53
55
57
59
5c
5e
60
62
64
67
69
6b
6d
6f
72
74
76
78
7a
7c
7f
88
88
88
88
88
88
88
88
88
88
88
88
88
88
88
88
88
88
88
88
88
88
88
88
88
88
88
88
88
88
88
88
88
88
88
88
88
87
87
87
87
87
87
87
87
87
87
87
87
87
87
87
87
87
87
87
87
87
86
86
86
86
86
86
86
86
86
86
86
85
85
85
85
85
85
85
84
84
84
84
84
84
84
83
83
83
83
83
82
82
82
82
82
81
81
81
81
81
81
80
80
80
80
80
80
80
80
80
80
80
80
80
80
81
81
81
81
82
82
83
83
84
85
85
86
87
88
89
8a
8b
8c
8e
8f
90
92
93
95
96
98
99
9b
9d
9f
a0
a2
a4
a6
a8
aa
ac
ae
b0
b2
b4
b6
b8
ba
bc
be
c0
c3
c5
c7
c9
cb
cd
cf
d1
d3
d5
d8
da
dc
de
e0
e2
e4
e6
e8
ea
ec
ee
f0
f2
f4
f6
f8
fa
fc
fe
00
02
04
06
08
0a
0c
0e
10
12
14
16
18
1a
1c
1e
20
22
24
26
28
2a
2c
2e
2f
31
33
35
37
39
3b
3d
3f
41
43
45
47
49
4a
4c
4e
50
52
54
56
58
5a
5c
5e
60
62
63
65
67
69
6b
6d
6f
71
73
75
77
78
7a
7c
7e
8c
8c
8c
8c
8c
8c
8c
8c
8c
8c
8c
8c
8c
8c
8c
8c
8c
8c
8c
8c
8c
8c
8c
8c
8c
8c
8c
8b
8b
8b
8b
8b
8b
8b
8b
8b
8b
8b
8b
8b
8b
8b
8a
8a
8a
8a
8a
8a
8a
8a
8a
8a
89
89
89
89
89
89
89
89
88
88
88
88
88
88
87
87
87
87
87
87
86
86
86
86
86
86
85
85
85
85
84
84
84
84
84
83
83
83
83
83
82
82
82
82
82
81
81
81
81
81
81
81
80
80
80
80
80
80
80
80
80
80
80
80
80
81
81
81
81
81
82
82
82
83
83
84
84
85
85
86
87
88
88
89
8a
8b
8c
8d
8e
8f
90
92
93
94
95
97
98
9a
9b
9d
9e
a0
a2
a3
a5
a7
a9
ab
ad
af
b0
b2
b4
b6
b9
bb
bd
bf
c1
c3
c5
c7
ca
cc
ce
d0
d2
d5
d7
d9
dc
de
e0
e2
e5
e7
e9
ec
ee
f0
f2
f5
f7
f9
fc
fe
00
02
05
07
09
0c
0e
10
12
15
17
19
1c
1e
20
22
25
27
29
2b
2e
30
32
34
36
39
3b
3d
3f
41
44
46
48
4a
4c
4f
51
53
55
57
5a
5c
5e
60
62
64
66
69
6b
6d
6f
71
73
76
78
7a
7c
7e
89
89
89
89
89
89
89
89
89
89
89
89
89
89
89
89
89
89
89
89
89
89
89
89
89
89
89
89
89
89
89
88
88
88
88
88
88
88
88
88
88
88
88
88
88
88
88
88
88
88
88
88
88
88
87
87
87
87
87
87
87
87
87
87
87
86
86
86
86
86
86
86
86
85
85
85
85
85
85
85
84
84
84
84
84
83
83
83
83
83
83
82
82
82
82
82
81
81
81
81
81
80
80
80
80
80
80
80
80
80
80
80
80
80
80
80
80
81
81
81
82
82
82
83
83
84
85
86
86
87
88
89
8a
8b
8c
8d
8f
90
91
93
94
96
97
99
9b
9c
9e
a0
a2
a4
a5
a7
a9
ab
ad
af
b1
b4
b6
b8
ba
bc
be
c0
c2
c5
c7
c9
cb
cd
cf
d2
d4
d6
d8
da
dd
df
e1
e3
e5
e7
e9
ec
ee
f0
f2
f4
f6
f8
fb
fd
ff
01
03
05
07
09
0b
0e
10
12
14
16
18
1a
1c
1e
20
22
24
26
28
2a
2c
2e
30
32
35
37
39
3b
3d
3f
41
43
45
47
49
4b
4d
4f
51
53
55
57
59
5b
5d
5f
61
63
65
67
69
6b
6d
6f
71
73
75
77
79
7b
7d
7f
86
86
86
86
86
86
86
86
86
86
86
86
86
86
86
86
86
86
86
86
86
86
86
86
86
86
86
86
86
86
86
86
86
86
86
86
86
86
86
86
86
86
86
86
86
86
86
86
86
86
86
86
85
85
85
85
85
85
85
85
85
85
85
85
85
85
85
85
85
84
84
84
84
84
84
84
84
83
83
83
83
83
83
83
82
82
82
82
82
81
81
81
81
81
81
80
80
80
80
80
80
80
80
80
80
80
80
81
81
81
81
82
82
83
84
84
85
86
87
88
89
8a
8b
8d
8e
90
91
93
94
96
97
99
9b
9d
9f
a0
a2
a4
a6
a8
aa
ac
ae
b0
b2
b4
b6
b8
ba
bc
be
c0
c2
c4
c6
c8
ca
cc
ce
cf
d1
d3
d5
d7
d9
db
dd
df
e1
e3
e4
e6
e8
ea
ec
ee
f0
f1
f3
f5
f7
f9
fb
fd
fe
00
02
04
06
08
09
0b
0d
0f
11
12
14
16
18
1a
1c
1d
1f
21
23
25
26
28
2a
2c
2e
2f
31
33
35
37
39
3a
3c
3e
40
42
43
45
47
49
4b
4c
4e
50
52
54
55
57
59
5b
5d
5e
60
62
64
66
67
69
6b
6d
6f
70
72
74
76
78
79
7b
7d
7f
00
00
00
00
00
00
00
00
00
00
00
00
00
00
00
00
00
00
00
00
00
00
00
00
00
00
00
00
00
00
00
00
00
00
00
00
00
00
00
00
00
00
00
00
00
00
00
00
00
00
00
00
00
00
00
00
00
00
00
00
00
00
00
00
00
00
00
00
00
00
00
00
00
00
00
00
00
00
00
00
00
00
00
00
00
00
00
00
00
00
00
00
00
00
00
00
00
00
00
00
00
00
00
00
00
00
00
00
00
00
00
00
00
00
00
00
00
00
00
00
00
00
00
00
00
00
00
00
00
00
00
00
00
00
00
00
00
00
00
00
00
00
00
00
00
00
00
00
00
00
00
00
00
00
00
00
00
00
00
00
00
00
00
00
00
00
00
00
00
00
00
00
00
00
00
00
00
00
00
00
00
00
00
00
00
00
00
00
00
00
00
00
00
00
00
00
00
00
00
00
00
00
00
00
00
00
00
00
00
00
00
00
00
00
00
00
00
00
00
00
00
00
00
00
00
00
00
00
00
00
00
00
00
00
00
00
00
00
00
00
00
00
00
00
00
00
00
00
00
00
00
00
00
00
00
00
8e
8d
8d
8d
8d
8d
8d
8d
8d
8d
8d
8d
8d
8c
8c
8c
8c
8c
8c
8c
8c
8c
8c
8b
8b
8b
8b
8b
8b
8b
8b
8a
8a
8a
8a
8a
8a
8a
89
89
89
89
89
89
89
88
88
88
88
88
87
87
87
87
87
87
86
86
86
86
86
85
85
85
85
85
84
84
84
84
84
83
83
83
83
83
82
82
82
82
82
81
81
81
81
81
81
81
80
80
80
80
80
80
80
80
80
80
80
80
80
80
80
80
80
80
80
80
81
81
81
81
82
82
82
83
83
83
84
84
85
85
86
86
87
88
88
89
8a
8b
8b
8c
8d
8e
8f
90
91
92
93
94
95
97
98
99
9b
9c
9d
9f
a0
a2
a3
a5
a6
a8
a9
ab
ad
ae
b0
b2
b4
b5
b7
b9
bb
bd
bf
c1
c3
c5
c7
c9
cb
cd
cf
d1
d3
d5
d7
d9
db
dd
e0
e2
e4
e6
e8
ea
ed
ef
f1
f3
f5
f8
fa
fc
fe
00
03
05
07
09
0c
0e
10
12
14
17
19
1b
1d
20
22
24
26
28
2b
2d
2f
31
33
36
38
3a
3c
3e
41
43
45
47
49
4c
4e
50
52
54
56
59
5b
5d
5f
61
63
66
68
6a
6c
6e
70
72
75
77
79
7b
7d
7f
8b
8b
8b
8b
8b
8b
8b
8b
8b
8b
8b
8b
8b
8b
8b
8b
8b
8b
8b
8b
8b
8b
8b
8b
8b
8b
8b
8b
8b
8b
8b
8b
8b
8b
8b
8b
8b
8b
8b
8b
8b
8b
8b
8b
8b
8b
8b
8b
8a
8a
8a
8a
8a
8a
8a
8a
8a
8a
8a
8a
8a
8a
8a
8a
8a
8a
8a
8a
8a
8a
8a
89
89
89
89
89
89
89
89
89
89
89
89
88
88
88
88
88
88
88
87
87
87
87
87
87
87
86
86
86
86
86
85
85
85
85
84
84
84
84
84
83
83
83
83
82
82
82
82
81
81
81
81
81
80
80
80
80
80
80
80
80
80
80
80
80
80
80
80
80
81
81
81
82
82
83
84
84
85
86
87
88
89
8a
8b
8c
8e
8f
90
92
94
95
97
99
9b
9c
9e
a0
a3
a5
a7
a9
ab
ae
b0
b2
b5
b7
ba
bc
bf
c1
c4
c6
c9
cc
ce
d1
d4
d6
d9
db
de
e1
e3
e6
e9
eb
ee
f1
f3
f6
f9
fb
fe
01
03
06
09
0b
0e
10
13
16
18
1b
1d
20
22
25
28
2a
2d
2f
32
34
37
39
3c
3e
41
43
46
48
4b
4d
50
52
55
57
5a
5c
5f
61
64
66
69
6b
6e
70
73
75
78
7a
7c
7f
00
00
00
00
00
00
00
00
00
00
00
00
00
00
00
00
00
00
00
00
00
00
00
00
00
00
00
00
00
00
00
00
00
00
00
00
00
00
00
00
00
00
00
00
00
00
00
00
00
00
00
00
00
00
00
00
00
00
00
00
00
00
00
00
00
00
00
00
00
00
00
00
00
00
00
00
00
00
00
00
00
00
00
00
00
00
00
00
00
00
00
00
00
00
00
00
00
00
00
00
00
00
00
00
00
00
00
00
00
00
00
00
00
00
00
00
00
00
00
00
00
00
00
00
00
00
00
00
00
00
00
00
00
00
00
00
00
00
00
00
00
00
00
00
00
00
00
00
00
00
00
00
00
00
00
00
00
00
00
00
00
00
00
00
00
00
00
00
00
00
00
00
00
00
00
00
00
00
00
00
00
00
00
00
00
00
00
00
00
00
00
00
00
00
00
00
00
00
00
00
00
00
00
00
00
00
00
00
00
00
00
00
00
00
00
00
00
00
00
00
00
00
00
00
00
00
00
00
00
00
00
00
00
00
00
00
00
00
00
00
00
00
00
00
00
00
00
00
00
00
00
00
00
00
00
00
