memory_initialization_radix=16;
memory_initialization_vector=
00000000000000000000000000cda9b6,
00000000000000000000000000b68191,
00000000000000000000000000d4b2bc,
00000000000000000000000000fdfe0b,
00000000000000000000000000f6f0f7,
00000000000000000000000000131d0f,
00000000000000000000000000214541,
00000000000000000000000000477a6e,
00000000000000000000000000336145,
00000000000000000000000000b7d0ec,
00000000000000000000000000cdcdea,
0000000000000000000000000014ff06,
000000000000000000000000000c01fe,
000000000000000000000000007f5c39,
00000000000000000000000000601b03,
000000000000000000000000003a0fff,
0000000000000000000000000029dbd6,
0000000000000000000000000000a9c8,
000000000000000000000000001a6b5e,
00000000000000000000000000217f68,
00000000000000000000000000164a38,
00000000000000000000000000efd2cf,
00000000000000000000000000c38581,
00000000000000000000000000d89ba0,
00000000000000000000000000f0e3e7,
000000000000000000000000000bf8ff,
00000000000000000000000000171a1c,
00000000000000000000000000e5f526,
00000000000000000000000000fe224b,
0000000000000000000000000001051d,
000000000000000000000000002c476a,
00000000000000000000000000282b35,
00000000000000000000000000ffdbde,
0000000000000000000000000009f0cb,
00000000000000000000000000e2b181,
00000000000000000000000000f3ccb1,
00000000000000000000000000c7da5e,
00000000000000000000000000f90009,
000000000000000000000000002c25b4,
00000000000000000000000000a7d77f,
00000000000000000000000000fd0200,
00000000000000000000000000512684,
00000000000000000000000000cee051,
000000000000000000000000001508e9,
000000000000000000000000003d229e,
00000000000000000000000000040122,
00000000000000000000000000f00109,
00000000000000000000000000d31a03,
000000000000000000000000000bc2e4,
00000000000000000000000000e5dcd9,
00000000000000000000000000d23506,
00000000000000000000000000da8382,
00000000000000000000000000ef05d5,
00000000000000000000000000eb7f26,
000000000000000000000000000a1b0e,
00000000000000000000000000497e48,
0000000000000000000000000024542c,
00000000000000000000000000bf9ec1,
00000000000000000000000000f4f5e3,
000000000000000000000000004b6d49,
00000000000000000000000000edd001,
00000000000000000000000000a381aa,
00000000000000000000000000e7e0eb,
0000000000000000000000000057dff4,
000000000000000000000000006ecf18,
000000000000000000000000007fca54,
00000000000000000000000000f7d489,
0000000000000000000000000027c59a,
0000000000000000000000000052d7ed,
00000000000000000000000000ad19a3,
00000000000000000000000000b3ea91,
00000000000000000000000000daf7d1,
00000000000000000000000000431ea1,
00000000000000000000000000f30b09,
00000000000000000000000000b6e569,
000000000000000000000000005e1b83,
00000000000000000000000000030cfb,
0000000000000000000000000092d97f,
00000000000000000000000000521a9e,
000000000000000000000000001505e4,
00000000000000000000000000b6e262,
00000000000000000000000000234636,
00000000000000000000000000cbaeab,
000000000000000000000000000e111c,
00000000000000000000000000274433,
00000000000000000000000000a79181,
00000000000000000000000000273a3e,
00000000000000000000000000fd0c03,
00000000000000000000000000e1e0cd,
0000000000000000000000000017242c,
00000000000000000000000000452890,
000000000000000000000000004c2b81,
000000000000000000000000002524bf,
000000000000000000000000001f0fd7,
00000000000000000000000000030ffc,
00000000000000000000000000dbf829,
00000000000000000000000000d0e14e,
00000000000000000000000000b1d176,
00000000000000000000000000c7d364,
0000000000000000000000000010422b,
00000000000000000000000000f6f0ec,
00000000000000000000000000f6cedb,
000000000000000000000000003c7f69,
0000000000000000000000000000fefd,
00000000000000000000000000be8395,
00000000000000000000000000103d3a,
000000000000000000000000001c2329,
00000000000000000000000000d1b0b8,
00000000000000000000000000c9e34c,
00000000000000000000000000a3d97f,
00000000000000000000000000acde77,
000000000000000000000000002a1ac8,
000000000000000000000000000012f5,
00000000000000000000000000e10717,
00000000000000000000000000441aa1,
00000000000000000000000000571b83,
000000000000000000000000003917b7,
0000000000000000000000000009edf4,
000000000000000000000000001af5d7,
000000000000000000000000002f4341,
00000000000000000000000000f1eb0e,
00000000000000000000000000d09381,
00000000000000000000000000fbd1b2,
00000000000000000000000000164274,
00000000000000000000000000051c3a,
00000000000000000000000000fefcf9,
0000000000000000000000000020082c,
0000000000000000000000000057384c,
00000000000000000000000000bd81a8,
00000000000000000000000000cb93f6,
0000000000000000000000000005d21b,
0000000000000000000000000055284f,
0000000000000000000000000019da41,
00000000000000000000000000cd8cfd,
000000000000000000000000001be93b,
00000000000000000000000000f6cad0,
00000000000000000000000000fdf4ff,
000000000000000000000000000f2d2f,
00000000000000000000000000b98281,
00000000000000000000000000fffe01,
000000000000000000000000003d756d,
00000000000000000000000000d1b6a5,
00000000000000000000000000152121,
00000000000000000000000000264952,
0cec05fb2b041029220f0f1d12fd0af7,
14fa1013fd11220f14ef0f2c0e1001fa,
12022018100f030c0afde62811011013,
01fafb2aed1cf5ef1ef9f91b04122816,
81eae3e29bf2ba8defd6d3a9180f12eb,
e401d7f1d9f1eae3e7f6c9ba13270a04,
fa000dfd150af4071313f10f070904ef,
d1fb0bffdcf4e5daefe0efbb0004f321,
0defeeeef906ef0fe9e9e20922fb1208,
0602f902000b0e04f30dee0601f709ff,
fc08ff0104f9f905f3eeed03e4010ff1,
fe0708060e05150802fee905ff130f06,
fcf50f01f9feefff03050500f603eaee,
020cd8fc81e6dbfa042610eae8f5f28c,
f509f6fef405fffd000a06fe07fa10f7,
02fbf2080b0cf5010bf60d0416fefc13,
06f60d08f3f8110111fe1b02f6ecf6f6,
0ef701fb0007f2fc09fb14040400feff,
eecf30394eead60ef129fa00f50eeb17,
49c6dfe3ccce0d05e6e50ca9bd07ecf6,
04e1cacc201a23f9d8b709fd3b2a2417,
0df42e05eea10c27f252fa07c1bec5d3,
febae88170b4230aefa5f5232c97d888,
49f0b8a6da2d3014079f370b541806f4,
eaf22935f80a07edfd41f60cddfc1117,
0cfce10e0210220efdd8f448f8072803,
f3f5cfffe945ecfb25e416002a16573c,
0f0f0c07faff1408f800fb04f70b040d,
f311eff6f003f300eff1e500f80011ee,
fb0dec040d0906fbf60ef30404fd06fb,
ec02f5fd0603fd04fd05fdfe09eb10ef,
8102d6e6fffce3ef00e101f31a0aeb81,
0100ec05f805f80008fa20040216dcf4,
02f806070702f2fd0e000a0402fffdfc,
fef706fd0d041f0312dd150c03f1f3f2,
10f30a06fd02f203130418020ff1080f,
f9f8f906f30f05f305010fff1e10fa0a,
1b0f09f60dff0619fd05f92afee615eb,
e007251711f9fbf8f02be8ede4eafa05,
0903fc07f13107f505ed120918301220,
13fadfad13a11210edc2fbf8c4dae681,
140f21dd1e9ffc14e616e90aa6d7e0b6,
00fff805042df9f917fb0fff2c1f081a,
0ef209f60eea141413e902fcf7e2f2ec,
0306110009f7010d070df506f2e8f7f8,
00f4f1fe05fff601fbf5fa04f90c1104,
e1ff04fffe02040009fafa07fbfe0ef2,
0802f5070406fa081013190412fa0b01,
fb00e8fefd040009ee11fff8ffec0d04,
82fbf7f020e6e9f4fb81e9f3cabcf1ff,
f3071706fc02f1071dfc0903e203e10a,
05050d060c0b0a07ee16fc08f8110402,
f612fa0401faf202f2fdf1fa0402fdef,
f510010404000afa0ceaff0210f8030c,
03f70c1b080e16eff2fdf2f61b030a0d,
0df5070dfd071000fb0dedf5fffaf9ff,
01030cfa08f706081cf809fff4f408ee,
81e3e5de94e2b1c0d9e4daafdb18ea08,
d7ebf4ebeeebf5f2e503dcebfa09e9f9,
f51406fcf203effd17020903f90a0f08,
c7e5f909b6fbb1c3fb14fcd2080de11a,
05ecf10702060df3fff7f7030ffeee0e,
0c050cfb090b120a24f8150205031401,
fa07d4f5e905e9ee04d304012818fc10,
e6f70be607fa1c013ff231fd0b0cdcfa,
e0fd09f8f9f2e2ed3c0d50fa0504eff7,
fff6f1f31407ed0a01d30af8180e0b1c,
dfe0331039013cfc44df4004f612d0f2,
38f51920caff00f0472e71fed81fdc05,
fc15d7e71efa0112bddcdd0ef8d91dfa,
f4f1dbeeeaed0df0c694ebfb9b81ed26,
fef7fd03e5f7f306dadeebfba882f120,
fa070709e70f04f10cfcfee9fd0afd0b,
810f0a13a000d19feb3cbf85e4f3f41a,
ee0c2212130ffd091030d3f9e9ecf803,
f7e60711faede8f2220714ec10fcee03,
94e0fae68ee09c92e9e3f68f00f5d900,
00ff1609f017ecfafe02f6fb07fe0217,
26f1f70411f6232318e90a2e080c0c00,
3af80e0333173841f70505680dfc000b,
11ebefea06f817fdf6fbfd11fe0d07eb,
0406fb07f6e9ec031f070a0ef30808fd,
c905cde0faf918fe10db00f4fb0aeef1,
2900d306e913e305f3f4e1031b250cfd,
d60519282501f90729182ffa2aeef1ee,
5403d7ff811537f41f0338fadde2fd38,
c802bff8ff14ddedd5d8d71240fd0a05,
19012cfff6ea180b0d232908f3d1eff7,
10e00fffdfff050f11060df2e4c6fbfb,
e1eae309e007d1dfdef1dcf01a00dfed,
18f8d0e3cf181dede6daf5f5150e0b12,
0614d9e81ee9220be510e41cf401fbba,
fd103235ee1eee10172103201e0b072f,
26f4c8832cb52c21ddadec1607daf7cb,
06f5c18ff28919f3d7c7e0e4ab92c481,
dc115254fb29e70a113106fa103cfa31,
fb00fdf0faf5041f09ef04f903efedee,
22e811d6fef31f0105fd08fefee3eae0,
1206202ffb04e9fc1c191ef8161ef411,
2c01e2c014c11533f8e20e14e7ede8e0,
10edc8f505ef0ee8e8dcfeed0d22ed17,
27e0e2eb1c030828ede4ea20f8f6ecfd,
d308421f1a08f603070b04fde7eeef09,
b8d02a04bb02daccfeed09a40718d019,
27ddfdf3fb060f0afde60a0e3b2cee09,
05174522ff00e3e505370ae2e21f0c00,
c504283ca537cc8af10e0681e80e0f23,
14e20b600d45eaf2fd06f9ef124e1d40,
13eaabbbd0e32ef9a79f14f6df0dfae1,
3d01bf0ae34c02e8acb70b0a39362218,
e40a2170c961e69f8d32cee92b1bf726,
110fd4cd14354951c50c2a4ee704f515,
faf2e8d63dd52727cf271be6e85bb706,
a4f0dac7e693bec19a2cfe9da3218110,
011313db31dc3660cc3b3e1cc7a5ccf4,
0cff36260de60b1fda7b2ed6bfc5a902,
a4f0c749e337e5b2c14436c43a41c934,
0904ee050f08fa070807080a18fc0b04,
fd06e6fae5051303080816fcf80300f2,
0204fb070903f904fc0f0909e608f70a,
03091102e405fcfa0fe00202eb19e008,
15fce1d881edeaeafeae06f5a5a6f4fe,
08fcf504f4faf9f3ecfdeb0f1be71801,
ff08090efc01f9fd090bf90201f9060b,
0609f403f2fcf5f9f9f2f607fdff07f6,
06070d0a0a070c08ef0eedfbfe190306,
00f707fc0107f0fe0dca0509021714f4,
24fde702f6fb0ffb0ad91b0bd920f4ff,
f2f61b0000f501fe0908f316c706faf2,
0706df01fffb010102f10c0925d008eb,
1ff1abe1f0e0f4fee8f702ef1a8102b3,
b3f9d8f71de40304edecea0223aef2a6,
f3fa0ff7fcf6f406000a11f5f102ffff,
fdfd07f935f3f406f70c13fafef0f1e8,
d5fafcefe2fc0001fdf410ecebfceef2,
13ffe3fefd06f8fb05fbfd0309f714fa,
ecffdbf8e90006f204fc00fc061307db,
f602e900e0eefd00f1f609f2f5040a19,
efff15fc1b02f40b14f6fcf5f113efe3,
fcf700e8c6eaf2f60b030ffed801e7c0,
08f9e3f481f2def6f6fd16f6e70505ea,
070af7fc04fdf8ff0dfcfe03f9e9fbf9,
eff40ffffcff05030be0fe02e7cefb07,
f8fdfc08da20edfaf513f9fd120609f7,
cf3c06fdefef090abce729f1f209db02,
cb412ddf1affcd25b6f41adcd5f6e20b,
eb2f39d71ffbe809cc0f0de3c6fffbf5,
43f4c011f0dde8f30916c3001ffd2912,
2b0681180ac7d1f30c2383ef47e34526,
17ebab14eaf0fdf2012cb7f322e429ef,
2c112e12cc260cf914e90b17f613f6df,
1efe24f3dd1c01f81fef181c010ee0fa,
11230defe51b10f713032824ff17eee0,
5ef775010b1b2516f12d81effeec26ff,
fff4130cb5fc09d8bbe19ef3c7df3bc9,
b024c0ec07f0f230f6dd65fd0dfda822,
7c035219372615400eec9032f0e84a18,
17ed5e10c11509d8ccef93f3a0e77dc8,
b20af0fef1d210e1f60316e7ea25f0fd,
4a1d0d0a0811f10e0afbdae319e03806,
2fee6602f10ffe15d9eea0e7d4fd47ed,
e3fc2e04f40007dcec20f1e6d5041304,
3ae50add0fe603db3805f1f0f7e406f0,
3c0c000ce7f41efafbd3ad02181043e8,
16430c20161e0f2ab9d9df0c0e281021,
ccf7061ed945d819041a460007ce8111,
1db1d3c6eafae9c534275ce3eb02cfd7,
51eade0a1ad10ff70ed59cdf1ef667ee,
f45b0e312503020d1efa06f7ef151a1d,
c3360ee9072eed2119103321eee0b111,
e8e1f9f7c307fddf201a2fedf318cff5,
0c4403f50cff14e5c2fefd0043e20bea,
203502141d03f5eebf10dd2141e52c17,
2d33ef02ec17facbc435ff2410f634ea,
0df8f936480bed220c02c0e140eb1df4,
0915affb5a26cd7c170e9b0f3b00290b,
f701c6e23c0cef66c71eeb0637ef22fe,
e081fb1c2801371e04f2db9cfadc1dbf,
cb93fb2e05b15b1cffcf029073b522d9,
b399c13dfbb6161316de149923b71ef8,
d74ce7e21e23e20c003cff11191c0b09,
e7efe3e7ff0019fc3a13f902272300ea,
f6d8ef1002df0e0141e2080a15f301ff,
269abbfb0ad31df228e4e1cd5e12fcd8,
09ca5a41e2b803c736b9f500e8bbe2f0,
29185b24d8f3d7f70603063881cbf423,
350f5b2bd2f236d61cde08118fb6eb0e,
fb4f401b1a18ea0135fdf725a30fe649,
0f4405f41618ef36fc4005f2061702da,
c802d4fa0eee01d8e1d829eed5d5e7ce,
fd04fc3169be0b0d3eeb4808e82cb0f3,
6f681607dc170d313521072e1b271f35,
2df8d5e29e1dd714d340a71cd8a4461a,
bbf595d6cfd4ebdab6d440c496be40aa,
dd08ef317fbf111908dd79d9da5288d0,
3710294a1637fb2831104e2801e50003,
1ee7cecee931ee26ee23ba4aeaa94cf3,
c9d3dfbe06aef9d5e711f8a2c0fb2dd1,
1a2319f2f02901e3edf4f51ff013f9f2,
faf2ff28bd1337ae2feb0e3215f701d5,
0604ecfd0edbff221bc01ffaf2ebf913,
031307e02e210ae3e2f10809ef28fff3,
f2040410020e04ca26db15f0f41f05fd,
ee0f13c84be7d62d02effdc9f502fa3e,
09e4f1edee29f8efec2506efe8ecfe26,
18ccde2e05f3f4ea14fef8c1e8c3f838,
1eda0ef040cdea3d0350f4b9f1aef47f,
3111640c0401f71dddf9dcf481020e00,
f024d8f8e408f1febff1d6e81bfbdbf7,
13f7ad0debede208eaed44153cdf0be9,
ec14fb12f2e0ec02d80af9daec19f111,
e114a918dee1e2cff3ff41ea71fece1b,
1b00a608f400d9081b2f531b67f8f2fc,
dd28de2703e1eaf0e1fd33fc1d03e2f9,
1b0dc0f8f30cf2f7faf736fc60ebe413,
47fbe4d90c1ff5100619090a270103fb,
0210fc1ce8fa11fdf7d3fa33f118ede5,
2627f3002dfddb3416f70a04f30c0920,
100f070a01f60203027f10edf80f06f1,
d8ecff1ac0cf22a9f4ba0422fd091acb,
1a1000092af0f967ecc4f620030cf237,
080803f90fe6f60ce95909e30bf61b13,
fdeb09fcbaee1bb1f3e90e21fb2b06c8,
0b17141408e41f2606b5f423051b0127,
18101516fa070d2b023d0bfa04f0f62d,
36340eec4fdaeb48281d06e81d060830,
1ad8fea1d4170b16df6df5c1e307e0ab,
fe130d2fd90209cc44e0f3180df5e30f,
1606f5b8201bdd420551e5ebf6250f18,
e2c710dca11847a9e334ecfa2712cf81,
0d1ff8310a10e4c4289ee51b0806f645,
fce1f59223150116fd54f3e8082406c8,
def11a22a51629a3f8d5f1351612debf,
281df21848230411279cf40703f01033,
af16f801fae4142a061e19e3fdbc040a,
35e4d6cbd702a3f535233cf71e10c405,
3114170c051433ff14d4a1fdc8e720f7,
aa430dfcf5e1fe09f311061116e6f9ff,
53bab6c4e518bbdc5b253a0f3a48adec,
43431705112739e006be8139a83632cf,
a9250e0dfdc0f319ff1fffd708f22802,
43c296edf3dcc807182518ed31f6d903,
26300fe814ee140de7e48ff8e62225e7,
594a0b45f21afd141c2b122a4349160a,
48f615cb2d10ea35143efaf2e653dded,
ede9268101020104d4fbe2b3bfebdfb8,
53f15aaa02092325ee0f01c4c03ae7b2,
bbf54ba5f9d403ebaceec588f50bab13,
b520cf40f4d5abdfdcbecefe38d3c86d,
c414d5fb1bc909e8edf7fbc00d0edc1f,
eaf4c14206e5f4e1f5f4dc192413f218,
43103716fd30261a16280c322af1f6c1,
f5180ce614e71d3e2d13e8e70ffb0119,
12fef8c20e12eafd2a09f6fff6d1f204,
bce7d31d901b1b9711141a10e8f124ab,
06120606fc0bfa131b12faf40cf80818,
0220fed23d0ad434300acb1b03f2ee2d,
f0f6ded2a8f9048f11472e40e1031f81,
2c03fb0dd8fb12f509fc01f5f90bf003,
0d170fef5703eb242e0ef2f91af20543,
efefe796e01ed79aed6dfc1dfde5efa9,
f02f27ebdf1632fbd6f5e002c7d41afe,
efe6c820ebecb9f30000101e4038cc32,
35f0fffefd0a170302f1d7ff04c425f0,
fb15d7ffe5e4c8faef18e4142d42f81c,
11d7f5f9e91c160103e3da1111810cd3,
ff1a13f1f5fdfaf30210fdf9f51cd5fa,
1ccce5ebf10eeafff407f8fd1f0cfd08,
1f3621e300151ffaf300c901d9e11809,
e10bf11402fcfb160124060a17e0faf7,
1f180e10300d060d19010727fd2907f4,
19300c081f14051026fe043306280000,
1b480b0b181614ed20200438132cf2e5,
c9b5f0d9e99ce80aefe8eaa6d3bee71d,
d0ce00de11c1d818eb06088bc7c5d705,
d0b202d700ddbf13e9eaec81e9d1ddfd,
2039ef1bdd300a08180bfd2b0c05fbeb,
1026fd10050f09201513fc23f807010f,
172c1207dd05fd100f30ea1e06f90a07,
451ee724debbfb0cbc16030e0c0809ed,
ef0a1900051edde5b3fbd33afd4dc6c7,
0ee4e263de6400bffc2bffd31233dead,
2efc1a2af6c3f1e7d9030841f30524f0,
96100b000b76e200cd11f65ce538f7df,
f8c2d270e077d69d143827f84b26ab8b,
05fb1df909c913cd06220cf3e5fbeeed,
a20bf9f309390cffdefaff23f42c2cd3,
d7eece3eec4cf9aa3a0434f337f4c981,
f01a04ca10f723ecfc1c070ff6f4f10b,
e6f4f9fdf6e115fcf42f0c0f0d18d016,
fb04d714d50529e6f0f702e6f5fa00fa,
a5f911d3f1c10a01fbebf106f9010a28,
9c31e8ee879194ee9dc17f90ef45f314,
0002e70ada00151ed9f863b9e52d08f2,
ed111a0dfdfbfefa0403f50100fefdf9,
f9f8020208f7291de2df0ef8f90cff0a,
05fb0ee70b0c0b31fbf7eceef305fbff,
f1d822f60ce82d131fd5240dd70409f7,
0afd10def0e1ddbddc0217d7f823fd0c,
f029f302d706f0d4e4faebe4eafd0513,
3d8e1f29dc0b28ff12c55418b06434c2,
bf2eee8d81cbd2c89b00548e2840d524,
c767bbe2c4f2139bcb64f0ba54ddba41,
f0f8f6ea3513ec050e02e1200506f4f8,
e6e903c909ec0426e3ebd118f40fde05,
fc3bce0ddff53ec4f1fba8000cd2cf3a,
f41bd9f4e4ff12ed0d0ff1e907e5ecf7,
d50ee2f711faefe119fc0d0e0f0316fb,
0fb835f945ead9f2f3b40507bb011af7,
c256b405eedfedebe34bfacf4cedf63c,
af25dd0e5613a1b507d5f11943e81242,
398146264f21eccf2ee9d566b8f208ab,
ef06af23caef021ad4f1dfc315ebe823,
ebf9ddee0201cef1fbc610fc100eff07,
200a0be3ff03eaf7f1233304e90a06e7,
c6e5059dd2ce0d2101f1af039cc5d316,
abde38e90ea49811d2ea0d130be6cdfe,
f103fbf6f3e0c081d2e5ead4fe03df05,
d786e7c3d7f035f300b894fbb6b0ceed,
f9e041d15dde42ecf8b0cd1f48c8d0e3,
f237e115ebe6dfeed1e038ea1a210712,
24d0d571c62afcc210f5def0d3d22ee1,
75d40b3edf393b0833071fedacfc54e6,
1030d005cd210d5e240726e9eb111aff,
ede317f5510313fe0ed20ceebf1315f8,
fd001f2f240fe91cde05381d8720fae9,
25fa0f271d1810fb0bbe1ed9aaf4d8cc,
ce9103e14af32f2907ec3518a9113cb7,
7992f60eaa09e953dce82f9281dc3f89,
0bb0130233eb11332ded069cc7dcf391,
acd0f3d0caf4f524b5163cd0bd2f23c0,
2314e41bfb1e4a1dbd141996d3f40bf5,
0c0e16264b0b4158182906e5cdd0e9b0,
1213fe11ffff0304f61710082f0ee90c,
07fb1806ec2c13120bcdfcfebbe51e04,
34f03aedb62429020d0ff1e781ec0ce4,
ed2600e60e07fe01fd3616182612f60e,
e8d707c609131bea0dc9b818a0b806e8,
17a23ce1ea061df91c23cafebfd3eac0,
bc10f1ce2e02e6e2fc18fe101f00ee06,
ebf71fad0a10f6d408d7c907e0e2f0e3,
02f02805f90316fc171c0d0211f4010c,
58d6f0d7074059231df3b0fbf9c02ef3,
06d327811202126228de8323f5a5ec11,
dd25ef1ed3eeeda411c3dce6e7f2fe2e,
1c71fd02f1141b01df322fe7f106f432,
4b171bd7e1febaf7eaff6cda4420ed01,
379700ded90e1f080e05efdf1ce31fd8,
d2020ad7e8f1b205efe4f5daf2e5fa19,
03ee1a5926fcd890ddbc20c21b29ee08,
f217fdedfefc291f032501f006f2ff0a,
30a70d0a24f7fd0418ba26fcd9271cec,
2ebd03f531c90b0befbd3813f92628fd,
1ed0eef51fe843271bd31f08dc1529e5,
b01b26a9efe7f410da5a0ce93828f421,
ac0c1915efd094b2db7f141a3434e21b,
ad2916ec24e941d90a46e4152ff3fe00,
a1f034ced9f8f307de0c2cf5ec3d0a21,
8e0ff02417eb2be2ddda0ee159efd810,
bb180a1810155edb2cffe40729f80510,
dc1102e3f8f90ef40226f8ff09faf40f,
140df1fbe91f05fd08fda503f2bbde0d,
f20ceffbf30a1b0aff27f0081af8fa17,
f819f710ec1815080ef6d404e9db060b,
4214df05e6210c03f50681f5f59de9fc,
fd0bdc0e181124fc0a24d50018eafa10,
09fe00f5f805feff01fc13eef8f007ff,
1e09db020510100a0101e2ff0bd9ff16,
eff7f303fbfcfd11f5f318f7fffef619,
36ff062af3edf20205101211e90313dd,
0028fccd20c01e1c1c07073008f914fc,
231afb3511c9f202ff061d3efa1a0a0c,
0731fd5f16c7f6f627faff2dfa1f1001,
dae301a1e3b1ac5116b11627dc1f2ff9,
22eff30adeb981b100c804ea0b0d00eb,
041cfd26e9ded50c0903f4f402f40409,
e0f0e7aff3c3de36eed210cf2720fa10,
e30bf7bc1cd2b4d2d3d606023003dd01,
dc1a11c3d6f8e3f2e8f207dae810150f,
20f0170ffefcd8c701fb37cfe91f07f7,
11fd14021c0b2100162eed140b030b10,
e8fd0601d3fae302dee60cee221800ff,
d9dffeccb7bb82eda6ab0381e70f05ef,
f4ed26ebe6e2bdbbe4f422b0d01b0404,
1e2ef6290c072a161428f6130401010b,
de0afa0ae5f0ea2febfb20e30c280dfe,
1f050b03e5f7dff6f9d607c5071117ef,
17f4160405ebfa0bcaf3e6041ff2f313,
341759f23df4c5d1b7d735b821e8de0c,
d80613250af4da36f9f4e1100d0fc521,
2558186cf43a21f2bb0a2916f30a093b,
7f207417cc6ae3cd8fdc14c8cbd1d703,
33202515d1310234f23a0e0107f8ca13,
e1f3dd35fd2008f9ccffe1e4f11e0dec,
0c2a43fdf81fb1f5b5e011fbfbdebdf3,
e80925d8eb07dab7dd1c1a211af0a912,
c904f4fb13d2d4e00b1df20c13fafe20,
ce01f11f16d2bab3fd4cf416ec0e0708,
110406060ef8c7b8e903fffb0d0a051c,
9d03f4923a98befa04e40b1a11eede1c,
9207ccb619818fe0daedd80230d6c211,
06faef05f3ec08b103d0f8110de8ec1c,
29081f1e12eb01061fec1800f702fc08,
190f041c0bfd451c140d1216f10112f9,
220d07e6edfe023a0d0c01fbfcfc0d07,
1e0eee14cb34f2f71fe1a9e3e1d629db,
111ee712b6343622120acb151406270e,
1801fce0b02910f100f4e6c40e031ee3,
11520ff118291be93013b92ce1c2120e,
c77ff01cf30dd00f102ebf244ae8f851,
e965e0f6e021e9e7eee10ec5f120fc31,
1bd809ea1cfc0ded1f0406ffe2fd1af5,
af0eccf62cbff4f0fde5fb074900024f,
e7ebde0824f008cddbce32f0090602f8,
ddfa0cfd1bf6e8f3e101cb1e11d5e40c,
1410ed5b0c1f12e805eee515f30cf90e,
f112fafd0f07d937fdead405f4f912f0,
070a15c7ee11e912d127faf6120c0204,
6806b77fb629c7ffc7fdd892fafcf017,
3003d9f6d823dc16e22bebafd30320da,
f3de14b4ea0811f3f707f1f3fc0cf200,
e00dd001d7e8af15cb0004d03bf1de2c,
1719e3efee18e303001505e01d0e0914,
3e240d45eb210cdff73809d4dcef07ff,
1b07281d0203385e1a38ef1ed1d4020d,
0fed18d60cfcd02a25dbc5f0d9c9d607,
cb0910c5dac4c4ef1117d2e435d6fd24,
82f02dc2e0a4b6da16eb99255781aa0b,
d50f1cfb04ece78f03cdb75b5cbeb3ff,
fa1bec01e211ecf9ebe9e4110b14f319,
ecffd84d08fd02e6e7d3ff2d0ef9f30b,
06fda82d022318d6c6011a05d71c23ee,
e720f812f413f9fd0708140f391af514,
1bd100f9811de020f5ec14a9bd0c0eef,
ef0eda02eb08f70bdefc0eda19070319,
d62a05302b01fef9041c1d1126f7ef1f,
2794fb008418ee30ecc0cfb898dd009b,
04e3dc25cb020015e3fcf1b1e90225e7,
1b060e1730022601110602191cf4fc26,
1ce802f2e419ef0319d9e402fef00fda,
0cf2ec17050910020b0ee9fcfe1012ef,
0de80be702fce90903052aef0af8eff0,
fbd1170e1fef16f118ffe928ebd7fde9,
e50c0505ecf8eff3f504fce3fcf841fe,
060607e9e2000f0708ca15e718dcf8e2,
21811eeefaf4f90b29eebffccc820e8c,
fad508fd0f0838f1f909d7f0ecc421b4,
141bf326e60d252af8030c0a20190ff2,
0fdaf7de1ae8de1b021bc3fc06b529cb,
d6f20afa18db0fcdfe12e21509c203e0,
f51cf100fd2a15df221f14f023ec2a15,
f00e08dbe32de9de271c05d4fce92202,
f61412f32215c805023510e405e5200f,
d83d00e2e402dc121303eacea5c40b4b,
fe28e5bfcdf593fb1aefc2bb81be0829,
252e11f5f4f1f0af0b2322b2aaf32145,
04d80905e01ddd0f181210f1170a3b23,
22f9c2afea03a12332ede7ca25f02dea,
3de5f2ec100a1fd31821e5020aec3405,
28b52808f61bff181ce2d7e481dc0db6,
06c60717ec1f03141b0feaeec30b26ab,
fe20dfec32ee020e0f110f3a4205eb08,
e3b42000ad07f219f7dd39b992131887,
f3aeed1fe60ce0fd09eef3b0c2f92885,
0703fd093a05f2fe1fe20528430d0823,
defa28fdf4f9f6170cfc2adc0409f8ce,
bced05e4d9fdb3ddf5c31fceff0c05c5,
c208f4eb0907cfe7f91e250b41161018,
e90208ace7d1a00bbe49ea071710eb21,
2df9f61dc7c7f48c014025fcf815c900,
3ce005e6fe03fa4810d8ff0b210a13fb,
d40909a8c5e381159f05cbf6fb0bd11f,
24fd0726f0e46e8c4efdc541a322d711,
f8031b25f608f01d3ab7125bdf5d2c04,
f1211209f5f28617b6101bdc50fead30,
1ae50bc3d4265dd12731f51ce6ddcedd,
02faea01310601fd1cdaf5f6fbf7e8e2,
ce031519092129f7217bf72402fe0f32,
aab940c212f9fcdd14d14e0ece1dfbe4,
baa7281b03e4a6df2fba4648cd400907,
c1a803002708360e02f7ec17a2e81d09,
b08e514d03deabdb2d883a38c93dd5fb,
e18816fb1300d0a40c8e621fed2b3ddf,
fce12aed0815261f024afddd04043519,
c2d640fc36a6813026fdef2843edcd29,
f6ff3b3631fadb863fe8ec75f62d0612,
08d71b3afd0112c0050be301d71b120f,
4b112d17f23e56c30ee5facef8e223f6,
fe055200e4181c191d5306edeae2fc0b,
eeae132bf1d9e7fc06e7bd15c836ef10,
24ee1c07d81e3b97fe21dd17eb47250a,
27f62305b4111ce8ff62e40be300ff33,
ded4b4b6d9b7c82ec1de0906f6fec0e3,
a9f69eb3cc99810ab4e8d4fb1f14b8e3,
fff0b5f0ecc6e7a2aef0ca10f214fd05,
f214130005051900caf7e818e5ffedea,
e10e171df2cd021bc7fa1127f626bb05,
f9020bf8d3ebf4d9cee52ee5f517c1fc,
00ff11d5f7020020c623eb08f6e9eaf6,
0e000edcf1bee614aaecd2e514cd810d,
1906220b23fd0fa4e5f80c03ff00bdfe,
090c04e6fefb01fcdd1009000705f0ff,
0efc15e219e819f5dce2100c0206b216,
0e0717001700fcf9e0fd0309f7f9d2fb,
f72a0bdcd4f2e6d217d83ff63ffef31d,
0ff5fe39dceee5d705384ad4020d19f6,
f020da28c30af7750f2418f9082f2633,
f3ff2e8572c818a43e12f71e1de2fe09,
f5f3323234b89f81000ce81cdbdc0616,
09de0e1ed2e01351e91017ecf30e102d,
df1714970fdcd1c0fce8ff05e5dfeefc,
4eeb38f526eb0292faf5cb23e2c3ebf5,
080a2417e7f745fcff2d1a3b1506262e,
0713ff0ee51b1bfd0fd7c415ef0c0018,
02de1b0a1a17350705f9e214edef1d04,
fb0a12fd2b0dece6f51def143e01fb13,
30a2ef25ff18fc0915d1bb07e8d805e1,
4d810affe2021804e2010dcd9c0b2fc8,
d34407fe18ef00c6ec4841f03711ec34,
11dae516ec0f0505fe1d030028070203,
49b90b1cd71e0a00f303fbe1f20f24e2,
fc14fcf5f5010602f70824e912190308,
28e2f505ea0df3e035060224e119a0e1,
f217114cff5e0fcf09fd0064145dd9ee,
abe7c710e101f119b5d7cf5cf30e19e1,
e204c4e4f405f917fe1f470dbfd3eaef,
b3429c01131bfbe4ba0a2c79810fc185,
d1ff880628d70abbedfce719e11ef4cc,
270ce0e712de0c01da2123060bd730ea,
5719cdc41f98e608ecec40e8bac61ee5,
3bf5ea0607c838bf1d392cf4ec0cf8da,
06ea0cac1703e91418dee822171309f1,
d926f7a61429accdcb0625147330d3ef,
1808fde40e21c1cfe5af2d242131e2e2,
73a126a8343a0bef0dde041a1c17e6b5,
16091ff156253ddd2b060f7f64350211,
41bff4f7d73ec900ec8d651f095912cc,
46f70bafd516c10ad7fef7e4130febec,
fb0efcf5eaf1e7e2f7270612231cfe0b,
3ded1bd51335d8d300f7c7fffdeef3fc,
e717f229ebd8d8e902a72cfbff1d1c14,
14d0f338daf2cb48e58e58ead53f21f1,
2ac1fb11de0bfefcffdee4ca12eafbf9,
2583df3eaa229d0507b703bf0bf533b7,
49d4da283a3ed420ea7a3cf02a4220b8,
1057f4026209ce2d004b81302bbbc52f,
e31714b247fc27e50af8eb15f8daed17,
ebe61c0111e713b00508c526e2d6d50a,
d514f129051807dc1ae7ab0319c2e123,
ffe02e071de6191527d809cee80702da,
1702401606cb22f253de1edb0f07400e,
cdf460ffe1fd10e6e7fe24ff0bd74403,
e51ffe20b0f4f30f30d92aaee54cc0a9,
f8f93631842f2a2e17dcf0b87f4dd5b0,
e9c95304c204380583ef951a63c02dc1,
f4faf9fedff609d03a151ae2b3bbdced,
df1a141b063b4fe0e703371c0c2c99e0,
0436f201ff0e28059de2e806dd29dbda,
daf9f301000f232f08f30010040a1209,
e7e9ffec3ff1d7f317c5e60ddbedf2f2,
fc251bf223e8f9cf0e1d0214fd03f5f9,
c6cc22974eef17ec0aeac11dbbb1eaed,
e7be5dbc34d3f38136bf961dd38eb1f2,
f0ea1f060cf00bde1412102c290b0cf1,
02ef24b1ffe2020317dbf2f7dae7efe5,
09f622fa10de30ee1e23111ff9f9d8ed,
fd20f406f702012cf6f926ed0219f607,
1aff041bdef8d7e9eb2223eaf2fd0d0d,
e115f80debe3f9dc027ef4e903031f14,
e7ec06fd1beee3aff620ea0f1b010014,
e03ac6028112fb1fd3a3dbdffd1a0002,
b145a6098af40e0dcd1adacb3127102d,
c142b5fae2e1f4f7e7c2a82146fadd41,
35f1f5feec20170845fffdeed4e717c0,
4dfec924ca2223053338eedaf8eb43e7,
00f6de08171d092217e9f70fe7f422e9,
d9fdd79f0fe0f106c40a48ec151a3cc6,
0f1a0d1104fa08f7060cccf8f7f00c11,
2d282444e2fb2802efffebe703ed050c,
adfbc98116e0d70bcbdc26042302f0bb,
feedf1f9fa1002ece5ffc1db0cf72b17,
120eeb3dcc00f3f92018c7c40314380a,
ccff08cf12c2d915f20514f82515efeb,
090634dbfe140ff3fe13eadd06f1fa28,
f6100127d92209ffff0405e1ef1f0c05,
0ff0d4f1efba2a02bafe01f3290bf809,
e3d903e315fbf5fcecf705c50eebdeff,
0404f7edfb0be5000616f1ea16def0fd,
e706f8e3f9ba20f4d206f9fe1bf7191e,
1cd8f3c5fdfff6d916e519e9d610efe4,
45f6ebc4dc17efe5072cff0f0114cadb,
0108f5fce606cef8e018f4f924fa1c12,
02d3faf9efffe1b13cf21cc6080a1910,
0f21f2f1fc0bfef81426f8051dfb0507,
e8ff1bfaf42c13080a04f9fc16fa1702,
f71b3445df21e246262be001532023f8,
fb370016cf10bf1404fbe3ed3bfd32ee,
dff4111feb00e7141c36d2183a10fc1b,
d6ef38efd2dab6e2bf39c4d54915e8e4,
fdfd2ff30eca09c3131cf40106f0e1ff,
e80b2e0dd204e5f01b0fe5f51316eef4,
d4ebe2bb18e322d7ba1b04d0f1f804e3,
efebcaef210913e3edf5d80c09ec310c,
2026f6fcfc0df80a1f04cf050f5c0e38,
fd27e20de305d1f215fec2e51206de1c,
dde6e738f415e5daf5f7cc011fd7f2f7,
0706ec11e81f0ed915dfcb1412fdecfb,
acf1d6272237dcc3f9ccee1ae381dbb9,
b8211033150fd946dede15c9d8fb27c8,
e0f20b071e1df8f104ddd010dfc2d6e6,
c10510e70df9360debcc00f2c5de34e9,
071c041c10ef1d00f9ffe1d30c0ff8fb,
07f4cbfab2f620ded11f04f00c1e1cd2,
01ceacf9cc18470be9261deb021324de,
1efcfce4d21c07e6eb1a14241d02f5e0,
f71f22e588f70ac5db05e3e41ff9efc9,
e0cbe8e981f628bdd324edc60f0d43cb,
40db1be4d1ff1df2ff1c19f10b1504b7,
ff020600d22e32e30e19e9ef01e8ffe0,
e72a1dd9811c1fb7121cccd10edd21cf,
fbebfee4b7d512f4162200ff04fa12b6,
06e73f09f13ded00ecf5e6ecfde2f8f9,
e2c327f6f4340cd2d4dcf62fdbf808ed,
f7aedefa025e1f00c5c7fe32fb3c5232,
02e7261d1d2cea13da0dce2c1cfe0b17,
20cb521e0c01f9dece0fe519edcd02d8,
f0c519eeee29010696e4e615060651f9,
dafe1604213cd112d411cb3625071eff,
02de3544242ff9fdd624e224010a1edf,
30ef553b0111f5f6b81cfb1dc70b2bd2,
cf12f4ec46d391ebbcfc3221fe27f01b,
d4f9f2dd7fb5aa3fcae0fff1f6fffee9,
1116101bad0c2df8f1eff7dfe5eb0c15,
cff5f6f202e7c3dfdbe0d400d0e9ce14,
08b7d6ae109ed9d21107e7d8baf8a3c6,
2f0bfc0b93a4ffefc7ff19e1f8e3de20,
f8f4f20ed22a2dc917d4f8d3d5d7e3da,
6305f3dea8fb13b3132437efccf5b909,
0c2fe5f1c5d1e40feb1f40f923e90241,
cfbfe5eedb0bf3bac745def206d0ed43,
e5d1e015f2e41fdcca31aed116cd242b,
f507e6f0c51009fe041b25c6eae1f2d9,
af91fc17dd40bb9be441d9ebffd6c20a,
a6e2e516eb549fe3e13dcac4e600cdc5,
ce20d4d1c32eeff3340a24d9b9e3d9e7,
e0e1de370158d3ed325933d24d4213c9,
d020f703fd69ad021b6034b3393dec9f,
efe519e0f12129e030150af51d03e9e1,
20040800f6ddef01fef9e0e41c0ef9fc,
e5f1e70cffe6ffd50c19fbf523030d01,
e711eceb1cfaff0be612222403f908f5,
0705f11910f61d33dae9ec0b2206e7e0,
dcfee5d5d9ded928e7f9cbed2bf110ed,
f3e211f3e7fdd4e41a16d1f309db48e6,
16140d19fc1b27161213faee240af1ea,
d4eafcd604f5f1f12015b8eb07eafa02,
e8e3dceb0cf208fcf31aaeeb14ec272f,
411ff510e4131721070804001950e3e7,
df0de709ef0ceb2efc01f51aef01f4ee,
cbe9ee3500e911fef906eb0e1eb31e11,
f42312f8cfe63a0a13fde80b3e4bf9e1,
c8fe0b24def57f03ec0bde182eede2c0,
1ff0fb090f122a02e007d50523afbfb7,
e4280a0de4e801ea0f0fff0656061fed,
daf00ff4d5f70b1ff014f91137eb00f6,
200610fe14172431d910ec05f217e9d7,
c907ecf200ee0cf0ccfed114cae1d41e,
bff5e1d9081a3aded3f8c9f9b8b9f15b,
bc1125f7fdc6e300e5f7df16c7d32b30,
dde0c4efcbf727e2b1de21f10ce3f9eb,
d2edbc08e00f2deb991c2603eff50dd9,
d7fee8d7b912d1f199e31049f8e6fa18,
def0e51fcf1d32f8a01c020809ee1311,
f916da05cb120cf2a7fa1305f3e61f0c,
c334d2ec9eceea07e900144df2ed0505,
de1eeedbffdaf906260003170407eeff,
de0ebfdb093bfaf0fffbee0ac809e8da,
18e3120ed13c001600eec00aaae2d2f3,
c91cc3da3729def4e4f3eeee13f60df8,
9c15c0e71af7e61823bee0e313f5f301,
c008fe312602004015e0c842d6c8c813,
e5dfc2f22a33cfd827ccfa20d200e2e6,
c70abbf61ffcd7e2f7beeb3ad715b0d6,
ea1f14192011fd06f7fcee51d781d301,
2bee04d2f11cf613fa01dce6faec41ec,
2ecfd8083b29e3daf00b2af042ec13dd,
44fef4073de5c7e4fee207d2fc2ccde4,
46e6d9ffbd1ec4bd0813a8efe71a4101,
1ad09906dff6f4d24bdbeebf0a3c37cd,
27d3c3f2e8d51fee26b933bd0e5942ca,
17cbc6f5dc25f4d630da080deffe3532,
dc09a806dbf114050aaed11a07eb11fc,
2d0cce25d3f5180518c201432c1922db,
f3ec24e5fa0b5aece52ff0e0e3baedfd,
e9df17d74d2f1f18e20409d4f5d9f50c,
000709f8f809f750e81fdf06ecbe0420,
0fd5fcdba6e948efeb3ee42ff2deac0d,
42d0f2f2bc213ae4da34f444dfafca13,
2fe601fb9e4ff826d8002132b898e70e,
080fe9efa746dd1d1c221ec13cff14d4,
0cdfc5dd8b7fea010e0a31ed10f0d9f6,
fc0ee005945d1c020b09181fdcfd06cd,
fd02fffb0c11160e1af1d9ff190404f3,
f7d70021f1fff20bff020c261b35f8ff,
df9dc5be0bd7b314e4d748f6e232e4be,
1ef6f32909190301f3f90ff815ff01dd,
2198cdf9e4bdac1be513741a122ec9d4,
de81f89bd2bb07fe00e82bde0032e8ec,
28c0f720fdddd4fcea0f350f0b31e2f2,
0794e6d404b1e31bec0533e50431cee4,
f4f130e1060428f62015c90603fa2462,
21ecfa11fb07f3fb1900ea10ec18ee07,
f0f90f060e0ede1304e1f5f2fa3a0bde,
eb1800e8c7001a26d00cbf2607a1edc7,
0ff00c06ee1ee508f9041306e83d27e3,
b82219f1e0e1e7fef3dce9e80af521bb,
fc03fedfe5ea0bf4df0d011bf2c31ae4,
00111619eeeddd130f1bf3ecd8e70d07,
e619fe06eeddf5f0be11e507f3cc05e0,
08ede8e5fa2acdda271315d60afd180f,
1be2f60f36d1f50f2f0f1d1dfef5cdf8,
f3ccaecce1d6ecf0ef39d4d9dc1bf519,
dafa3cf7092323d7e4f9e9c2f6084810,
54afe93e0bc4ccd24ce92995f24ed4fa,
f1cae7a4e7b5439ad51a67cbe31de7e2,
ff2a05c113295f01a845381618d72a32,
05ecd60436d7341de7e106d90521c2df,
2c1212f8f5043e09ff0248e60c07deed,
172f02d4fe2df4d7103a4c112ff5382e,
f2e902fd08e70a0cfd02f11b4ac53e0f,
ff0019f3de113318e3e7091a00b1fef0,
17a80fc7c501c4fddbfafb2ce30af017,
52e8ed10df0381ffd3c20ffaa2c9e703,
bbf4fd27bbf7962895e9ea0eb1cd2f5c,
b5b717ede3dfc0071bee0300f5063e5c,
1404e2110b0bc8eae7dde80ca331c71a,
b0e9e622d7eb1be5dae90e0fcfe03634,
d7f110120301d2fd190405f440e6351d,
ee1eebf41abc15181629fc1e1026d4e5,
fcf5170df4d2022afff90535000af502,
1df10810eeebf72c02ec271401210af1,
e4e4f7ee02321eda0f3317f0f9f60859,
e41611f3fbc611e935332c110601ec22,
f112fc1428b811fa2a22ff0a112afeee,
06f700fdeef6e7dce4c933de361dfde4,
f1d4d021e761e0dae1cf08bd15211eeb,
05cf1702e0210cc409f3adb102e01e33,
f10427122b10eef20af2d72e4a9214fd,
f2100b204319d600efebe51810b81815,
1b3a001f23e8ff0ae2d8f7f70ed52330,
0ba9b8e9c82413f1ee0be2fbd647d2ef,
e5edebe1ec1cbe10dc1abce92b36e9d7,
d97f28f92513cd28e213a3cf27e3eae9,
22d419e2d806e328dafd20c4eb0cef1d,
f01cfeb5e1050412fef10ad4dc32e5ee,
ecee06ade4060011f021e0d1f533d4ef,
d9df1cfea7d8dc27f91db40a5ae9eaf5,
cfc0e91defd9d0deb810bbe814e4bde6,
f5fc1102f808f908deeae617e3eec32c,
bae0bc01e3a3bdf1e8feaf2418d7edbc,
c8c185a40bb1f0a10bde03f4d7de07a6,
daf2cafdefb3dbf6ec092b18ed17e2de,
dc17d3edeffcf1f722f505080f023cfb,
f4fcc4230dff17fa0fbdf5f2e922f9f4,
1816e607d8ebe412f402f0f1253b24e8,
02e6e7eedcf8110e11e6ec14cb150dcc,
d1d7e4ddeec7acf6edebbeb9e0e1dcdb,
d2d4f7f4cbe3c3faeee0e6e0d728e4fb,
ddcaf4d3b8d54bdbf913e315d1f606a9,
0181ddc5ceb9f931aaf4dfe3cc10c1a4,
f796e710bee5b01df8fbdaebdf27cd09,
1502d9d4beda97f7dcedf7edaefc17d0,
19ddaed1bcbfebdaeef403fabf47e7fd,
fde7db0eddfee6f9dff604fef52fcbc6,
0000edb108f7f9e6dbe912a0f30204eb,
26e9e7c8fad2f2cb0202e9941c2735da,
61c7dbeafc00c4f7fdebc698151a0edf,
15d5bccfef09dbc9f018f8b5fd2426ed,
11d5ecdc19b999c8f80fd3a1334017d7,
ece917c129b4cc06fbfd02cd0413ffd1,
fbe2efd72be88ef60611fd171b1ff010,
f9fc3ad0251281ed05ede40b1e02ebf8,
db25f1df05ebbbdb25f9bb30fedcef0a,
e100271913111ef7fbeef7050cdef7bf,
12ff690dfbd02221e9f1100622c7d8fb,
e4dd3eff06ccea3be904e50dfd82f2e3,
11f9231107c0050fea120df20dd3dcdd,
16da41322f9bdd0ee816ebf7ff84cbc3,
ada3f92644d7e719e412fbecda8a0dcd,
f0a30ffc29dad9d9f2e013f2dcebe6f2,
c8afec2760d6e5e925fb12eaf1e911d3,
d9142d1f18f3f5ea11dff8b6d3d920d7,
22330823c73a453900e81c23f1e80a44,
0429002cd133033b1fdaf017040a163f,
e7f7e7cb060b211e06f0f2ea011d0ff7,
06faf531ced403edd14606fa1a2bde36,
f150f532ee045229ced92218e8061044,
0636effbe3fa1f48eaa41245fb0b0934,
f915d4ca3ecacb03eb05dd0ef902bbe9,
f72f07ede9e9ed20ca2535060df5fe14,
f233fc51dc22fc2eed032b390b251435,
151cac0bdef0b4b32b0af0f2152b4467,
0622e00cd7120deb0b0ef1fb305135f5,
2824f0dcce0ef3f8e81acc0f151bdbdf,
f309b4fd17e7882ff311f7d0fea726ec,
f32ea5fccedbc4b301140edf331f5250,
fe12d415dff236a10723161d1f7f2b2b,
eac0d4e963f5d457dbd2fa35aee6f6d9,
1ff09e1a04f7f6f4f304f5c8e9ce1327,
ee24b709ff0d0ec5f8fc08d20ef2255b,
e9edfdfc2429cff7f4e71deed029ee3a,
e0f80781c2b41cdba7bbeb0cf0f918ae,
2c0d11e80a161843151318ff18082117,
d71afae54201b92dff0b0e0be60d0af4,
c50607a2e4b0fef0bacbd71adafffeca,
361405081e3c030e062705f2f0f50019,
faf7ecd5e0d299061625fdf71004f905,
c7e2f5b7dab2f605b6a8ab1bdd070c02,
122e04153445091bfcded0c8cdf7070f,
e51904f7c2efe061eafdc9fb0e00fbdd,
0cb9f4ebbc000c3cb908e81114c2de3d,
083508d2e823ebb123023405e4fcfd1b,
e0360401d7eb1623e812cded2014fe06,
08b010eed806202cd91af20c08bfefec,
f8410fd6f24208e90ff31815f50c03f0,
f72f080cd1d0233fd8dedbea15020221,
24c116dae1100bf7edddfb37e69ae202,
f3371be3e43ae7c80c1a2917eb041ef6,
09140522e217eee6b1e33028e615fa10,
ecfce5c232e6f3c6b9e77fefc43b029f,
0d05f892cced0be8d90ce903ea311dc8,
1af20532f9e6f9ecd6e4fb1e352be9fe,
bdfbc0d32bd2c10ca5f338014639d7a8,
f7fff29113ed210de00be52941030400,
42e60445cbcdf2c3e6d54002f154fef5,
c5bba9dc05b1a4faa2e3e1fb3734d5b7,
df00fdbafe0f2803dfbba70d15f42511,
0df6ef1507f5f0b5eb29eededdd425f6,
03d5a0199ca95009980ac2d43d3ae400,
0cb4ea0301040717d807cfee2cf9faf5,
1a0efb1105f9dfd2080e02ebdb0420eb,
ee17b9f0d09c0dff9602dcf91336f00e,
07af0eed2606f6ffeafb0afb10ed0815,
1f1ef3140c08e5fa07fd26ecaae21802,
0910c7ece7923f38a0e7d8f7f3f40523,
23a1e804101201ddfbfeefe615c5ee19,
0ace23fed4bfd111e7f5ea0157b4fcd2,
140e4b2fe9b6feddd5ebd7010888ccfd,
0f05232bf40111fef9fedef01fb1e012,
fd04efe503b71df5c72af9e0f4baefdb,
110be92b08f201ffd30dee1debd10e0c,
0e03111efa2cfc19fffaece51adbf126,
ef0bdadcf0fffd0aea13fded0c032c02,
f6efed0716200c06f01fe81402fe1301,
0afe1211101b0aedf60bd40914001001,
93fbdf47ff1803e00ad9f81e13aa0a99,
9729e240e4fcf546d0fd13bed0164081,
df140af8e4fbdc26d718eae2e543decf,
90302cfaed0c2cbecafb12f9ede81dc6,
aa2a2df60dfa0cf9fa0716e2ed1a21f3,
1bd82a04ff11ef0b200a03fd0e02050d,
e21116d8eb050afdf8ea020d02f41827,
ea0c15e80d05fbde03fbf3ef0a11fd45,
0eed0af70e0eeb010c0ae2ee1419ea21,
f722fff1edfd011f23fd15993709ed37,
2011fe0eea17e8e82c07e18e06e5d91f,
10e6ee2ad1fbe4d21c29b29215f00fd9,
5dede70d1a0105eac3d109e921040fe6,
3efcde0f0f11dee2d6000aef121c12dd,
1308e112250cfe29c819fd431ae70c0e,
f1e2deea0cd8ff0dcf07f81741e915f9,
fc0c1bd0f5fc0500dd1d1c432211080a,
0f05efd910e21906ca260a4c2ef9e00b,
2fe9c624f5fbe311c02cbb0781149cce,
0320bf1414c5c34dbf47c1cbb120939f,
f22aa5dce4f2d729c62eb4e7e82c9d9f,
121625d6f2e31605edf710fcbd3d202a,
28e837e409d2f019ecfd3a20dc3f2ae3,
0af81fe005d2f1efe520fc2d17f51f04,
1601241c01151bf51c241cff29de2d13,
1de143ff01ff0af12019f1032ee03228,
19e6fd0e2aff0f001321020bf7dc0d50,
efe1fa2ed129addf2bf4fbfe06021e45,
d4d7f0c6d1e39ccccceb28fa0409f2d9,
25d30927fdfbd915f404f8f63ed9130f,
d30639f9de0aacf10f092438f918ee13,
d4c6f39836ebb822c4184307f002f9d0,
070ef00e00efed2f0601ee1c1ff0fa12,
eff74422060ca4f3fdfcfcf103fffa0b,
e8d4e2d61204de25d11be3def30108eb,
230c0006cf1119140117070a01ff0623,
230ae0f30f10dc0d33f1fbf6fc03dcd8,
e9f908f8cff422d30af5f13ae901e6c3,
145b23070def0115dfd51eae14150cdb,
fbc4f8fadc1110dc1e15e129eaf6deea,
e5f203d1eed325a9e4140618f81f46f7,
e7320ff535e9e5e412ddfbd62b0f0eef,
0581f8cfe70401f7ed0ee12ed4f8c1e5,
efe7eee1f5eafae6f816eef90834210a,
f9d9f2f003f1dced1701cee7371de6dd,
fd040502da16ff11fcf411ff24070f06,
07f515fef607100f07f70f09fe0809f9,
09090af911fb16130b11040930071322,
f5f630ff22db0ae81c10f9b319e3c4c5,
00f31a01f0dc07d610dceeacf9d7d6d7,
f6d725def5f3dfd117fcb39f19d7dcdd,
ff151bed16010413d1de0a221bce24f9,
0ffb23fcfd15f00500f615190c00ee01,
041110e5061ef034baf61d1c0103e1f9,
e716130503fed4fa04fc030729e41c1e,
0b200f060e04d7fe090004011d070e09,
0a2a24f10b1de00305010cea1c0000fa,
11bad3f8b00b81cbfa29c1f3b71cb1c3,
09d7d008d402a8e4012db8e4cb15a9b8,
29d9cd03be28ddec0e27aefed023919d,
f9120403f1e82ef50f0809fed60efa16,
1211fb07f7eef60b081cfc0b02100604,
080707e80bf1fd1ff8fbf9090d001806,
35f72c240b5017fdf8bb31e50d0be821,
18283212234325e007e64bf9211ffc2a,
eb1f0d16170b35f4ec0e5cf943041615,
21f90141fc09b2db03fcd6972bf91ee7,
38dcee45f251eeb600e3f5812e07f91e,
280fdffafa3ad7e5f8bb15bc4e05040a,
fd0804153de0ae10da18df130515fcef,
19230d0c00e0b8d5f9edadd108161be5,
2c02f40b2806b513eee1b3c725ff27ec,
e0ee0a2bee0800e906feef1313ed0822,
e704e0e30723d7da1f37ed1c2d05ff03,
170eeedbec22fdd60d33e50d0e31f1f8,
22ec1eee27fff7dfc2ededa2afd2caf3,
4fcb1cd800048fc8f70ed8b506c7ca1b,
23cd26cee9fbd6d003f9d6b33604f4fb,
f100f0034a1b1a06f2d1cbdf9dfee4e7,
1ec2f70748e0ef0006de030b8daeb213,
3ed819df20e30dd8d0d6f4faf4e0d33c,
102704bb18f108c9ede1e9f9f422f7da,
f2e2bdcd09210fbfdbedd7fa16ff2eeb,
f51cf329f7edeb1b0d01f0f012f90f0a,
053214121214eee6f7d9e2050f20d5fa,
c506d08110102882e6d8e417fbfc1ee8,
fd20f913eb2206f3f4e9fcf403e60dff,
0810262e0509f70bebe114e90312efff,
d62df5cf00e9c9a1ecefe527160aeee6,
cff804e70ffa0ed8f0d5e8020beb0d08,
04f6f8eec5012019ef0402e611d6d000,
09cae5fceffd10c2e4ebefc201120033,
1e210a021209ecf2fe01f7edfb2be2ec,
eb210406f403de10090810eef1fdfdfc,
0eb60006cbed1bffb10bf6cb15e2d52a,
09eafb02da14f4e1f707ebbc252b1209,
ff4a0915f827ebe62f12edf1d01514f8,
f412100ff1f50e31e3ff11f6fcfec4d4,
f8ee0a04e8ea0afed008cfb903f7fd16,
07dd4cf4e53defddcf36ebd927fe8121,
ead9fefbfe31d09ec277b6dc0a01964e,
f412d036f6f6f719f300fbdef4f5f60c,
1dd40e19eb2edffee6091bfe172fc117,
e6e0e1e12134d8bdc10204fdc42ccd1e,
010617e7dbe7f1e1e1be0913ebf913b9,
190afa13160ff208e9fe27f91834e605,
e1f4f0e71c08d41fdef717e2f80ff503,
111336eddac7fde1f6e5e7ecf6f316e4,
c9edf1f4150eb9dbef010a17c62ef3ef,
f4f4e0ec181cbb18f2020dcd09e610de,
f5cfe81af514edf0080f1fd5ea02230a,
f6f319f117f7c7fae6043007da0f0108,
d90e0c3103fcea3bd70ffe101903091b,
0ecff337c61604f503edf1f503dcfc2b,
e6ed1f0a18f7250af60ffaf4df1e0207,
f5190f24e8e41e00dff7c3e124160523,
29e1170fd22807e209e6daf4fef4f7e2,
14ecd7f30024f4e0d3f0310103f007c5,
41eecc18d6d9f518ee0921d84af104bb,
20e7eb1dd0dce6230afee8b13ff009f5,
3ccdc00ddf0d8f06a2dcf2d51bf9f5b1,
36d2da07bda7def303b8dfa51627da94,
28121c02ebcc50eef8bde91202fc0012,
0edeedf80bd8e538d3f4d009401dd7f4,
2925f501e4cc08f921e5ae29e81ed8f0,
39420c06f90244e8f6eb044cedee0a4a,
ef0a10f2c8e5f1dc09f02bfd7f342d00,
116123ecffe4d8f3e8ef1ec932d80fcc,
f22c250ef519ebfdfafd12d60c9edfd4,
092a29f6d6a9efc4f6bc28b04cd22e3d,
0c0cf41e22dcf9d6e8f4e0d21b9de5d1,
d9e3de14fcfd0610261d0d0eefdd20f3,
01fc03dd13d01dcbd6f3c2fb0e11055b,
0add172c09ea24d6fb2cd8f523d80802,
f9e8e706f3270801350508eee2ed2d01,
29070319d0d616dedb15f1ef050e2cb6,
22240c3a0fecec320c0627c4060e16fe,
21ebe4fa0be7f512111c09bf2107f403,
03f9efc001fa0ecb061bb33ef936dff6,
f617014101fd3a05d7fcf2f1f10735ec,
261cfd3e1f0903162ced08edf2e3ed1f,
0d0bf6d6347ff71deaf6e833f1ecd619,
f8ea02c80ddbecdcc6f3d70e120e060c,
0a0be6243b330f0cee0e08f9edf515e5,
24d4083de1e1ccd12308e0f6f6bae7df,
d62dffdadcf7b9b420083c0ece1511bc,
193b0ff9faf7f5f90930db2bd7dc0bcb,
0bb50848e40619260426e22027cde505,
ecf9f113cff7b9b73eff32f8d8f61ef1,
e039dcfc0216f3f63610071ee0142aee,
f9e20e1f130507690efaec184816e63e,
27dc0c42d30714df24eb05f1efbaf2e6,
d71a03ebfc13cecf42081feb0ef138e6,
0ef71b260031160f06f8f9e505f91b2e,
fa0421e9dafbba2420ec00edfb0afaf0,
fd020195edf332d7aeef15dbe2230ddf,
24060e310c2404f803f1eaef0cde2020,
fe061c08dff3ae0717e6f608f407f30b,
f200f48103f00df0b3e621ddec1e0dcf,
231111160b271e161402f2ed03ef1722,
ee0b040ae9f6adfa0e09e41e110adef9,
e803eca906eb061597dbf6fa0ff11dd4,
0510121df312f2021802f7e9f0f508ff,
ef06f4ffca1b0e1cf00ae0faf4d4f9e5,
fcd6fadbc0e41bb5f8e91415fe2f041d,
10112219ec140a0e1a0503eff1fcf804,
f917f60ddc18f708fffdeefdeae8dde9,
eeb5f2dde0eb1bcef1fd1220f40a142d,
f9152515eb1f00ff182909faffffeaf7,
f3340912dc0fe80afd0ed8f3f5fad9e5,
f6dde9f1cece09cbe4ffe324f4f718f6,
ea4018efebecdfff1a0d0412f11f2420,
f01201e90a15fc021ee9080ed80c47dd,
e7fe06222635dd3c02131c22d912f8ea,
031e0239b7e7080418f0f7d418d20407,
035ff121dceaa9ff40d4f5f0f3f911eb,
d904df5b2dfcf91f3317fae3d3141711,
3809cb30e8d759fa1d24f9bbf894d321,
05521d55e2f0dadfffc6f1b3e2bbde15,
fa1bdd1e40e7cde9230314e300ffdb12,
030fb6eef7e0141d2a191f32e7f8eed6,
d7e0dad3fdd732fb042d233beaf0e42a,
d9ce07b701df35e202f9d71823f3fc3e,
edef8140daefcf1b3c00fe07ffe6ecda,
e1a7be1501e2e419fc461e14e1d8aee5,
ef8be3e8ffe120dcd506d8df12ce0b3c,
043da1ffc9f8cb1319f5f907f7f003ba,
fc29caf3f4f5c6444d441335ef15b2c6,
10c5000d1ae6ec3a0e36ec11e70ec513,
3e1cea03151ca4f4d319f50110ed04cd,
fb11f3dcfb04cc1dc5fe14e6e40713cd,
00051cdc1b1e0313d01029fdc31603e3,
f10ae9e154219b04d109f8f8e0f229ed,
f61cd5c538ffb621dc001d10f3f71ee1,
fe27e1d71d1eb63ec4f51c13f30c1ae4,
0d0a360941dfb6edede6f4ed25e8dde7,
f1164c023fc4baf4113b17fd33e800fb,
d61042ec46f0f0eb1b2d25f315fff2fa,
2a0b290e02cb3d22fee4d9244ee9150e,
0af533f408d544e905dcca2645ed2e46,
eed81d01fcc515d608b4b4200efd1237,
220320b8f2c2e52a0fb6daf14808253a,
16d705e1f0bc2fe1f0bbe4061524375b,
f6be114ee9ca3fd0ec96e40ce1fa431a,
f9c3294feb49a6f50030d6d619f3fd2c,
f6da7f50d543b6cada26abdb100a0fd8,
d5f22420e93108ead60b95dfcbf845b9,
fbf21ce8fd17101ceaf60d1a02040d1d,
02d21000ebf1270ee4fcff13ff020938,
22c2e0e3fed2f4f70ff915ab0b0026ff,
21ce0c14c3ecf20a0bea0fba1aecfdde,
05b20e3dc7c111f001b610810d17d78a,
e1dbf82be1e01601ddda07d41703cd90,
2601e62c22e43105d3eeffb80311cfe3,
1716d72216fcf90ce8ef03161bef0eee,
093bd3fc1322f321e6f3f8454902f605,
02df13fb1cf315fb0515ed1124082735,
d3172300221bea04ff0c01f121f12404,
f205f82509f70d251716dcde19aff1e8,
04cae03ddf09e20819fcf6e006d5f9df,
e401c148d2ecd327040706dae219c3af,
ae2fb50fe6eeff1eef0b030deb29e5cd,
06ebd603d5fafc00dced37f38e2acfec,
da1cf008f70afcdbdcf530f0c10a0fe4,
d8c11513f9effac6f40de70216c11310,
e918fff7eff4fed606160bdd0d10ef06,
f01c0106fe1f11e9f9150fe50019f712,
072cd8150f17052303012e030304f32e,
fbfcf708e2180deed4eace121cdbf8ec,
b6ec1cebe32bfb8af8119feb0edf0033,
cd05f6ecee0de1810f47bfdd0304161f,
17030e0cf3e4fb19f1192bf829040f0a,
e7f3ef0bff04fa0ef9f815181d160e07,
c1ca14ec00fee5c9e1e0c4f80102ee00,
ffd11800e2e5d6fae62805e3c6cebc03,
13d416e1e510aee7fe1bdae309cde710,
f1100ec7f902cce10208fd010c0f3819,
ec01f702ef04200a0b21fc09e110f20e,
efb711daeaf7df0adf3af30cd627b2d9,
19b216d9cc0bb8faec43fae005c49fe0,
f3311607ee09fffe1109ff0211f72906,
ec3619f2f6fbfe05100df5fb0df61f05,
031c120dfdf80e2e1725fd31e902f703,
ee0325ea017a2ab7f9efd40cea20d174,
d7cc189a0352e3bffc19d057ef1fbe67,
09f7daefe9f3ebd4d50f58030028c617,
fbf5f94dcf38d203fdf2ef1ff9161f19,
c79bc4d6f261d6a9f4c510450eeee91c,
28b3ada11c35ddbae2f35647e62aa065,
f1161430c713dc1d29e40ffef625ee22,
08e8ea15ce0be0e50ec9512215faf119,
02c2c8fb402dcbe91ae21644093cc325,
0bbe0bcbf2eaf3e8dc232117f725db21,
e1be1df2f62112f6f3fe02d719d5f731,
0cfbe3501e37f8d822d406e9fd8a4212,
1b0006ff00fa05e32b06082b04bb1210,
f2e227113a060be8d4f5400109dcf30e,
fa7f2006141a3727a1bf59f6d5dffde0,
1f03f44214f6e00120290231e8ca19f4,
2f411f2e02f8e902d8243fe7e3d60ed7,
106a10391f290915c01e32e7de16fc34,
f9f1dbe03111f5fbff0f131a06bcf704,
faf2061317eb091a0c0e132dfaffee12,
fd04151708d1141808fc12f809f70a09,
c2d19ec2232736cdf824e6f90cc57ff1,
f711d21ef813ffe70f14fd2af1ccfd1c,
14200431eee90a251d0908180bdc0012,
c7eff5e7111011d21c06d7f222f82ac1,
c2dfcf02ff352bc7fb04c3edf7e6580a,
061ee921f7d608fa260fd2feebe53afa,
f3e2fb04fdf5eee7f2f4f40223f4df23,
0b1b250e0e05f4f7f0f0fbf51b00fe18,
09040601ecf3ede7f803e2f8060dfeeb,
02bb11c8e5f94bfec6fc17eb26cda10c,
f5d516dff11bcfe3d50df3de44fdf416,
f50110f1fb08f0f50bf6e8e209060afb,
f70c0cdb0e191a25092328e31505dfeb,
12e509e2e6f21e29cc23f2e74fecbeef,
29f609e4f5faededd31db3e346fac2d8,
beb4d3e305fefcbb81f51afb5fd22afd,
c108c7252832b3c7d0cef509efcc27d8,
fffdc33c0b05dbaaebd7fa0deef4f4e1,
bfe1abf10f0c0ec3a20afaf150e90cd7,
ade4ab1e395ee6b3d0e9d9e6f2c223de,
00fbc24f2436f2c707e2faeabbe9e7df,
ddfbeee61bf814c81a25dc183fee0bdb,
c1c8c6ed6c1c06cd37f4f2fffcce0ab4,
2fe6ee033f28d2e945010706ecd2f6b7,
9ae700d711fdf4edeed463e9050af903,
c14de3db15d7b452ce3316f1420606ba,
c209eaedf4eee115e45a0fee17effdbe,
c0e9ecaee2df3bacdfcc34effd050a15,
e816e5af42fbc3f7cdd9daee100627e9,
0f1fdae21808da240214f4d81deb1cd8,
43c6ced5aab4f2a1b4fbdafaecef121e,
1505b3f421f4c2c0ccf8e0b6102a6b10,
390be20e15e4cd20dd29cbc2fa0236ca,
fa11061216050ffae102021c06ffe9eb,
dc310802f90e0efdbc19ec0601f9e8f2,
0213f7fd121e1a32faeeec0b0af321f3,
cf140b132b29fc04c40d23e8fde5e901,
a0360821f119f8cd81221af0f7f3d80c,
e918020016322113bfff0b130cdf120e,
030c2bf4021c2227e4181e1104fa161f,
e4200708dc1b07e48703200e32242026,
f31e1006fd2401dec101fc0bfef70204,
1715171b261d1b19caf80bcd13dbfa06,
f400ffecfb17fffed324c1da1ee2fef9,
1115020717020bfb0b16f50607fbe02f,
f2cdd90816fcfc17f6fe24cd0a11011e,
d6a9b4d3fa1ce805ed16cec50403130c,
0aece22110f7030c0500d0ee0afaeb31,
03f7f52d17051527f2051bc8f5e7f3fa,
f4c8ce050a461f1bed09fadae20efcee,
25cdf80a12132a0e030af6f600e4e5ef,
e10ed50401e9d0e34c1d03f52114c124,
f30ad4e042e0f313373310341043dcf4,
0313f8e716f60406fefff90504fdc5f0,
f411eefb0e00c70b09e5d5eefdfbbffd,
da02e3ff1ed9c8242c020d524248e108,
0a0bf81ef4f2c2192fdd15170ff4030e,
fa182a0f2803cd1fee0ccdf5f309ede6,
dbbc9e2139c7b30cd001ff1b4c481cc3,
17f9d92321dfb4e71e00063f434d28cd,
ebe42ae814dfebeae20d1f05eb902ed3,
12df3906f2d4c2e2c33517f1018136da,
281b13ffdb041807f9eaf02a0ea80fd6,
f42afe1bcbd90ff8dcd7fc371acd14ee,
0303dce3cde0d0dffc17fa21eb8f23a1,
04e1ffd2ee06db0103d80f0aaebb13d9,
194ff30ebfef05eafbebfa251ef72cdf,
5565053bbed3e0a1f53c0b3d3fb6e28d,
3bff24cdd823f0fc151bdd21f0ad0daa,
06131a0acafd290ff016fe18fc07f708,
f8fa1af8d3f90e221b360eecf7f8f422,
04d2bfd2dbcbebebe30f13f8f6f8f6cd,
fdedf3c9fffd1f121c43ffd436f209ec,
0fe7c4aa09d9fe0b1306f8d21bcaf6ea,
15edcfa835f2c8d22cdf0608eff831c6,
340c03e109eafbdf1e0af1fde1cc09df,
18efcedb33ffedb20f1cfdfedcd019dc,
06f504de3cfdf4ffff0f030207e326ed,
e57ffa13de17270d02ea122305f4f2ff,
064908e9fefae4f521ef092fd0eefcf2,
3323e4e500deefe8ebf7fd17c504e007,
1ee1e9fa030cd9fd1eb81bce0ed8eb09,
2b96d6a60eddb4baf8cad6afe5cff302,
36afb3ab0515df06d50be9d719eff709,
12d615f2cc1adb0dfb0c0bccf51142f6,
16ccefd9fb07d7e7fd40f1c8ee1906f8,
e3d9d9dd0e35090f0f1ef802ff2d1cf9,
061dedfa36edc61cfc120d1716f8f8df,
f20712e81af4093d2d14090d0c08e731,
e7dfdde83cddf20b3b262c111713e702,
17ec0cf11ce42904191edbf714f504ee,
d1c80ee919ede40bf928d2d8f618d222,
d2d3f1d519c9eccff518e20af30e02d7,
eef711df0026fef5ee0005f4fbcf30fb,
dddb29e7e71d00fd00f3e1cdfdf01f1b,
f00108dc0810f3f3f4e1e8f0ded01fe6,
d11025f554dfef2d242301dbaed7e4c9,
f04b203c48d1bee2211ab208af81ddbb,
0463216e06e5dbf1f71cad1edb82fbe9,
04eb28f01126ec21152bffdbef0ff8ef,
46e81f05041cfdf30816b3eafaf3e6c5,
242d3d261830461ab20daa24f906fee2,
dafe0aedf826f33c13df04f2fe23f631,
fa04f307f21804283dde04df01f41902,
d2dfcae1d325092ccd02ea0b00151e13,
912c2bfbd20afc04f5fddf0f050acb4a,
bc12fe1bf71b08272ecfe514e905d947,
00e6fd17fcf320020108f4141bf215f6,
b32013f2fb2700f9d8ee15dffe17cdfb,
a52c3d1c1f45101932cf1d4f2e31ec24,
29fb4826231916e901d62e3017f93856,
fe03e3d9ee151cf3a3ecf40fbdf9f7eb,
aeefd230012c2f20cd120bfb3a280fcc,
0cc3c916f60f1615e0dc1c1930022dce,
d4d5bef9e614044820da33e80c16e614,
38c4cc16d2eae001b5d514ab0d101702,
0701f225cbd8eb13d8f4e8b711df1bf3,
00f7af0dc22c214403dd0621d7def5f6,
33f2bd02a070e7fe81e20de7c9be5908,
1edcf832b10bd213f81a18c93dee2030,
0017f91721c013e321defd482008c4e7,
326ae922270731d4e5beee39c91e0101,
f411f8120e0bf812c3ed0fc8e1f1dc10,
11ebfdf309eafcfd18f90eeffcf70602,
fff615f909fdf2f7f20f230a06fb0301,
10f10cf8f1f403fd0efefc03fcfafb03,
feebf6f3080df00200ede6dc03f915ce,
fdf20ff2100de6f6e9040efb08ff0aef,
0de2fef20d0ef4e6f8ecf30f08f81603,
f405faf3f71514fc1c020002fd010701,
ef180ef6ff080600f708190a00fafafc,
020302fffd0703090efd0501f2f9f2fa,
fbf915141c0006f2100e001b08db07ea,
030910150604f02efe0bfbeb03f7fef2,
03ff010afe12f805100dfd0a0be803f2,
06f002ece1fffef801dc0602176d04f9,
0a0a07f5da07e92003e901f3f939fbf8,
0307ed03ccfaf3fa00f005fd0d7ff60b,
111bfd0909fcf9eaf304fb0cfee8fff6,
0b0cff081704fc29fd07ff00f702effc,
05110bf40d04e504fb01f40001fafb07,
dbd7efd8eae714ffc327ebcf122dffc6,
da2702e647c0ff022cc0110b441912b0,
b400066a2306df1ceff928012043b317,
0ac5bdd803e60c4ad149d8d136eb09f4,
394f08d3fcdfb22b4fd81b02fde9ced1,
d40131bef8e5ef08ebd643f5da1da752,
f6eecfc5ddf3e0fb1ed6f6eafce6f7ea,
333812da27fea4133ff7dcf902fbff26,
13ec23d81e1cfa20edfb1016044c0033,
0d1b26f24f1b1fafe4c0c1f70b23f920,
cb16c2692b0e4ad9b1e07f0ed74fe26f,
b217154b81320ee06db15a2dfa1b0614,
0fc4fb9d39bbcfdb031dce08550df733,
fadeae82edcbb502812c0cbdd1a4d2f9,
d7f14023b624000607e53f248aade688,
3ce427eb00e1fdfcdc54ffe934f01af9,
f7f8e0c1eb1003f6c35e04cdf5e91897,
b52705150b4ffe341c0ff807bcfa06e6,
f9f907fc10de68173b1a42f8f9f1e643,
f61607e0f1f637d0f804f3d8f5cfd01e,
cdffe7eb2021ff09e915fcede3ffd918,
e7ecf40301dd150b78fc35e7f519ee11,
d02004efe800f73c36f217e612f2e81c,
bd0bfae403110af50f1ddd00e6cc0627,
23defafbe0f815d95ff5ff08edf302f1,
20f1dcdcf103f71c22ed03e3fee609f0,
140fe100fc08ddf515070ce8f5ef1004,
09362d7fcaf3c4dadff4c9031083f90a,
f3dec728be08e6e6faec08fa381eee0f,
1ad3fbe3e4f025fa0bdc02f10e470e06,
1ffa3e53e229f3d9e61ce3020ecb02e5,
edfaa31daceeffeee6d8ebf52cf2d706,
f4c48ecabcfc2919f7e0fd00263d063f,
e210400d1107f3da111bf124e91ce301,
0911d118f8e701e60201e813fff4dcfb,
0becd5d3db24230b01e2e511020cfa0d,
ed18063616dcebff0cf21ff60b13fa02,
f72af75d03ebdd491c08063d205adbf7,
f67f29f3d108e3210402d3080af4d155,
24fd09121c09fe2e0e0013dc0f36ec06,
03f6be2406183b04221f28e12d2ddccf,
f16602deff0e19f6591919efe8f8cd1c,
b3c603c8014a1b21d807a0c82ad5e5d5,
eaed9df0153346f8391ef0c10fd701be,
0829d8eb1df712194119edef9ed004d6,
f1f5e11302f300ef160b21eae2fce703,
fdf8c8ebdd360e06f1050cecfbf5f1e8,
e108e0e58c48eae2fed5d32cd704f3e6,
32b0dcd80de4ebde160b0bdecff6efb6,
0ea038b700e2c1e5ef0dfbcef5acbfba,
f2c22eaaf0e3d6dede21a0f4cda6b1e1,
b4b1fb9830ca3ace20f1edcc15f9d406,
e8b65ec353b5c5e30526f8c31fe3a205,
fbe414d11818f60c00ea0511eef2c804,
05fefce510ffff20100df2fcf7fc0808,
51f0acba26fe010954fdf31011ee3f01,
f3151e03fa1410173001cc1607dbeb18,
f9020deef001fd252601f3eb080bed10,
120efbdcf0031a173ce10108faf50327,
0dfc0ff409170af81d0d0409f0ea0a12,
e9fbf8fbf9fd101206ead0d31f0ffd02,
fc2617f41a18fa3e4cdcfdf3f4e00d3e,
fde9ff0af512f102bd0b05f3e2f7140b,
0a1a1221fe070bff090af4e602e714e1,
f002fffdf9ebeffac90ee59ef0044435,
cdf3e7e7e8eae5ffc8fd17d2edfcf315,
0be91b12f3f80c22f6defcbd14ff1e00,
f0c702c0d6ebea04bafcd88109da37f1,
e5fcfc03f9fde700e2f8d7ceecf4f306,
fbcf13f8fdf1ed08e3ea0fe0240410f8,
eebce1e8fdeeddfad93904d50900f4eb,
0200f1110ef6fa0218e4f6f7e604f40e,
fefb2f4ae5e5e7ed36fa96e13d21f332,
f4f0e63202e5f0ed32e4dab43c053e15,
180bff27aac1bd01fadeecec15d80fc7,
2ee5e6e031d9dd5dddc54abf3b4a42ef,
b4e59b0d03f3d3ed9d8e7fec232021ac,
e21c020ae0c407edbddd3c264764e1c5,
ceebada60621101c079e59ece04cf5c3,
da00b2b03b55b6e3da8b460bf81707d5,
08360ae418041ef1b0f21229c3edda09,
bb25d70d1e4cdcf44f31202f180ff30c,
a8b8c8fe133cfc4ef61ee6f11e4f190c,
d10538041021d12cd2eef61ce5d746eb,
2dcfc40d59ae9ddf62e82a0ef204de17,
58988607f994d90c45c91ddf1807ca15,
3b0c1046e5fcfb02d6ce092de6c81bbc,
3c0ccd1bdf8df2fa20a20013d124ecd8,
64e8a1c5e7bbeddf3af0ff3eda0feec0,
113fd1eef9c1ecc30cbedc27d127ede3,
c8162008e2df030cf90df62bf322d80e,
def706ec0edb18eb0400d5070d07df35,
07dfecfef41af9dae002051be8e7f4f4,
fef0f90b16daf5fcfb10e10a0728e303,
c802e2ed4b0136f11cd417172118d4f0,
e92422001b2de75010d51d1f17fafeee,
09eafaf905e70cf3ffdfe9f6f5f20807,
1707d9ef1df721f227cecd21faf016e5,
0ffb01e3ee0421f5f2ebdbf11ee0130e,
07f8f308eb2b131311fe501ccc25ffe6,
f1f0ef1ee32412db0a030303060827e7,
e705cdf1f5d605e0fd07d00127f10b2d,
0900d30af2d10bd927effc053a2bfd05,
d1cc357f1bf22405e5f469fd4c1a0427,
edcd270cf150f2030ae4553adcbc0ff9,
f3e7031018f5f8f3170315fd03200e12,
d1f4e9fa33000903f430e9f60f070419,
d8f2d9e5fc3ae30fd3f919ddd00b07fb,
fdf214c70210d6e7e60b0400fcd40215,
0cd3f1862d1ddde2effa3bdcfabaeedf,
dadf06e71a14dd0f03081ef10cdae5d2,
0aef04d9f009ef0f0c0f0a1512e7e0eb,
d8f1e8891019d0d7f4ce37e5c4a4b0c8,
cbe40ae50610e10ffcfe411bf3edf8df,
ebeefef7f727fff706ef002309dbefe8,
c3eafec6243ff7f501dc30fdf2c108db,
e0ecff200c330d09f0f417f6eaf511f3,
0bd3f7e1f6f205f9211df7f0f6f0fbe9,
49dada03fdf1e7d70cedede2e207efe5,
0902e0fad8eb0311fffbfcfc0df9f8ef,
29d50bf0f800f2fd150209fbeef5f3b5,
7fd0dad8dbe5b7df09bee7f2eaf4f19f,
30f4daf8d608f3fef9f5f4f5d8fafab3,
09fc0fe1f7f7efffecef0bf1f21fff06,
45dffaefe9e2fcfc06d5f5fe09fd15f4,
1900f8e0e8fb060503e9f119f20e0800,
13d800ec17f81f0d3807ffd2fa0112f3,
ed2a0ef604f6ef160a1a160d2218fc23,
f5eb06f6e706fef627040fef00f4fd2a,
20ebfdee1ff2ec0a0bf3eddff30a03e7,
101cd90009e0f503de0bf4fe1417e3f3,
f4ea010304eed3f80305f9062022ec2a,
0beefcea11f1efede5d7edeee3e9efe8,
fc0ebf0507f5f8fffcfdd6da0207fbd5,
f32803e30eebcff603e7faf605fbf004,
ec18495331c8cdd3ff08fccc24daf6c3,
dc3bf7d0f9ddf4d85c0bf821d905f3d7,
d110e5eff8e5150afaf0c70707390b17,
0d2320141ed0e7ebf6f7ee0e14e2dfe4,
443229e4e7dcd9c60b070f43ebe6dec9,
16f1e6d1f511f8f47f16f843ef170e08,
0c1bf41401f301f80cfbfb0ff4fbf6fd,
1d0a12d4fa02fad1d215f629e90fdf00,
03cefdc0db2801df302d2a59fb1ae7f8,
06ede1f50213dcee9ffad3feeced1819,
1ccfbae522faad0af100d32afc0b26f7,
0715170540f5c6331120e04021170ad6,
cf2017f31009b015c8e2ebfbe8d3ce1b,
0beceed30def8114edeaaa3318f11ef8,
39010acf16e8f5fbb0fae02f1b0412f0,
f5280fd90e00f508cf08032a410bfb31,
0dc1eccb260cdcd8d70bbcdc2c000304,
1dd7bbc03af5e10cc6e6d1fb3df428e9,
2df5aacc02d1fbf8271d012af21ee624,
07cacde5230d14ea3c2c0d11eb17f520,
e01303e4213b09200c031b27d0fc0601,
1ae3f0b4044e082600103340c2e8142a,
01c9df882e4f07f51c44fb32c6ecf6fa,
043ee4ff2341fef21ff0f542f510d9ec,
fc06dad62d1b070b06052f2ae90de7ff,
f4fbd0c412fdfd0607f4fb0129f5d1d8,
041d07131cf100e603edfc302a04d5e0,
2ce5e4e814e7d2fb3de6e7e2f7fa2206,
2711f6f10cd3e7232a0509fd231a21f7,
e4fae3fafbe92008f027ebf1360f0b00,
4cff03f1d9ebb8f523dc1402e8f20c05,
200af9fdebf1a4edd7ec1d2cd4f6f4f1,
daf3dcfe090f09dce318f80603f0f80d,
230f1aeaf3f5faedfcdf1114f710f41c,
062eff1308eedd06f710211ff504fe06,
080cfc11fff0ecf4d417f116ffe6f419,
e7ef07c30c22ff01101e0d13e1f40108,
e3d517d816f2e2efef02e505c1cefce9,
00f3ddf80efbe6e0010cd8dbfff4f0d8,
f2f9f3b3e335ed0b0412ea03819b18cc,
f8e9c1bfd8ebf3c4c810d9f6c2a515b3,
08f7f31001d82adceb231deb3216f9fd,
05021b1df12b351612070207c20f21de,
12070108e91f25f908132123f7fa3bde,
230ff916f2e40adee931320118f2111f,
e2040becfafae8fcf304f72e03f2fbf4,
ea12feeb1eeb03fa03f6e20002e7ebfc,
f6fd13e50ded0a1d0211e8f602ebf91b,
0007f9e21af002ed080e251716eefe0e,
f832f3e057f4f8c108d2e6e3f1d4e433,
e3110cd22beffd03e6e8e6d5f6c0f416,
f205f9ead5eaf0eb0cef2afa12e1faf3,
f7f3eae806e50fd00bfe2fce7fedfa33,
0611f0e8f8d8eed8e9f31ee937e7fc1b,
ec09f0000e0c02f705fafc13f9edf60a,
ef1d05040cee0a07f6010c1d37ec0dfe,
d609ea0512f328ff1502f00afd0313fa,
07fe0c1a1210050c11e6f3f6dbe907f5,
f0f004fef6f41108dc1cebfc48fd3311,
f7030f000cf31c1a010a18071f0dfd0d,
0fedfffdfff1f8ea1d0000fcf61315f9,
d8f4fe00f40311f8012400e5f3fe35fc,
f4fa1301fe021f01f7fffd1ff4000ffb,
1ceaecfa283de4f5fcf0d7f3251335ea,
22f1d9ff0210ec0212ffd5e620152d09,
ebefedee391cd2f6f1eef406280e1cec,
0d010de65a68fff51bf9e1102cf2ee16,
e7e709fe4645fceffb04b3de10e7e8ff,
d212fac87f67e8f832fad1f721c9f1e1,
0ed9fffaf81cf7f213f3de063dd11c26,
08e300040c1502f211ffe4fb0cc1240d,
16ccd9fc1717f2efe2f8d4db30bf130f,
d5e501ead3f0ebfcf6030c16f8fbfdd7,
d308def7cdfe13f61903181c011101ee,
cedd041ad2fa11110df03516fbf910e5,
fb0e1103cde5ee01edd21428d30728f1,
f213dbfbdcc0090825c0042b17280000,
e5de09de08e21518fad61e38e30719f8,
edfb3403f7eef5eb04e407e1e6ff321a,
ea022211f7d716ff1bdc1b1e00f11d15,
fa0513071002120a3be10a34f9072717,
e6130cd4111af7f020ecfaeef0d9ce0d,
e83522db0316e71c03effe00e8ebc51b,
0a101108f9f4000809f21009f703ef1b,
e1050ee7f9f9cfe8daf6f4f600ebc01d,
e7250fcbf101a6da04f9f2d828f19e2e,
e7f812d6e6e9c8fd3206180c1e09e310,
e7c8e8ddd5f1f7d2e2effce41315e704,
e3e1e4c1c0e8040b34e6ffe17f1be31e,
06d5fcbebcddfbf40ccf270b12110321,
f00102dc25ff13f6171e001d09f507f5,
e9efffe02804200f0b0cfc0bd5d9f4f4,
f80e0425ea05040eeef1bc17eedd0ef8,
fc1e0019f2f2321022140b3fefc9fefc,
0ceaecd7d9230c0915061628c9d7f5c8,
dfca160de7dfff25e9eed904bccf21c0,
26e8ed0ef2103bd6f5f70c23e3fbe7ed,
f4b9d7f70dfefc070dec061bcf1bd7e1,
ebc4ec00f6cd0912ffc7e3eadef92ddf,
13e0e513290cdf15f8eef02703d33dfe,
03e6f43e2012f5fde8feff03fcd106fe,
e5f6df2ed8fff7f1cc220c05fe2dd428,
1cfff6f4482bfacee451e25819c52ef7,
0c06e2140f681d61154c19f557b4f3f3,
f90dea1993eadb7ff6ca2ff221f1e428,
d8d9eb45f923e21dfe45f1322ad4cd22,
14ddce09df2c192cf021000529eecdf6,
fcefa8bcede6c839e5cf1903f1fd04fa,
dae7240deb1722fbfa29d6eafddb28e4,
e1f4332ce51126cb0822421842dc1f0a,
0b07edee0310f00009001802240110e7,
0f193001f32b520df015e0ed3c154504,
ef035a05095b34de1f2321082ff10b19,
e80ee803d9281ce727100c0a0ffb06ee,
f6efe90400eb15080ceee8f4300e1023,
d8f109fffffb02eb300dcfd9fc07fe06,
dce7eaf4f001ef011300ced600d2fae2,
b263c9f4ffd29e201532ebc80b02d7dd,
f30ee00802e8e719d70a0015223005d0,
10ef03d7fbfe11e9efd818e006db13f1,
1237da06fff7c5181bf5effb0c1ae605,
f3e0cd27180c4ff7e80937ec4218ddbf,
36d8fb051c074ee0ea1c18061f15fdd1,
47d4c2d6d6e9f4dffde3b1100611f5e4,
23dabce91201f9f8fceae8f700ef0007,
0fd4f0f7d54d24ebfad7f20d0bb30b19,
c25e19ca02d9e161e4abd702e5000f1e,
d7491efabb12af0f211cc7d7c4d70cc8,
ce26ec1bd9f3dd033a10cde5dfb6c8cc,
36fa1cd8ed02dd37d4b8eb410fc22cf7,
20565202b2ffa2ffcad3b3c8f98f0dcb,
d6181548c60ff815f6f7b6e5f6a3cbc6,
e1b9d9e6f0f698f0e7f308cdca374acf,
434ee240f1deb106a1fade0cfff9eeec,
e8179425c081ee49b9cabbbc1bcce1fa,
39f220ebe0f5011f19e9e00ffc1705f1,
2edfe1e3e5f11624c3deddf90b1604e6,
e2051404ecf013ea07e40c280713faeb,
04101cef07f2f1250003fcfbfe1cf419,
f1ffd802f2f4ccf0c9e0eee4f52908fb,
fe321be825f3dfef01000218122c112b,
10fa0df1d5f40cfdf8fb2205e10605f8,
fafd1401e1f5ff1604f11bf0dc2201f5,
092f140deafe0af613f8180b0c1eff0e,
03e600ef08e5100f05f3f8dff90d162f,
0acf1428efd810e3f7f32cd712ff0b3c,
08fb1021d3e1feeb46065c39dcf6f01f,
0601f13510e3020a172517e13c060ef7,
23dffa0ae6e7180bf5220cf57f07ffe1,
01fa18fdeb13001507591d342a08f5f2,
faff04091aef030815150309ed11fef9,
ffffed24fefa0c191116031609fa09ef,
dcd9f410ec16fd02e2230c07001504fa,
eaeb25e8021050f0220edfc501f5f110,
e60008ec0c0540df1a0403c1e7ecd80f,
eafa07fe01021ef0300207f4f4160228,
c4df1601fb1210e20a14fed5f7b8f61f,
b6e7e6f7020243cbe5081d9f01e3eaf9,
f0d9fb001cfd41e4e4033ee22f0bf500,
f6f506e9130209fa0cec07dce2e5fefb,
de0f03ffff05f1cef5e6f7e2030603f9,
07161113ec07e0fb02fae9fd181a040a,
e898e30cbafe1feaf911ece31a3a1e04,
fbb6f323c91bdf1dec0be9f815ed15f7,
e8cfdb00ee10d608ea1ed903dfe51de4,
f6e1d02082ebded715e3f4f545fc0b33,
0ce92b489ff8d1f8bfc7c5b938ea0c1e,
1907507fae10c3f8e3e910eff0e11603,
1ffdf424e4f20aeb18e605fd1c0c0ff0,
12f6d635d30409f7e3e8f4eb0a0f2304,
07011ffcf4fd04f8b7ecf5d5f40e18ef,
0f0b010614f2dce3f5f207f9fef5fbf9,
0f0cfc093eeedd0919e8020ee83a1305,
fa17f5f90bf7f712f3f114e9041008fc,
201013ec34ea35e60eea19fafbfcfef8,
fd1016ee6eeeea103ad22308e0681610,
001308011df1f904fdd231f9ff39f40f,
0107ffda17ed30e9e7fb17fdefe50df1,
1110d2e138e446e001f10eeb21270fd0,
f819e5f2fdf624de04e3fcf8fff6f9f2,
e1fefadb1cf3ebf6040cf300e9f719ca,
eb18dff9fffbfd040720fb22341ef4e7,
e803111ad9e9dafa0ef3faf222f507d4,
fa02eff7060a0205ff27fbf8f5ef0bdc,
1209edf6e47f03190732f725211f06d2,
2c081ffafd38f4f4f1e2dffa24fdfbbc,
df2afff0fa0de5eaff03e40ae0f0f108,
e60e11f70f48f1e604f507fbf2240d25,
03f9f6042607e9f3e6deffe406fdf419,
bce0f2202701ce23dffbfa1214201310,
cce2df33222daa16fbe0150d0425f60b,
e0121df03608dc0b1022051e07310709,
c7f21ff82f07ec0ee80d13f527f4f805,
a7ee01380d3fb013f6fce61e2816d3f1,
1bf6340c251fe0f70635f8032424f714,
050c0d0b1fef1935dc21e9d9ff321fcc,
dc0d2529f90b08d40d14aef6f74127b2,
101a311b151b30f8ee4bca12113df53b,
2ef1ea0ecff0def91d22051f2e28de10,
29c0c2dcc8c4c3e61217f4e1370fe021,
f7e8d2d1ef190411d703f8b31431161a,
03ee2a01c4f9f9281ffc141bd0f8f314,
00c5dab0810ec006f90ef8eddde01016,
e2d809d6b321cf0ff908dce3e4131f27,
03d327e1d31b0511f6191f0fe807f8da,
f0bbf3c9bc51b9f2ca2cf1e202d8eadc,
ebcd24e4d001d604dd0a23f9063bf7dd,
5ed1fc23f232fafc31f8f21d020214d0,
06d4b73a115105060902d01ee9282aa0,
0011b113fd451afbef05280af3dc1e99,
27cee822ef1048282c2e0e262a34181e,
1495a313092b1d231113c51d404a3cad,
1e2ed7f1290dff10372b12342d2f17b5,
05cfe5fdf2211d2fd3fafceb4534ede1,
f0aaaef8f63dfb02fabacb093bff18a2,
07e2d9f6ec2c23d820f4053030fd11b7,
eefffbf91e84bc9df8e12be4dce0d23f,
d231f706e5adcea9e802e64311d9dc21,
1317522df181d700eaf3eb0cf9f3ff4c,
6a19ed29c88d8fa20a321c04ec9adcb4,
d5d0e24105a49f8bde1307d91512aa03,
01cf2df333cdd3e7c4120605d6d8d215,
5006dc2bedcbe1aef7d410202603bbd6,
e9d3ab1efabab9addffe0b103cf8bb12,
12d2dcd40ed3dfffbc12f1e0fff8cb02,
c907f6f8f501e40fe91b190705f3ddf4,
31ff06f02126e003e2dfdf270cf9690f,
08f5ff0f0bf7030af3f2e50e1af202fd,
b90719ed1ef5040a002123ef07eefac7,
7ff81edc0c27ef4113cefe24ebebf125,
fa0c29ef08fb010b22d81632eddbf3f4,
12fdfde115fcf702020d380b0deffdc8,
020c1cf91710021415eaf425dc0ef0e3,
0aff15080d17fd241ee4e50fdbe4fff3,
f500f4dbf0fccffb07130aeac8a7d3cc,
f1f6ea18fe290e1e06ee00fbf117ec0a,
f806ec40051a2c3211d320f9032710f6,
fad7fa050028101d07f811e1dfebfde9,
251f0c26f62ff5381ce8ea4ce0cc3317,
f919181af008d31b08023f0dffe61029,
eae61301ff0b161916f9fcd3ec10ee1a,
1727ff13e8370d31ffefe31ef9ea19e8,
f107f509f81afc1600efecee0902f8f1,
010106d8210d01e03e3dfccce1d21ef8,
d538ffe320f4f3dc1df6ccf70db814e2,
e9321cf3d80005331cfb030323020617,
d33800ec18160ee62deff53debde3bff,
ef31edeb101d2809fed3dcdef8e407de,
f516fafeedededece10c07e201fafcf9,
18e8fddd06faffe902f018e8ffe9f330,
ecfcd2f1e4e4f2f8b9f00dbce5dbe80f,
fa18af23c4fff2d5d1ef32ca68e6ee16,
d8bed0e90f130506defadda22d1f3d31,
f0c2d8d131fa1bf1dc20daf6fd050f1b,
06e7f5e73808d9fc08f8ee09ced1ede5,
eed6e1c61d0c42e501e6dd2bec26061e,
2574f4e016fa29d0fe04e849e102e62c,
27f6f7e9ff1403f0450c0749f30aeefa,
1900fa0104d619f10af9fc1fe2e4d3e4,
f17f3f11f0f052d10ec7d65b02e3f3ee,
0e4b14fec500fbee1ff7f13bf31d05fb,
d02deddd0e05fc2481fdc521f7fb330e,
f506e2eb19e327ebaffeeee1ff25d2e7,
eae603f236ee12e8ebfaf917dc0401ee,
d3020216ea14fd20c0fa05f9feeac7fe,
a535e724efd6f1028ee10e0200e184ff,
0b0c06f827f520daca0a0513020cf006,
eefcfc0df31d11f5dc0c2d09f7dce908,
e439051b0f00e2faa5b70e27d4e1bbff,
24fa0bf3ffe714b5afedf61d04efee11,
f61afbd0d9e014e1e8e9d963f2dae0f8,
3e142527c90be2cc40f77a6ad4f5a747,
e3fb1714021306fd130b1e13f7e3070a,
080afcf2f9d4171909e4ef44eccfb5fb,
3ff724bcb2f205fa0718fa4deac79be3,
ebeffd06eb1a1f0536ffef2ffdf6edf2,
dfa6cd00f7e4f03c0a05fef3d607fb11,
3906f1efd3091231ea34f06414e9f4f8,
0e1ae00ee00303061225fd102507f30e,
00f0f7fddbfbfdf0e40922fb0812fdde,
ef23d9d9ddffee14e6df16e2fb27a3ee,
001cfdca0bf306e3eae114edf117d704,
2be605dbe6001704fb081eec0af1d8fa,
0d1be5e3d904f918d9e5efd6e5018111,
ee2221c8fbf7f10001f21302d603d01f,
00e1fdbf08fee012071c02e9fc2fe2f8,
e127e7c9f9f4ea06fafadaf1fb1cdc0a,
022a24ce15fdf8fd111c0529f2f4063e,
ecfce2241de70d0402e504ed06f2e3f9,
19de07f803e4faf8d2e1fcf309b32be9,
04030e1afaf8f1defa291206c8cb24ef,
f20af53420e9fc030bf716ef0906f62a,
fcc6e7f6fb05040ad0ea13ee14ac1ddf,
ebe50d0bf416fb15cf0115ebc6bcf9dd,
06ef09f815f0040509f114f4100d0014,
f6d5d9e0f90cfafdc60515e92dea1cf6,
0df6d406f3f0f105dc191fe60a02f3ee,
fe0c1a0df3ead3edcf0ad70bf40c07fb,
f311ebec1af0d5eb0b0b052bfe2d0bea,
14140a020ff70d0d06e9eb0cfdf11e25,
d9e123fa190514ffb3f8ef10d4fec324,
d39fa6221a0f15998b0017def6efc3d5,
eddfd2cc16270aaf810cf8e8e10be2cd,
e7e837e122f111fcf71ad70ee73df133,
fe97edff07f1f6d7c6f2f4e5f01ff1f7,
f3afeae30d0cfdbbd92aedeaef18f4cf,
d5f3ece425fa09faedfbee02caf001d4,
d9f4f3cb1a2b2e2ff024e52bdd0bf0e4,
f926c8d0070c2cff22eee42fe7081bf9,
2f3cf731d6d00ecff5ddfa4b16d6d901,
4cf7ef02eac7d9d6efbdc8dc2ef9b7f3,
32f6ab05e1052402f3bdb90c12210e06,
d535e81f2a3118e10f010513da010610,
21762e4e1fdc0da002cc103d2116e31a,
ea3cf136fd0c190dddd7f6dd1f1b1829,
47f2eb8126d6010817f20ced1a3430c8,
0602d48330f30fe7100d2adf252922ba,
0ee0250f11e10d16f3d235110513e8e6,
1eddffa663d6d313e504fce0f55cd0fe,
0defd49177c1ccd20520eed2e922adf2,
22a5f3ac64cbd32cfc10ea2efd39cdf4,
10e01ae2630627fbfd3305fd103ac9f3,
08eddef445d501e2054e03e00e2bdde4,
35e8e0dd2e04f5181114f7021417d8ce,
28e0d1e2f4f5ecffc2df2606e9fbf8f7,
28e6b6fdf8e7f8e0ddbd41f8e4f1f807,
e1f60029e9ff01e121bd3c38f4fae6f5,
2ddff307eaf10eefd40313011afaf5d1,
2ee4c1eff4ed07d5ef030ee20f06f7eb,
17d3cd14dfe5edf1ebf1340608dce3d0,
f212ea1906e606dd0424261d090601d6,
ffeffd1c02fd08f2f41b23220f3304e9,
fadd32142ad4e203daf42e3204e3f0d2,
16ebeacbb92011fcf0cd27ef06f5fce1,
09bbe0f3ee1d0714f1d5051211471ed7,
1cb5dee2f922c411eeb1f7f801611ed4,
e52311de927de41cedda0effeced1123,
14fa1cd4943fdf1d1fd0330802243815,
35ca41f6cf1ab5160bda34f8f84c0612,
caf91bd9b422f400c8fbae04f22215fe,
e4def1c1ea01e2f335fac0ef264beefd,
fdab05cbfd22d0271ef0d1ec3b54f7dc,
12ad0c0fc9ded1d7e0e8fd81c6fa45c6,
f1ec013acef2cfcf4c282c07c9dee0ca,
0918f12ad517e7ea5f19fa29f0ecf3c7,
45e0bed6d9b4e5f7e3edccdaecd6ffc8,
08dccb06b2d5aee01701faf4dbc5c3cc,
0919dc0ef319d90422081b00d8d2ecce,
1d3cca0ed609d7f0f914c716f7e9e517,
e737a221da23c1d73148cad6f9ddcffb,
f0ebadee244cd7e81b27e8dae40cbddb,
46d50cbc12dc05f00d2803ec0a08150b,
1395812810effbc6e72125e2ff0b41a3,
ee17f807f9ef10ece2213bf40022c0e8,
06e700c912fc03071effe4101df0f700,
33e1f4f9ef41e30de5e10a24cbf519e6,
bffdf9ede5ed22dcdd1f06e61014c810,
eb300ceee500ee0a15ee0c1901edec17,
fd5a21f1eaf8c30308d3e909e7e5e94e,
dbdf07fdd6f7f9f7cd0ee4f521e4fd20,
20c4f7ef28d90fa3033712ecc9fc0c15,
f3e4f542f6b720b2ff1f0b067aead104,
21122e14ed4cee1303e01f1de1e61413,
f6d6fccb29e10a01f50feb03f00a1b06,
fed6f42ad2d724f2e5ff663138ea01f9,
1f0f00ece409fd0711d6ca12cb0002f1,
e6cdeffd020d253dfaf5f70c10060a00,
f202e9cae234090ee04c142b00f42dc3,
170fe1eeeaea0e0cf7f7dde5080301ea,
07112206e30fe3e51bd8efe718d80bef,
e5f10ce9f80c28e620cd15c421c6ff12,
14feb2f21de22e12c51e17f3f8d701f1,
0d1bf51fff380f0fe4e113e7e3ff0132,
ed33dc13035c05ed3ae94d13ec0bd114,
de5168f351ff164d41084024e9f6e044,
def91008fe0a030fe3050802e82afa08,
c42df7f1010d09ff6812fc1b091debea,
ebff0cf715d01ef80c082610fc04f942,
ef0300d302ff1702150812080809f7d6,
f3a7134e01e5d7d615fb260e102a0fe6,
1fd0ec1b0aefc1ea271333062fd1f3c2,
1a32dfffe6f4e71ee3f7e72ef10c00d8,
f3f007017fecb5c6f3cf15ef0522eb23,
ecea2a2450fdcecfe7c364f8f8e8fdf6,
e817e1f6f9f20408fde3f60a0f1af20b,
d8d601ec2607e7cf13def6fafcf3d242,
db0e210a02f501d6e2efe3fd1121f410,
dc38f50efb08e047fdecf7170029f909,
2a031cd22b16c73f10e1e92e06224d58,
e6bf06f51326ebdff1dbf922d1e004fd,
102f16cb00f9bf314c2de61f5f0cec04,
2006e39e09edda2a2a4b19db3826cb27,
fd280dcc0a08ee110c201623faf6f411,
0ed8c8d311fff91e25b9e2ec1a21dd43,
c6c3819517fee3adf30e0ab22ff4e7f6,
0b2b4ec621fedf28f90ef9fbec0b041a,
0af0df24ff56174ec5f92de3d5ee01fd,
f141d734b95411fbeaf3f6f2e7010ffa,
25feed3bd51203edecc411a0d7210959,
c5e8b9d73afad220ea2b17acf6c812b4,
e100ad50a5c70bf9cbcbcb901cf02bc9,
03cadc1cc4000812d4d0d9bfaebc460d,
4a34d057d8d4d7a5fdaee6a56de524f2,
fa29d42afabcfc02ed9bcb9f451b1503,
0c02c8021b100d4006bad69b14cd3af9,
143421262241d618defcede6f821de01,
fe6958fc0c00b312e5ff1825161f3ef9,
132000cff218f7f2d6f4220109140c0b,
d2dcfe0b121be733fcf7dbdd01f148e3,
0c21161305ecd81302f3f316111727d2,
f5fcfdf5e91903e421f6f6fc0c0ce912,
2dab14060210ee290fdfec04f1d93eee,
1702ee0526d324095e16323f0f1510be,
ffec26fe040218f62f0013fef20c0409,
1fc6c7ba2513fe3303fb0508fc1deb16,
dfb0dbad3a12fa29ea210525caebfa12,
4ffaebdf58f605feee04f0fccbe3f208,
1b81dfc51c010802130f28e31230e101,
f983c6b7070b1811f1efda03f7ff00fa,
750edcdfe1012008e8efc800121119ef,
0ac5230801dee8fd35f0e9cef70c231e,
e0ca285f05e8dc0410f828fde4eee52e,
07201722f706d6120f0d0a0cef280b33,
0f01c1d9f2394e26d4f8e6e309e33026,
f915f7e4f92af2d51dfcead921f5edf7,
e6fe08f4fd11fffdf20df1010e15fe17,
a326d1fecc100f39c9e30ff2270ebe35,
c80ec111d436f1c5eae4f9e532f0f30e,
e7151af5e731efcd1b09e62407fbfe1d,
0723f0eefafd00f6e2ffe514f54409ee,
400ed6f8080cfae9ed23f5e71f3516e0,
2704eeeb030cf4f1f01609fdf9240df9,
4c0d03fd14e6cc06c5dfe41ff305e804,
da16ccf710fdfe1bd7eef71d1007070c,
ce1ed5f306feddf6e1f921ed140412f3,
4ad8d4f5f2ede92ac7d8fa7600e4ee0d,
1bc681f7d2e9e9e2c5e2fbeef7230047,
f0f6a4dd01ce04eee0dee6e6f41d1efb,
28defe0712d71b39d80606360aef14f2,
2402ca0ef0e313d9c1041be80d0203f5,
ecf1cffc06c50cf2e70827df06fd09d6,
04f10220dbfd06032c16f811dd56d6db,
0afd0635eafdf3f97814041ccd32ec18,
11fe1317dbfedf00140aef0eef44f60a,
c3e10c1ed8f008df2f4cf3f51af1cc0b,
de9ddd10e1fd21ddce7fcdca451df4dc,
dfbbdffcaf072fd19842dce20716fce0,
cc1adbc9081fbef306e80ef408ed1e23,
d6fde1ecfa21ddd9e40005d1f6f644fc,
0a0cfddde217e706d21702dee7fb24dc,
ed07f8ebfbe1eef9c720211ee03105f4,
f67328f8f7f2eb13e6393e5ce81a0814,
0353fddf1feae6e6f3071019bd21e4f3,
c5c3b5de01c525e723ed0eb742fadf39,
9ec7a2d4d0da361b14d6e8fb3a260736,
ea02a2d7c5c6431707aeb323030607fe,
26b1c103d8fc02deeadb1be922e4e618,
e9c4aff0d6e813011acb28de2502fd15,
fbefbef3e9e2131812c2f5fa13fe15ec,
25f6d7bbf4010127130be92c181a7f1e,
4bebdfe7cbf527f5e5e9d9e41cfde5fa,
f405e5d7ea092be80d1ffa011df8cfe9,
152938d9e6e9e212e7f20f0cfb2ba939,
e7f9f7faf6f7fef5c1f404f70de89e1e,
dd0be3def1ed17d5f02408160a05f806,
de320fdcfff1fc05e60a06fdf632ee26,
e00e08fdf3edfdebcef0e3f8f702e2f9,
0cf4e5e7d404e7d0ecebe6040a080de5,
e5fefb0f0015e91fcc1de110d6fc1305,
1ae7f319fffcf3bffbd408d800243044,
07f5daf0e20df7ef00fd04fc00240c1a,
0b2cdc010c04004fc1d5ed1eb99b27e1,
420df532cce9ccbbd00707ef2cd70a0f,
0308f50c01f101e9f70dfd143233101e,
143bf812111b0e4ac1f40807efe906da,
502c0c24d011ebc1c61c030c12fa0ff1,
17ece60be903f8e8d9e0fc0609152026,
1cd9ffdd0323030427f0d2cebff1c815,
16f0f8aa062ee7d5ede2dc07aad6ee01,
f8ea06fddf15e2f002fdec10d6d7e010,
f21b2becd327c4150dc1f1bfbdc3942d,
d51f38d0ce25bcac2acfbaf1849f8320,
080618e7f234f9f508efe914c0d5cf13,
eb10ff13dd3fb91826df0fe5b6da9b22,
d90cf503cc0cb2c23de6d504adafb00c,
1a08211d163aed0f0ef21317b8ccfee6,
06f6fafaeae2f90f12090dec20f138f4,
fc012408d9cf0ef3fe2d29191eee1b11,
f21a0eee13cc2ffa020111331bfa0bff,
eff5fdd7ed1411120adf020bd0d50e95,
d907edcce2110e16e0f7e000bcda0f92,
d62cf1fd16dc0e0302f6ef07defc19db,
3c11290ec603200a09e8082910d33d8a,
132a10b5f52e1401ed00db090cc52881,
ea23faf7fc12ff11f3e5f5fc0cfd08dc,
0f00f6de06fbeef814f008f912fe3c06,
11ccc7d2f50311d6ed0217e61bea0800,
0febc3d0fd030cd4d7fb2bd2fa05ede4,
20e9e0f037061102ede8e2d702511304,
08bd8ffc0f1316a1affbe3c711f328be,
f6e481f618133695010ff8d0e4f227c3,
f7f3ef00ebfd2201fdfbfadff2da22e2,
e5271d18e7f6f00504161004d7cb32e1,
05fc2112d4fd12ed05f7fe01c2c8192b,
0af902fae9f21304fa04f6f1e3352af5,
0ef00ceb1109f5ba05f7d2eefe14181b,
252ff60ef4faf7fc0be0dbfc1532060c,
432410ea143505eefae9d0341c1e4407,
25e0ebf51805d29cbe20c59c4afbd638,
2df1e81d011bdab3df10d39a4b13e438,
c9eb2cf71ef80dfd01f90404fa1b120e,
b6eef703111ef720170f0d0bf8f5f1fe,
ef03fc1eeb16dbf926e215de0c14161c,
e5d40be5c6ee3815feded0e1d107e013,
03edd8e90af6300d1bede912cfbd27f4,
f7c1fef2fe0211d8dafee7fbcf9036f7,
e8f5f8c536f3e53c27edf1ec086ff40e,
e301ded42bd0cd3ceaefd403ea3911fd,
13f7fbe4d8fed3dcbcd6adfaf28122f0,
f1f8fddf23fdf2f80f0839dc10390c1c,
13e7dad63ae0cef5d42d21f00c712bf3,
352409e8e7e2ced0ef229eecd9affffa,
28bde9f4dddc17f200c9e01106e4f512,
2b042638d2f1f42fd5ffffe1e9fe0423,
e82c17ece6e7122310fff5efb5fd0310,
feefd72316f80c001921f34340bee901,
26150b31cf2dcd0d0d0500fd20a7f927,
f70c15e6f4ece31f0de116f6b4c3ff05,
caf1d73b08fdf9e921100df910d4f8f0,
1de8e448d74de7f908efeaf722e6f3c6,
edcc00e1f122e114e8fbe7f1e2e2f0ea,
bc020b13bffa1ff91d0402d1fae4cd04,
d80f3adfde0104230714fdebf8e4c62c,
f1da1adadfe6e3fd1300f4f501e40413,
38f404dedcd7e1eac707dcfcffde3f25,
f29e93dee4be38eec427eabd4cc1efa6,
10ddd2edecd71b16031efaed13bf04b8,
16f2efc904c90e1a0f1fc108430414f4,
08bd81d6e1bf11f01705fce9f2c012c1,
07ebe9ebfcc40a242929ea0f06ff14d1,
f101191fc41d13180ff3040221f818dd,
fc0a11e3e12c1126ff081cf9d6e62acc,
ed0a12ca1e2c4413f924f30bf0fc1ec6,
e1e2f229312f18da1bfc02081006f50a,
e01d192246d502be06d0c6b9f616c713,
bd18d615211b081f081505f31f09eb22,
11f42fec05310de02c2f032f101209e7,
2e23241305c0f0c9071106e50f0ec702,
e70a001afc402f0608060d17181c09f1,
e5f6b3f1e1170b1b1218ebb7f4f5c1d3,
9b1cf438bef9d74e81114d1114cf94e3,
cbdaffd2e300d705ff182a2ffd0de00c,
b8eee70efbdde0e10f4ac8aad2f0000b,
ab040c53ccc8bb0b882d18dbaecbfc0a,
dfea0b1ccacaaf22e20c231e98fd1209,
fb12f506f9f2ff20102cf7ccfefcd2ca,
005b3ff9d0d7b80eb5f84b2fd7bbf90c,
001169ece6fce50317063b2aa8d3e74b,
1948e3ebf6f4f08f30c3db1af713c83b,
e4f9fbe80703f13929e3dfe2e203a00a,
00092f0d0fe8e2f83deeea2ee8f8e30f,
f901011123231da0192402fa473ef024,
ee0d0df36948022d473c02c41332a8fc,
de043e0d141b16232e1ed91112ca04b2,
c20028c5033819e905ecdc18f31dfb25,
e80223cb074df54c21071418d70ad70b,
075f411ae7fae11417f50704f3e70ad7,
e11843f40ffd19f00af7fffcfcffeefb,
03eb1c0218fa21fc1a04f1fa0ff81911,
1fe0f0f0eaf314ffe0fff7f10d002d08,
fdee1f25fa1ff22526092dfdf0f511f4,
f6cce924132e0613c9d83c03e6e415e4,
05dff514f40ffc12edf32e21db0912ed,
f9df13020505e51ffe17ff17c5e1100d,
f3dae61d1511fdfc0210f607c7ec0ff0,
11e111f30ffdf113f91ae203c205e904,
e9d4f12a2330f30600e4290ee6fbe8d7,
d5e0f61b180cf918fefc04f813f8fae4,
e317dd18231d0d2aefebdf1209fb17d4,
18f7ef0c26a9faf40ee11dcc0aeac0d6,
08d2eaf90e8114efe3ea13b819fbd3cf,
17f3f81a2288160a03eaef0afaf30fbf,
ea080c1002ae1d0406f201d90ee7f1f1,
f61c080c1fbe2a07fe0b16d10df805f8,
0e2500f116be350304fbe3e7f1ef18ef,
cd16fe061be22615ff1119f308e7fa0a,
fe12f9200ac70013f912fb02f013f10b,
f9150a08f7d217f3f3170c29001ef1fe,
e6020105e8fa0328ebe8f60ae31dcf0d,
b71a0020eb041ee9e6f1b5f2f349c117,
e24116ef1308031274f5c11c0805eb19,
f5e806fb04ffff15091ae40adf04012d,
c9f6dee5481d06db0d55d1faf1201037,
f1f2d4b65313ec17112dc3f7edfaeb0e,
fbfd3216f9e5f4f8fff7f507f1fce9ff,
0bf50bf5f40207db092210fedc0eff09,
37180af01ffa11fc03ebf205d20df804,
f8600a27cbb3f02fe7dbef4429bbf6f1,
0843d7cfe8f0e722d9f01c2d2b0412f9,
eed4ef8144bbe108d849dff3daf5e413,
2215f524e1de02f7dac9fce52ae620dc,
1eeab6100feb17e9f9eb0d14011e0f1d,
dfcbefbd38dcfae54122f20eee0d0114,
fced33021c242cee11e2ef120f0305e5,
0bd81c23221434f8f9f200ef0dfcfbfe,
fddae92d06e81ce4bdf51ee10ae61ec6,
0de50dff33100501f6e014eb1b0205ea,
00df0a181a10f2fff9d00beaff22eee8,
1cecef3816ffd401d6db47cbfd01eec6,
08d8f50f18130aeeedd61704f60af9cf,
1fc4e60f0e27f1fbffe7ec05112026d4,
2419e01c131311fb52f013e4fc26fbbb,
ddf0cb16f2e51f060c0312e7fff7f619,
f2bb0928d6dbe7df1b08e7eaf9e6fefa,
f8e7382dc4f9d20305e9d315edf3fbf9,
0be5ef39dc0600f8fc060bfaf8dae7ec,
28e82429c9feeef2fb05fb1ddfbefac8,
21ee7f1af616cfd6f000153fcc99ccc7,
f705e927ebf711f2def407d80f0e050c,
25f21f220e090501e80c190bf9fffe0d,
dbeb53dc2c20fbf5e1faee1ec90fd9fb,
e90bd6df0b120cc81feafad815f8f910,
cadcae1ded2401b0efebdf8117d8e6c2,
d43bd33dedfcfad1e2e632ee1f08d2f6,
ca32d3c218fcf9cb0ee1ced137b048a4,
d201cf06e320e8dee8edc7942ab8309c,
e02cff46feddc6d8e8daeae24d03e115,
2130edcefeee06e603dc1ef31ee843b4,
1503d0f1e7f31fe1f6e114be28e0e6be,
ee22421226cb18f618e013f42735d620,
46b91c0115089ebfe9edf0ea03260954,
27f1dc191ef28690d2e6c9f84d18f519,
4716ceecde0295dec6e1140e19f60b0d,
30cf28f00162f0bf0106f3d7ed372e31,
09041f2edc6cf6b6f4d8211a17102811,
2004f2d9bb50cdd9e2e62bfce4f33dd7,
29ea14f22d30cdcfccf5f30a0d00fd28,
03ed2b1e073be28ec5e61ef70b0302ff,
dbfde421f80dd7d7d2ed3acbe108fde8,
fafa06000310d8100614fa16dee8f9fe,
07220b121501112123fafc16e9ec0c08,
fef6fa1422f10010e6fae702f507fb03,
060620f6f200ebfa2deb0102f002ea19,
fbf4dff6221cd024fd31291d003ee5fd,
ebf4e5181917fc19151927f5f9280b02,
08f117f1e5ecf205ffef1dd101ed0311,
09a9d4f5e2e502c41eec15d9d7ee1adf,
19d60203ebf5e4ec070e0808dfe81915,
deedfde80bd8f5051df1fe28f411de08,
061feaf613ce0539eaf0e35ce703f407,
0fffe8021307e6fdf914f509d819e4ff,
05f1e8f30ed0b2e82b1614edefeef3f1,
ff21ec2420a0201cfbeddc7feef6e8e6,
ed46050c1bcef723e6e9e530edfffaf3,
fd06332bee0713e30df908f7030af8e9,
0e0f2a1e17cdfee71119f3d304121af5,
fc12fa0902e1111af002e7f6fcff3104,
d9030219f704f7f502ef18f0fe11f2ef,
d51dff070fffdae0dd0215f81418fcf0,
f0eef8010627d3dbd103c7170404e107,
45e7e71320131cd30b030c0d271b0fca,
0c0402092d07e3ceebf2eb0d3eedf4c8,
f3ec0b0c071ecce4d607d1050edf0dec,
13edf4001ff828f10d14fb0a1316fdd6,
f2f4fae21108141506e0fbf8200613f0,
f8f60de4f50df9faf0d3e9fbf4c2f5f6,
d7f9ec2b29f5e0fb020402fbe4caf4ed,
1610e1dd5119ee25fef309f2d4d7f205,
fc15d0ca2a04421ef3d5f8fa115ff528,
42055d2630f3cff7f01701e2ce810fd5,
240affa97805c80c112b10ffd3e0dc11,
bce2a1ca2de90b19fae7e6f32237f43b,
39061e12e6ffeaf8e829f619f1f91bed,
fee503ff220aed0e101e1a20f904d304,
d7d8d7f50af1f7f806ec00f5f90df7fb,
eccef4e20cf4efdf22ebddfcfcf605fd,
08ebeee11deeddfbfd08f40b031802d0,
14462df518eb22002023ff3218f8f204,
d9ea08ff191c0cf5c8dcb9e309cfeee6,
be03dcfb1217dcc9d7dfe4252ffd07d0,
0e252ef61be703051bf207352d220624,
c6ec02ea071fd70ec8d5d401e4edf91c,
fe17eb000df1cd1c23edef11f90306f7,
14001a09d7e30ff2d7f003d3f0140031,
ebe539fd37f70bfc17e5eff8f808fa07,
fe2734eb4cfbecef0deffbeaf0d9f317,
e2f523cc33b8c1d5f4fe2319d8b5c413,
dfe3deb67fe4f4f610f815e8012df71d,
17f7ebb067d6d0c20b07eff0f7c0b943,
201df0fb0b0eebe2e148cf12d29bfc13,
dff9ad063ae7e9e82c12370310f5da24,
2206db021a10c4e1153c0ff7cfecc2fe,
e4003107e01beef3ddfd11f0cd3af5de,
fdf00601ffd71905151912d1c1e72333,
2a06e70a150533cfff1e2af9d4e0350c,
2709f405e30e11baf9c1d21bbda50de9,
312d093f10e8e4d605f51dfadcb13c05,
11fae952464fe2f8f9db421af6fc2718,
e418f339341bdb1ee7c023f425ef3417,
4f60153214dcdce9e6ea0d2bb8ade0fd,
11e9ed2d621f4012d5fd3a18194223e6,
2425df185a16e31819c323eee81c01ec,
de1c4c141413f7cf2cdcfefe0dfcf6f0,
163335f462db3eed0af7e90f1308e5ed,
f72aedd637bb3d01190afa3d041bf322,
16da1dff0ded01150605e0e303d47b25,
7ff9cf2df6c4d6fed337ece1fde00c47,
e807191ad6dbdff6170a201207e10a2b,
ed4add03d9f62009d3fee32ad8be44f3,
3d3aa61cd907cce7ea511ce7b8f8cd18,
2ba629170d0102e7c31cf7d8c3f5cef9,
f5dfedeb1703f302f413eafffff410e5,
f405e1ef10f3e201fffdf8ed1703eee6,
15e9f1f9f0fa070e1ef9f2fb0df7fd24,
3409e9f63a2a1e05cdfaef230700272a,
7fefd4f512402bf1e0d5ffee051b0e23,
e913011116fffb180fe7060df1011400,
ee08f1fbfbeb170fe3f703ebfdf207fb,
f2feee12e4ee2d07eef320f6071a1911,
08fa150bf4f6f3fd0d0af810f6ef17f3,
edf5000515f4f5e2efff18ea0ef1f119,
000aeade1e1d4034f6edff1902221502,
f90c1202cfed0b13fbe7e1fbe30e2ae6,
2219fb0f050cf21cec03f42cece343f2,
4347d807ffedec19d70ace191e182213,
ddeb11080edcef0cd9ef19fc000a06e9,
e5ed09ef080e001bfbf60514fe1004fd,
f513d120f4fef6fce902fd280d06ee1a,
d7e2efebf9eb0012eef4f3faf61cf60f,
0a0bfdef0bf0dcdbe00f26bf391be3f2,
f9e2fceaf60719a4cef503831a09c2d3,
e2deebe5041738ccb10c16e11330dcc9,
5b14efc5fa0eeb8fd4fff4caeac3bcff,
ecffe9b5dc31d190e5f5d781f5ded2cb,
e51ad6b8f71cb2d5def726bdf3f608d2,
eb191ddffffc06c5d8e315f2f00bed1b,
1ef5f8d1e70b06d6e4f8efbe1c0e07e6,
1400e0d30efcebf8e8fa1ddff0060fcd,
ffdbe2c970300004f10dfe1dc6f8db28,
e0cec4e5381cfc09fd00e7e6ff3a0232,
f6d5026000ee24f9d7dbf5f5f4432034,
15c3d3b81ad6bee6f72206fed5070803,
dfcccdbf0ef4d3f0f9ec0113011d0e0b,
3ed40eca15dbef12cfcdf10426f01708,
300f17d4f119ea12f4110f21f00314f2,
ecfc29ea0c21f1f7e7fd0e0ae728111e,
0ce62ef8031a190df1eb012400081719,
d7eef3f6192224e7130302e6eeedebea,
dee6f6e72a21ece0dff6f3bdfbfaebf0,
b9eae7080312eded0808f3eb0b0ae4df,
b2ebf9e9ebfdf7dee806ebdfe924d90c,
bce3e0e30410cce40c0adadd03f400e1,
ce1efae009fbd4067fe3ff280ff7ddea,
f3f913ed260bf2f3f21f0ef3070f0c0e,
02e6f5ed340a03eff52c1bf6f3eff2ea,
021202f9041b23fcfaf31dfff5f5e9e7,
f3b90901e513f8e8fed701c7041e2215,
fed7e2e709ff10f302e4f7f8081f2709,
eefdb5b77de3f80cf7e506bfde16e62e,
032fdc1ff812ddea09d7060914201b13,
f3ebb1d403f9e6ed0cfffad61c39071d,
f3f6beba2cf1db05da3cf2dbc8f3e71f,
03dfee16eafc0aeefdf20ccc080b15eb,
ffde04f410f909f0370d0dfaf314fced,
edfc1200fffffc0e02051507eb03e8f3,
f2efd2e9fdf4d3e911f9f1f81235e429,
f4b381b801fec6062c1804e9f22524f3,
f8d8a78942eff6ee010ef3ed13390ef1,
1ce9e8ce1be0c506f41a2d0e0f170b01,
12dea3d10ee9d50a4cfa18fdcd1b2924,
14f6adca21e4fdf111f023e1e31cea1f,
133402e407b1cb153803312ffa48f1e5,
eafee0fefbe7fef02020160a022ed622,
0aecb6f7fbf2f4e806f526e3fa1de228,
1eddb8e616f710ec04f5fd0d465def42,
0fd7eefdd0f02ef8c800bf1f30332619,
262422281fcf2ddbd139fc26201918e6,
a408db08fed4ee39100e0bea3721e155,
cd092edaf7d1073b0508a808f6fd6812,
d45512ed31bdeef00a49de301c00df28,
f703191014f2f061f542efffe2e703de,
330d03fbf6efe3fbdc29fa19e2f670c7,
e0fee9101bca10fbdc40e8f8290ce3d7,
af19f41f0b1fff02f3e1ff11f303d33b,
b95708da0323eee7b1faf7d009fbdf25,
bd27e8f4fc0cce08f20c00fefaf9f013,
8122fd4bf71ee812ccfef70210db013e,
9820cb42d52beddeaa181be91bdded12,
f212d427e80ddcf4ed191e251aed5af8,
f405f218f620ec06ec04de2f01d30329,
fbdad632ee37dffc11e9f81eeee73b19,
52eadf1d0608e12122001209e8e60c07,
f9deebcfa4f615fe0cf5fff6ee2618ff,
fecbbfb4b30c2929d9d200e6fb1c1112,
fde9d68cb8003815f0ebee01ef200cf3,
f3ba01b5b9fa06f240f72dfce6f90800,
fac4c598a5fb2bf90ac8e9d60d01f602,
f3bfd3a4ab0d4210e9dfb6f00bf11c0c,
faf7f5f6011dfde50e133526de08effd,
e6f8e50bf1f80eef0afb30063d080a08,
e2de0dfad9f82ffbeceb0604f1f732fd,
00f30bdbfaf1efff0a0b010ef50ed8f9,
03fc07edea14fc06021d0b051910d809,
040af9e6fe11e1052523f80302eefe07,
f60413f6d4dbea2a10021ae8f6feca0b,
e8ef001287ee0cfcf6e63610d1f2d125,
14f3f5fedbf1f6060e290d1ef40c2a08,
130efceadcf1143711c20cd0edfbf1f0,
0e060705aa06ec05fb811afbcdfc1f02,
21eb1300d5fae5d10edbfc16ea0730f6,
fd1c082a09f009fd15111af5fcf1f709,
0a2aee0a1003fa0c0ef8d0e0040ffb0b,
e61e04ecf2101214f5f4b2f5e90c230e,
f9d8d102fac8c80c270920f8f0edefff,
08dcd200f8b3dd1203f1c5cee01ef50d,
ef2fe3f9eeea0d0f03f3b809dc0a3111,
ffe31e2afcffe727171405fadc15f0c9,
0fd009ffefff090dfa0bf5feec1016cb,
f1020bfbf21113f3f8fdeb0cee112af3,
1816eefd27dfecbde722de02ef2308f6,
2c1bf3e50cd01cd4c607f0cad9f9fefb,
e3f6f9e2d2e4fcfed009f6efe90beffa,
1c460fec0fc3fe9850fdd6ff0bf1e11e,
3b1923c3edc711e626001ddffcfdee18,
ec1d04efcec8fcf206ef03e608dfe7fe,
ee00f416b7ddfbade4eac502fefbf913,
0ae0f5e6afc32d07281c13fc081bfecb,
010fed14dfde0f1a1be4e9f7fee0ffdb,
d7e2f5f005dc08ebd2360a0631f435f7,
e2c5e10609ce1a31b21a1f0d7a17fd01,
e8fcea04b0b7ec21f41c2bf426edf4ee,
dc1809ed042906dc127ff20accf46d03,
c4f934421e12394d2928fd41fb253b16,
dc03371ab91c2105dc222627f5e809e6,
ed36e1ccf21af5b8eb0ddf18f319df05,
bf222bec3c29ec3b3ca7eaf5fb2207fc,
e5c8e8d9010bfe24dee6dd09fcfdece3,
01dcff07ea00dd07bd08d8f5ffbcf0d3,
16eed5180bf1dbf7dd0bb1f703fdebed,
f603e6ebf6e6eed411f4b301f5faebd0,
3c112c08f3f7da1be8fbc5160cdbd1e9,
1005071e1be7f9030bfac4f53929ea0d,
e815e60b110c1911e5e3f0fe09050c0e,
0b0442db040501f7c10dd601d9f9d62a,
dcd817f20d110b08de13fcf0fc18f918,
f5fce0e904130009ef04f8f0281818fd,
81d4f1fdefe1d818d8d6039fc0f70cf4,
e4e211ee172adcddf8f80912e70b121e,
ce11efd5e10de0dde712f2200a0ae815,
bacee0d5f7e7de2cd81902b6d9e60f0d,
f2b7e8e6260ff10a1134f603fe23082f,
02fdf121e9e5efe9e212f03616f4de04,
c321ea27d9e3b133eb2106c408e9d1dd,
e7eaf90f18c7d4fd2b090ed71b07f0f0,
e81d24f11cd7fbf7e1fb173504d8e9e7,
eee8fa00151a1309e112080f07f1faf5,
f3e9db0b17241f111bf009f4ebf209db,
011217041b03161f5aec0f15f0e808f9,
dffd0dfceb0304f7d4ff05e7e300e608,
d8f001ef1c17fc040a49f0f6ea13d41d,
0bd5cfdc1812ef2e162907f8060107e7,
ee2c11000809fbffcbe308e8fff8f5f2,
d4092906fe0100e8811115e2efe7f81e,
e6f6ea00fcfae3edce1f1d0ae3fd0df7,
fdff05f5f8edfaec07e2fb01e013f312,
0001210b04e502f0f7f405efec0ef106,
c813180d04e708fded31fef9d7e7f4f5,
0ef5eb33f3eeede8f4f80cf30effe304,
030cf6142bd1d8f7173bf70f230adbfe,
df110c0430d9e6ee2140d813ebdfd4f4,
0ae4f6d9df31d7fa13e0fcf6f70dfe0d,
25e3f3ec0123e00f19b922120700e60d,
09ea0e04fb25fa0d2ae20234feeff9fa,
0dddfe0a0e13f1f615e3ff0513eb13f5,
f9217ff7163fca34c1f4ff323014da1a,
fbfef2f81109e9e61af50cd20df7fdf8,
15f10cf820f20203ddd4f4f90eeef12b,
f91022f42b10ccf4a9d8f4f8effae01c,
161ffaf312f7de181af2fcd50ef4fc08,
e711d8f933fb1ce0c1ea0e03260cec01,
de53790a3939e4ebbfcdf407da01002f,
150cdcf713f6fbf720e6eed92a040221,
f234f11310cff424fc13fc1116110d09,
edfe1907f2e0f749e3040ceddbdf1ae3,
f2e0030717eff8f2071a1921180701fe,
1424e321ebcced19fe0e0c171df01cf1,
14d70b02f2daef2d032505cc0bd503da,
fce7f0f242fb17120811171dfbfc05fa,
f735ec25ddec0f0febf8f30b0b1c3309,
03de0cf8eb08e15e073410bd1dd833e9,
26ec08d729f6fbd5f31cf41ff8080b03,
08ee0cfb21eee0ed0746ddfb00fe12fc,
fe0909e51f37c0f1ec555001243326ec,
0907291016fcf1dcfb3d1d0b0d13f002,
15100af60224061ef83e043f0f28390f,
f638f9da157fdc270369400d1a5217c9,
f52744dfed27ee20f00f36220909f513,
38ce1602f00a002108dee243d9fd2e06,
00cefaeb0c76ff10f548f327dc4a15d8,
10dc0adef826de4d1cb20e2acde5ffde,
d3f2e2cde210db3fd521dd0ef8ea15cc,
24d8d8dfd7c2e50dd6ed06151be2fbd3,
cc07f9ccd519d1f00bfc0a151ce409d1,
ea20e7f6effac65eda040343c1d107b6,
57e7afc7dabfbaf6b7c01310dbe7e1ac,
b5fcfc12f1f5d6e020d13414fcccffaa,
f80ef11cf518e025d8eb0354c6ee00df,
45f4cc01ebce081c02a9f604cb24ea01,
d2e20c10f1190be733c805f8e4f5f6db,
dd06ef0e0ef9ff24e61beb3016eddfed,
01d40fe560f53b27fe21cf3ae3be1dd0,
fee0023d300d04270c19c407eafe1ffc,
d3f5f9ce2de2e5eee11ffcfd0d33ec12,
cff21bc67ffcdb0ff41fcc07bce4f8ea,
f9f20b4b06fa0415ed0cafe30e0e1302,
0232f4c703e815ede9cefcf6f52ef437,
2b13f8d804f3f80dfbcaf001b506f117,
3ddef840c708f1e3fafce4bdfd36eadd,
e40612fa1d05e7cce607f8e923d7fe03,
0af507e902dfdfdbffe2fcfe05c6f50c,
f7df0edee3cfd408e4ecdd11150507e1,
02f108e02a0ad9d3ec1208f507b73731,
fbad3bd825eddcf91310fbf64de0f1fd,
e9d043fbe0f80216e0dfbd063419edb8,
15e412d71cfdce1517e812f709c91b3a,
13bc40cb620ef43d2ef6eef818fbf117,
d0ee2adbeaf30c08d5f0c80d063ad2d9,
ce0010f707ecf4edec1f1a101dc508fa,
09edeec308efdccecef6070afa01f9e3,
15f6f6d5ddfad7f8ecdffc0300ded2ee,
e908f81d0ed728c5e02803f8e8e326ea,
0ee6c203e6fcb8dbcecbfa11e5de1be1,
07f9e6fcd21ac00bdedb0116e2ca0b05,
feebc00edafb17e7f9ddedf004fa1900,
03eddefce5eaea08d8dcf70fd3f41ef4,
03f326de051b2713ec2d06190ee0fdf8,
ebfb0c1d19dfec05f10beb0bfcf60ff6,
dcdafef3f3d6f8c6dce4fae624e5e51d,
09e8e9e6e01e06c623ef05e5f50ef607,
d926012309eff925e9350217040218e2,
d0eae5f7fce8e7d6fcd6de0128ecdd1f,
ef00e106e32b25d010a91604ecf1e525,
1416dd0907e00818ea100a1f140811e9,
e0f6e2f9ebe7e1dfffca0d0cf9f00212,
cf11fd13b6f617e4fed01a1ce5fcdd15,
0205edd620050a09f51ddfefe9d3fde8,
f8251db12bba2af7e201ea24f5e8073e,
0d2517d121c730f7f809effcead6f317,
f2f2fe1ef919f6d6020a000707c609f9,
d00601e513dbf0f3ebe50c3bf6df200c,
0220053c0c18e80cfcf30ef70e2eda04,
fcfc01350601e1f6061f0ef82719fa07,
d0f30d14052bf11ded0f0df50b220de6,
e3e90722fa43020ef9151703094601ff,
d5efeb02100fdff1f21c2df9e9e5241a,
ede227141bdaae0a0e25090bdb36217f,
ddd7dee9e908d2e107dffa12094110e0,
dbe9e0f302fc11f4122721f7c512f6f2,
c7d9c8d9fbdbf8cf0c19f503d0510e19,
c1c8ecd6dd0ae4ee14ecedfae72ff504,
07faee1209111ee4e4ed15100c71ebb2,
d918c4db0dfb09e4cb010b1dfd66eabb,
f10c04d9ef05fd01eefd1a15fe3314d7,
ff07dbf81015e2ddeaf1e2f71bdb02cf,
fd41c3ebc50ee7ffebbb0cdf1ed9d0d0,
e7fcd40916eb24f4f2d203e019ccd9e5,
f0e200dae20ad9ea10ecfa0c0dc63af7,
e104e1bef608f4b5e703f12310eb13de,
ffef2301e3f20bbceaecf618fef616ee,
07de16f2ff220cfd16d5170509f21b18,
eac622dc210b0ec110f827190dfaf015,
deec1805eefb15db24e324191506f9fa,
ff0ee31e07e8060901f0f8dfe21b25f7,
d10bec24f890ea1704c9f1d9f212fa0b,
dbe4f0fa0bcbf7efe7f616ec0a2e2afc,
00190e150326f1cfdde6f4d7fdf723df,
09c40f3401b603dcf2db10caf6f62ad4,
0df8e3f209b9f002dbe800e900010bdc,
fff01c0dfc30e2ecde05faee13e70bf1,
11a90e28d952110b15fe13fc1cd3f4d8,
08d6ffffe60cebf8ff010c0703d7f3f5,
beeef8380f07c7e8da27e73be42cd606,
d5aae729230bc7ef0d36f840ddeef90d,
e6c029cf79d1ec31031d0b1af7e40815,
ebf7fd470c13f217e51f040d0a07e7f3,
edbee626530af3edf73adc2112d8fcee,
12d905a960cfe5250e24ec1500f4dd1d,
061a257919302308050ff8091c30e40f,
24140913082308d7f5fde82208e20ae2,
0bdcdfa273d201f1f0ec150f20e301c9,
f715f4cd1c15f3ee0709e1f0e6f3f3e9,
1f36d8c3f42de8d3f12df6cef5e0fc16,
edeff8132c479b19c8f60fcadbd5f611,
fc5af0ef310effeef71ec720ed0404bf,
1104e9d9e8f60bc50f1cd4f4acca06d8,
ef9e34d9f902a90df7dbeecb0d33ea61,
ecf405f902fcefdb9819d510e11becdd,
170ad1d9d6e1eeccc9f8b20bad0ce2dd,
e2a0f0c207fdbdd12dccdff01642fa4c,
14bf10fb1baf28dbf132e30809e8ea04,
4aaa11ff470e07d6e4ffedda1903dee7,
30d5d1ebf35fbb3ef18bbefafc00ebd6,
0ed62d1f1cd246df004003f500d717fa,
2fc21bfc40c0f8d4acfccfe2163be2ec,
20f6cae2d10d8113dc91c013ea16dbc9,
0152fa0803072bdffef2171ee8e62ff5,
f601e8b924d0f0c0d2f0e2ffedc83d1f,
d8e9e9abfdc9bdc2cf1dcd2b2da40ef8,
f7140b21ee322ef5ff0bea511a081b07,
07f6241bde4504d9cfd6f22be5fe28f7,
b8e80a13ff260bdfccb9f5d7caf729da,
1633e605f7340202f5fe071d2c110c0e,
0706eefeed2afa0cece6f4f6f9d516e8,
d8f01602cfd80832cdb2d5d0c9fb0fda,
f4270416bb18f2442b57eef72b26f30d,
e8010616b219f936421d24c6f5fc20c9,
dfd617feeafbfd55cebd0edcb11a32ca,
dd5525f8fa560218290c0a062104ee13,
0d42f6e0351b4e35eef2da2f1810dcc5,
c627efea2b071ccb2329ba151c003105,
bdea34d0071df56efc0bd3d12504f00d,
c50cffc65600f13cc901cc0a0cec08c7,
e0fefe164742c0eb1ff7d3f8251422e7,
c70b2efbec309906e50d02cc261804ff,
bd1bf7ffe90a8924b2be17ee271225ec,
ede7e4230bfcf8f806f84debf92d18f1,
3a15ee07e30acd0c24dd26dfd9e307f6,
f2aff0e3f42ae1dc0500f00dfbf3f9e9,
c6ead6f8253ec9cdf50cf2140ee8e31a,
d4dbe6f4ddca0fbdcfd1fbce08ef4c26,
eb8109c927e0e9a4f72ffbfa2309e3e6,
cfb010df16e7dcc4dc4c041bf412b3cc,
11cff90b2ee501a6fa04dab405dff6cd,
13130edb37e71bd0040ce8e2e520fdf1,
13f80401f8ea1fe3e10922092542f1e5,
eb270bed080e02fde4dc14d232e30bba,
dc3c03dbf8fbfee3c4c5ee2a42e7d3be,
f7edcae0d144dbd50af9c6b339f4d9f9,
f26c2f1401c62ea6dce019c2dd69f4d4,
b2c812ebe1f5dfacb2c3fceff04ae12c,
1f9c0feae02cbcf8feebe3e12ee8f14b,
39eed8311506f6cfe7e913f4e43005e0,
2ddb1df70921f1e5d3fd0ef5ff26001b,
4ceb21352d0c2337cf0806f6eb200238,
201ffc22dacbeb06e7f7e0eee9cc2bff,
eaf8f31ce6fad1250deae7c80ae62109,
c5e62b0ddc44ef05fbe2f8e922af1317,
0910292ef1d3aff4e558110f1ec307ce,
0df66b38fcd4c5fadbdfd0e03cb113ca,
ddf01f070306f7d7bbb0e1f0cddb2dfd,
cde27526ffeef7e90ddde50d3a9147c5,
e2c70a1917d7e5ffdc0f110af6ed48da,
cdfef40508db1c21b808132ae521d8e6,
16fb051e0e1af60105fe0607fd0e2807,
22f2fc070f08fa07070510e721022404,
0c07080f03150b0510f208d914ee1711,
07d611260e0e230529f1f3024e0bdaf7,
02cf061121f4fbf613cb15ef24e7dbe5,
0df5f517160500f413a51cca28df01e9,
e2f912dfff0114e8b6e80cfed315c6fe,
cdf808e324f730f3bded1112d4f7bc0b,
0af420ec22dc24f2d00d0319e1f1cf02,
f7102212ff020f1efd20f4fd06f505f4,
f90d25fcf207f410f425fef80dfb11e8,
e9010c0a08020b2edc09090508fe0aee,
effafbfa21c1d9ee02c4eee809db06f8,
030be7fa20d8f8cce0dcc7e900dffd00,
f201f70908ffe6e912ebfb0afcd20ff3,
d611d9011c7f9e0cf5cee9ea09fd1cf0,
f203b903f2391817ff3701de09db1cfc,
edf6c8faef04ee02e74207eff8ce11f8,
f60317171bf90118f60d02d40e2ef1dd,
fb0304fe29070e050506eeecfe11f1e7,
0eeaf201230b09fe080900e5f30ceee2,
fce31e13d9f7fcd68108f6eef2f90bfa,
c8d60bfaf8e102b4b923d90dcee1faea,
e3ccf916d9eb13d10220fe42c6e21c0c,
d804f0f0fce7171a00e913e3de101ad1,
111805e512f83506f5044cf1ef63f9df,
13f02407e526e810fbd106cff31f08f2,
fa12ec0c0007ed0f090208ed10f61d0d,
0713f11e1cf70316f6fc0be0100b02f6,
ff11ef02052efd2509240ff51a030e08,
faf2de220df926dcf4f3febc12e824e7,
00deff2af6d320caeddb0ac1f0c4e8ce,
05fc000e18de22e0eef0fecbd8c726f3,
f505d90bf3ecf12ad3107b30fd4e07f4,
2901f6e115f4f9071c2833feec23000c,
f211f9eaf7dbd302cffe0febbef2def5,
0f0e04e0fe03e1ee09f403f6fdfb031a,
fe0efbf60314ec0417f40e02f5f60ffe,
ffdd0ee6f506edf203feff030eeb0ef5,
dafadbf8e9f5e4fb0ceb0ff9fbf6da1b,
da0febf70709192cffc90bfbddf9e4e7,
fbe50ae6fddf201515fc06f708ea0beb,
cd08d5c8f406c9db21eee317e0f1d2ec,
ca1f00d801e01a2afaa3e140f507dbc7,
fa0e08fbfdded522e7e1e2411f0b1ac7,
0a16e00df212dc1efefe0100190d14f5,
02f4d5f4f4f7fa18fb0511ee0b14fbfa,
11dcfefdf8f8e8080601e40833faea08,
0724e612f92d002227fef52305f9e911,
f3f4dee8f80d2e2c380903fd0e0ed7ff,
e3bdedebedf6f6f00ce6d3041c11020a,
cf0df3dccc26f00904f9e3f424f23a19,
ccbce6ccf9e039e1fbe500f144253a18,
cea1f9d41407f8b6d4e0de191824f2df,
fbf8f9fa0601fce20c13f2f407ebed10,
29f80aedeeef03eeef110508fc0a17ed,
fd04f10de7f4f6e8e9f5eb26f7f5f2cd,
0ac4e002fde30ef604fe13f4f1fccfdf,
2feb0edcf201feece9ec1af3ef210ab8,
ef0cefeed0eee2e6e8c6fb13cd07d7db,
e456ca0deafb41c6d1f22b090a05f315,
e945e7cbd9f344bfc4d33e18e94f08f5,
d2e10ed9dbf1bdcaf5cdf500f209e902,
0100fa04feee1c02fe04f323e1f0fdf1,
0af308f620f104ea1900fb12fd00f7f6,
170207f0fcfa00e70edff90d021af605,
000700fa01e312e2fe0a3811f5ece0e3,
0e06cd0025d4fecf110a070d28f7e313,
f2fccbebf9f6e1ee1dcbddf22908f0fd,
13fd1a1612bafed438d62bf90bd51ffb,
33df0c392bb4d6d67f03fef24cc1df13,
edd81d0909f5d3f12db3e8f9fddc1ef1,
c80b0a0bf2d5e604fec2ddf408f4fdd6,
b5180322cdd75e4bfdd4bfe22c1aee31,
f54be2ca3ed95848efeda2b81f40ecab,
c1b7efbe08e0ea1447d6bbc508efeb16,
c509e9d5cedc081121b0b2b00cfbbf44,
ed5002c7f908f50c00f5bba3f2f2da1d,
d1ddf7eae4e516d62a07e5f60901e60d,
fcfceb11cdf718baec0cdcfc24fedd43,
ea390a1cf60719ede5d703e7e205e81e,
ef19cf28c9e0ebc0c0451728faba1519,
d7e6f8e3b5cde102e616e226dfd31e1b,
dccefe8901e905d1babcc3f809eb0c0e,
cc1defcecdd5b0e9bb3e0cd6eba22570,
dcc3ffd1f5b2a808ce1acc03a4db2d3d,
d8de0abe7fcbe4efd2d2bc0edbe9fe41,
d7dd32e4f6bfbefae725ffe4df101028,
18f5300000d7d60af70bf0faa127f438,
0833fdef51dcf1f6da20d41dee3e0a24,
fd2638f7f32a13d9f952089d0cda0aed,
03002ad9f70012d5fa440ddd53dd04d1,
f445e60045fa0bc7b601e7d5f01feff2,
f81cbe144b16dfe4f639d1d919011812,
c317a1fe210403bef900e9fdd4d73609,
b2eb832c3a12e8c7ddf3b5fd9bf71821,
05f4a3e051faedd5b506ebd122f2ebd5,
efeca3e426fd0f08e0e0fbd8d4eb1cf8,
f7bbb8ef2109f7d9e5bdffe0bfffdf17,
fe2bf204f2d1d7e0ed0a1cfef70411f3,
ec46ef09eff9ff46e333d72530f7133e,
d2eafe1ffed9bf0a2f2fe21f311de203,
a608281d0dadec05f6e0f63819cafdd3,
ba23283505d12122d81bf94e14b6e1e3,
b9e62a2c31b4b1f62ce4df0ef5db0cdf,
dacc060611dd2157f8e5ff1016bee2b5,
dcc7cf02ecf01e0f1c03e612f2c15099,
e8f0c8f232e4f2de1dd7d408e7fd47d9,
061ffe09e0e7ede102d5f50e0df636f5,
092809f52edc1502e502e6e6f5fc29cd,
14f02eff1bebf003ed2dff260438fbfd,
c64501cddc07f9d402ed100b13ca11d5,
f93212cf05ebe9f903ce152c1800f3c5,
231d02f40ff2d904fdc02f5a103af3bd,
a2bd11befe10d5edddf502c9f12cc816,
cbc90eddd314c4fb04e81dfb1325e427,
edf620e82701dde417d31decfd36f40d,
0819ff09eb4f0fe5f2fef4f0f4e707fe,
ef0c1400edf61a03ea1524fa20e01eff,
08d20ae6dd03da03e9e40dfd08340bf8,
fbf108f2dd0feaf80e47eb062bf2261a,
04b306eef6fbedffe63a25fd35fa312c,
fdb9d3e5f3ebd1d4f2fb01f334271900,
ed08ebe7f5eec613dc01fa0409ef05b8,
edd59fc9ef0eb2f4e11af4ffede305dd,
ea1781d3db0bb0e2c30cda0105af0fda,
24ffecf628f917fc15e800f3ebf8f7d3,
23eae3f536f50f1eefd218f0f6322fd7,
f923d7ecd80ac7f7d6e5d31adc04ede2,
1743e400f624449cadf0f40f06ec40e7,
f446dbcbe80225bfb9e0100b00f84cf7,
e210129fe4f2f8bae21ce73414de3601,
c1e52dc82afaedc8d5ffd4f0e8e15301,
cbed31d908d404c4f809dfe40eca65fc,
ddc726d026d6f5dd041313e428ec30f7,
1cfcfdd516de0ff1f2fe212ce504f823,
1ffceeca2dd80ccffceefa161208d136,
fe18f3cf01ddcdcbf0cffb0b2a30db0f,
3abc0f02f78b02c800e605d1ec18fb1d,
22d324e5089311ce2105f7d0f413d31d,
f2be05e9e4ace7d5fbeffcebed3ae2f2,
ffd32a0fcf36e8ebf3ffeeedcd0b0ff6,
f7d555f7c23812fde909efe6d900efc8,
ee8c12eac663f716f2350a0cdefbf5dd,
ddc935faf5dce9da001008d7f7e801fa,
c7e434e60cdbedfdf3f1dbe9ef0ef2f5,
d9f329f606d0e5f601e2f0dffbf3d500,
09e8e6e9c6ddfcdbc4fde0bce95df9db,
f0df19e5f2dad7dec5fcd3f8d80efe01,
f10048d7f5dcefe512fbce17db07100b,
07ecec29d7e41fd703defbef044814e0,
fef10112def3f2edfcc6fe11ff19e0ed,
07ff2cfffd1804ef12d213080107130b,
2de6f7fd03d40ce81cc2f5f728dee725,
0f01fe0e1dec0ac300f2fde318df0805,
fafafb2215e5dec2e1ca010031eb0303,
d112f2ec0c42fdacdc01115241b6cc1d,
d4110c03f50316c50130393825cbee26,
e412033511f5fdf531f521152b27fd1a,
a4fffa1205ed29ea0e0b3f1714f3e1f5,
c004f0ece6e422ff350f1ff134f9f502,
def3f30ffafff22125061ce52f241005,
081527d20e03f0eec2b300dfd3042ed8,
e8fcf5d40dda08e9e8f326f4cbe9f2d5,
dce0d0d6f7ee16e7145114ebcbe719e3,
19e600a3f3f1e9f911c504eaaeed4fc5,
f30eeab3f4e0f7dbe6ec29e1b7f63be9,
ccf5bed601fd0f04f32a1f00c6cd0aec,
ff11ccc8b10a0010f7e109dccde93115,
1904e4dde2070808a40101dbf2e2371c,
172017f2eb070a19f63307f020d714ed,
faf3f63449cdcbed100d280f0ec11201,
e4c00f2817f9e7f8f116f5e6da00fdeb,
d9cf001419f707f1e70c1140cf45e5e7,
d1faeb4d7febb7ffd61e4024e54221ef,
c3e7f9223eedd5c3f2271a1e1d5c02ef,
e4fbed33f9f213e20a280c15f50df520,
f1f9fd1535ef0df8c9270113f21c06f3,
f4fe081568ee10fde51014bd250f0fdb,
180df8f80a172300f3f613d9ebfbebfa,
0aef032af4112c0dec0ee7fefb030af5,
1917eed510f6e8f3b7d7e3d40a1116e6,
eef1f4e1e506e909d9eb07e1193be60c,
070cfced0af6ebd9d708fc68f4d908d4,
3611dbc0f6e706e4d7e7db22dc1f33cc,
14d4eb0dc702391903f5e5d9ea14f4e5,
9ff506f41d0bc7c3dff55038ecc70fc9,
d9f2ece434173edecfed0c3eeced3fe4,
db02fe26fc113f03dbdad8e9f91fe2df,
c1de1c08fbe6c5fbe0cb02110cea05e4,
efcb1613e2ff19d7fce6e53a0ddbe03e,
e5e1e5ebfc182dd2fae6e92607caf423,
b8f729ee06e6f50c3ac0caf9f24ce9e2,
d5e629ffc302fdff14d8e042100bec7c,
dd19dcdb0ce324e9cdffda3202dfed00,
e3f7e6fefeb3ef165a27e900e4f7e5d5,
dccc08ccfac3d83738faeef4120a0010,
f9e0ddcd20b20affdfe60ae5fc14d7cd,
f914c0010feff1fa01eff7c8d13ce822,
ebeed0d10423fe041fbe01fb0b02e80f,
e7121df41a081de622f800161912f80b,
fc2a9ebcd701d5c900dadaedce1eea30,
f3f381c4e2273ffc29b306fafdfdc72a,
e22410f9410d43ffeee910f321efee09,
0612e8ad0914eec3c200eae9e306e328,
d831abd6f12b4b14e5f8f4e9d90c172e,
f936e314d5fb2e19cabf22d7f403333c,
15e9ff091aed3d2b18f8fce20dfdf5ee,
0d02ddf8fde8f53803c311d7fa0dd1e3,
1bebc61d0fe4f705d9e03817f6401ed4,
0ede00fa17d2d40bfbb83ad3f2d8f9c7,
1702eaf10ed2de36f2cc5fc2d93dacca,
fa03d01824eaee08db1841def744fff5,
f0f6300118dec1ec00c52ff8eccae5c0,
04f41dd91dd2f80cfefa00daebf7bfff,
0112f60c46cd0207fe1915cef301dc30,
f0df220146f2f1df172605e307d812c6,
c9ff0e36f11f81e70fcd09f830ef0d00,
e3001c2e0b0af8fc07021c0506f30211,
04e33bf07ee32dffff3712fcf8db03e0,
f7f11017ec0ec0cb1b0cf2ed22f2e504,
0c03172a0517fef3e9f1fdfbf3f5101c,
13034edd2fd3664d27f314ebf3efd1ea,
0df5f0f5c70ed3c344eff4f72c25ce0b,
070b0a1bfc250305e4d20300f712dd08,
fe04dc30fbf8ebd4d7d6cefc01f603df,
eb0b1b07e9fe110002e4e91807fbf0e7,
e0eb040ff0f61308fb14ee071320ed30,
ebdad6051a0ecafcdf06f0ec1def0502,
cff112f2e9eeee05d9bfcfed0105fcd2,
e8072224f013fbf105fce8f30709f518,
cde906f91feac92009fd070f3d0e1703,
d4ddf3ebed07eb04fde2d6fa0d4a01ea,
ef0907360dfbefe71301e007fc021307,
dae8090cefe813f1ddecfb20f70f03ea,
0816ff10cb0b24f0e60c08f30cdc1bfc,
f9f8f811ed130501dd050a07f8f1fff0,
f7dad5fece0ebff2dbdc130201350ec4,
fbd3f201c00af7edece3f4d20bc31cef,
feeadeff21132d0beef9041e1ddefcf8,
d9e2fe05cfefd6efc9062335e5270aaf,
09cc16ede2fb01e8f604f9e40ddb03e1,
efe203010c0024f1ed04f51d2cdff7f7,
f9ff33fef4dc0edcf5cbedf702070906,
17e2030bf3020ef027fed9cde5102d11,
fa0fedf3f30cfe081b0601f500f71cf9,
0819fa01f3d2d2e0ebcbe6f50d0adf24,
02111b37f110dedcfed8eccccdfa0efd,
1b0a101de612061d0ef606eaf2ed10ec,
f112f7ff16eef6f4f4e8ebd522010713,
ea0bedfad606f3ddfce203e5db09ffea,
0e12ea04e51cfe23eced180cff0e21f6,
ada60fd6f4e319c1eafb0325d5e010eb,
c3af4defef1a00d0e6f10128cdc510dd,
02f3c23b0e1ff8d9e9ee06640af71fdc,
f3d8ce0120fafe012fecdd240aef1df0,
d6c61bef04e5e8ebfee5de0a25d40df8,
d5f33be01d06d5d5f00b0a03e9c0dbed,
1105f11ff538164becff0e1bcff9fa0a,
16dff307ff1a114402e70b00020c250d,
25ea20f2faf60af60f3319e012f6c41a,
db0ff609edfeeaebef70ec1d1aeedff6,
9638c327ee0302b4fb2af31c0fd5c301,
af27c309f91af8b73e03f6ec021deadc,
3fe9f116e6f91a0dfcdccc10060614e4,
1bfdfc29df1c1be7e505f04f30ede3e8,
c42dcf20da08e0c3e424e8221af9ddef,
21b9f40cf80ad01603ece9d5e9ef0dea,
04e7fb111111fb1503f7e3fb0902fbd4,
03e7f82d050ae211d8eefaf842ffe7ea,
4c01600711f1dee4fbf813b4e7032617,
ded3fde724f6c9c90b12f2bdfdf21a0c,
81cfe52210c91fdaef24ecc020de1828,
1ffd18dfdb0b05e301dc24d3190b01dc,
52d44c050527e70103dc1ebef80925dd,
d6cd4c0f26e9fcfaf2cfd693e91efffc,
f80ddbcdcc05060414ee13131627d9e8,
42e9ee21e011fe11faf40806e62bdbc4,
43c5172ce5f6ed17e7e0e4d7fd1fe3bc,
d1f92ee5d7fef1afd3d6f04d03d1b1f2,
cce02c0ef814c8d2e6e9e22af3e9e9c3,
0e1a09121918d0effa14fc02261b2cfa,
ebfd2ceeeef000f5f0cf020bfcf1e110,
fce904fdfa0bdcd9daec042102cff4e7,
d5070cfb03fec7f8c6fcfd1404e8fad6,
f51019050bdf0d0709f61315f728f513,
06060e0401f60ffff1f2011e180ffa01,
060707e213ebe006e613ff12fffff7ef,
e8ebecf2dd08f31313fdffea07fedff2,
1bfe2cf5f211f817fa18f4f6efd608c6,
1af20905fde70f13eb3b040608d8f2cf,
e91cf6faef1def0e21d6cee9270c0ff0,
11124403da0527f432fbdfe3f0f80fc8,
f3f01d18ebd602bff12204151bedebe8,
da0cede1f002f002edf1f30ffdfa0af0,
f8031be7f7dd2b1cf00cfc31e8f2f2bd,
d3e3102ae5ecdcceef0804f7fb17e6eb,
00e90edb1806fa24f6ed02480709eef3,
e9df0de20bcb0e38f0f90932ee14c3ff,
ff03e8e4ef04c005f3f0e9030c08e600,
fe1913f71800171bd6dffb281cecf1db,
e3ed02e80cd01c3bead3f40b0b1ce9ee,
efd8db09001dbed8fef6f9f10df8f10e,
ddca0fdcf0f7121de8ea14ef03ee0fe3,
efb8fbbff4d8011a04d618e9f118e0e6,
fee6ebe9f0ffe4d203f418e9dbd3e2fc,
afe6fcf1d3e9e4f82b0d19e20704f10b,
040bf004d6ebdfe400f60eeaf362ddec,
fd40e6dff9ef05cf0801e7e3d014d2ea,
c5fd09070a1516060ee81e0e1c06f2eb,
c108ed12da04f1ebe5d30a290a1ddbd9,
f42d0ae5f10af6b70cfd0ad7ea1ad2dd,
1966e416030e181ad3c303030e010205,
fa1ed3dee21eedf5bccc021eda0c0104,
38f534ddfa26ebf11314f4edebf81a01,
120a0104faf2e5081f05320527b00005,
07e1ce1ef0f5c6e536e8ffe659e2e73a,
de09f8fcf613d0d2e5dce2031bf9e0e7,
03f3d80cc90ff4e705f5021403c2e912,
15e08110d014ded828e7fd103c0ae92f,
f130ef09113ce8f4ecd5e91702ffe6dc,
3801e019d3c30ac80af0f5def3fe0b2e,
3bf4d009ded0f0d0f2d4fae8f018ee21,
f1aa0cfaf426f7ebdff3ed06d12002cb,
054dede42fc8240b23efd1dae333f4ef,
1b28e40716e521ee331be8d1f1f8d8d3,
05e2fc0fe105e1ca3bedecd40fe6d2d2,
363c27fe09c307e6fa0dd6f521d00ed1,
19c8081bcc23cfeb4bf4dbba2cf6e1cd,
dfb82219da14f50e13e0ebc2faf9c800,
edd51800fcf5e812f5fffbc13cf5d8f0,
e4dc1806e420041411d201cb0afff802,
1ed2fb1801051bcf00bd0008edf60714,
d1aed5f3dad0f90227c80a141e1bef2a,
f2abb3e4ecd6cef6eebad8fa221bfaeb,
041ddac922fafc0716beef14edc22af4,
d2bec5d32edd15f0be9bf4ef4f05edff,
dc14c5bc3af62df0cfadd4e706cb38e6,
d613fed6ec0e1bfbedf7de14fcde2620,
2d30cfec16180cd3eec9fbdc2800140b,
24531ff5150925e1d208e1e6e31d43f0,
e00e3319f9fff2de0c00f619fd370505,
031be2e829e2f60cc6d0e00dba3514d9,
def5daf1fbf1e2d8dbf1d7dd02f305f3,
f1002b0e1108fabc0214fc1136fef6e5,
cfcdf9dd36dfe8eefcd2c4f004e41523,
f6c73edb1ddbecd70016caf162ef28f3,
