-9
10
-3
18
29
15
15
34
41
16
4
43
-5
5
-20
12
-6
1
16
14
44
15
-17
20
15
34
17
-3
19
16
-6
20
19
16
1
17
40
-26
-3
10
12
3
15
16
24
32
2
18
22
40
18
4
27
-7
-7
30
-17
-11
28
-19
42
-5
-6
1
-21
18
15
24
-87
-45
-42
-17
-115
-70
-14
-101
-30
-29
-22
-127
4
10
39
19
-70
-55
-10
-25
-29
-22
-15
-39
-15
-41
1
-28
-17
4
9
7
15
-15
19
19
7
-12
10
21
-3
13
0
-6
33
-13
4
0
-69
-17
-32
-17
-38
-27
-12
-36
-1
11
-5
-47
8
18
-5
34
9
-30
-23
-23
15
-17
6
-7
-18
-18
-17
13
-1
9
-9
1
6
-18
13
-13
4
14
11
0
2
-7
2
6
-15
15
1
-28
3
-19
-18
-13
5
-7
-7
4
1
-1
8
-4
6
15
19
-1
5
-23
-2
2
8
21
5
14
6
8
7
-2
-18
-22
3
-10
0
5
5
3
-1
-17
-2
-7
1
15
-11
-4
-116
-14
-11
-24
-22
16
38
4
-6
-37
-26
-127
-4
-40
12
2
-9
16
-6
7
-2
6
10
0
-3
-1
5
-12
-2
-10
9
-11
19
-4
-2
22
4
13
-10
11
1
-11
12
11
8
-14
-5
2
-10
-10
-20
-10
2
27
-2
17
1
17
-8
-13
8
13
-10
6
-1
-2
0
4
4
20
-5
9
-4
-14
7
0
-5
1
-9
14
23
-21
14
-11
0
-6
41
-15
14
-42
-22
78
57
48
-49
-18
-10
-20
7
-67
-87
12
-27
-26
5
13
-50
-52
-29
-33
-58
73
23
36
42
59
-3
9
-73
-40
-7
35
26
32
-52
-54
-31
4
-45
-59
-66
-63
7
-6
82
-14
39
12
-95
-18
5
46
-12
13
-120
-40
-105
44
35
-11
-91
-17
10
35
-76
112
-127
-24
-70
-2
-12
6
24
84
11
55
-97
7
20
48
45
-38
-90
-72
-16
73
23
17
-4
-35
12
-10
65
-3
-19
7
10
-8
53
41
-14
-22
3
40
7
-8
72
-12
-40
-3
14
34
16
2
14
-31
-4
12
60
87
22
42
0
22
-28
37
-5
-20
69
-23
-1
-49
-11
-13
13
4
11
-9
4
-5
0
-8
8
20
-1
-6
7
12
15
15
-18
17
0
-8
0
-27
-15
-17
0
-13
3
-16
-10
-17
17
-13
-5
6
-3
4
4
-13
14
-10
-5
6
9
13
4
-20
13
-5
-17
16
-21
9
-2
-3
5
-3
4
-3
3
6
-3
-11
2
-20
-127
-21
10
26
-13
1
-31
0
-17
-29
-4
-1
-26
-42
2
-127
-12
-36
22
2
4
32
-6
8
0
-8
5
-8
5
-20
0
1
-4
-3
-1
2
4
10
0
14
-3
-14
2
7
7
6
-8
2
-14
-13
-15
3
12
21
-35
18
3
31
4
13
-3
6
-9
-2
15
8
-15
15
2
24
4
19
3
-14
2
-3
6
10
-13
16
10
-6
16
30
-1
15
1
5
-13
5
15
-13
6
-7
-8
-7
-21
21
-26
-2
42
-7
5
-3
25
6
-1
13
-10
9
15
27
5
-6
-22
-28
-19
-24
43
-16
-8
-5
-7
17
23
37
7
-32
32
18
48
24
9
18
-19
5
-11
7
49
-15
7
-4
3
9
-127
-26
-38
-60
-8
-5
-62
-19
16
18
-95
19
-83
-33
-6
19
-74
-32
-41
-90
10
-23
22
-26
20
-4
-97
30
-35
33
15
20
26
8
31
44
-1
15
-5
23
-7
-7
45
4
5
-8
-1
0
-20
-14
-30
-9
-4
2
-23
19
20
20
-22
14
-10
9
-14
14
-8
-9
-24
-14
6
-11
13
7
13
1
-9
9
0
17
6
3
4
17
12
-7
4
-6
-11
-5
1
-10
-1
5
-2
-15
-12
0
-14
14
-2
-5
7
-6
-6
9
0
4
2
-2
-1
4
-1
-31
1
11
-6
18
4
25
19
16
8
-6
6
4
7
-11
2
8
4
13
-20
-1
-8
-1
17
-18
9
0
4
-3
-2
-24
0
-5
-1
-15
-68
-54
-13
-23
-127
-5
-12
-23
-26
32
-16
-9
-5
-126
10
-31
3
-30
3
9
-4
29
7
-15
2
-4
6
23
7
-13
2
4
17
-8
8
-4
22
-18
7
10
11
12
6
13
5
5
-17
-3
2
4
-6
-15
-3
-14
2
-14
-6
1
4
-6
18
-10
12
3
-8
16
2
-1
-22
12
-6
10
0
4
4
1
16
-11
13
10
3
27
-10
-14
-3
-14
-17
22
14
8
27
12
-9
3
-1
-7
-6
-1
-11
-19
13
-5
0
16
7
-3
13
7
-11
13
-18
8
-12
-12
-1
9
-8
28
8
6
-9
8
-6
12
3
1
8
-22
24
-37
-81
-38
-28
-39
-64
-79
-30
-108
-34
-27
-29
-127
-7
-23
9
-6
-21
-36
3
-27
-14
-11
-21
-18
-21
-12
-21
-41
8
15
10
-7
3
9
2
23
-3
-17
3
-14
-4
6
20
-11
26
-31
13
8
-46
-4
20
-5
-61
-79
-5
-74
9
-7
-27
-57
14
-18
-2
15
3
-9
-9
-1
-13
13
6
2
7
-15
-20
5
1
20
3
5
2
21
-8
36
10
18
11
9
-5
12
5
12
16
-4
24
40
1
4
-45
4
-18
-23
5
-23
-11
-44
7
-6
-6
-36
12
11
-3
49
-14
63
1
28
-6
7
-26
11
-9
-26
-9
-17
4
5
-6
80
13
60
-19
-30
-14
-7
-8
9
-3
-32
28
11
14
24
-8
10
-45
1
10
-19
7
20
-13
-15
-10
-1
-14
-48
18
-10
4
64
-33
68
-4
60
1
57
16
51
-32
-33
5
-36
31
-40
-2
113
46
71
-16
0
-1
-54
32
25
-11
56
-6
29
-39
-8
14
-35
-36
-67
18
1
-6
30
-25
-41
21
-4
38
-19
-127
-101
-5
-21
-108
-58
-16
13
-19
-22
-18
-37
-15
-12
32
-15
-126
-88
-5
-21
-34
-38
6
-13
-9
-27
3
-3
-9
-2
11
-3
10
-3
-23
-2
-4
12
-15
4
15
-25
9
7
7
-6
26
-12
-13
-28
-123
-65
60
-21
-97
-47
0
-96
19
10
15
-127
3
-8
-20
-23
-7
-45
48
16
9
-3
15
19
18
34
12
-18
3
-18
-4
16
-20
20
7
34
-14
-24
-19
-6
17
7
-26
-9
0
-39
-11
0
-113
-10
-29
-23
-110
-100
-32
-114
-26
-6
-32
-108
23
2
-2
7
-5
-10
2
-2
-6
-20
23
-16
9
22
-1
0
0
12
12
8
46
10
-23
24
35
35
-10
17
4
-9
-15
38
11
0
-4
13
104
5
5
-9
65
56
23
51
3
14
-8
58
-21
7
13
-2
17
-3
-5
-10
-3
23
-8
6
-22
-17
-21
17
-3
8
8
-13
14
10
7
31
3
-20
-23
-10
7
-5
6
4
-15
-18
10
-5
-12
0
-37
16
-2
24
-7
-6
-32
-51
5
-55
-3
12
37
27
3
-31
-12
-13
5
-29
19
-23
6
-45
0
41
-18
-15
-18
42
-6
47
24
41
7
-7
1
37
40
25
5
-42
56
-3
-30
-35
-6
56
3
31
-12
55
21
-127
-1
-41
3
84
5
10
-3
64
18
-41
-40
-43
-19
-35
20
-1
-8
-65
2
-56
-9
-17
-47
-13
8
41
35
13
11
24
-22
-10
-1
44
1
25
-5
-5
-58
-28
-14
13
6
17
15
5
-1
-33
-1
15
-32
16
-19
-33
0
26
-16
-36
-15
-34
-33
-47
7
-32
9
-29
-22
-31
18
11
14
21
-11
-11
-38
-26
-19
29
24
-49
-29
-48
-8
24
-70
-5
1
-12
28
-28
16
-27
11
34
-23
30
-24
-39
20
6
47
7
11
30
32
3
33
23
16
-18
30
-18
53
50
16
-3
-53
-9
-38
7
22
-20
-83
-35
33
44
-75
44
-125
-56
-12
38
-127
-60
-110
-85
-28
-32
-57
-41
-13
25
-119
-14
-113
-63
-11
6
49
-6
60
16
-6
6
49
17
10
-25
41
-5
84
82
17
-36
-18
-19
-17
3
-7
4
-17
9
31
4
-11
-6
-16
-3
0
-5
-32
-22
-29
-2
-2
8
-3
5
1
31
-13
-2
-42
17
-24
34
17
-12
30
22
-8
30
25
28
-4
-23
4
-5
47
32
6
18
-32
-24
-19
-25
20
14
-30
-8
51
21
-63
20
-64
-30
1
44
23
-19
34
13
-19
-2
-36
-24
-24
14
-17
5
-11
-56
-19
16
-3
-20
-10
-8
32
-22
-28
-19
40
8
3
28
-21
-30
-32
39
9
-17
-18
-25
-3
4
11
7
3
-10
8
26
31
66
8
-45
25
-48
24
7
-92
9
-19
-2
-52
-38
2
-69
4
42
-48
-72
9
-18
44
59
14
10
-26
-3
10
15
6
-5
-13
-3
-35
39
0
12
31
-30
-30
10
55
5
-27
-29
0
-1
34
69
23
5
35
15
14
-24
-127
6
14
-15
-118
-52
55
-91
60
40
4
-59
64
29
78
18
-17
-7
6
-3
-14
-22
69
13
96
11
-30
20
-31
-6
13
-33
-10
20
-97
-89
-7
46
-29
-48
-69
-85
-22
19
24
34
54
57
10
11
-73
-84
-24
2
76
-29
10
-65
1
61
38
-9
27
43
-23
-50
50
-115
-97
-26
97
-55
112
33
10
-28
21
-11
4
-25
78
42
12
-59
81
73
53
20
-51
-44
15
17
6
-73
91
-24
-26
27
39
-49
39
39
-43
61
-42
-24
-14
-6
16
-127
33
-93
-99
-2
44
-102
-63
-66
-109
-26
-57
-38
-16
-92
-12
-52
-91
-57
28
62
59
-52
96
54
-36
49
-37
19
19
1
2
-87
-59
-65
-42
46
123
-38
31
11
-26
13
38
54
-1
12
52
-55
65
58
-60
54
68
-63
-78
-27
55
-29
73
-57
-16
-92
4
11
-4
24
10
8
7
8
7
-6
8
15
5
-18
4
9
-14
0
3
-8
-4
22
8
8
3
19
5
-27
-6
-26
6
-3
10
-9
8
-26
9
9
15
-4
4
-7
3
9
7
-5
4
2
8
-32
25
-21
2
2
-32
15
-6
-4
5
-28
2
17
9
3
-2
-12
-90
-91
-11
6
-82
-2
-22
-22
-19
-127
-40
-31
-4
21
1
24
-25
27
15
-21
-3
-20
-13
-7
-6
-12
4
-11
-4
8
11
6
-7
1
2
-7
11
9
-3
-7
1
-4
14
9
8
-1
-10
7
-1
-3
7
-10
-14
-7
-7
-11
-4
-14
3
-12
9
6
6
3
25
-2
-5
-19
14
-17
8
12
7
10
10
13
7
6
-12
20
23
2
9
5
-54
13
-2
-16
7
1
-4
7
-9
0
-1
-12
32
-39
11
27
-39
10
-5
15
-5
-10
2
-25
-3
36
-14
-6
6
-57
22
-13
8
9
-2
1
-11
0
0
27
-10
-14
-21
8
-48
37
9
12
-15
2
1
1
-5
-1
1
-33
6
7
-77
2
-127
26
-17
2
-9
-24
-2
-12
-32
-16
-31
-85
-15
31
-90
-14
-82
35
2
-22
-20
-19
4
3
-28
29
-9
-40
-7
-77
-1
-1
2
-15
-11
17
10
0
6
-12
-10
-4
-9
15
-6
-13
-24
-15
-16
-2
-6
19
12
-9
6
-12
-13
53
-7
7
-3
-3
-14
-18
-4
-21
-20
16
-12
-3
1
0
-4
-30
-17
-4
-6
-43
-6
20
-9
9
3
-3
-5
5
-5
-8
6
-3
-2
-29
-1
19
-37
7
19
6
-4
0
-4
4
-14
6
0
-23
-8
-37
-1
-20
25
10
4
-11
-14
9
-10
-15
0
-3
-18
-32
0
-23
2
-10
-29
-17
19
-15
-11
-4
-10
20
11
-12
2
27
-4
21
-1
-17
-64
-25
1
-40
-2
15
3
11
-10
-14
-22
-58
-24
0
-9
-4
-22
5
5
-25
-10
22
-3
-10
-10
-34
-14
-127
-12
-29
-7
8
-7
-5
-23
-7
3
-2
-4
13
-1
-8
-3
4
-4
-9
10
7
7
-5
-50
-25
2
-2
-32
11
3
5
-1
-4
-1
15
-12
-17
-9
9
6
18
-3
-7
19
-11
-6
-19
32
-38
8
-4
-3
-8
