6632
1518
25834
29716
26804
5986
4302
6501
-1874
3765
1217
11706
11011
16247
7819
10474
-337
10079
8812
3539
16224
20025
6059
16415
6749
28159
17368
28431
6476
8975
32437
4845
12041
15878
26855
27710
5361
4679
-683
12048
11918
8940
38849
3165
26061
3408
20524
11780
6367
26386
753
4248
12153
10210
10613
6897
818
1303
6404
7644
10162
12542
8873
2718
