5
56
6
11
0
28
-81
-5
-3
6
-3
-9
14
-1
1
9
-11
4
-3
0
-10
0
0
4
-7
-66
-9
-6
-65
-63
-4
8
10
6
7
-15
-7
44
-14
-5
-1
11
8
-5
-6
5
0
0
10
18
8
2
-10
15
-6
23
17
30
-3
18
-37
0
3
9
-8
127
-3
4
57
16
-110
12
22
-1
-19
-34
-2
-1
-20
1
-15
11
16
-6
7
9
5
-41
-8
-81
10
16
-63
-83
3
10
15
-5
25
-91
4
90
-20
3
-3
4
7
1
-19
28
4
-83
-3
-29
1
-4
-13
14
17
20
5
57
12
13
-27
-2
10
31
-11
60
-2
-2
4
-4
-79
-2
-13
1
-16
-18
8
-4
-8
-5
-11
2
3
-5
-12
4
-4
29
1
-63
7
-2
-44
-52
-10
-1
17
-3
14
1
-4
64
-11
4
2
4
8
-8
-9
10
3
-27
12
-4
-15
-16
7
24
19
10
-5
31
7
-11
-45
-2
9
-10
-3
36
-1
-1
4
-7
-51
-1
4
-5
-22
-6
-2
-3
-11
-8
-7
16
7
2
-5
-11
3
-3
3
4
-1
6
36
-28
-12
3
8
12
3
-7
-9
-19
-8
-12
-3
6
-5
3
-1
9
3
9
0
16
-1
7
1
7
-9
-29
-5
2
-1
17
-36
5
1
-3
-5
13
-11
-10
-28
-3
-47
-31
1
-11
6
-20
-7
-22
-41
17
-2
-14
-5
-22
-12
7
1
-28
-3
7
5
-7
31
-26
-9
-7
-4
-13
-24
-19
7
-38
4
10
-16
-7
-11
-5
8
6
-20
-38
-9
-23
-19
6
3
10
4
-12
6
-12
1
6
-45
11
-27
0
0
14
4
-3
-7
-5
-55
3
-2
-3
-14
-26
0
1
-12
8
-4
2
9
-4
-6
-8
0
4
21
12
-8
-1
25
-14
-8
14
4
-11
-3
0
-3
0
-5
-3
1
7
-1
-7
-2
7
2
5
-2
-8
-6
-17
0
5
-1
14
-7
-5
3
-17
-39
-6
-4
13
11
-10
3
-8
9
8
-18
-7
-10
-17
-14
-2
2
0
2
2
7
5
3
-1
3
1
4
-2
-2
1
-7
3
16
-1
-10
1
-1
4
0
-2
7
8
-3
0
-7
7
-10
3
-2
5
3
-6
1
5
-4
-2
-2
5
-4
-2
-7
-2
3
2
1
-1
-6
-3
3
-22
-6
1
-11
-6
-39
-3
-8
-5
3
8
-4
-7
5
-4
-1
-1
2
-1
-1
3
1
-15
10
4
4
9
8
-5
-2
14
6
-6
6
-8
14
5
0
4
-5
-4
-20
1
-5
12
-3
-8
-1
-11
-11
-7
-3
3
-7
12
1
-7
1
9
1
4
-11
-9
11
0
-5
-4
-8
-2
-18
5
-9
-14
-8
-5
-1
-9
1
7
-1
6
-2
3
-4
0
-1
-2
6
12
-3
-4
16
-6
9
9
4
2
-2
-4
-4
1
-2
-5
-3
-3
-8
-6
-4
0
8
-2
0
-6
-5
2
0
0
1
1
-6
-1
-8
-5
0
4
-5
6
-4
2
-2
3
-3
3
3
-2
0
-1
1
2
3
8
-3
-1
0
-3
0
-2
-4
-2
1
0
1
1
6
2
1
-5
-2
-3
3
-1
1
1
-3
6
-2
-22
0
0
3
0
-2
4
0
-2
1
2
1
2
1
-1
2
0
-1
-1
6
-2
1
4
0
-1
-1
5
-5
-2
-7
9
2
-3
10
-2
-1
-19
-2
-9
2
0
-1
14
2
1
4
-2
2
0
-3
2
1
-54
0
-11
2
-1
-1
6
-1
0
-2
12
3
18
0
6
2
13
-2
1
-1
0
-10
-22
5
10
0
-3
1
0
1
17
7
-2
-2
-28
10
-2
0
4
0
4
16
-2
5
3
3
1
-12
2
-2
5
3
4
-1
3
12
3
6
0
4
-8
-4
0
-1
-3
-1
2
0
-10
1
-2
2
-10
3
-1
2
3
9
-4
8
14
-6
0
0
8
-1
4
1
6
0
-2
-3
-1
-2
3
0
-2
1
-2
1
-18
-1
2
-3
-2
-1
3
2
1
-1
-2
0
-2
0
5
-4
-2
1
0
-3
-3
-1
-12
-3
-3
-2
2
-10
6
5
-3
-15
1
0
13
2
2
2
3
-3
-23
5
1
2
-1
1
1
-2
2
1
5
1
2
2
3
4
-2
-2
-2
0
2
2
3
-6
0
-3
-1
-23
3
-19
6
-3
-4
-4
2
2
-60
-1
26
5
2
3
-127
-1
-4
6
-14
1
-11
-4
7
5
-86
-6
-13
-6
2
2
-13
-17
3
3
6
16
37
3
-44
3
28
-12
-24
-15
-9
1
-24
4
52
8
-3
-17
36
-1
0
5
-2
-6
-34
-36
-2
0
3
-10
-1
14
-6
7
2
4
0
9
20
2
-3
6
-3
-4
8
18
12
7
-4
-1
-11
63
-1
-2
-7
-1
1
-4
33
1
7
1
-2
5
7
0
0
8
21
8
42
7
-3
-13
11
-2
-5
15
0
-5
-6
-14
9
-7
1
5
-1
7
1
4
-15
3
5
3
-1
1
3
1
-1
0
-2
-1
0
0
4
0
1
0
0
2
0
-3
-3
0
-1
1
1
5
0
-1
-5
-2
-1
3
-3
-1
-1
2
5
-2
-20
-2
1
2
-2
0
0
1
2
-1
1
-2
2
-6
0
-2
4
0
-1
7
-1
-1
1
-1
0
5
-7
8
1
-5
6
-7
1
-2
1
1
21
7
3
-1
-2
-5
4
-2
-1
1
-5
-2
-6
-1
5
0
-53
0
2
0
-1
3
8
0
-6
0
-12
3
23
3
-18
5
3
-1
-4
-3
-1
0
-18
2
4
-9
-1
1
-8
4
0
7
2
2
-15
-10
2
1
0
1
1
17
-2
3
6
2
1
1
-8
3
-1
-1
4
26
2
5
0
2
0
1
-5
-2
0
-1
-1
2
-1
1
-7
-2
5
0
0
2
4
-1
7
11
7
6
15
4
3
-3
2
0
2
-1
-1
1
1
-1
-5
2
1
5
0
-3
5
4
-10
2
11
-22
1
5
26
20
-16
-1
-1
-37
-8
-1
1
4
3
-5
2
-10
4
-15
1
-3
6
12
5
13
9
-3
14
1
-30
-6
-4
5
11
23
29
-4
-3
-60
-20
10
-7
54
6
11
3
5
0
35
13
-1
4
13
2
-18
9
-10
-64
7
-14
26
-40
3
7
-19
10
7
81
-4
14
-9
-10
-2
-4
2
-1
-8
-10
4
-1
5
-1
-3
-6
-2
-4
-20
3
2
-8
-7
-8
-4
4
0
-7
3
-33
-66
6
-14
-3
-16
-2
6
-1
-84
2
-7
-11
-22
-13
-25
-4
3
-11
4
6
67
7
0
-68
-9
1
34
-74
-8
-2
7
6
7
4
-2
0
-1
5
6
2
0
1
-5
2
9
-6
1
1
0
-2
1
-5
-4
-3
-3
-2
4
-18
-10
-6
9
1
5
0
13
-2
-2
-1
4
5
5
2
2
1
-3
-6
1
0
0
-5
-6
1
-3
3
-22
-6
9
-25
-7
-2
-5
8
4
10
-83
-5
5
14
-1
-94
13
-4
47
-5
3
3
27
-22
1
7
-93
0
1
-107
-10
0
17
3
10
17
-2
34
8
-88
-11
-15
14
19
14
19
-10
27
-111
-53
31
-3
-51
29
1
1
-15
-28
115
-2
-1
15
2
-16
-17
-4
15
-78
-1
-21
-9
-23
2
-14
-91
8
14
103
-11
-78
-3
-1
38
-11
-11
-6
-3
-57
10
-11
24
1
-17
14
2
-57
-29
6
9
5
2
-11
4
-15
18
-9
-28
-6
-56
-6
-8
5
-90
8
-13
3
67
-28
-45
-23
10
-8
-127
-12
7
-26
3
-4
39
18
2
-59
22
6
-76
-77
-5
-10
-10
4
6
-6
-5
0
-8
8
-27
-2
-1
-3
-1
15
17
-5
6
3
-2
6
-4
-2
-5
2
-3
-1
6
-8
-1
9
7
-5
8
1
9
-3
-5
1
1
-1
8
-12
-11
3
3
-6
-4
7
7
-10
0
3
4
7
-8
0
3
-53
-23
3
10
11
49
-11
47
-1
9
43
6
-19
4
1
20
3
6
4
-6
19
2
11
26
2
10
-14
2
20
12
-8
10
3
-10
17
5
-27
-3
2
3
-10
23
-4
4
1
-80
-28
18
1
-8
-6
5
5
-7
-5
31
4
7
3
6
20
-12
2
-8
-65
-7
-5
-1
-45
-15
-12
-17
-1
-9
48
-22
29
4
-4
2
3
2
-2
2
-11
-2
2
5
-2
-8
2
3
12
-7
6
6
-2
2
-11
2
-4
10
-5
7
3
-68
1
2
-1
-24
-2
10
-5
0
-7
4
-2
7
-6
-9
-10
-17
-3
3
10
55
9
3
-72
6
6
-26
-42
-6
0
-3
4
7
-6
4
-3
-3
3
-7
-3
-1
-6
1
14
-3
-4
1
3
-6
1
-1
5
-2
7
1
0
4
-10
-4
-1
1
-3
2
3
23
3
-5
1
5
-3
3
-2
4
-3
1
-1
-4
2
5
-6
1
4
3
0
-21
-5
0
-25
-2
1
4
2
-4
2
-2
5
2
5
4
-2
-3
0
1
4
-3
4
-3
-2
-1
-1
0
-1
-2
-3
2
0
2
2
-10
2
6
-12
8
-8
4
-2
1
-2
-1
2
-4
-16
-1
2
2
3
-9
2
0
0
4
1
-1
3
1
2
3
-2
4
-2
-2
0
-5
2
-4
-1
-6
0
-9
5
-24
9
1
-1
0
-1
0
-6
-1
27
2
-1
7
11
0
1
1
-2
2
-4
-4
-1
42
-40
1
-14
7
-8
3
-7
-3
-13
2
24
-1
-58
-7
5
-1
5
-10
7
-7
-2
-12
-31
2
13
0
-2
6
-1
9
14
-73
-2
-6
-17
10
-7
-4
11
2
-1
-1
3
10
0
2
-2
-22
-23
7
-4
9
7
5
14
11
-3
-6
-4
-2
3
-11
5
62
-93
-10
13
-17
-18
5
-5
2
-3
2
9
-1
56
3
12
26
-13
-2
1
4
4
-4
-20
5
6
4
2
-23
-6
3
9
-18
3
9
-39
18
-13
-3
-2
-9
1
4
3
7
-3
-1
3
-7
-1
-3
5
-2
-6
-3
1
-5
-1
0
-10
-3
-6
0
2
-10
8
9
-14
5
-3
1
4
1
0
2
-1
3
-34
3
4
0
0
5
3
-1
3
-1
1
-4
0
0
2
1
-9
-2
-6
4
4
-7
-3
-4
2
-7
-4
-40
-1
-52
9
-8
-23
-5
3
10
-39
-1
-85
-13
13
11
-85
-3
-7
3
-11
2
-15
-4
3
34
-62
-3
-8
12
9
14
-82
-33
-8
1
12
3
-80
7
-75
2
17
5
-44
-24
-14
1
-101
2
27
1
-18
-3
11
4
8
-102
3
5
-21
-39
-12
2
6
1
3
3
4
6
2
3
3
37
-98
14
67
30
0
4
-62
20
13
5
6
-2
-5
28
6
96
-127
0
24
-19
-3
7
-17
0
-1
10
13
-8
101
-6
-63
27
-80
-6
18
0
5
0
-24
13
31
2
5
-19
-5
5
6
-33
13
25
-48
-16
-35
5
-1
4
2
2
5
4
0
-2
2
-4
2
1
7
-4
0
-5
2
1
2
-1
1
-2
-1
1
4
-8
-5
2
-10
6
-7
3
-4
0
2
3
2
0
-18
0
0
2
0
4
-3
1
1
-3
-3
1
9
-4
0
0
1
5
0
2
1
3
-4
-1
1
11
-2
6
-5
-20
8
2
-1
1
1
1
15
5
-5
6
0
-5
14
-1
1
-1
-5
0
-4
2
-7
35
-49
-6
-18
3
-5
7
12
0
1
2
-16
-2
-65
0
-21
2
-2
-1
-5
-3
2
-3
-34
3
-4
-13
-3
10
-6
7
2
-96
-2
2
-24
-14
-7
6
-4
4
0
11
8
-2
9
7
9
10
15
10
19
-15
0
39
-8
2
-5
8
4
6
17
2
2
78
-105
0
25
-6
-17
2
1
4
-4
-1
7
0
67
2
-13
21
5
3
-6
5
-1
-3
-23
5
14
-4
1
-28
-10
5
7
-14
4
-7
-18
0
-8
-7
-89
-5
-3
3
14
66
-1
2
5
-10
5
5
1
-38
-1
3
-2
2
-19
-2
2
5
4
2
-30
-3
-5
15
26
1
-4
5
0
5
-1
-1
37
-6
2
6
2
18
-2
-10
1
7
5
14
-7
7
1
-7
0
0
-7
13
9
-2
8
-67
-5
-1
4
-3
-91
-43
1
44
12
73
14
26
-2
-13
-11
0
-9
-66
6
1
2
10
-93
13
-8
7
4
2
-34
4
18
-1
46
3
-1
10
13
6
-46
6
67
-13
11
11
4
13
13
-22
17
8
12
-85
2
10
-1
-3
-30
4
2
7
56
3
1
-68
10
3
32
-2
-77
9
-1
12
4
78
-6
1
-6
-22
-2
2
0
-43
-6
-6
3
0
-32
0
3
2
16
7
-11
14
2
2
19
2
-4
14
2
4
-1
-1
37
-3
18
-8
4
22
-3
-5
-3
10
14
7
-3
10
-2
-3
4
4
2
-3
9
2
-5
-70
-2
-5
-11
3
52
-10
1
2
-4
-20
-1
5
0
-5
1
2
-2
-40
2
-4
3
-3
-10
2
-5
6
0
1
-39
-2
5
-14
-33
4
-3
-11
7
0
-2
-5
-4
-3
-6
1
2
2
-1
-1
4
-1
21
-1
9
-4
1
-3
4
0
-16
-1
4
0
4
-44
-3
2
2
-3
39
-83
1
6
-3
-16
-2
7
-1
-8
-21
4
0
-127
17
-3
-13
-12
-91
-1
1
7
-11
4
-29
-3
-2
4
-38
-5
-8
-29
-16
-13
-25
3
-5
11
3
4
-7
-5
-2
3
-26
-2
11
-2
-14
-11
10
-7
-32
4
-7
0
-2
3
3
-42
10
-11
-3
-2
44
5
-1
-6
-4
-26
-2
6
-1
-1
-14
4
-2
-58
4
1
0
2
-34
-3
0
5
-5
18
-15
-3
-6
-14
-17
-3
8
-12
-7
-2
10
6
20
-5
-1
-3
0
5
-8
-1
5
-1
33
-4
-4
-8
3
-10
8
7
5
7
1
0
-8
-27
1
1
5
-1
4
1
-5
4
1
-10
-1
5
1
-1
-1
1
2
1
-1
3
0
-3
2
-1
0
1
4
-1
-9
2
-2
6
-6
-2
0
-3
4
1
2
1
5
-4
-3
-1
0
-3
0
-1
0
0
7
-1
4
0
0
4
0
0
0
-3
0
2
2
-2
-2
-1
-4
3
-1
-4
1
-6
0
-25
1
2
7
5
-2
0
0
1
-3
-1
0
0
2
-1
5
1
2
2
-6
-1
2
5
-8
-1
5
1
-2
-2
-1
3
-1
-5
2
1
-5
-7
-5
-3
2
-4
4
-1
-11
-1
-5
4
1
-5
0
-3
-4
0
-1
-2
1
-11
-6
4
5
0
-4
-3
2
-10
1
4
3
1
-2
3
0
0
1
10
0
-2
3
1
2
2
2
-4
-11
-3
-1
8
-7
5
-1
-3
-3
1
0
-5
5
-3
-3
1
1
0
-3
-1
-1
2
4
-3
-2
1
-1
1
0
0
-1
-5
0
0
0
-6
0
-2
2
-5
-2
1
4
0
-3
0
0
-9
-2
2
-1
4
-1
0
-1
1
-2
-3
2
1
1
2
0
1
0
-1
0
-9
1
0
-1
0
-3
-2
1
2
-2
-4
-4
-2
-4
-1
-2
-1
3
0
-1
0
2
0
-3
1
-2
2
1
-3
-2
1
-3
2
1
-6
-5
0
0
1
1
-4
2
3
-2
-17
1
1
3
14
6
2
-1
-2
0
2
3
-13
1
5
-2
2
3
-3
-2
0
2
2
-4
-5
1
-9
1
0
0
-10
1
-2
5
-3
-2
2
3
8
-2
-4
-7
-3
-3
1
3
1
0
-2
-4
-8
2
1
3
-6
-6
-1
2
-1
2
0
2
-1
0
-11
2
2
0
11
0
1
-1
0
2
-1
0
-11
1
9
2
1
2
-2
2
-1
-1
2
-2
-1
-4
-5
5
-2
-1
-1
-5
0
-1
-2
2
0
1
0
0
0
-3
-2
-2
3
-4
3
-3
-5
0
-3
-1
1
-1
-7
5
-4
0
-1
-8
-3
-5
1
0
0
-7
-21
-1
-1
4
1
-1
-2
-1
0
0
-12
-3
2
-2
4
3
-2
5
0
2
5
-1
2
-11
-4
1
1
-3
13
-12
-2
19
22
3
2
2
0
2
1
-19
-7
7
5
-3
3
-4
-3
0
2
-2
4
1
-12
7
1
6
5
-15
-2
-1
4
7
18
-19
-31
6
-3
-12
-2
-7
-3
-8
7
11
-1
0
-4
4
4
2
2
-3
1
10
2
3
-4
-3
-127
12
13
1
31
2
-2
-23
33
-1
-7
-17
3
-9
1
21
-5
-2
10
-2
3
1
-2
3
-5
8
-5
4
-69
10
0
4
3
-8
4
-1
1
-7
11
-11
-36
5
0
-3
2
0
-3
3
-3
6
-5
2
9
4
15
0
-2
-1
-1
0
3
-1
-3
1
-26
-8
2
0
12
-2
1
-9
43
-15
0
6
10
-4
1
9
-11
-7
4
-1
9
2
2
5
1
-2
7
4
-14
-18
11
3
2
0
-1
2
0
6
6
9
-4
-3
4
-2
0
2
-2
2
1
5
0
7
-4
4
1
-3
1
1
-2
0
5
-3
-10
-2
-7
0
2
-2
7
1
6
-2
10
0
2
1
-1
13
-1
-10
5
-5
6
4
0
0
0
2
3
-2
0
2
2
4
10
9
5
0
-8
5
8
9
10
3
6
8
-1
2
5
-3
3
3
6
2
17
-7
-6
-5
1
-6
6
5
-5
11
4
-11
-23
9
-31
-5
4
3
-9
0
15
11
5
5
7
-4
32
10
9
11
7
0
75
17
7
-1
-2
9
-6
-1
-1
3
23
17
4
10
2
1
4
-7
2
2
12
5
7
2
5
4
-5
-4
34
3
-1
4
20
-3
-7
10
1
-5
-3
2
-4
4
4
-7
-18
6
-12
3
1
5
-1
0
-9
13
16
-6
3
1
-5
8
-1
-1
11
-3
16
2
7
1
-8
2
1
-3
-1
-2
7
-8
12
3
-2
6
-1
-4
9
-2
3
1
5
2
-3
-7
-1
-4
3
2
-3
4
-4
0
1
9
-2
8
-16
0
-29
-8
2
1
11
1
-2
0
0
5
-7
8
-6
1
-10
3
-7
-3
-3
4
-2
0
-5
1
1
7
1
-3
2
-5
23
-2
0
9
-6
0
10
2
-16
-1
8
-9
5
-10
-9
1
7
17
0
-4
-15
-8
-5
37
-5
-30
11
-3
1
7
-2
-1
1
-8
-22
-2
3
0
-14
-47
5
-4
2
1
2
-14
-10
2
-9
31
7
-11
7
0
46
-9
-7
1
-10
15
-1
-1
1
-94
-24
2
9
-8
11
-17
6
-3
15
3
-12
-7
2
-13
-1
6
10
-18
-11
-11
-23
0
4
10
-2
4
4
3
-4
5
2
-3
3
-15
-4
0
6
14
-23
-13
10
10
-3
-1
-5
-9
-15
2
-34
-24
2
-6
-2
-8
0
-12
-9
2
-1
16
-13
6
8
-42
-9
11
5
-5
2
2
-3
-9
-3
-1
20
-4
-37
5
-3
-5
-1
0
-4
-1
1
-3
-1
-1
-4
0
-4
-17
-2
-3
-2
-10
7
5
-3
-3
-2
1
2
13
-2
-6
-3
-6
-2
-1
5
1
-5
3
3
-1
-2
-4
-1
7
-2
-2
2
3
1
10
-7
-1
6
-1
31
0
-1
-5
2
-20
12
3
-50
2
-32
-3
-2
1
-6
-21
-2
43
23
-11
1
-127
14
21
0
-13
-3
22
3
-5
3
-47
-4
-7
-1
9
17
64
4
0
2
-43
9
-2
6
-19
4
-14
-3
6
-2
12
0
-22
-3
26
-4
26
-5
21
2
4
-10
1
25
-11
-16
-9
2
-18
-9
5
-45
7
-74
12
-7
6
15
29
-1
2
40
-3
1
4
-6
17
-3
-1
-7
-19
31
10
-5
-1
-7
-9
-1
-2
23
7
0
-14
-12
-48
-1
-7
3
21
3
22
2
-7
-13
22
-5
2
30
-2
17
5
2
-17
-8
4
-3
1
80
-2
-1
-22
0
-3
2
1
0
2
13
1
1
-2
2
1
-1
-6
0
0
-2
1
2
-2
0
-6
-3
-1
0
-1
9
-1
7
-7
3
-6
-3
-4
1
-3
0
-3
1
-2
7
-1
1
-3
-2
-1
1
4
0
0
3
1
-2
-3
-8
1
2
-4
-19
-2
0
2
2
2
4
-15
8
-2
3
0
-4
0
-4
-2
0
16
-1
8
-5
-1
-10
-9
-7
1
5
-2
2
-1
2
1
4
-36
1
18
-5
3
1
11
3
-1
-1
-4
5
8
4
-3
8
6
-1
-5
-1
-1
3
-7
4
3
4
-3
-8
-4
0
2
9
4
-4
-8
3
8
-3
-18
2
-3
12
-5
17
1
-3
-3
6
5
-1
-1
-4
-2
14
9
1
-2
-1
-1
-1
0
6
4
-4
2
8
1
2
3
-5
3
2
-8
-2
-7
3
-2
-6
8
9
-8
0
-3
-5
11
3
14
10
4
-1
-5
-1
-2
2
1
5
4
-3
-2
5
-12
1
-1
-1
3
-1
3
0
-5
-6
0
2
0
5
5
-1
1
-1
-1
11
-1
0
20
-8
1
2
-3
-1
3
-17
-2
-3
-3
1
-6
1
0
6
-12
3
0
-11
-5
-15
-1
-1
-4
0
-4
5
3
-4
-3
-1
1
-4
-6
2
-1
6
3
-1
4
0
3
2
2
2
-10
-10
1
-2
0
10
-2
15
0
0
-4
-7
-9
-7
-4
-3
2
-3
1
2
2
1
2
-2
1
-5
-3
3
2
0
7
3
19
2
-10
1
-3
-3
2
-6
1
10
-7
2
-2
7
10
1
6
-4
3
1
2
1
-2
0
-3
-6
-1
-4
28
1
4
0
-1
-1
-10
-3
1
-1
-2
-6
-5
-1
-3
3
-1
1
-2
-1
5
5
-2
1
-1
4
-1
-1
0
-4
-2
2
6
-4
0
3
-2
0
-5
-3
-3
-1
-1
-2
2
0
-6
4
4
-1
-2
0
1
0
2
-3
1
2
4
0
2
2
0
2
-3
0
-1
0
0
-4
-4
4
-16
-2
-4
-1
-11
12
-12
-5
1
3
3
-2
3
-11
4
15
4
1
3
-2
-8
-3
-6
-6
-6
0
7
-9
-3
1
-4
13
-3
-5
3
-16
-3
-5
1
-12
3
-1
8
6
-8
1
-1
-2
-31
4
-1
-1
-5
-6
8
0
12
7
-2
23
10
-11
-6
-1
39
-2
0
-65
-15
-4
3
-3
-127
0
14
21
-11
-22
-5
-6
8
12
-6
2
8
1
-1
4
10
-6
4
23
-19
-17
-3
-123
-7
15
4
0
-3
6
32
37
-1
6
-9
-18
1
8
22
-7
12
2
10
1
2
-3
-13
22
-39
-1
2
1
9
1
-7
6
2
-6
-13
16
-4
0
0
4
7
5
2
1
6
6
-2
1
-1
-17
3
0
-2
-2
-1
-4
-10
-2
0
-3
0
-18
0
-12
-4
3
13
-7
0
0
-3
-11
6
3
1
-4
0
-1
-4
-14
-3
0
-3
3
-2
5
-1
14
8
-58
5
3
-1
-8
3
-7
4
9
6
-5
12
-1
1
0
1
0
-4
-4
0
4
-3
6
2
-4
-1
3
-5
-5
5
-2
-5
3
0
3
-11
0
3
-2
-7
1
-2
-1
-1
2
2
2
-10
1
-1
0
-4
-5
-3
7
7
6
-2
0
7
2
-6
1
-5
-14
2
4
-12
-7
6
-4
-29
0
-18
18
1
5
1
-9
7
-11
-4
3
-9
14
7
4
-2
-10
-2
-2
-8
-5
-1
-3
-10
3
-2
-23
1
0
0
7
3
-11
-2
-7
2
-7
10
-28
0
1
2
-1
4
5
7
1
9
14
6
-7
5
3
3
-2
-5
-4
-4
2
0
-2
6
-4
-3
-1
2
4
-1
-3
0
-2
8
-77
-2
1
-1
5
4
5
3
-10
2
-2
1
-3
4
-5
-6
-5
0
-2
-5
3
-9
-3
0
10
-2
-11
0
-1
-2
0
-1
4
-1
-8
-1
17
1
1
-1
-6
0
-5
5
2
0
-3
1
-1
3
-1
10
1
11
2
-5
-40
-10
-1
6
33
4
4
-1
1
6
-2
-2
-25
-12
34
-1
-2
0
2
-7
12
-3
-2
3
-1
9
-7
4
1
0
-10
0
-8
-7
-6
7
-1
5
11
-2
2
16
-2
-8
5
5
8
-12
2
3
1
5
0
-1
-3
0
4
0
4
-4
-3
-1
0
4
-10
1
-1
-2
6
-1
-7
-4
-3
3
8
-4
-21
-3
-27
1
8
-4
1
8
-2
4
3
-6
0
1
7
-12
-4
-2
1
-5
-7
4
4
2
-25
-2
2
-7
-5
2
-15
-9
0
3
-2
2
0
2
1
1
4
4
-1
-31
2
0
2
6
-5
6
-2
4
-9
-1
8
-4
-1
3
0
0
-3
1
-1
7
17
1
-12
-2
4
-1
2
0
-6
2
-2
-2
-3
-1
-4
-1
13
0
-3
0
1
6
2
0
-1
4
-5
0
2
7
10
3
-4
-4
-2
1
-11
-5
0
-11
0
4
-5
9
-16
9
-2
-37
-4
14
-3
4
58
-26
-52
-19
-7
-4
1
15
3
2
2
-7
61
-42
-4
5
-12
-5
0
-6
1
13
7
-8
-6
0
-62
-7
10
9
26
9
-6
22
61
7
-6
16
10
-4
6
-72
5
-23
-12
3
-4
-8
19
-1
5
25
1
-34
-52
15
8
8
-39
-11
6
-1
1
-127
15
-43
-25
14
-20
2
2
41
-4
-4
-2
4
10
10
1
-47
-13
0
-4
4
-11
-1
8
-24
5
4
-95
-4
-5
-1
27
8
-46
-3
5
14
-30
-46
-63
6
4
-14
-15
-13
16
-10
9
-10
9
-20
-4
-3
-5
4
-28
-2
2
3
5
-5
1
0
1
-1
0
-32
-20
0
-4
3
2
14
6
5
0
-1
-10
-1
8
-1
1
-4
-1
3
4
-1
12
17
4
4
13
-8
-3
-3
-13
2
1
-6
-6
-11
-3
8
11
6
-1
-10
2
-5
1
4
8
7
-7
4
1
-17
0
-2
-6
4
72
10
-10
-10
-24
16
-9
-6
20
6
1
16
2
9
0
-3
13
15
11
23
14
90
11
-11
-4
1
1
-20
-19
-1
-15
-10
-16
-12
-3
0
-7
2
-7
2
20
-14
23
1
8
-10
5
-34
4
5
20
17
107
1
-4
-28
5
3
9
-4
-3
-16
-22
5
-2
0
31
-2
12
10
5
-49
7
4
10
-32
15
3
-18
13
22
0
22
-16
14
7
12
10
-9
0
6
-7
-6
16
-2
-12
-24
-6
-4
5
6
11
10
4
-29
18
8
-7
-10
9
-11
-3
5
5
65
-4
-63
-3
9
12
0
-1
7
-5
1
-3
-21
-45
1
10
-3
0
1
33
-2
0
9
3
-9
-4
4
0
-6
-5
29
1
2
-1
-3
2
10
-3
-6
4
4
4
-2
-3
8
1
-9
3
-13
-4
-11
-3
-3
3
6
2
-2
-5
3
6
-3
11
-1
6
-11
-1
-22
6
7
-3
23
0
1
-28
5
-3
-2
-1
-2
1
0
4
-1
-1
0
-4
-1
-4
-3
-10
1
-1
0
4
0
1
-7
2
3
3
0
-2
2
0
5
2
-21
-2
-4
2
2
-5
0
-1
0
-12
3
3
-3
-3
-8
-3
8
4
3
0
0
3
-2
4
-3
2
1
-5
0
4
6
-3
-1
12
-1
-2
-3
-3
-1
0
-3
-2
-2
1
3
0
15
-2
0
-2
-2
-5
-3
-2
-2
1
0
2
2
0
-4
0
0
0
3
-4
-1
4
1
2
0
7
-3
1
-3
0
6
3
-6
3
1
-2
0
-1
-4
1
0
0
0
1
-3
1
7
-2
1
-3
-3
-1
-2
13
0
1
1
0
1
-16
2
-1
3
-1
-3
2
0
-1
1
-1
-1
0
1
-1
1
0
-1
-2
1
-1
-3
0
-2
1
0
2
-1
0
-1
1
1
-2
0
-1
-1
0
-1
1
0
1
1
2
1
-1
1
1
1
1
-2
1
1
2
-2
1
0
0
-1
1
-9
-3
4
-4
1
0
3
-5
-4
-6
3
-11
-5
8
5
11
-1
-9
-19
3
-2
-11
0
1
1
5
6
3
-13
-4
-10
4
-1
-5
3
2
4
-7
-1
2
-1
-3
-5
-3
-4
2
2
8
-1
5
3
2
0
3
-3
-24
3
6
2
-10
-3
18
9
4
-1
-1
1
-1
-5
-6
-6
33
-3
4
-11
-1
-1
-1
-10
-127
-1
-8
13
-5
-1
2
0
-2
4
1
2
6
1
-1
-1
10
-3
2
-6
4
7
4
5
0
7
-10
-2
6
-6
2
-7
-1
-1
6
-16
4
1
-4
-1
3
4
0
1
3
-11
2
-1
-10
2
3
2
-2
1
-16
3
0
3
-1
0
0
3
1
4
-3
-1
0
-1
2
1
-2
1
2
6
0
2
-1
-2
-2
-2
-5
-2
1
2
2
-8
2
1
1
-3
0
4
0
-2
-1
3
3
0
1
1
5
-1
1
1
1
2
-1
-1
5
4
0
-3
0
-47
2
4
2
1
0
0
-6
-2
-2
0
-3
-4
3
-2
0
2
0
-5
1
-2
8
-3
4
2
3
3
6
-7
3
-2
1
-2
-5
1
2
1
-3
-1
4
-6
-3
-3
0
-4
1
-2
6
1
2
-2
0
0
1
0
2
2
0
4
0
-1
5
2
-3
4
0
-2
-1
0
1
-3
4
-3
1
-6
2
-3
-2
10
-5
-9
2
-2
2
-2
-1
-1
-5
-1
2
0
1
0
-1
0
4
1
1
2
-3
1
2
2
0
13
-4
-3
3
3
-1
-1
0
0
2
-3
1
3
-1
-4
-6
2
-1
3
-7
3
-1
0
10
1
0
0
0
2
-14
3
-1
1
-1
1
2
3
1
1
-2
4
1
-1
-1
1
-2
1
0
-1
-2
-1
0
1
1
-2
-2
-3
0
0
0
1
1
0
0
-1
4
2
-1
0
-1
0
2
0
-1
1
3
-3
1
-4
0
4
-1
0
3
2
1
0
1
0
-1
-1
12
7
1
0
2
-8
-4
-2
-2
4
-6
0
4
2
0
0
-3
-12
2
5
0
-2
-3
-11
-2
-6
0
-3
8
4
6
-2
12
-3
0
-1
1
3
3
7
0
-2
7
4
-5
-7
13
0
-2
6
1
-12
-4
-5
-4
-3
-5
-2
3
-11
-6
-2
0
3
3
27
-6
11
2
-17
3
21
-2
5
-16
-2
-4
-1
2
-11
5
-12
5
4
-7
3
5
6
11
0
-6
-2
4
5
-19
-3
-8
-3
-10
-1
-33
7
-7
-10
-2
-5
6
-9
-2
-2
-4
0
12
-4
1
7
-2
-8
-20
45
-5
0
7
3
-6
11
-8
-6
8
-15
-1
1
5
-4
-4
27
6
-9
6
2
-10
-18
-5
9
1
9
-4
1
7
-10
9
-7
-5
8
-14
2
16
2
21
7
-4
1
-1
8
2
7
22
-9
-13
-23
7
-6
-2
-4
-11
7
-4
-6
-2
-9
-10
0
-14
5
0
1
-16
5
9
0
1
0
-7
-1
5
-2
3
-5
-4
-36
-1
14
-10
7
10
0
-3
2
1
-6
-7
9
2
3
-3
-12
4
0
6
-15
6
6
-5
-17
8
0
-1
2
16
-6
20
26
0
-7
6
0
-2
-3
-22
1
-4
7
-5
-13
-12
-1
-1
-9
1
8
5
-7
4
2
10
0
-3
51
-2
13
-10
-14
-12
-41
10
1
6
1
11
1
21
1
21
5
15
1
-14
11
-1
-37
20
0
2
-4
2
0
21
-127
34
-1
-11
75
-53
-9
-26
0
-21
-8
-15
-22
4
-2
59
-3
-53
2
0
22
12
4
-17
68
1
-11
43
-63
13
-9
-13
-8
-3
-18
3
4
10
-3
-8
-22
-47
-6
2
-8
15
-22
-12
19
-6
-8
-13
-5
-5
-73
12
5
-5
9
-31
-11
-19
4
4
42
11
2
-17
24
6
-14
-15
-13
50
2
-18
13
1
-9
-18
11
16
16
-11
-26
0
5
2
-7
0
0
-64
15
6
47
15
-4
4
2
4
-5
-1
11
2
-6
0
8
-7
-6
7
6
4
2
4
8
10
7
1
-1
5
-6
-7
1
9
-5
4
-5
5
-5
-6
-2
-1
6
28
9
-3
15
6
0
-2
4
5
12
-10
9
-7
14
4
-34
-3
-3
-6
0
1
-14
7
8
3
-8
-12
-9
0
27
-6
13
-1
-7
-5
-8
-29
4
1
-10
5
10
24
-11
6
4
-6
8
-13
10
9
-63
44
12
27
-1
-3
-21
51
-34
-22
-1
11
21
-58
13
15
-3
5
8
-8
13
6
11
51
-2
-18
76
8
14
4
-4
-13
127
-8
-1
23
20
25
8
5
-12
6
-5
-18
3
23
0
-11
-32
-13
-10
-16
5
-3
-28
40
24
20
-12
8
-16
11
-27
17
17
-3
0
-31
-7
6
-5
-23
12
7
4
-12
7
-3
-3
-31
-15
64
17
-15
-9
5
-3
-23
1
7
-42
-1
-21
-7
-6
-20
-22
-2
1
-32
-20
2
4
-3
1
2
2
-2
10
0
-4
-5
3
0
0
1
0
-1
3
1
-1
-2
14
-2
1
-1
4
0
1
2
-8
-7
-4
0
-1
1
-6
0
2
3
4
3
0
-1
-8
-2
2
4
-2
2
9
-1
-2
-9
-5
-5
0
-3
-1
-5
-2
-1
1
2
2
3
5
-7
0
-6
7
-4
17
-8
-7
-15
-1
-3
-4
0
1
-6
-1
-3
2
4
24
4
-2
-3
8
-4
-3
1
-18
-4
-2
4
14
0
3
8
2
4
14
-2
-1
-6
-17
0
4
3
2
-4
18
2
0
-5
6
6
1
-6
0
-51
2
7
-7
0
2
-3
4
-1
0
5
3
0
11
1
-3
-11
2
-1
2
-2
0
1
-2
-1
0
6
15
-1
3
3
3
0
-1
-2
-3
-7
3
-2
6
3
-7
-12
0
3
6
1
2
-5
-12
-2
3
6
-4
4
9
1
2
0
-3
-6
-1
-1
2
0
1
10
-1
-2
1
5
2
6
1
3
5
-5
-6
-1
-3
-1
1
3
-4
-3
8
0
-3
3
1
32
-3
-2
-4
-7
0
8
-4
-4
7
7
-1
-2
-10
3
0
-1
0
-16
0
2
2
1
-3
-1
-3
0
2
1
-3
6
-5
0
5
-5
1
4
-4
-5
1
-7
1
-6
-2
-8
4
3
20
2
-25
3
-6
6
-1
0
13
2
-2
-11
-31
-1
-9
1
2
107
0
1
5
-93
11
-6
-3
-2
2
11
5
-7
-127
4
-31
20
2
-36
0
-1
2
-14
2
-3
-19
25
-7
-80
9
-11
-3
0
8
86
-8
-1
-3
-20
-1
-6
12
-5
-2
-21
1
4
6
-3
-7
0
-6
3
-2
-3
0
0
-1
-5
1
6
-8
1
1
43
-3
-2
-2
22
-5
8
-5
1
3
14
-3
-28
-54
-2
-6
-12
1
-8
-1
-3
0
0
-8
4
-1
1
-4
-25
-5
-4
0
-2
8
-25
-9
0
-4
-6
-1
-2
3
1
-1
9
-3
9
1
2
1
0
-9
-1
-3
0
0
-1
2
-1
-1
-1
0
0
0
-1
-1
1
1
0
-1
9
-2
-3
-3
-12
-1
-1
5
-2
3
-1
1
-8
2
-1
1
-3
1
1
0
2
1
-10
2
1
4
2
-2
1
-2
-2
0
0
2
-2
19
1
1
4
0
-20
-2
0
-5
0
-12
0
-4
-2
1
1
-2
-1
-2
3
0
3
-4
0
-3
-2
-1
5
-4
18
1
1
-6
-16
1
0
-11
3
5
1
1
-24
-1
2
1
4
4
-2
0
1
3
6
1
0
7
5
11
4
4
-1
0
1
0
0
28
0
1
7
-4
15
4
4
-1
2
-16
-2
-4
-2
0
1
1
0
-1
-2
6
1
0
1
-2
0
0
-6
1
8
0
-1
-7
-13
-1
4
4
2
1
0
0
-5
1
0
-2
1
0
0
0
6
-2
-3
2
3
-1
0
-2
4
-1
-2
-1
1
0
1
16
0
0
-1
-7
2
-2
3
-1
3
5
-1
2
-1
1
-4
3
0
-5
-2
3
-1
-1
-3
-1
-3
-1
-1
4
0
-1
2
5
-10
-3
-5
6
-3
1
-6
0
4
-1
-8
-5
-2
0
0
-6
2
3
0
2
2
-2
4
0
6
-3
-2
2
2
6
-5
-4
3
-5
-6
-5
-1
-4
4
-26
5
9
-3
-11
3
6
-8
-1
22
-1
-3
2
5
1
6
5
0
-2
-2
-2
2
-25
-12
-2
-5
17
-6
2
-8
-2
-15
-2
11
0
-33
-4
0
0
5
-11
0
0
-1
-15
-25
1
8
0
-1
12
0
9
8
-14
-3
-8
-12
4
-11
3
1
4
1
-39
2
10
-5
-13
-5
-9
-25
7
31
7
-4
6
14
-1
-2
-8
-2
-2
7
-17
5
-2
-1
-5
1
18
-17
-1
0
-1
5
0
16
-3
-95
-14
-2
1
-2
-11
-6
1
0
3
-11
-2
16
3
6
50
1
8
5
-29
2
10
-8
9
-7
-9
-3
-10
2
2
6
7
-7
-1
9
-6
-4
-3
3
3
-4
-4
0
0
-4
-4
-13
-1
-8
1
5
-11
5
4
-14
-2
-6
3
-3
0
-1
2
-3
3
-18
1
-2
2
-2
5
7
-3
6
-1
1
-7
-2
3
4
1
-16
-1
-4
11
4
-11
0
0
2
-12
-1
-27
0
-57
7
2
-14
-4
5
-8
-27
-3
-83
-3
4
9
-17
-2
-14
0
6
1
-23
4
6
-36
-10
3
-9
13
-3
6
-41
-37
-10
3
10
-4
-71
3
-44
1
15
13
-18
-25
-16
2
-56
-8
4
4
-15
-25
-9
6
7
-18
7
-15
-22
-21
-3
6
0
16
-5
-36
2
15
-8
-1
-3
36
-98
8
-77
1
-15
0
16
5
7
-11
-10
-1
15
-3
5
1
3
-1
2
41
-1
3
-23
13
5
7
12
-2
-127
-25
-47
8
-37
27
-2
23
-10
-8
-13
1
40
5
11
110
-7
12
4
-60
23
38
-32
-16
-10
-4
0
4
2
-3
2
2
1
-2
5
-5
-4
2
1
-2
-1
-1
1
-2
1
-5
0
-1
0
1
2
-3
-6
-2
-7
-2
-6
4
-3
1
2
2
2
3
-9
-2
-1
0
-2
4
-3
-1
4
-5
1
-1
5
-3
2
0
4
6
-1
7
-1
4
-2
0
-2
4
1
0
-2
-33
5
3
3
1
3
0
-2
3
-12
1
-8
-4
11
-2
3
1
-1
-1
-2
3
0
-28
-13
-2
-10
17
-7
5
2
7
6
-1
-1
-2
-35
2
-20
5
4
0
-3
-1
0
2
-29
1
1
-14
-5
13
3
9
2
-20
4
7
-12
-9
-6
12
-4
5
-2
-42
4
2
0
3
-1
11
1
7
-11
-1
-3
15
12
5
2
0
-7
7
8
-11
2
1
-4
0
-19
13
-16
0
16
7
3
5
-11
2
-90
-23
-12
7
1
1
-6
5
-2
2
-9
-5
18
-3
0
48
5
11
11
-57
4
-1
-6
-6
-6
1
5
2
11
-5
-6
1
-4
-22
-2
7
4
3
-3
-5
-2
-2
-2
6
-2
-5
-4
-12
-5
6
-2
-2
5
-11
-2
-8
-1
-7
-1
5
2
0
-6
5
-2
-6
-2
6
7
-4
-3
4
3
5
12
-6
-2
-2
-3
5
5
-10
-1
0
-8
-4
-1
-1
-8
-7
-7
2
14
3
2
0
1
-25
0
-1
-3
-1
-2
-2
2
-1
8
6
7
-16
5
-30
-6
3
-2
2
3
0
0
-9
13
-9
-13
1
-9
6
-6
9
-1
1
8
4
10
-7
9
7
-1
-18
-31
2
1
-1
-5
-7
-6
3
8
-2
1
6
-4
-11
-7
2
2
1
8
-8
17
-4
3
-32
-5
-4
-7
16
-5
-5
13
-8
-5
7
-4
-30
4
39
-4
-7
-6
-2
0
-6
-4
0
-11
-5
-1
4
-6
7
6
-3
-5
4
-8
-6
-1
-4
8
7
-4
7
-12
11
0
2
9
-12
0
3
0
2
10
-3
-5
1
8
-1
-3
-1
-15
-1
-1
2
-8
-10
-20
-41
18
1
12
-1
-2
-6
5
-9
-10
-1
3
-21
6
0
-4
-8
2
5
6
1
4
-4
1
7
-11
3
6
3
-4
-5
16
19
-3
-1
11
-6
7
1
7
-12
3
13
10
-1
-9
2
-12
5
9
1
2
-19
-5
0
-2
-22
-38
-9
3
3
-7
-20
-67
-41
-23
-29
-36
-2
15
-3
-93
20
-12
-11
-10
-33
-2
6
4
-7
-8
-3
8
-17
40
5
-14
-127
-5
-10
17
67
-12
9
-87
19
2
-13
-41
-82
-4
7
14
-3
21
19
-16
-10
9
5
-26
3
-3
-7
2
-43
-14
-14
3
-19
-22
-6
-14
4
-14
21
-63
-42
4
-5
-25
2
-5
-13
1
14
-5
50
5
-27
0
47
-1
-7
1
-1
-5
3
17
3
-3
-82
-24
4
11
19
-7
-14
-5
44
6
-6
19
7
-1
6
16
12
0
0
6
9
4
5
5
-1
-15
-5
-2
-43
-47
29
7
12
13
-2
8
-11
-13
-40
-9
-7
-19
9
-4
-16
4
-7
-7
-1
8
-7
-7
-40
9
2
0
2
-1
4
5
2
3
-13
-2
-9
-7
2
7
-3
-3
-5
-1
21
-4
-8
1
-7
4
-9
5
-4
8
-21
4
5
14
-3
-1
2
-14
0
-2
-10
3
0
6
14
21
-1
5
-17
2
-56
-22
-17
14
29
-18
18
6
-18
2
4
-21
-17
-6
-46
-1
-9
1
2
1
-1
24
-6
6
-20
11
-14
-4
3
12
9
-16
7
-39
20
3
1
6
-29
32
2
2
-2
6
-65
14
0
-5
-5
8
-6
-8
19
2
-18
15
10
8
18
6
-8
-3
-8
-15
-30
-16
2
-4
27
-19
-18
-16
29
-6
-7
6
-7
9
-42
4
4
-6
-5
-9
-2
5
0
13
-26
-14
15
10
-1
11
4
-8
-32
-18
18
6
-13
-9
-4
-24
0
0
-2
3
117
25
5
-11
-9
-9
-3
-13
-13
-5
-23
12
-9
-1
5
-1
7
-45
-2
1
-3
-4
1
-5
-1
-3
-5
4
4
-3
0
-3
3
-10
-7
-3
-8
2
7
-8
8
-2
-9
10
3
11
0
-1
-1
8
10
-4
-4
-5
2
-5
-5
4
-4
-3
-3
-1
1
-6
7
0
11
-2
-15
14
26
-3
1
6
-4
0
3
-4
-2
5
-9
3
1
2
16
1
-1
-22
-1
14
4
9
-8
9
11
-4
1
-4
-2
-3
-8
-3
7
-13
1
-4
4
11
2
-8
2
2
-6
-1
4
2
-7
2
-2
40
-22
-2
0
4
6
-11
8
9
0
5
13
1
1
-10
-9
-9
-5
-49
9
8
-7
2
2
1
-16
7
4
2
2
4
-3
-4
-7
1
-5
-3
-3
-4
-5
0
4
-3
-6
-4
4
2
2
-2
-2
-9
57
-11
0
-5
1
-3
-7
5
-7
-4
-6
1
-5
0
-2
2
-5
2
-6
-10
9
-2
-6
-2
-94
0
8
-3
-3
-5
7
11
-2
-1
-18
-1
-1
-6
-1
-61
-2
-6
4
11
-3
-13
1
5
6
5
5
17
13
6
0
-7
0
-4
-6
3
-8
-10
1
-1
-3
14
5
11
2
3
3
12
16
-17
-7
-4
7
-5
1
7
0
5
-2
-12
-1
-35
3
-2
10
9
-26
1
-20
4
4
-1
1
-3
0
-1
-35
2
-5
-3
4
-51
0
0
-11
-56
1
-66
-8
21
-8
-26
-77
-7
-1
-6
-1
-15
-8
-3
0
-35
1
-10
20
16
-1
-15
-7
10
9
-13
-21
-14
-28
-9
5
75
20
46
-2
-8
-6
-10
-4
-13
9
-2
19
48
-4
0
-2
6
-12
-108
-30
19
1
3
2
3
-11
3
-3
8
-5
2
5
-16
-6
-15
1
-3
-2
12
3
-6
4
13
-1
-10
-19
8
-22
2
0
-6
109
-21
-2
-13
-11
-6
0
4
-6
-27
7
2
1
-2
-5
-6
-12
1
-1
-7
11
8
2
0
-127
-1
10
-2
2
10
10
0
2
-8
-13
-5
-2
-3
6
-48
-3
-5
3
6
0
1
-1
-5
-6
0
4
2
2
-4
0
-11
-3
-6
-3
7
10
-1
4
0
-5
8
1
-3
0
0
-2
-6
2
-3
3
-3
3
-5
2
3
-1
-3
0
-6
3
-21
11
-1
7
-4
-16
1
9
0
-3
-9
0
0
8
-3
13
-3
-5
2
2
3
3
-3
-3
13
-1
-2
6
0
-2
-5
7
1
0
1
1
3
4
1
5
-13
0
-11
3
2
-7
3
-5
-4
2
6
-9
-3
-6
4
-2
41
5
0
-1
8
-1
-12
2
11
-5
1
15
-8
9
-2
-13
-7
1
31
-2
2
-1
1
0
5
-15
0
10
-3
-2
-2
-2
-10
0
-10
-10
0
-2
2
1
0
-4
-1
1
-7
4
0
-3
-4
5
4
60
-10
0
-5
2
-3
-5
-10
-7
-5
-2
4
-2
-4
-3
-5
-2
6
-5
-6
3
-3
-6
-2
-100
4
5
-4
-2
1
1
4
3
-4
5
-2
2
-3
-2
3
3
-1
-13
-10
0
-2
-3
2
-3
0
-3
-1
2
3
39
0
-19
1
0
-3
-1
0
7
0
0
-4
-1
-2
1
-1
0
2
-1
-1
1
-5
1
1
-1
-1
-1
-1
2
-7
2
-2
-3
2
-2
1
2
0
0
2
-1
-2
7
2
2
1
3
-2
-2
0
-1
2
-10
-5
-11
6
-16
-8
0
2
0
2
5
4
27
-3
-39
2
4
-3
1
-5
-3
-2
0
-2
-1
1
12
6
-1
3
-14
0
-2
7
-3
0
-11
1
19
5
-10
16
8
-1
2
2
3
4
0
9
0
1
1
2
-13
14
-1
-1
3
-2
0
-4
2
2
-8
-13
-10
2
-4
0
-4
-1
3
-1
-2
1
38
-1
-17
-2
8
-3
0
0
1
1
-2
-4
-1
-1
1
-7
1
-1
-2
0
0
4
-5
0
3
1
-11
-1
4
0
5
-1
-5
1
1
-1
-1
0
0
2
2
2
6
-6
-2
0
-2
-50
0
-1
0
1
11
-14
2
-2
-2
1
-2
-2
-2
3
-5
-9
-14
1
8
-2
-2
3
-5
-7
-5
6
3
4
-1
2
28
-5
1
1
-4
6
0
8
-32
0
0
-3
-6
0
4
33
-7
5
-6
5
-3
2
3
-5
1
1
-1
-3
-4
-1
2
-3
-5
-45
-3
3
-2
4
7
-77
2
-3
-10
5
7
0
-8
4
1
-37
-15
-1
25
31
2
0
-5
9
-2
8
12
14
8
-3
127
14
-3
1
-32
-3
11
-16
-37
-2
-4
49
-66
3
-20
-54
-8
4
11
-26
-8
0
0
-17
0
-4
8
-13
-45
-28
-1
1
0
-27
0
5
4
-1
10
-44
2
-3
-2
-3
0
7
-7
-3
3
-7
-15
0
11
-12
-15
1
2
1
-4
5
1
15
-6
-1
33
-11
0
4
3
3
2
-6
-37
3
-2
-9
30
-2
3
-6
1
1
-6
6
-10
0
0
-5
0
1
-7
0
-12
20
-10
1
4
4
2
-1
7
-3
0
0
-7
5
0
-3
-6
1
3
-1
2
-5
3
-2
2
-3
-1
4
-2
-1
-1
-7
-1
4
0
-5
-4
-3
0
12
4
-1
0
-1
-1
-1
3
2
0
3
3
3
0
1
-5
-2
2
2
0
0
1
2
6
2
2
0
-13
-1
4
3
5
0
-8
0
-2
8
-6
3
-3
1
1
1
-9
-3
0
4
1
5
-1
0
-2
19
1
2
-1
-2
-2
11
-8
0
4
-1
2
11
7
2
-8
1
5
-2
4
9
-1
2
4
1
1
7
-54
-2
3
-1
1
2
6
4
6
6
-9
0
1
-1
-1
-1
2
3
1
2
0
1
-3
-1
-1
0
-4
2
-19
0
1
-3
6
-3
-1
2
1
4
-2
-2
-5
2
-3
2
-3
-1
-5
-6
0
8
6
0
-3
3
-5
2
1
2
2
0
4
0
-1
1
2
-3
1
3
0
2
-1
7
6
0
-1
6
-4
1
1
0
-2
1
0
-6
6
-6
3
1
4
-2
-7
7
-2
5
8
2
4
-8
5
1
1
6
-1
6
1
-1
3
-4
0
-2
1
-2
3
2
2
10
6
0
1
3
-7
2
-1
1
-1
-5
1
4
3
-1
-2
-7
-2
2
20
1
-3
-15
-3
2
-7
-12
-18
3
-23
-2
-3
14
7
12
-6
1
-6
-1
2
10
-3
-9
12
-1
1
16
3
-7
-1
1
-2
-3
-2
-7
-1
12
1
5
-3
-1
0
-1
-4
4
-16
-10
-13
15
-34
-3
-4
-1
6
-1
21
-1
-5
-4
-7
5
3
-12
5
3
-2
-8
31
-3
5
3
1
1
4
0
1
-7
8
2
5
0
-1
-2
-7
-16
-3
0
6
-4
4
-1
2
-8
6
3
-3
-1
-3
6
0
-7
5
-1
-1
-2
22
3
2
-1
-13
0
-12
-5
5
6
-1
0
5
-3
7
4
1
3
-5
1
-3
7
1
-8
0
0
-8
8
-2
-2
-4
1
-4
-1
6
16
7
-6
-7
1
0
3
0
9
-2
0
-2
-1
1
-52
8
-5
-3
7
14
9
-2
4
-2
5
0
-6
-5
0
3
2
2
9
5
3
7
0
7
0
-7
8
7
-9
-1
4
4
4
-4
24
-1
2
22
-5
-6
-4
0
-5
4
-14
-30
-4
-60
-7
-2
-68
-1
6
-6
13
-16
-1
-26
-40
2
-90
127
-20
0
34
-1
-6
7
-1
-5
16
8
-20
-1
-35
-4
11
-13
2
-30
2
-18
0
-19
10
8
33
59
56
-8
-16
-4
-4
30
8
10
10
-6
7
2
0
8
-14
-13
13
-50
3
6
9
-2
-1
9
-9
5
-2
9
-4
-13
-8
2
-3
5
-46
-7
0
5
7
-1
-9
6
-9
25
1
2
-5
-3
1
-3
-8
-2
2
7
2
-23
10
11
3
-33
-2
-7
-1
-3
14
8
1
-1
-1
-2
5
5
1
-5
4
-25
-3
4
0
-4
1
1
4
-23
3
-4
4
-3
-2
-2
0
0
-6
-4
-1
-2
5
-3
2
-3
2
1
1
2
-13
0
1
-1
2
4
5
2
8
9
2
-5
-4
0
-1
3
8
2
-1
8
-4
1
4
1
5
-1
0
3
-6
-2
6
-3
4
4
-9
-3
-2
11
3
4
-9
1
0
-10
-4
15
-1
-10
1
-3
-3
-4
-3
6
2
-13
-7
1
10
0
-5
32
-7
0
10
-5
-11
3
9
3
2
2
-8
0
-11
17
-2
-3
-5
-1
1
-4
3
-24
-3
-1
14
-1
-4
-5
-6
0
0
6
-1
-7
-2
-3
2
3
0
16
6
5
-7
-6
-1
7
4
4
2
-1
-1
5
-6
1
-1
-7
1
4
-4
1
-15
-6
-1
3
-4
-1
-6
0
3
-4
-2
0
-2
1
11
-4
-3
-1
-2
-3
1
16
4
1
1
-14
6
-7
-1
8
5
-2
2
-1
-3
-6
7
-1
4
-8
1
5
-2
1
-6
7
0
-2
3
0
-3
3
3
-3
-2
3
3
4
-2
-2
-5
6
-4
7
-1
2
-5
-5
6
3
-8
3
4
-3
0
1
5
-26
5
-4
5
3
-1
-4
-2
0
-3
-4
4
3
-2
-18
-3
-7
2
-3
6
-3
-4
-3
-3
5
5
2
6
2
11
6
3
2
3
-6
-2
4
-6
-17
1
-10
0
-3
-12
1
0
0
-2
9
-3
-12
6
1
-4
3
-28
3
5
-6
-10
2
-5
-6
-3
-25
10
-1
-6
-8
1
2
-19
2
-9
9
-1
-7
-1
1
2
8
7
5
-5
16
-12
-11
-5
-6
-1
-4
1
12
-104
-2
7
6
-2
4
-23
4
-4
2
1
-3
-7
-1
1
3
-3
2
-9
5
-1
-3
5
0
0
2
2
7
2
4
-4
4
-5
-1
-3
-4
6
0
-1
-3
-3
3
-5
2
-2
5
-2
-2
-4
-8
-3
-4
2
2
0
-5
-6
-5
-2
4
1
-6
2
-2
-5
-2
7
-2
1
-3
4
-7
-2
-13
-2
-2
-2
1
-12
-1
1
-4
3
0
-3
-9
2
1
-1
-4
-1
-5
9
-3
-2
3
1
-8
-3
-7
0
-9
-3
-1
1
-2
-6
-1
-7
0
-5
-3
-4
-11
2
1
-1
2
-6
0
-5
1
3
5
0
2
-22
1
2
-3
-11
-9
7
7
7
4
-20
9
3
-27
-5
-9
19
-8
-2
-12
-13
-21
-1
-12
-127
-1
14
14
-6
-7
1
0
23
10
-18
-1
-2
-1
-2
0
2
2
-1
7
5
-5
-47
-9
-2
-3
-18
6
-1
-14
21
3
-8
-5
9
-7
-5
-4
18
-20
12
3
12
-8
-3
-19
-11
-4
-12
-2
-4
1
-1
-11
-3
-13
-4
1
-2
-10
1
-10
-8
-5
17
-1
5
1
3
-5
-3
0
-7
-43
-8
-6
-3
-1
-2
-10
-15
-3
-2
2
-1
-11
-4
11
-18
8
0
-2
8
1
-8
-1
6
0
-2
-10
-13
2
-2
-18
8
-7
9
2
-10
-14
-1
7
-3
-54
2
4
1
-11
2
-1
2
4
-1
0
-3
6
-2
-3
-2
1
-2
2
-3
-1
2
7
9
1
-2
3
4
-2
5
-3
-1
-3
-1
2
-1
0
1
5
0
-4
-2
-9
3
-4
1
-5
0
0
0
2
-5
1
-2
5
-3
5
-2
3
-1
0
-3
-2
-2
-9
-4
3
12
-9
0
-6
-4
-9
-10
-13
8
-7
-1
3
0
-2
-2
0
3
-6
-1
-2
5
1
-10
-1
-3
-3
5
-3
-1
-2
0
4
9
-6
6
-25
-2
2
-5
-3
3
2
-2
4
2
-1
-4
-5
12
9
-2
-1
0
6
2
-7
-1
-1
0
12
-13
-2
2
-2
3
-3
2
-7
3
-2
-1
-8
-3
6
-2
-2
8
-37
4
-1
0
-6
3
4
1
2
-4
2
-1
-4
6
-5
4
0
0
0
4
-1
-4
-2
-8
4
8
-8
-1
0
0
-3
4
-2
-5
3
-9
1
-1
1
6
-6
0
-1
-8
1
-1
1
0
1
1
1
-4
1
-1
-5
2
-2
0
0
-5
1
-9
3
1
0
-3
1
2
2
-4
0
-1
0
-3
0
-3
1
2
-7
0
1
1
1
3
0
-2
0
-4
-1
0
1
1
-2
3
1
4
-1
-2
1
6
1
-2
8
1
0
4
44
-1
0
-1
-1
0
-1
-2
0
0
-2
-5
8
2
11
-2
-1
-15
1
21
0
-3
-8
23
7
-4
1
9
-1
-1
-5
3
6
7
-8
-15
0
5
1
-7
-4
0
-5
-17
9
9
1
-1
-6
22
-12
-7
-3
-5
1
-4
0
1
0
1
-1
-9
0
-10
-7
-5
-2
-64
0
3
0
2
3
-4
-1
7
2
1
-1
1
4
3
1
2
-2
2
0
-3
-1
2
0
0
4
0
-3
-2
3
-2
-1
-1
-6
-5
-1
-2
2
-4
0
2
1
-4
-4
-7
-12
-1
-3
0
-2
0
-2
-1
3
1
-2
1
6
-2
3
-4
0
-4
1
-1
1
-1
1
1
0
-3
0
-3
-1
2
2
1
-3
-6
7
11
5
1
1
10
4
2
3
3
4
-1
-2
2
-32
-10
-3
8
6
-1
-1
-8
-2
4
-1
6
4
-7
0
-5
-2
3
3
4
-1
2
1
-9
3
-2
0
-1
-7
8
3
-1
25
-4
2
3
-1
-5
0
7
-26
-2
2
-2
14
-34
1
2
-8
-25
1
-71
-6
6
-1
81
-80
1
-2
-2
-1
-16
-9
-1
15
-6
-3
-31
-8
8
-3
-41
1
10
-1
-22
-2
18
-30
-8
1
81
11
35
-4
-2
-3
-6
-5
-27
10
1
-24
45
-3
0
-5
1
-3
-127
-5
26
1
-2
2
2
2
1
1
7
-2
-4
-4
7
-2
2
2
2
-7
5
3
-6
1
9
2
-2
-80
3
2
-2
0
5
-14
-7
3
-10
-3
-3
5
0
0
-5
1
-1
-9
-7
0
-1
-6
3
3
-2
9
7
1
2
-2
0
-1
-2
2
-1
3
-1
2
-10
-2
0
-1
-1
2
-1
-1
3
-1
-1
-1
-1
0
3
-4
0
-1
2
1
0
1
-2
1
1
1
-1
-3
6
3
5
1
0
4
-3
1
0
0
2
2
-1
-2
-1
-3
1
2
2
0
-3
2
-5
0
-1
3
-1
6
0
0
-1
29
-1
2
-3
-2
4
-4
6
13
-2
2
-1
10
6
0
0
-3
13
-6
-5
7
0
7
18
1
1
-2
6
0
-1
-1
3
4
10
-4
-16
3
3
-7
6
-3
-5
1
2
-4
4
1
-6
-4
9
3
-5
-4
2
2
-1
-2
5
-3
1
-2
-18
0
-4
-15
-2
1
11
0
4
0
2
-1
1
-1
-1
0
0
-1
-2
-4
-5
1
4
-2
1
-33
-1
-2
2
0
-1
1
-1
-4
0
1
-5
0
5
-6
-11
-1
1
2
1
4
4
1
-3
-4
0
-5
-5
0
2
-3
2
-1
-1
6
0
-1
-1
3
-3
3
-1
1
1
4
-3
1
-1
4
4
-1
-14
2
6
1
3
4
-7
0
-14
1
1
-1
4
2
-4
7
4
7
-2
3
2
-1
5
3
-10
8
0
-9
-4
4
-9
3
15
-1
0
2
0
2
3
8
3
-15
-2
3
2
7
-8
9
6
-5
-4
0
-14
2
4
-3
-2
3
-10
-7
-1
6
2
-17
-12
13
-2
-4
9
27
-15
-13
10
4
-27
0
8
-5
-5
-1
20
5
-6
-2
2
-6
4
-2
-5
-9
-7
4
-12
4
8
18
56
-7
3
-15
31
0
-5
-18
7
-33
-15
8
0
-127
10
19
-1
6
31
-37
-4
-4
35
7
-6
-3
-9
-32
21
-2
12
13
1
22
-9
1
-5
-6
-3
-1
7
3
-1
0
0
4
4
0
-10
-2
-2
-4
-2
-10
3
-11
6
-3
-12
-8
-7
5
10
-8
-22
1
-1
-2
-37
-2
9
3
4
0
-1
-1
7
14
11
3
-3
-8
-3
-1
9
-1
-2
18
-16
-13
-1
2
8
10
0
-20
-10
-2
3
11
-1
6
-1
-1
10
1
1
-40
3
5
-5
-4
-2
0
-4
3
7
-2
20
4
-1
-19
1
-2
5
-9
0
-1
9
0
-2
-3
-6
10
-1
5
-3
4
-8
3
27
0
1
1
-7
3
-1
1
4
2
0
5
0
3
8
0
-1
6
-4
-80
-5
36
-7
-5
4
5
-2
4
-6
0
13
-102
9
-3
18
-15
-76
1
8
-1
3
6
-16
-7
5
5
10
2
-1
-80
-5
-9
-5
8
-1
-20
20
16
18
-1
-7
6
-15
14
1
0
0
-8
-5
24
-28
-17
-7
-5
-17
8
2
8
-4
-18
-1
0
10
6
4
10
-3
-8
-2
-3
-7
-9
3
-8
0
-2
14
-2
-6
-2
20
-1
-2
-5
8
-58
-17
-6
-8
2
-4
-5
0
-31
4
-4
3
-1
-5
-4
-18
10
-7
1
-1
4
-2
-6
-17
-3
-12
1
-9
13
-6
1
-1
0
-3
-4
1
0
0
-1
21
-12
1
1
-1
6
1
-8
-1
-1
-5
-1
3
1
2
-3
-3
2
0
-4
-1
1
-5
2
2
1
-7
3
-3
-3
-9
-3
-3
-7
1
-4
0
-2
6
0
2
-3
-2
0
0
3
-1
-2
7
1
0
0
-1
-4
2
4
5
-1
1
-3
-1
-2
1
-5
3
-8
-1
-6
2
-4
0
-20
-4
-4
-6
-3
-3
-3
1
-4
-1
-4
-4
6
1
1
2
-4
16
0
7
-5
3
-1
-7
4
-5
-3
4
6
-5
-2
-3
-5
6
-4
9
-2
-1
4
-2
4
22
-1
-2
-2
6
-12
-1
-3
7
0
-3
-1
2
14
0
0
-10
-3
4
3
1
2
2
2
0
-2
-6
-2
-3
1
0
-4
-5
-59
1
-1
0
-5
-2
1
-11
3
15
5
2
3
6
-4
3
-6
2
-3
7
0
-1
-6
5
-3
-1
-3
1
1
-4
-2
13
-2
-2
-4
2
0
2
-1
-8
2
-3
-5
-2
8
1
-3
3
4
-3
-4
-8
0
0
-1
1
-8
-6
3
-2
11
0
3
-2
1
1
-1
-2
-7
-1
17
1
-2
-2
0
-2
-10
-1
0
-2
2
0
-4
3
-3
-4
-4
2
4
4
0
2
3
-1
3
2
0
6
1
-8
2
0
4
-1
2
4
-2
-1
-1
0
-4
0
4
-1
0
-8
8
0
4
0
-10
-7
0
3
10
-1
4
-7
1
0
-1
1
-15
1
0
0
7
1
1
-4
-2
0
-1
-11
-1
3
-6
4
-8
-6
-10
3
-1
1
-5
0
6
-2
6
1
2
-2
6
-10
4
1
2
0
3
-5
-2
5
-2
-1
-5
-3
1
-3
-2
-6
10
4
5
-2
-4
-3
5
6
13
1
-1
-2
0
1
-1
-2
-13
3
19
3
-3
0
2
2
-7
-3
-3
-5
-3
0
-5
4
-3
-3
-5
2
1
5
0
6
2
-2
4
0
0
5
0
-2
4
0
-3
-4
2
4
2
0
1
-3
-6
1
16
-3
9
-29
3
1
1
2
47
1
-18
1
-73
-7
3
0
5
-7
-2
-3
3
7
14
-2
0
2
2
7
2
2
6
0
-6
-7
-10
-2
2
6
16
4
-4
20
20
0
-2
-3
7
7
-10
-55
-1
-3
1
-2
0
13
5
4
8
-4
2
-3
-13
5
-5
7
-7
-55
-7
-1
-1
-8
19
-30
-41
10
-51
-7
-4
-3
2
-5
-1
10
13
-1
-5
-4
-1
4
5
-4
-6
3
6
-6
0
6
-123
15
5
-1
23
6
1
-14
18
4
-24
-41
-14
8
-20
48
-2
25
14
-5
6
7
-1
-3
4
1
-5
5
-97
18
-7
1
5
-24
2
-4
5
3
50
3
-48
11
-64
-6
4
-1
11
1
-1
4
5
2
8
-2
-20
3
6
-5
-2
-2
5
-24
-6
5
-9
-17
12
0
16
5
-2
-1
23
1
-7
3
13
5
-9
13
-2
9
5
-3
13
-4
6
-1
3
15
5
2
-16
-22
-43
-3
0
70
8
-2
2
1
-91
-28
28
7
22
-2
-11
0
-4
3
-2
3
21
2
-6
9
4
5
3
10
11
5
-2
5
-12
-5
-18
13
1
6
-49
6
3
-34
2
5
2
0
-4
-4
4
26
7
-4
27
-4
-5
-14
-15
-4
16
-17
-1
3
5
-16
-7
-8
-18
74
-21
-5
6
-4
-100
-39
-1
-4
-18
-13
3
6
-4
0
-9
6
-24
-6
-21
-10
11
8
-2
0
11
3
0
6
-22
-3
-43
6
4
8
-127
-3
-5
30
-2
0
-3
-17
-6
-2
8
-35
2
9
76
-12
-11
-18
-6
-4
-3
-3
3
-4
9
-34
-11
-5
0
56
-7
-3
1
9
-77
-35
30
2
22
-1
0
5
-8
-2
-5
4
10
0
-4
8
2
2
-6
2
6
1
-2
3
-13
4
-21
11
0
-3
-46
-7
-5
9
-9
-3
-1
1
-24
2
3
-12
19
2
7
-7
-6
-8
-5
-8
-7
8
1
4
7
25
2
1
-9
6
-4
44
9
2
4
-11
0
-4
-2
-3
2
2
0
1
2
-2
-7
-1
-1
0
1
-1
4
-17
3
10
1
-17
1
4
5
-15
-4
13
-2
0
-30
10
2
0
-23
-4
0
0
8
-1
-41
-7
1
2
5
1
-1
6
-3
-91
4
-7
17
-57
-6
0
-12
3
5
2
1
4
0
4
10
0
3
0
-3
4
3
2
-3
4
5
0
3
-1
-2
4
2
-2
-1
-7
2
-18
-1
2
4
-29
9
1
-4
-1
-6
3
4
4
-4
1
4
-1
-14
-5
-9
-4
-2
-1
6
5
-36
16
2
-34
1
-4
-3
-46
-8
1
1
6
0
2
3
2
1
3
-1
1
1
1
-3
1
3
0
0
1
4
1
-1
1
-5
0
2
-1
0
-5
-2
-4
4
1
-3
1
8
4
2
-1
-1
4
-2
2
-3
2
2
-1
1
-1
1
0
-2
-3
1
1
-9
-2
3
-15
-3
1
-4
3
2
1
-28
1
-5
96
6
-52
9
0
25
-13
3
5
8
-18
-5
10
-7
7
-6
-59
3
-12
-7
-2
7
-4
-5
21
3
-19
3
6
6
-15
-12
7
-7
14
-88
-9
12
-3
31
11
-9
3
-7
-12
-101
-18
-3
4
1
-67
-9
2
8
-127
28
-19
-16
-50
2
-1
-55
0
6
-24
3
-52
-5
4
-4
1
-3
-5
-7
22
0
-13
-11
-2
2
13
2
-41
0
6
6
0
4
-5
4
-3
4
-9
-28
-20
-6
-9
0
7
-42
4
7
7
-8
-28
-69
-3
1
-1
-83
-24
2
-21
6
-8
-26
10
-2
-50
-17
5
-15
-54
-1
-1
-5
3
-2
10
2
0
0
5
-2
-5
0
-2
3
6
3
0
0
-2
-3
4
0
1
3
2
-2
-3
0
-8
2
15
5
-3
-1
0
7
0
-3
-1
1
-4
-1
-10
-3
2
0
1
-2
-1
-4
-4
-1
1
5
5
-21
0
0
-25
-2
0
-1
0
11
-5
-3
-4
-6
47
3
-2
9
-7
6
1
5
3
-8
0
1
3
2
0
0
-6
11
5
0
-4
2
-9
-1
9
2
-17
1
0
6
5
-4
-7
-2
1
-59
-1
11
-3
1
-3
0
1
1
-5
-34
-1
4
1
6
4
0
0
2
-94
-6
0
0
-44
-4
6
5
1
-3
4
-4
2
-1
5
5
-3
-3
0
1
-1
7
-1
-1
2
4
4
0
4
-2
1
4
0
-2
-3
1
-11
5
3
5
3
3
1
0
0
-12
-1
2
0
0
-1
-9
-2
1
3
-5
-14
-9
0
4
5
-38
3
-2
-39
1
1
-2
-31
-2
1
-1
3
0
-2
3
4
-2
-1
-4
4
1
-1
-1
2
7
0
-2
2
-2
2
-2
1
-5
1
2
-1
0
-5
1
1
3
2
-1
0
7
-1
-1
4
1
0
2
-1
2
-3
1
2
-2
1
1
-2
-3
-1
5
2
-11
-1
0
-11
2
1
-1
-1
0
2
0
0
-1
-4
0
-1
2
-2
5
-1
-1
0
-1
1
0
1
3
-2
-1
10
2
1
-1
1
1
-5
-3
2
-2
0
1
1
-3
-4
0
-2
2
5
7
-3
-14
-5
-2
2
-2
0
1
1
2
5
-3
-1
-1
-7
1
0
15
-2
-1
-8
0
0
0
-6
-7
-3
-20
-3
-1
29
-4
2
3
3
-1
3
-1
-6
-4
-5
11
-8
7
-4
2
-1
-1
1
-1
-5
-1
-15
-2
-5
3
6
1
9
-1
-4
7
2
-38
-2
-3
-4
-62
-6
-4
-4
7
5
0
2
1
-1
-4
0
-1
-6
-1
-3
0
4
21
18
1
3
-1
-3
2
6
-3
-2
5
-3
4
0
-1
0
0
-8
1
2
2
1
2
1
-1
-2
2
1
-3
-2
-2
8
-1
3
1
0
-3
0
34
-2
-1
-4
-4
2
-4
-1
4
3
2
0
-1
2
11
2
0
-3
-1
-2
-8
0
0
4
-2
-1
-3
2
-11
-3
-7
0
1
-8
3
0
-2
3
-2
2
-1
-2
-2
11
-1
8
0
0
1
-54
3
-2
-3
3
4
-1
-2
7
-2
6
0
4
-4
-1
-3
6
4
3
6
3
-14
-2
8
1
-1
2
2
1
-2
1
1
1
1
12
1
-4
21
-4
4
-10
1
-4
2
1
7
-3
-35
-9
0
89
-7
0
-11
3
-4
2
-12
-40
-2
-48
127
-8
-3
-8
-1
4
-4
6
-9
14
4
-40
-1
-50
0
6
2
7
-25
5
1
-4
-46
-7
-6
-7
72
42
8
-10
-3
0
-18
12
8
13
-6
3
2
1
3
-18
7
10
-25
23
4
5
-2
0
8
-8
3
5
7
-2
-6
3
5
-3
5
-21
-2
3
0
9
2
-3
2
-10
14
2
-1
1
-6
12
-1
-9
-2
3
3
-3
21
2
5
0
-24
1
-12
1
-10
4
0
4
-1
-3
14
2
-2
-4
-2
-5
-24
-3
-1
4
-3
-1
4
0
-18
3
-2
3
1
-2
4
-3
2
0
-2
-5
0
-3
4
2
-1
2
3
1
1
0
0
-3
-1
1
1
-6
1
5
2
4
1
0
-1
-1
-3
9
0
-1
9
-3
-7
0
-1
2
-3
0
3
-2
2
-1
-1
0
2
-8
2
-3
16
-2
3
0
0
2
3
-2
-1
0
-14
0
1
23
-6
-2
-3
-2
-9
-1
-1
-4
-1
-4
5
-4
-4
-3
-1
-4
-2
7
0
-1
0
-12
0
-22
3
-3
-5
-4
-4
0
1
2
-43
-5
-4
8
8
-5
-2
-3
0
-5
-8
2
3
2
-1
-4
0
-4
6
-4
-2
-5
-5
8
1
0
6
1
-2
0
1
-1
2
-1
-5
1
3
0
-1
-4
-1
3
5
-1
3
-2
2
3
-1
-3
-2
0
1
7
-4
3
-2
0
2
0
33
1
2
-1
-6
4
-11
4
1
5
0
-1
2
0
7
5
-1
0
-4
-1
-1
-2
1
1
2
0
1
1
2
-2
4
-3
7
23
-10
-2
6
-5
22
15
-13
-5
-7
-14
-4
-1
6
0
5
17
-4
-5
1
0
2
10
-7
7
-5
-5
-1
-1
3
3
5
3
1
1
24
8
-12
-8
15
3
-4
-3
0
-5
6
13
0
-2
-5
-10
-15
2
2
-61
-6
-14
-14
26
-6
5
-3
-4
-2
-56
6
-10
7
5
-19
0
-2
-3
7
5
0
4
1
0
12
3
0
-6
-1
0
-1
-3
-8
-2
-5
-15
2
-1
-4
-5
-29
2
-1
2
5
-1
-2
-1
15
8
-3
8
-15
2
43
1
-3
2
-3
3
23
2
-1
20
1
2
-4
-49
2
1
3
0
2
17
2
-3
2
-3
0
1
2
0
1
-1
-3
-2
2
-4
-3
3
4
5
0
0
1
2
-2
2
-3
1
-2
-1
-1
0
-6
-3
0
3
2
-1
-5
4
0
0
-3
1
3
-1
-7
1
2
-2
2
2
20
-4
-1
-15
2
3
5
2
14
-7
7
6
17
49
-21
9
-10
2
-41
17
-7
-4
-12
-68
-7
3
-8
-4
-4
72
-5
-3
7
-2
2
20
-6
26
-12
9
-4
-3
-2
4
18
-3
5
7
23
18
-6
-14
-22
-4
-4
-4
0
-14
-7
19
3
-1
-2
34
-39
2
1
-82
-32
-21
14
-1
-3
3
-50
-7
2
-58
3
-127
6
-3
39
7
6
5
6
7
-3
12
-43
-2
5
16
-2
-20
-2
5
-1
1
-5
-11
-2
-29
-3
-1
-7
-8
-52
3
10
5
-6
17
9
-5
-21
-23
-16
1
-3
6
82
-3
-1
-11
4
-8
38
-5
1
3
7
6
-10
-56
-1
1
5
-3
1
12
1
-5
1
-1
-2
2
-2
3
-4
0
1
-1
0
-3
-1
5
1
1
6
0
1
3
0
1
-3
-5
-4
1
0
-1
-13
0
-2
5
6
1
2
1
6
-2
-3
0
2
1
-18
3
0
-1
0
-1
15
-1
3
-11
1
0
-11
1
-2
-7
-17
3
14
30
-8
0
-2
-5
-14
-1
-2
-1
13
-18
-11
3
2
6
-2
17
-4
-12
1
-3
-3
5
-3
20
-7
-3
-6
2
2
-4
7
1
0
2
36
16
-3
-4
4
1
-3
3
4
-2
4
13
5
1
-9
-20
-17
-3
0
-65
4
-11
6
28
4
-1
13
0
3
-56
12
-14
0
5
11
-1
8
3
0
11
-3
4
13
-2
2
3
1
-4
4
8
0
-1
-2
-8
-4
-17
-1
2
-1
-4
-29
2
2
1
-1
6
15
-4
-3
2
-8
1
-2
2
26
-2
2
2
-4
3
24
-1
-2
15
6
0
0
-39
3
3
1
-3
3
12
3
-2
-1
-5
2
1
-1
1
3
-2
-4
0
0
-1
0
1
1
2
3
0
2
3
-1
2
2
0
1
1
-1
0
-12
1
-1
2
0
2
1
2
2
-1
-1
0
1
1
-6
4
1
1
3
1
20
0
2
-16
2
2
-7
2
-2
3
4
5
-9
48
17
-9
-6
-4
-1
-15
0
3
1
7
-5
3
14
3
-2
2
-5
9
-5
-1
5
-5
0
14
9
-12
3
1
7
3
16
12
-16
4
-19
10
-9
-2
-16
0
-1
4
12
3
-36
-9
5
1
6
-6
-7
10
-6
-69
6
-3
22
-22
-4
-2
-2
11
2
-22
0
-8
-13
2
16
5
6
6
-5
-3
2
1
1
4
-3
-5
-5
-1
0
3
-1
-11
-9
-13
2
1
-1
-2
1
-18
12
0
2
-3
-7
7
2
5
-2
5
2
-1
-11
-16
-12
-9
-1
0
2
-3
-22
8
-2
-18
-4
-8
-2
-35
-1
3
0
6
3
-4
1
-6
-4
1
3
2
7
5
-5
5
1
2
2
4
5
0
-3
-1
-2
0
7
-6
-1
-7
-6
2
5
1
3
-1
0
8
8
-10
-6
4
-3
2
-1
6
-1
-9
-3
-3
0
1
-1
0
-5
-2
-5
-3
5
-8
-2
-6
-1
-7
-17
7
0
-5
-15
114
12
-18
3
-6
22
-19
7
3
7
13
7
27
4
6
0
-40
-2
15
-15
-8
17
4
-6
27
16
8
0
6
11
-4
63
2
-21
25
-43
-21
-8
-4
40
14
17
9
-6
8
-97
-38
5
5
6
-78
-46
1
11
-127
27
-13
-7
-7
3
-4
-20
-1
11
-61
7
-34
-9
1
-28
-1
-9
-12
-17
23
-9
-6
-2
-9
-5
-2
2
-14
-17
2
9
-12
4
-11
-3
18
-5
-4
-39
-13
17
-6
1
2
-29
-12
-6
3
-1
-9
-33
-7
-2
-5
-62
-33
3
-11
2
-15
-25
3
-6
-29
-28
-13
-9
-29
-2
-2
-8
10
3
-2
-3
-5
-2
7
-5
-4
-2
-5
2
16
-2
1
6
-3
-2
0
0
-1
5
2
6
-13
4
-11
-6
29
14
-2
-1
-6
4
2
-4
-8
-1
-14
-1
-7
-2
7
-4
-5
0
3
-2
-9
6
6
-2
-4
-8
5
1
-19
-3
-12
-1
-1
18
-3
1
-12
-31
57
-1
-6
4
-6
6
3
6
7
0
8
8
7
6
4
1
-6
9
11
-9
-3
9
6
-4
-2
3
-8
1
-1
8
4
13
-19
-6
1
-36
-14
-5
5
11
-1
9
0
0
2
-41
-19
3
0
4
5
-1
3
-2
-71
-4
3
-4
-18
-21
3
-2
1
-7
-17
-9
-4
-1
4
-3
2
-5
6
-1
-11
13
-1
2
3
5
-5
-2
5
-1
-1
4
-8
-1
-12
0
1
3
0
7
9
22
-1
-2
-2
-12
6
-6
5
-1
3
-9
-7
2
0
-14
-11
-13
-3
3
0
-24
3
-4
-19
11
-5
0
-24
-6
1
-2
4
0
-12
-1
0
0
5
-7
10
0
2
1
8
8
-2
-1
2
-2
0
-2
-2
-9
2
9
-10
0
-7
-6
5
1
3
2
1
4
0
-3
-5
3
-6
-4
-3
6
0
1
-1
-2
6
-4
-5
-4
-3
1
-4
-9
-3
-2
-7
6
-2
-3
-2
10
31
-14
3
10
19
-74
3
7
3
-8
-4
8
-7
-37
1
-1
1
-5
8
6
-4
7
-6
4
-119
5
-8
-39
-70
0
-12
-18
3
1
-13
-3
21
-1
6
14
5
13
-6
-13
2
1
-3
3
9
9
1
-17
-2
6
-13
8
12
-3
9
-86
-7
1
7
0
31
-38
4
39
15
-72
8
28
3
-15
-41
-1
-8
-95
-4
-11
4
2
-34
20
1
6
-49
5
-127
11
14
-52
-82
-7
-10
-12
-3
9
-116
4
44
-1
14
5
-6
9
1
-42
15
5
-78
-35
-11
10
1
-22
-8
9
-12
4
45
10
10
-82
5
7
27
-3
37
-14
4
11
7
-73
1
8
2
-16
-23
7
-4
-52
-4
0
-4
-8
-1
3
0
2
22
4
-114
9
-3
-32
-60
-10
-10
-10
-1
3
-5
11
32
-2
14
7
3
14
-12
-11
2
3
-31
3
0
-5
-3
-10
3
12
3
5
21
6
7
-98
0
3
-10
-8
46
-11
2
1
-5
-47
-6
5
-2
1
0
-7
2
-23
-1
-2
8
-8
6
1
-16
5
-2
1
-12
-2
-1
8
-47
3
-10
-6
13
1
-2
-4
-2
-9
-5
-1
-4
7
-5
1
1
-3
1
-2
5
-3
-3
-10
0
0
-41
5
-4
3
11
-45
-1
3
4
-4
4
-61
5
-12
0
-50
-36
8
5
6
-36
-2
-2
-74
14
-10
-28
-19
-28
-4
2
9
-31
1
-42
3
-1
7
-59
0
-8
-11
-9
-15
-21
8
-19
2
6
-6
7
-2
-5
5
-17
-12
-59
-5
-19
-11
0
3
-18
0
-32
3
-3
-2
4
-77
7
-19
-6
-4
38
-1
2
-2
4
-57
2
6
0
-1
-32
-2
2
-26
4
-4
1
-1
0
-1
-6
4
0
12
-7
3
-4
3
-34
3
6
-5
-3
0
4
4
3
-7
3
-1
7
6
-14
0
-2
-2
-5
-5
3
8
6
-8
-2
0
4
-1
-5
0
-7
-46
-3
3
4
0
5
-3
-2
7
6
-8
-4
5
-3
-2
0
-1
4
1
-3
3
3
-2
2
-1
0
3
4
0
1
0
-1
3
-5
-4
-3
-3
4
1
3
4
2
-6
-2
0
4
0
-2
0
-3
1
-3
0
2
1
-1
1
-3
3
-2
-2
2
3
-1
4
0
3
-2
0
-2
-5
3
0
0
-30
1
5
5
7
1
-1
2
1
-7
3
-3
2
2
1
5
8
-5
3
-5
3
6
-2
-7
0
4
5
-1
1
-1
1
5
-1
1
-2
-4
-5
-3
-4
0
-8
-1
-1
-12
0
-4
2
0
-5
2
2
0
1
-3
2
2
-8
-8
2
9
-1
-1
-2
0
-6
1
4
-1
-1
-5
1
2
-2
1
2
-1
-1
2
1
3
3
-3
-6
2
-1
-2
5
-9
10
-4
2
-2
-2
-2
-2
0
-4
-5
3
2
-1
-3
1
-3
2
3
-6
-2
5
2
2
-2
1
1
-3
0
-3
1
2
3
5
0
1
3
-2
3
-3
2
2
-1
-32
-7
1
-7
2
-4
-7
-1
-3
-5
0
7
27
-4
-7
-4
-6
0
2
-5
8
-8
6
-4
2
-3
2
-5
4
0
-9
10
4
-6
6
3
1
-1
-7
-4
5
1
1
-5
-6
5
-7
4
4
-11
8
4
0
-1
-2
-3
-2
11
-7
3
2
3
4
2
-33
-10
-13
4
0
-3
-9
16
-4
6
3
-8
-33
-8
-36
-1
3
3
-2
-7
-10
-3
0
-5
2
2
32
4
3
6
-48
12
-6
22
-18
4
-23
3
25
4
-11
-9
9
2
5
17
7
8
2
11
2
7
1
1
-6
-3
-5
4
0
2
3
-6
3
-1
-33
-10
-8
-5
6
0
-7
-1
2
-5
0
2
16
-3
6
-3
17
0
3
-6
0
-4
-6
1
3
-6
10
-11
11
-8
-5
0
-7
5
-14
-2
-2
4
-8
-1
10
-14
0
-1
-3
1
-2
-4
-1
-6
4
12
0
3
1
0
-19
-2
-2
-69
3
-4
6
-1
17
4
-9
-8
7
-3
0
-5
-5
-2
0
-4
-12
0
13
1
0
7
-4
-5
-4
10
-3
7
3
-2
27
5
-4
1
-1
0
2
27
-17
-4
-5
-1
-11
-1
8
28
-14
18
25
10
-2
4
-5
-1
0
-11
3
12
-21
-4
-2
0
-17
-83
2
1
-6
-7
17
-101
-14
-5
0
8
5
-45
-25
-11
0
-111
-13
21
18
35
7
4
-4
18
-6
17
6
21
10
-16
6
28
-12
4
-73
-3
8
-28
-16
-3
-35
59
-108
4
-8
-48
-16
-4
44
-54
-21
-4
2
-27
-1
-2
11
-32
-127
-43
-2
1
-2
-18
9
14
8
-13
13
-40
-13
-6
2
-8
-2
23
-28
-7
4
-10
-2
2
12
-10
-83
1
-5
5
-3
4
-10
13
-8
-2
21
-11
-14
4
11
-1
-4
-14
-21
-8
-4
3
36
-1
9
5
-8
0
28
16
-21
-5
1
1
0
4
-7
3
-31
18
-24
4
0
5
-3
0
6
-5
1
0
-12
-6
9
1
2
-5
-1
-2
-2
5
-1
6
8
2
-4
15
5
-3
3
-6
-3
4
-27
-10
-1
-8
-1
8
0
1
3
0
-2
-3
2
-5
-11
11
0
13
7
-10
-4
-1
5
-2
2
-4
2
-3
5
1
-4
2
-7
0
5
7
-9
-1
-20
-13
-7
7
-9
4
10
3
19
-7
-5
-1
10
4
-4
-1
5
7
-8
20
2
-12
-6
-1
-2
-2
-33
4
24
-1
7
-3
-9
7
-11
7
-5
0
5
7
-18
-3
-4
-16
13
6
-61
-3
2
6
8
-9
0
-1
3
4
-20
-18
3
3
1
4
-4
-2
1
-5
3
-4
-7
2
7
2
11
-12
-38
2
0
8
6
-3
4
1
-6
7
-1
-7
1
1
2
1
-34
3
2
-4
1
3
-7
-3
-14
6
-14
-5
2
-7
-9
0
-3
-5
4
1
6
2
3
-2
6
0
2
9
-2
-9
-8
11
-6
0
-1
6
0
1
-1
3
-11
-3
0
-2
7
-1
0
1
-1
1
-1
3
3
0
-8
-1
0
1
0
-1
-1
2
-4
0
3
3
1
-1
2
-2
2
-1
1
-1
1
2
-2
4
3
-2
1
4
-3
-1
2
0
-2
2
-5
-3
-1
-4
0
3
-6
-5
-2
-2
-5
10
4
5
1
2
-34
-3
3
-3
4
4
-4
7
3
1
-2
-6
-1
1
-3
-4
-2
0
1
-1
8
0
-2
1
0
-2
-1
-5
0
3
-1
1
0
-3
-11
-1
-6
7
-6
-7
-10
-9
-1
1
0
5
-3
-2
-5
-8
-2
-1
-1
4
-3
-10
0
0
2
4
-3
1
0
-3
-10
-2
3
-1
6
-1
0
0
-2
-1
1
1
-1
0
-12
1
1
-2
-4
0
3
5
0
1
5
1
0
1
-1
4
4
-4
-2
-2
4
-2
-1
5
4
-6
-2
-1
2
0
2
1
1
-1
-2
-2
-2
1
1
3
-6
5
-12
-1
-5
-24
-2
-5
-6
1
-11
8
-51
-2
14
3
2
-1
4
2
1
-3
-76
-10
89
1
-1
-3
0
1
-2
-1
0
-8
1
-3
-1
-2
2
-5
7
-6
-1
19
20
-2
-10
6
-1
3
0
6
-5
1
1
-3
-1
-5
-8
7
0
4
-3
-1
-21
-3
-3
5
-14
-21
19
-2
2
4
-7
4
-100
4
29
-38
-8
23
0
-5
-3
5
-74
3
105
-1
-1
1
-3
4
2
0
-8
-10
-3
6
-100
11
2
4
52
10
-6
-47
6
2
-28
-32
-92
2
3
-12
-3
-20
-3
-4
3
-10
2
-7
-1
7
-11
7
-124
9
7
0
2
-14
2
0
-8
-3
-21
11
-72
4
12
-2
0
-11
-13
-3
-2
-6
-88
-2
86
2
13
-3
-6
2
1
2
5
4
0
3
-1
3
0
0
2
1
1
-19
22
-7
-6
6
15
-2
1
-5
-6
-6
1
-3
1
1
2
3
0
-5
0
-2
-19
0
58
10
-2
8
-1
11
1
-2
53
-12
-14
-4
-15
6
3
2
6
2
2
3
58
8
-4
3
1
-3
-1
-2
-5
-8
1
-3
4
-5
-56
2
8
-5
-2
-13
7
13
68
-6
7
5
27
10
29
-50
6
-2
8
3
-2
-2
2
1
0
-3
-8
2
-5
-1
12
8
0
-21
2
4
9
6
78
-26
-5
-7
-10
12
0
-8
2
8
2
9
92
-3
-2
-11
5
0
0
-3
-2
3
3
-5
-4
-6
-127
-21
3
3
-45
0
6
26
71
-2
9
-1
83
-4
33
62
8
-6
10
4
10
-3
-4
5
2
-4
3
-6
5
21
-2
9
3
1
1
-7
-4
-5
57
-18
-19
5
-6
4
2
-4
66
1
-3
8
60
-1
0
16
4
-5
-1
-3
-2
-6
8
-11
0
2
-58
-3
-2
5
-5
-1
-2
12
69
-11
6
9
-8
2
29
19
-1
1
-1
-4
11
-4
-3
4
7
-11
1
-2
0
-29
-1
-4
0
-8
-2
-13
-1
2
-2
-2
-4
-9
0
4
-1
3
1
3
3
22
10
4
0
-7
3
7
-3
5
-16
22
-12
0
-8
-4
9
-1
-3
-7
5
6
-6
0
1
8
14
-14
3
-16
9
1
-7
-6
5
4
-4
6
-3
-7
0
1
-1
-3
3
-12
7
1
-15
-15
-6
-10
5
2
11
-7
-17
-5
-2
0
-35
3
-3
-4
1
-6
2
11
-1
-16
14
9
-3
22
-7
22
0
10
-46
0
20
36
5
-9
10
2
16
-6
7
-5
17
-26
17
-30
-73
-14
-5
-14
1
43
-14
14
2
-90
11
8
22
3
-31
-19
3
-3
25
-4
-4
4
4
1
3
-6
-4
1
1
2
2
1
11
1
6
-12
-1
1
-3
0
-13
18
1
2
5
0
-5
10
1
0
-8
2
7
-4
-3
-1
1
-1
-14
2
-7
-6
-5
12
23
3
-7
-2
7
21
-7
-4
7
2
-1
-5
-9
5
0
16
-7
5
-11
-6
-17
-4
-47
8
4
2
-1
-6
3
4
-36
1
-3
-3
-1
-15
-1
-2
3
24
0
18
-5
-5
-20
-16
-1
3
8
-5
3
-11
2
-20
2
-4
2
-7
3
1
2
-9
1
23
2
-7
8
5
-2
-11
6
7
3
12
1
-3
38
4
0
4
13
-8
-64
-1
-15
-4
-59
4
0
3
-10
15
-2
-5
-71
7
-13
25
-12
-127
-4
14
-6
110
5
19
-9
-3
4
-31
-5
-5
-12
0
4
-14
-1
-64
-8
-5
-16
6
7
15
10
-12
12
110
1
1
-6
-40
-11
-78
-3
-2
1
-5
-13
2
5
-9
2
6
-10
-9
16
2
2
5
-30
7
4
-7
-8
-6
0
-2
-18
7
-2
-4
-6
44
4
2
3
-4
-81
-25
-5
1
8
-14
-5
-15
-26
6
1
6
-2
21
2
-4
5
-15
1
-4
1
-4
-3
-86
1
-1
3
-9
11
-7
-10
0
-3
-1
3
-3
-14
-2
1
8
5
-15
-1
-2
1
1
7
-3
-2
-2
0
1
1
0
0
-1
0
4
0
-1
2
-6
-1
1
-4
-8
-6
5
2
3
2
1
-3
0
-3
-1
1
-2
6
-1
-3
-1
-3
-1
2
-2
1
3
2
-2
-3
-1
0
3
0
2
-1
0
-1
-1
-7
0
0
2
0
-14
-8
-3
0
1
-14
-2
1
3
1
0
-3
-3
-5
1
-3
-4
2
4
0
2
-1
7
1
2
-4
2
-8
1
4
2
0
1
5
-3
3
9
-2
-2
2
-1
0
1
1
-3
-2
1
1
7
-6
3
-12
-1
5
2
-4
3
-3
2
3
1
2
0
1
4
-1
2
-4
0
-7
-2
0
2
-5
3
1
-2
-5
-4
-46
1
0
3
-1
-2
0
-12
6
16
-2
4
-1
0
-1
6
-4
0
-2
2
-1
-4
-4
-2
-3
-3
-6
6
1
-3
-1
10
0
-3
-5
1
7
2
1
-1
-4
-1
1
-9
6
4
-2
2
2
4
3
-5
-2
-4
-1
5
3
0
-3
3
-16
-3
3
-1
0
2
2
2
1
-2
7
2
-2
3
-2
-1
-2
-2
-5
2
-4
1
0
0
3
1
2
3
-2
4
7
3
-1
-4
-4
2
0
-8
2
5
-2
0
3
-1
-5
4
6
1
4
-8
6
3
3
-1
-1
-6
-1
-6
1
0
1
1
-8
0
-7
-6
4
4
2
0
-2
4
-2
-2
0
0
1
0
-4
-4
-13
-1
-5
-1
-5
-6
-1
-3
2
-15
6
6
-6
-7
0
2
6
-6
-2
5
8
4
4
-1
-2
-3
-2
-1
-1
-3
2
1
2
-3
11
-15
-1
-5
2
7
-3
2
-4
3
-8
0
5
-3
-5
-4
-1
4
-2
3
-1
1
0
-1
-4
0
2
-5
1
-2
1
-3
-3
10
-5
-2
-2
-1
-2
-2
1
3
2
2
-3
2
-1
-4
-5
-1
-1
-2
-2
-3
-3
2
-10
3
2
-4
5
-5
-1
-3
1
1
4
1
-1
29
-1
-4
2
6
-25
-21
27
9
4
8
2
2
-2
-1
7
11
30
19
-9
4
1
4
-8
6
-3
7
-5
3
2
-6
-5
-7
2
5
-41
0
5
-32
-3
3
7
-7
16
-4
3
3
-5
-1
1
5
9
25
-3
-9
7
-10
4
-9
6
-14
8
-4
-7
23
-9
-5
5
-39
-14
-3
22
-2
8
18
6
4
-1
21
-34
1
-7
9
-13
-13
8
-2
0
-20
-2
1
-7
-4
4
-11
18
-21
2
-16
-127
-4
-14
42
-6
13
5
1
34
3
8
-12
2
-21
-6
22
-17
-15
-4
4
-4
-3
8
-6
29
0
3
-3
-4
-3
1
4
-2
5
-15
-6
-17
-10
22
-8
-9
13
-11
5
8
6
-7
1
22
1
-60
-5
-4
-1
-9
-6
-12
1
1
-3
6
0
-6
-6
2
-5
7
3
-18
4
-6
-1
-17
2
-6
-9
2
-6
5
-2
-22
4
-7
-5
7
-8
-11
2
-7
12
-74
-9
2
-20
-2
-7
3
-5
7
3
6
-11
-3
-5
-11
-3
-20
1
2
0
9
-17
9
1
0
1
6
3
2
2
0
2
-4
0
-5
-8
-8
-2
-9
0
-12
16
-23
0
-11
4
-14
1
8
6
-7
7
39
7
12
11
3
0
-9
-1
5
-7
-8
-5
-8
-4
-7
-24
-8
-4
-3
22
8
-23
14
-2
4
-4
-7
-3
-38
-22
17
-1
20
14
8
4
4
4
-2
-5
-1
-5
-1
0
-3
3
-50
-17
-4
2
8
1
4
-23
-17
-4
1
7
-15
-9
7
6
-16
7
32
10
-3
5
1
5
-13
3
3
6
-15
-4
6
0
8
-3
-2
3
-4
-10
8
14
10
-13
-7
-7
-22
-11
-109
-5
4
-6
21
-3
9
-5
-5
0
7
-1
1
0
-7
2
-3
-1
-17
-5
9
1
1
3
-2
2
-7
3
-3
7
15
-2
12
7
-3
-1
6
-1
1
4
4
2
-3
-9
-7
-1
0
-5
-5
6
0
-1
-4
3
4
-18
1
-3
-13
4
-3
-3
4
9
1
2
-4
-2
-5
-2
-1
1
2
0
1
-4
15
5
-1
4
-1
4
2
-5
-106
11
-3
-1
-3
2
30
-1
3
-2
3
3
-3
6
11
-5
5
1
1
5
91
6
-1
14
7
-3
12
-70
1
1
-11
8
3
24
4
4
1
-4
2
-1
-1
-2
-2
5
4
1
1
1
1
0
2
1
0
1
3
-5
-3
-1
-2
-11
0
2
1
-24
-28
-3
-1
2
-9
-2
-6
1
-12
3
-1
0
-5
-5
-3
-3
-1
-2
4
1
12
14
3
-30
0
-2
7
-73
-5
0
0
4
1
5
-1
2
1
4
5
1
4
0
-1
0
2
0
-1
3
3
1
2
0
-3
0
3
1
1
-8
-4
-4
3
2
-2
-1
4
0
-1
0
0
3
2
2
-2
2
-1
-1
0
1
1
-2
-1
-3
1
1
-4
-4
5
-17
0
-2
-2
1
-6
5
-40
-2
-4
-10
4
-96
9
-2
38
8
5
-1
17
-12
2
10
-51
4
-3
-22
2
-12
-3
2
6
8
-5
5
4
-17
1
6
2
-15
-127
8
-7
11
-56
-10
32
-4
-6
13
-11
6
-1
-12
43
-14
2
4
-1
-28
117
3
9
34
25
-6
2
-59
3
-4
-82
1
6
14
3
-75
0
0
4
5
-5
2
-8
30
1
-9
-5
2
0
10
4
-47
-4
6
4
-4
4
8
4
-18
2
1
-19
-20
-25
-2
6
6
-54
17
1
6
9
-27
-63
-4
-1
-1
-67
-6
-2
-18
7
-17
-2
2
1
-34
1
1
-36
-97
-2
-1
-2
-1
1
11
1
1
-1
6
-13
-1
0
0
-1
3
3
-2
2
-1
-2
5
0
-1
-1
3
-2
0
2
-9
1
16
3
-2
-3
-2
6
-1
-4
2
0
2
3
-4
1
2
-3
-1
-2
2
-3
-7
1
0
2
4
-1
0
1
-40
-6
-1
-2
0
29
-3
17
-2
2
-9
0
-37
1
2
9
3
7
2
-12
5
-3
5
-2
0
6
-3
5
5
2
3
3
2
0
-9
0
-3
3
3
4
2
-104
-5
1
-1
-16
2
24
-6
4
-6
1
6
-5
-5
17
-10
3
-3
0
4
97
4
3
22
-2
3
2
-51
-4
0
1
0
-2
18
0
-1
5
0
5
-3
0
1
4
-1
8
0
4
0
3
3
0
7
5
-2
5
1
0
11
2
-10
-1
4
2
2
-27
1
-2
2
-23
2
0
0
-1
-1
-6
-5
1
3
-2
-3
1
2
4
6
8
0
-1
-34
-1
0
-3
-51
-2
3
0
0
0
1
2
3
-2
1
-1
2
-3
-1
2
-1
7
-2
-1
1
0
0
-3
1
-4
2
3
-1
0
-7
-2
3
6
1
0
-1
4
1
-2
3
1
-1
4
1
2
-4
1
0
-1
4
0
-6
-4
1
3
1
-4
0
1
-19
2
2
-1
-3
-7
5
-10
-3
-7
9
14
0
-1
-3
-26
-12
-3
3
5
21
-1
3
-6
-4
-6
-3
-9
6
3
-3
-4
-6
4
17
-3
-15
-1
-6
5
-2
9
20
-6
1
-54
1
23
-7
2
3
14
2
9
-7
4
0
6
6
7
-3
2
4
-10
12
10
-1
22
-65
-3
2
-4
4
9
24
3
-3
-8
0
9
0
8
6
-2
-11
4
0
6
3
0
3
1
-4
-8
4
2
-5
-17
-5
3
-5
-3
-6
-1
-35
20
1
-1
1
-3
3
2
1
-32
4
1
-3
-25
-16
-30
-5
4
-8
7
8
-7
10
1
-35
0
-1
16
-50
-7
-1
-1
5
2
-2
0
1
-5
0
7
1
3
4
-7
5
2
1
2
2
4
-2
0
1
0
-1
2
-2
-1
-16
-1
-5
4
2
3
-1
3
4
2
-4
2
5
1
0
-5
8
-2
-6
-2
-5
-1
-2
-3
-1
-1
-1
-10
-5
6
-8
-3
-3
-2
12
-17
10
-28
-7
-10
5
5
-19
20
-8
52
-30
10
5
20
61
-4
10
-13
8
3
-86
-2
1
-1
-4
13
4
-5
16
-8
-20
-2
-5
16
-6
9
15
-9
29
-97
-42
23
-6
3
34
7
8
-6
-16
28
-10
1
10
-2
-86
9
-9
22
8
32
-5
-4
-42
7
-1
-59
-2
19
5
5
-75
-7
2
0
1
-11
-8
-17
-23
-2
-9
10
-6
-7
12
3
-58
-15
7
7
-10
1
-2
2
8
0
-7
-52
-23
33
-7
-5
8
-42
-2
-9
3
18
-31
-72
-10
2
-8
-127
-17
8
-28
6
-18
-40
9
-1
-30
-8
-8
-55
-43
-2
-7
-10
3
2
5
-3
-1
-7
6
-15
0
-4
-2
3
13
2
-3
3
-4
-4
2
-1
-5
4
2
0
-4
2
-16
3
28
10
-5
0
-4
-4
-6
-2
-4
2
-4
2
-12
-3
11
-2
-2
-1
-3
6
-14
3
5
-3
4
-10
0
1
-22
-10
-6
2
13
32
-5
26
-8
-13
0
1
-5
8
4
10
-2
10
4
-12
22
-8
17
-3
-2
1
-15
11
21
6
0
6
7
-5
1
-11
-14
3
-1
7
4
3
-8
0
0
-90
-27
17
-1
0
-5
6
-2
-3
-13
11
-5
3
1
5
1
2
4
-1
15
-4
-1
-5
-58
-17
5
-1
0
0
37
-7
-3
1
-3
1
-2
-1
5
-2
-17
14
-2
7
1
0
3
1
10
0
1
6
0
-3
-6
1
-8
7
-3
7
7
13
6
-1
2
-14
1
-2
1
-1
2
-9
-4
5
1
-22
-12
-13
0
6
7
-5
3
1
-44
3
0
-12
-35
-9
2
0
3
1
0
2
0
-7
1
-7
3
-2
-1
6
5
2
0
0
3
-4
-3
-5
-2
-6
3
3
-7
-2
-12
4
1
7
2
4
0
7
-2
-1
-1
2
-3
5
-1
4
-2
0
-2
-2
1
0
-6
-4
-1
2
-5
-13
-5
-2
-6
9
0
-2
6
2
-6
1
-8
0
3
6
0
2
-11
-7
-1
-4
2
-4
-1
-1
-4
-2
3
7
-5
1
-1
-2
1
-1
4
-22
-4
-4
0
-2
0
4
-5
-1
5
0
7
-4
-1
-2
1
-9
0
-2
6
5
6
-1
-7
-2
6
-6
2
2
-1
5
-3
-1
3
-5
4
3
0
-9
-19
4
-4
8
-5
3
-15
-8
-2
-10
-2
1
-5
0
-1
5
8
7
5
-2
-1
-4
2
4
-3
-35
1
0
9
4
5
4
9
3
7
0
2
-2
-3
-7
9
-10
7
3
-1
-63
-5
2
0
16
8
-2
8
4
-69
3
2
-6
-2
3
-3
-6
-2
2
-9
0
1
9
1
0
-16
-7
-1
-5
-5
-2
0
3
0
-2
6
8
-1
2
0
-7
3
-2
-3
-9
-6
1
4
-2
4
4
-17
-2
1
-3
-2
-2
-3
-1
-2
-11
-3
-3
2
3
0
4
-1
2
-2
0
3
4
5
4
4
-1
2
-4
8
1
8
-9
3
3
-2
-4
-2
-1
-3
1
-3
-1
1
-12
-3
4
-3
-7
31
5
-16
4
0
2
-19
-3
-2
0
11
-8
2
9
3
-7
1
-1
-9
-1
3
1
-2
9
-4
-3
7
-2
9
6
4
-2
1
3
16
0
-1
-6
-10
0
-6
-12
2
-4
-12
7
0
-44
4
-31
-1
-12
-11
-6
4
14
-7
0
-18
-84
-22
-7
-16
-6
-23
12
10
5
-69
13
-44
-5
-7
-5
10
-1
-12
-127
-16
-71
8
0
-37
8
2
-14
-16
12
-5
-25
41
3
-44
18
-23
-11
-7
4
104
-16
-7
-2
-38
2
-2
-5
0
-20
-43
7
6
10
5
-2
-1
-10
-8
-4
1
-3
-5
1
-2
-14
0
-6
-2
-2
16
0
-1
1
22
-26
-13
-7
-2
0
8
-7
-32
-38
-1
-6
-1
2
4
-2
-4
-1
2
3
-5
2
8
-8
-5
3
-2
4
1
3
8
-12
-2
-10
-11
0
3
-2
1
0
14
0
4
-1
1
7
-2
-17
1
-3
-4
-6
-1
0
-2
-7
0
-3
-1
0
-3
-2
3
-3
-3
-5
6
1
-4
-1
-15
-3
-2
1
-4
2
-1
0
-6
-2
0
3
-3
-5
1
-3
-2
-2
-8
4
6
0
1
-3
-2
-5
0
-1
-3
5
-1
33
0
-2
1
-4
-56
6
3
-4
-1
-8
3
-2
-4
-1
6
0
-1
-5
9
2
10
-1
4
2
-6
0
-2
-4
0
2
3
-5
-9
-3
3
-9
8
5
2
1
-16
0
2
10
8
-3
-2
1
-6
2
15
0
-2
8
15
-5
8
0
6
4
-2
2
2
46
-1
-3
5
-2
9
1
2
1
-3
-13
-1
-3
-4
-4
0
-1
-1
-6
-2
4
-3
1
-5
-2
2
-1
-4
2
7
-1
-2
-3
-7
-6
7
2
1
0
-4
4
-4
-2
-3
-3
5
-8
2
-2
0
-4
2
0
3
0
1
-13
-5
-4
-4
-1
-2
-2
2
27
-1
0
-1
-4
0
0
16
-3
8
5
-3
-11
-4
0
-3
3
1
0
-1
-2
1
-2
1
10
-1
-16
1
1
-1
3
-1
-10
2
-1
0
0
3
1
6
3
-2
1
-2
-4
0
-2
1
-2
2
1
-3
0
1
-1
-3
2
-1
2
3
-1
-1
2
-2
5
-2
3
-2
-1
0
2
9
-2
8
3
-2
-33
-5
8
-2
-2
7
1
3
-1
1
3
-2
8
4
-15
-1
-2
1
3
4
-5
-4
3
4
1
-5
0
2
4
-3
12
-4
-5
1
-6
0
-3
2
-2
-1
-18
-6
0
-1
3
-1
0
2
-1
2
-2
-3
1
8
2
-2
-1
1
4
13
-3
6
1
2
-14
-7
2
3
1
5
-3
0
0
-1
1
1
13
0
-21
0
4
-2
-1
5
0
2
0
-3
3
-3
2
-2
1
1
-3
-3
-1
1
0
-3
0
-2
0
-4
-3
-6
1
0
0
2
2
5
-4
-6
-2
2
3
2
-2
8
-18
-5
-5
-10
1
-1
-6
-3
-70
-15
-54
2
39
14
-3
-2
3
2
-5
-8
-55
-14
17
-5
5
-6
-3
-2
-5
-4
0
-1
0
1
12
1
-2
-5
-6
1
-5
17
5
-1
-11
3
8
1
6
38
5
-1
-1
-4
6
-16
-2
-8
0
6
-5
-3
-24
-3
2
1
-26
-1
21
-5
4
-13
-68
6
-98
-4
22
-54
-7
2
5
-23
2
5
-78
-2
8
-20
8
3
2
20
3
-7
2
3
3
-5
-56
-1
5
10
-31
10
-5
-72
-9
5
-35
-52
-127
-4
5
-76
-6
-12
10
-26
10
-12
6
-15
0
12
-10
11
-96
-10
-2
-2
-3
-9
5
3
-6
-3
-70
-5
-70
4
33
-8
-1
-1
-10
-1
3
-4
-66
-3
34
-5
14
-3
0
0
-3
-5
9
28
5
-2
32
0
-1
5
-11
-2
3
-20
-4
-10
-7
-1
22
-4
1
-18
8
-4
-1
-5
-1
3
-1
-14
-3
-4
-2
0
-23
17
21
11
9
-18
-4
10
7
-2
-33
-73
-30
-8
35
1
4
5
-3
2
0
1
16
-2
-43
0
6
0
-4
12
7
1
0
1
0
-11
5
-22
7
15
2
-6
7
14
65
7
0
1
9
14
19
-69
3
-1
-16
8
-9
2
5
3
15
5
-9
4
-25
24
-2
7
5
-39
23
6
9
1
-33
-106
-13
-14
42
-1
-3
-2
-27
-6
7
2
34
1
-59
-20
10
13
1
2
5
21
1
4
-7
-6
-77
-44
16
21
20
1
4
-34
66
14
-5
10
28
-8
24
106
8
-3
-72
7
1
5
1
8
21
1
-2
7
-74
62
-1
8
5
-16
12
-12
4
-1
-19
-81
-39
-2
38
-2
1
-5
-2
-2
-1
11
31
-1
-42
5
8
3
7
-6
6
1
6
-5
-3
0
-1
-33
8
14
3
3
-7
-20
77
14
-6
-1
7
2
18
37
-4
5
-9
-4
14
-4
4
-2
7
3
-1
3
-29
-30
-6
4
-1
2
-1
3
1
-2
5
2
0
2
3
7
-6
-2
-1
-1
0
-3
2
2
2
-2
3
-1
17
-1
0
-4
1
-2
1
3
0
0
-2
6
-1
-10
0
-1
1
0
-1
5
2
-1
2
1
1
4
2
0
1
-1
1
-3
-4
1
-2
6
0
1
-3
5
-4
5
-18
5
9
-2
4
1
3
-14
0
-16
1
-3
-2
2
0
1
6
-1
5
0
-2
3
-27
-38
-2
-7
20
-4
0
16
-1
-3
-2
3
6
-51
4
3
3
7
-4
4
1
0
-6
-12
6
10
0
-5
-3
-4
3
15
21
3
0
-17
6
-1
1
3
6
-4
-1
-2
2
6
1
-5
-5
-6
-5
26
5
2
11
2
1
2
1
1
-4
-2
-5
-5
49
-35
-9
2
-17
-7
0
-22
-1
-5
-4
2
-2
-48
3
4
7
-1
-6
-5
1
6
0
-29
-4
10
0
2
26
-1
-5
12
-86
-5
-3
-6
3
2
-2
0
-4
1
3
3
2
-2
-3
3
-1
-2
-2
1
-1
-2
-2
-6
2
-2
0
-3
0
-2
-3
3
-4
6
-1
-3
-7
1
1
12
-1
0
-1
3
-2
-22
2
-2
-2
4
6
0
-4
5
-2
-2
-3
-1
1
1
8
-2
-1
-6
-10
6
-2
5
-2
-1
-8
5
-27
-4
-42
2
5
-11
2
5
-4
-35
1
-59
-3
5
2
-106
0
-9
1
-4
6
-8
-4
8
-26
-48
0
-8
15
-1
1
6
-26
-4
2
-1
12
-127
2
-34
10
5
-1
-25
-10
-9
-2
-52
-1
31
4
-9
-53
12
3
3
-26
8
-17
-48
-32
-2
-3
-5
9
2
5
-3
2
-7
-5
3
29
-113
-2
-38
10
3
6
-27
2
11
-6
-3
1
-1
41
-7
64
-91
-14
9
-13
14
10
-98
4
-7
2
-4
-7
-69
3
-91
19
-10
6
3
6
3
2
-54
7
4
6
3
66
4
-4
15
-102
1
25
-9
2
-1
6
2
7
0
3
4
7
1
-1
-1
-3
-1
1
3
1
1
-2
-2
1
2
-1
4
1
-2
1
3
11
-4
0
-3
0
-1
3
3
0
-2
2
6
-3
-11
-1
2
2
0
1
1
0
0
-1
0
-1
-4
1
-2
-1
6
3
-4
-10
1
4
3
0
0
3
1
4
-1
-28
6
1
0
0
1
4
11
2
-9
-2
-6
-1
-9
0
0
5
4
3
0
-1
-1
-20
-34
-4
-1
23
-2
8
12
4
0
-2
-4
2
-61
1
-19
6
4
0
-1
-2
-4
1
-20
2
11
-4
0
-4
1
6
2
-10
2
5
-10
-3
-3
-8
-5
-3
-3
-7
2
-1
7
-1
0
6
5
5
-2
0
-2
23
3
1
2
-1
2
-1
6
-7
3
60
-59
-2
11
-12
-14
2
-21
3
0
0
-6
2
-49
-2
-19
16
-10
1
-2
6
-2
2
-29
0
-13
2
1
30
0
2
8
-104
1
3
-2
8
5
7
0
0
-2
5
7
1
3
10
11
-7
9
-31
1
-10
-5
-1
-2
-7
-15
8
-6
-9
1
1
1
5
-3
16
-2
5
-5
4
3
2
1
-15
13
-9
0
11
10
2
-2
-3
-5
-1
-1
-1
-2
4
3
-4
4
-2
3
7
-1
-1
1
-7
-2
7
2
6
0
6
-30
-4
1
6
4
12
2
-10
6
-12
11
5
-14
7
4
-5
5
3
0
-35
5
4
-3
2
7
0
10
-2
-5
8
1
-2
-20
-6
16
-9
-7
5
4
12
-2
10
-6
1
9
8
-8
8
7
1
-4
1
-1
7
9
3
1
-3
17
15
-4
-2
-4
0
-8
10
-1
13
14
17
11
-12
15
-29
9
0
0
12
1
-6
-7
7
2
-4
2
-8
10
2
-2
5
-7
-2
-17
0
-2
0
-4
2
2
-7
7
5
6
9
-2
12
-9
-2
10
5
5
12
11
-2
-3
9
0
3
2
-5
-7
-6
6
1
-16
24
-5
5
47
2
33
3
1
-93
-20
66
6
10
-3
-10
2
-6
-7
3
6
127
0
-63
7
5
7
-4
8
4
-2
18
-4
5
5
18
4
-1
15
-41
8
-2
-49
-62
9
11
-2
-10
-1
-4
5
3
-30
3
0
-13
-4
9
-15
16
5
-16
-11
12
-12
2
-6
-4
43
-3
12
-2
-20
-101
-10
89
-1
-12
-6
-7
22
-2
-55
8
11
42
-9
-114
-31
19
11
-1
6
-4
2
13
-9
-2
1
25
6
0
9
-97
-10
-9
-5
-83
1
-2
-40
7
-4
1
-6
8
39
9
17
1
0
4
-7
0
-9
-5
25
62
-15
-22
-6
4
43
4
16
12
10
-81
-14
123
3
2
1
-3
-7
37
-4
-8
8
125
4
-74
5
84
6
4
-10
13
-12
7
0
-2
-9
12
-10
9
2
-54
-7
-8
4
-77
13
7
-9
-42
11
0
-22
20
8
-5
-6
23
-19
9
-23
-12
16
15
4
19
18
-103
-15
-27
-76
8
-14
17
-2
4
-17
-24
2
-22
-7
-7
-14
-17
7
10
25
-62
-6
11
0
0
21
9
0
-4
6
4
21
8
-4
22
-16
-13
22
-13
14
7
24
-49
2
-26
-5
-15
-8
-2
32
-8
7
-12
1
-9
13
4
-7
19
10
12
-10
-51
-7
-41
-26
-44
-88
34
-12
14
5
10
-105
-34
-23
-28
-11
-31
2
-22
14
0
5
-69
-1
18
10
-2
16
1
6
-11
17
0
56
28
-5
-12
-16
-10
18
9
-3
-4
-58
-58
5
-48
4
-110
-3
-20
-19
-6
-4
-9
5
-21
17
7
-28
5
0
30
-28
-106
-29
-32
-13
-4
-55
8
19
26
2
-8
-56
-33
-20
-17
-18
-12
40
-110
7
16
26
-63
3
2
-17
-18
11
-2
-6
-4
-1
-9
9
9
3
40
-21
-1
-8
-13
-2
1
-27
-67
3
-32
-8
17
-7
1
-14
-26
-19
63
0
-30
3
15
9
-8
33
8
-8
-66
22
0
1
1
-2
1
-2
-1
2
1
0
0
-2
0
-4
1
0
-1
0
2
1
2
-1
-1
-1
-1
1
0
-3
-1
-2
-1
2
-1
-2
-1
2
-1
-1
0
8
1
2
2
1
0
0
-1
1
2
1
1
2
0
-1
-9
-2
-2
2
6
-1
0
0
0
1
-2
-1
-2
2
8
-6
2
1
3
1
0
7
1
0
1
0
-2
-5
-1
1
4
2
0
1
-1
-2
2
8
-4
-5
2
0
0
6
0
6
0
-11
-2
-15
0
0
-7
4
-5
0
3
1
-7
6
0
-2
2
-2
0
1
2
-3
1
0
-1
6
-1
6
0
0
2
3
-8
-3
-6
1
1
-3
9
-7
-1
-1
-1
-3
-8
-6
-4
2
-2
-1
-1
0
-7
0
2
1
2
3
2
17
-1
2
0
1
0
2
5
1
-7
3
-5
-4
6
1
2
-3
2
1
2
2
0
-1
1
-3
6
-2
-1
3
1
5
2
13
2
1
-1
-1
2
-2
1
0
3
1
0
1
3
3
0
0
1
1
1
1
0
6
2
2
2
3
-4
2
-3
-2
-5
1
-1
-5
0
1
0
1
2
3
0
2
3
2
-1
-1
1
1
0
-1
0
2
0
0
-15
0
1
0
9
-2
-4
2
1
1
2
1
-4
-1
9
-1
1
-5
-2
2
-4
12
-2
-18
-9
-3
-1
9
-8
-7
1
13
0
-1
2
-3
1
-3
-2
-4
8
0
-6
-22
0
-1
2
-11
0
-20
-4
3
-3
9
3
5
1
-2
0
-10
-3
-65
3
-3
-6
-4
2
1
-6
5
-6
7
-3
5
0
-4
0
1
-2
-4
-7
-2
1
-6
-4
-13
-5
3
5
5
-12
-3
-5
6
-2
0
1
-1
-127
2
5
5
0
4
-4
-20
-1
6
1
1
-6
-3
2
5
-6
-7
-2
-26
-4
2
-3
3
1
2
4
14
0
-3
-1
-6
5
2
1
5
0
5
8
8
-3
-1
0
1
1
-4
1
1
1
0
0
1
2
0
-1
-1
0
0
-1
0
1
1
0
-1
0
0
-3
0
2
-1
-3
-1
-1
2
0
0
0
0
0
4
0
0
-2
1
1
0
1
0
1
0
1
0
1
0
-1
-1
-3
0
5
0
1
1
-1
1
-3
1
0
-2
2
-2
-4
2
-2
-1
0
-1
-2
-6
4
1
1
-2
1
0
-2
3
0
1
-2
0
3
2
-3
-4
2
-2
0
0
0
0
2
-1
-1
-7
0
0
-3
0
1
-2
0
-2
0
-1
-3
-3
2
1
0
2
2
0
-7
0
3
-2
-1
1
0
0
0
2
-5
-1
-1
0
0
-1
-2
2
-5
2
-1
-1
-58
-1
1
0
0
-1
0
0
3
1
3
2
0
8
-2
5
-1
-1
0
3
2
2
-2
3
-5
1
-2
-4
-3
0
-4
5
1
1
-2
5
2
-2
0
-1
3
-1
-1
4
1
-2
3
6
-7
5
1
6
0
4
6
-4
-5
2
-2
-1
-10
1
-3
2
2
1
2
-1
7
-3
-9
-2
3
3
-5
6
-13
-7
-8
-5
-2
-1
7
2
4
-2
-2
-7
-8
0
6
4
-3
6
-4
-2
1
9
-6
-1
-1
1
0
3
-2
-13
4
-5
-1
6
0
-10
-3
4
-1
-4
-4
2
2
0
-20
12
7
-2
-15
10
4
3
6
-6
2
6
6
2
2
-4
-2
7
-3
9
-8
-13
-2
11
-5
-10
-1
-1
6
2
13
-7
-4
-1
2
1
-6
2
-9
0
-24
-16
-4
6
1
0
-7
7
-6
-2
-2
-8
-2
7
-5
-12
0
5
7
3
-14
9
0
-1
-12
4
2
-9
-7
7
-2
7
-1
3
6
2
6
1
-11
-2
1
-5
-3
1
-6
-5
6
0
0
-2
-1
-2
4
6
-4
-11
6
-5
9
0
3
6
-3
-2
2
-6
-1
3
-3
-3
2
6
-4
-8
-6
-8
1
1
-3
11
-36
6
-7
36
3
-2
8
-7
-77
-17
-45
0
50
12
1
0
-3
-2
-2
-4
-25
-27
-21
-2
3
-4
-1
3
0
1
-6
1
-2
-2
7
-2
-5
2
-24
-9
-6
6
1
1
-17
18
-3
4
17
28
0
-12
0
9
7
-45
-5
-10
4
8
-4
2
-9
2
14
5
-46
63
26
-10
15
-37
-63
-9
-83
-3
-13
-73
-12
5
9
-45
0
9
-53
1
-54
-41
3
9
0
-3
-4
-4
-8
9
-12
-18
-70
-6
-2
15
-29
4
-30
-79
-7
1
-33
-29
-127
-4
25
-68
-5
-43
8
-32
-11
-29
9
-22
-9
14
-18
12
-29
-15
6
4
-5
23
4
7
1
-9
-74
-27
-52
2
46
-21
-4
-4
-24
-4
9
0
-32
-3
-13
2
38
-4
-4
-4
-1
-2
4
39
3
-1
6
-2
2
7
-22
-2
4
-24
6
-10
-8
11
8
-1
15
-9
10
-21
-4
8
-3
6
-1
-8
-7
-10
-1
-4
-7
8
60
16
5
-68
-7
30
1
1
28
9
-78
-1
11
-5
-7
3
4
4
5
-4
18
13
15
-3
-2
5
-2
-3
-8
-8
5
-1
3
-2
14
-18
2
8
28
-8
10
29
21
-2
-6
1
-5
5
5
-20
0
1
-40
12
2
14
20
-12
11
21
-15
0
-21
21
-4
12
20
-69
37
25
26
14
38
23
-89
-6
37
-18
-4
-1
-21
8
8
-11
28
4
36
-9
-10
21
4
1
-19
22
10
-5
6
-1
10
-18
2
7
94
4
12
-46
4
9
4
33
-46
-9
-5
54
5
-7
-96
14
26
20
14
-28
22
5
-1
5
-49
62
5
18
9
-63
21
-5
6
-3
32
13
-101
-8
4
-14
-11
-14
19
-1
4
-5
29
3
14
5
5
-3
18
-3
1
-3
4
-3
-3
-4
19
-17
1
15
31
12
-7
-21
22
6
-3
-7
16
-5
7
3
-6
8
-31
17
21
2
5
-6
6
2
-12
4
-18
-18
-2
6
-2
13
5
6
2
-2
0
1
0
-3
0
0
-7
-1
-2
-2
-4
-2
-1
2
-2
-1
4
-1
-17
-2
4
-5
11
-6
6
-4
0
-5
-2
1
-3
-4
-3
-2
-7
0
-10
6
4
5
1
2
-4
0
0
6
2
-3
4
5
8
-1
-10
7
-5
-6
-10
2
-2
2
-39
7
8
-5
-3
3
1
5
8
45
-4
-3
2
-2
5
6
-1
8
1
-3
2
3
16
12
-4
-8
5
1
3
-10
0
-15
-2
25
2
-70
-9
12
-7
3
-13
6
-3
-3
-21
-21
-3
23
4
-8
22
3
6
2
-7
-2
-2
-10
11
-18
2
4
2
-9
-29
10
18
0
-11
-10
-18
-38
7
6
11
4
1
34
12
-2
2
-7
-5
13
-25
3
21
-38
-12
0
-18
-16
-2
-3
-3
2
1
25
-7
61
-13
1
13
-24
3
2
12
-5
2
-23
-7
21
-1
4
21
-18
-3
15
25
6
10
-62
16
-26
-2
0
-10
5
9
2
2
-2
-4
5
-14
2
-4
10
-1
-6
-4
-1
-6
-4
-6
-12
-4
-8
-2
3
-15
8
8
-13
18
-1
7
-3
4
0
0
-6
3
-16
-6
4
-6
0
9
17
-5
3
-2
1
-6
-7
6
7
-6
-24
-2
-4
11
4
-23
8
-7
-1
-6
-1
-42
-4
-81
3
12
-29
-10
2
3
-21
-8
-127
-24
9
7
-62
3
-17
-13
5
5
-35
-8
4
-15
15
-6
3
13
8
5
-73
-54
-7
1
10
-9
-43
2
-76
-10
16
19
-33
-56
-21
-1
-71
-4
11
8
-31
8
-20
8
10
-7
8
4
-13
-41
-23
13
6
-8
7
-20
5
6
3
0
-2
48
-112
16
64
33
-5
-1
55
7
12
8
6
-4
-7
-26
3
43
-52
4
-7
-5
-12
11
0
1
3
19
22
-8
84
-43
-44
14
-66
-4
30
6
3
5
6
2
100
8
5
34
-21
16
-3
32
38
36
-66
-25
-27
-6
1
7
6
0
4
-2
1
-5
1
-11
-5
3
6
1
5
-4
1
-2
2
-4
6
-2
2
3
1
-8
-7
1
-6
8
-4
6
-3
5
3
0
13
3
-4
-6
-2
-6
0
3
3
-3
0
-9
3
-6
7
-8
3
5
10
5
-2
4
-3
6
-2
-3
-4
15
9
6
-1
-52
6
4
1
-6
0
-1
5
1
-18
11
0
-13
11
9
5
-6
2
-2
-2
4
-3
18
7
-13
-12
0
-1
7
2
6
12
1
-5
1
-66
-8
-22
0
3
3
1
-8
0
-2
-36
-6
-10
-17
-5
21
6
7
1
-30
0
2
-14
-9
-12
7
-4
21
-6
-10
16
-13
7
3
8
13
11
14
27
-20
-2
29
28
6
-7
2
2
4
21
-5
4
36
-49
7
8
-17
-17
5
4
6
1
0
-1
7
76
-26
-24
19
-10
-2
-5
7
-4
2
-22
-9
44
0
0
20
-15
6
13
34
17
-3
-34
-15
-17
-3
-2
-1
1
-1
2
0
0
2
1
-1
2
0
7
-3
1
2
0
-1
-1
-2
-2
2
-1
1
-2
22
3
-1
-3
0
-1
0
3
0
-1
0
3
0
-9
-1
2
0
0
-1
3
0
-3
3
1
1
2
1
0
-2
3
1
-3
-9
1
-1
2
1
0
-5
5
-3
-2
6
3
4
1
0
-1
0
-10
0
-24
2
0
1
-9
-2
3
3
-1
1
1
-3
0
1
-56
-5
3
2
-2
2
28
0
0
2
0
1
8
2
8
11
0
-3
6
0
2
-8
-7
5
0
3
0
-6
-5
1
12
-2
3
0
-16
5
2
-1
0
-1
2
2
1
0
6
0
-2
-4
6
-2
-1
9
10
3
3
-1
2
-6
2
-4
-2
-1
1
-6
6
-1
1
3
2
4
2
-2
-6
-2
1
2
1
3
0
10
3
-2
1
0
5
-5
5
4
1
2
-3
1
-2
0
2
1
-4
0
1
-1
-7
0
-2
-4
-1
-1
3
1
1
-1
0
-1
-2
0
-5
-7
0
0
-2
-2
0
0
-3
0
-1
0
-1
23
3
0
1
-3
3
-1
15
0
1
0
1
-2
-14
2
1
-2
1
1
-2
1
1
0
1
1
1
-2
0
2
4
0
0
-23
0
1
2
-3
-3
-7
4
-15
1
0
2
-4
-3
-1
0
-2
-26
4
38
-2
2
1
-127
6
-2
-1
-14
-2
-4
0
5
2
-69
-2
2
-5
0
-3
46
-7
3
3
0
10
22
1
-17
7
-4
-3
-17
-2
-6
-1
-12
3
4
-4
-2
-19
5
-1
2
-3
4
-16
-15
-22
-2
0
-2
-1
1
-3
3
-3
11
-1
6
19
12
0
6
4
19
3
-2
2
-4
1
0
-3
-3
5
-5
-6
7
4
5
-2
-8
2
8
-4
0
-9
5
-3
-2
13
20
8
17
-2
-4
-9
0
3
2
17
-5
1
2
-2
-3
1
6
6
-5
-11
3
3
-14
3
0
2
0
1
1
2
-1
3
1
0
0
2
0
1
1
0
0
0
0
-2
-1
3
-1
0
4
18
0
1
-1
-2
-1
0
1
-1
-2
2
-1
-2
-12
-1
1
1
0
1
1
0
0
1
-2
2
-1
-2
-1
-2
1
1
0
-17
1
0
1
-1
-1
-3
-1
2
0
-1
3
-4
0
1
3
1
12
2
5
-5
0
1
-7
-4
0
3
0
1
0
0
0
-1
-53
-6
3
-1
-1
1
20
0
-4
0
-4
1
9
-1
-6
5
7
0
-2
0
0
-3
-5
0
-2
-2
0
-4
-7
2
2
6
1
-2
-11
-5
-2
-3
-2
-3
-2
2
2
-3
5
1
1
10
-6
-1
-2
-1
6
0
4
2
-1
2
1
-2
-2
0
-1
-1
2
1
-4
1
-4
-2
1
0
0
0
-1
0
3
2
5
5
-14
-1
-3
0
0
0
5
4
-1
-1
-3
1
-2
-1
2
0
-3
-3
0
2
-4
-4
0
-1
2
-1
6
3
-2
-1
3
-5
-3
0
2
-1
0
4
1
-1
0
4
0
-2
0
1
-2
0
1
-3
-2
-1
1
-3
1
-1
0
2
0
-2
1
-3
1
-3
1
0
2
0
0
-2
3
-4
1
-2
2
-3
0
-4
-1
3
-2
1
-1
-2
-4
-3
2
-4
-1
-3
2
3
-2
-9
8
0
-4
0
3
0
3
2
-3
2
0
3
3
-2
-2
1
1
1
4
-3
-2
2
5
0
-1
-3
-7
2
6
9
0
-3
-3
-7
-2
-4
4
-5
-2
-12
-6
-3
2
0
1
-3
0
0
5
1
-1
0
2
-2
-7
-3
0
0
2
-8
3
0
-1
-4
1
-2
-8
1
3
2
5
-1
1
1
1
3
3
-5
4
0
-2
-1
-1
-3
0
6
1
-1
1
-2
1
0
1
-1
-4
-3
-4
-1
-1
-3
0
1
-2
1
-3
-2
2
0
0
4
-1
-3
-4
-2
0
-1
0
-1
4
-12
3
-2
25
4
1
3
0
-32
-7
-24
1
1
1
-1
-3
-4
2
-2
-2
-4
-15
-22
-3
0
2
1
1
-4
0
-4
-1
1
0
3
2
1
-3
3
-6
-4
1
-1
2
-7
4
-2
3
3
0
-2
-4
-1
4
3
-21
2
-2
2
9
-6
1
-1
2
3
4
-15
23
3
1
6
-18
-51
-10
-44
-2
-48
-40
-4
6
0
-19
-1
-1
-21
2
-13
-14
-3
5
2
-5
-5
-5
-2
5
2
-8
-21
-6
3
6
18
3
-8
-33
-4
-4
-13
-9
-52
-4
17
-27
-8
-16
0
-8
3
-15
2
-5
-8
6
-6
1
-15
-8
-2
5
-3
19
-3
2
-3
1
-31
-10
-33
-4
-1
-13
-4
0
-6
3
5
-3
-12
-4
-28
3
18
0
1
-3
3
-2
2
16
5
0
8
0
1
4
0
0
-1
-12
1
-13
-5
2
2
-1
2
-3
3
-6
2
3
2
5
0
0
-5
-5
-3
-2
-4
6
1
3
2
-5
-5
3
-4
-1
-70
-27
-26
-2
73
4
0
1
3
1
2
-2
-41
3
8
-1
1
-3
0
-2
4
-1
-5
-8
4
2
2
-3
1
-2
-15
0
4
8
13
2
-5
-6
-8
-1
-4
24
4
5
-13
4
-6
9
4
-6
2
6
-7
0
-1
7
-5
-3
13
5
23
-1
7
7
-73
-43
-44
-7
127
-21
2
0
-2
7
3
-7
-67
0
25
-3
0
8
5
13
3
6
-6
-11
3
1
-18
-13
1
4
-25
8
-3
-55
10
3
-3
3
-60
2
-7
-12
7
-10
-43
14
-2
13
6
-12
5
6
-2
8
-1
28
4
4
1
-2
12
-2
-2
1
-65
-29
-43
-3
68
-11
-4
-8
-6
3
0
-3
-54
-1
13
4
6
1
7
4
0
-2
-6
0
1
-1
6
0
0
3
-11
7
8
-19
20
-1
-4
-8
8
0
-2
-6
-5
-1
-12
2
1
6
0
-1
2
-3
-10
3
3
-1
-2
-9
-1
-6
2
7
3
0
-7
1
-6
3
-1
6
-6
-1
1
3
-1
1
5
0
-4
-1
2
8
-5
-2
8
7
-1
3
0
-4
-2
-2
1
9
-2
1
-3
-1
2
4
3
-1
-1
0
2
-1
-1
3
-4
3
-1
-2
-2
-5
2
0
-4
0
-2
-4
-2
-15
-2
-4
-1
3
-2
-3
-17
1
1
-5
-7
3
1
0
0
-3
-1
-3
-1
-1
-7
-3
-3
10
-5
5
5
5
5
10
6
-4
-4
-5
4
15
6
-1
-5
-3
-1
-2
-6
-2
-5
-2
-9
-10
-5
3
-3
0
-3
0
1
-1
0
0
-7
3
1
-4
-1
-9
3
-6
-4
2
-3
-2
-8
-2
-1
-8
-4
3
-3
4
-2
0
2
-1
0
-1
-7
4
-2
8
-5
-3
3
7
6
1
7
-4
-2
4
-3
7
0
0
-5
-1
6
1
-2
-4
1
-3
4
-3
-3
1
-3
0
2
5
-1
-9
-6
5
-6
0
0
3
-12
0
1
1
-1
3
5
1
-18
-2
-25
-2
29
-2
-4
3
-3
5
-2
-2
-5
-8
-25
1
3
6
-3
0
-4
-2
-8
-1
-7
0
1
2
0
0
-6
-7
-3
-1
-3
0
-1
2
-3
6
2
0
-3
-9
-1
7
-1
-12
-1
-7
5
11
-9
-3
-1
7
-2
-2
-11
-1
0
3
12
-12
-28
-5
-34
-9
9
-20
-7
13
-2
-13
-2
-12
-15
3
-35
-10
6
8
0
0
-1
-5
-2
0
-8
-4
-18
-2
0
5
8
0
-13
-19
-2
-6
-3
-3
-30
-5
10
-20
-7
-17
1
2
5
-14
-1
-12
-1
7
-6
-4
-2
2
-4
-2
0
5
-6
-2
2
-1
-20
-5
-28
-12
22
-6
-6
6
-10
4
2
-6
-8
-4
-29
3
25
3
-2
3
2
-2
-2
16
1
-1
0
8
-2
5
-4
-2
-4
-5
-2
-8
-3
-1
4
3
3
-3
-2
-3
4
6
2
-1
-1
-8
-3
-6
-6
3
-3
6
3
6
5
60
-2
4
-2
-1
-61
-15
-16
2
-6
6
3
-6
-8
4
0
-6
-6
1
-86
1
0
-5
-9
-1
2
-5
-7
3
3
6
9
-5
0
2
25
-7
0
6
-5
2
-2
-3
-10
4
-3
17
-2
6
-6
3
-6
13
6
-11
5
8
-5
2
-1
1
-15
7
7
82
20
6
19
-2
-80
-25
-27
6
4
-10
5
-5
-5
1
5
-4
-23
3
-127
2
-3
7
4
8
5
0
-2
12
1
1
5
-8
-6
9
43
-4
-4
-29
-5
3
-3
6
-34
4
-8
-26
1
-11
-22
9
4
16
5
-6
-2
1
-12
4
7
14
-12
8
0
51
9
1
-6
2
-58
-18
-21
-4
-8
-2
1
-6
4
3
-1
-5
-12
1
-91
8
0
-9
0
5
3
-5
-5
10
1
-1
9
0
-1
7
27
0
5
-11
-4
-2
-1
1
3
5
-7
-10
-1
-1
-7
3
-2
5
0
-9
6
-7
-10
0
4
-1
-3
2
1
6
-2
3
2
-2
-10
-2
0
-1
3
0
2
-2
0
0
-2
2
-2
1
-1
-1
1
1
2
-1
-6
1
-3
1
0
2
2
2
2
-3
-1
1
-3
-2
0
4
0
4
1
0
-1
5
-3
-5
0
1
0
0
-4
-3
2
-2
3
1
-4
-7
0
1
-1
2
-3
5
2
-1
-32
0
5
-4
3
2
0
3
0
0
1
-2
-6
4
-3
0
0
1
2
1
0
-3
0
5
-2
0
-4
1
2
0
4
3
-2
-2
-4
0
-3
2
-5
-5
-8
-9
-3
3
2
4
-2
-1
-2
2
-5
-3
1
4
-5
-13
-1
3
1
7
-4
5
-1
-1
-14
-2
1
-2
1
1
1
1
-1
1
2
1
-4
0
-4
-1
-2
-4
-2
0
-2
2
5
-2
3
-1
-1
0
0
0
-1
-4
-2
-2
4
0
-2
3
2
-4
-3
0
-4
-2
1
-3
3
1
0
-4
-3
3
4
1
-4
8
-16
3
-2
-6
-4
-5
4
-3
-48
-22
-54
-3
28
6
3
0
0
3
-4
0
-39
-13
1
-1
4
-1
2
3
-2
0
-2
-8
-2
-1
-6
-2
1
-5
6
-4
-6
15
16
1
-18
7
1
6
2
-5
1
-5
-2
-2
0
-20
-3
-2
5
9
0
-5
-20
4
7
4
-20
0
20
1
7
-20
-67
-25
-119
5
-3
-60
-6
11
3
-22
0
10
-89
1
6
-11
6
9
3
-8
-1
1
-4
-5
-5
3
-89
6
6
9
17
12
-17
-70
15
0
-42
-39
-115
1
7
-8
-2
-32
4
-13
3
-13
7
-5
-6
10
-7
11
-112
1
1
6
0
-8
3
3
1
-1
-42
-26
-86
4
23
-8
-3
-2
-9
1
0
1
-55
-4
5
0
27
0
-8
-3
-1
2
-1
12
0
4
-4
-5
0
3
3
6
1
-17
19
-12
-11
1
10
0
1
4
4
-16
-2
0
0
4
1
-1
0
-4
3
0
-19
0
37
10
4
-39
-4
8
1
3
17
6
-63
-3
-7
-5
4
-2
6
2
4
0
-114
11
102
1
-1
-4
-4
-4
-7
-2
2
-5
2
-4
-18
-5
3
-5
3
1
11
32
38
1
-6
-2
-6
5
3
-14
8
7
-2
4
1
-2
5
6
5
5
-4
-3
-17
11
0
4
18
-40
9
7
10
11
46
11
-89
-2
10
-30
1
-1
-11
10
0
-7
-122
-2
127
4
-1
2
4
12
-9
19
6
-13
-5
5
-93
-11
5
1
17
8
8
-71
34
3
-9
10
-89
0
4
24
9
6
-43
12
12
6
1
-10
6
0
-2
2
-62
37
7
11
2
-34
3
-4
3
-2
16
10
-98
1
-11
-10
1
-8
25
0
0
2
-119
0
103
5
-2
-4
6
4
-5
5
6
-6
-5
4
-13
-3
4
6
2
8
1
-14
43
-8
-6
-2
26
1
5
10
-3
5
-4
2
10
6
-5
5
10
-8
-7
1
-23
-13
2
5
0
2
2
-9
5
2
1
3
8
2
-4
-3
4
-1
1
1
2
-7
3
4
0
0
1
1
4
5
-30
-5
-3
1
0
-2
6
-6
0
6
2
2
-3
-1
-1
3
0
-5
-4
3
2
2
-3
-1
-2
0
-1
1
-1
-9
3
-2
-3
2
0
0
2
8
3
-3
9
-9
8
4
-5
10
10
0
-2
-3
8
-1
1
1
3
-8
1
0
1
5
4
1
-2
-5
-27
-4
-6
2
6
3
-7
-30
-1
12
7
-1
1
0
4
1
-8
-9
-4
7
23
1
-2
0
0
-10
-7
4
-2
-127
1
1
-1
-2
12
-7
1
4
2
-2
0
-5
6
3
4
7
9
1
-3
0
2
7
-1
0
3
-8
5
-1
3
-3
-1
1
-4
0
-7
-9
-1
3
1
-1
3
1
0
4
0
-5
3
-2
-1
3
3
-6
-5
8
2
0
1
4
0
1
-10
2
0
-16
-1
-1
-4
1
1
7
-1
-7
1
-2
8
-2
-15
0
0
0
3
-2
-7
1
8
1
-2
-2
-2
4
0
-5
-1
0
1
-18
-3
4
0
0
-1
0
3
-2
1
2
1
-22
0
-1
-4
-1
2
2
1
0
-1
5
1
-2
-1
-2
3
0
1
4
-4
-3
3
-3
7
-1
0
-2
5
-19
0
1
-39
0
-5
-9
-2
4
2
-4
-2
-2
0
3
0
-6
-3
10
2
4
3
-9
2
-21
1
0
-5
-5
2
4
18
-5
-8
11
1
-56
0
-2
-8
-5
0
0
0
1
-3
-6
-6
-3
-4
5
10
5
2
1
2
4
2
-1
-24
-1
4
-6
1
-11
-4
-2
-10
0
-22
0
-2
2
0
0
-3
0
5
2
-4
0
-2
4
-1
3
-1
-8
2
-20
-2
-2
-2
0
2
5
6
1
1
-5
2
-12
0
0
8
-3
0
-1
4
2
-3
8
-1
0
2
3
7
-4
0
-4
0
-1
1
3
14
0
0
4
7
-10
0
0
-3
-2
6
0
-2
0
2
0
-3
1
-1
0
0
-1
1
1
-2
1
-2
-1
-1
5
-1
1
2
4
0
-1
2
-3
1
1
-1
2
1
-1
4
-1
1
0
1
-1
1
-3
0
-1
1
0
1
0
-2
2
2
-2
3
0
6
3
0
0
4
-17
6
-3
7
1
-2
1
0
0
2
1
-2
1
-1
0
3
2
2
0
1
-2
2
-3
-3
5
1
-1
1
8
0
0
1
-1
0
3
0
5
0
0
0
1
-1
-2
-1
-1
-1
0
1
2
1
2
2
2
1
1
2
1
0
1
7
-1
-1
3
0
-8
1
0
5
0
8
-1
-1
-1
-1
3
-2
1
-2
-3
6
0
3
1
0
1
-2
-1
-3
3
2
-1
1
3
-1
3
1
-1
0
0
3
-4
1
2
-2
1
-2
1
2
-1
-1
0
2
2
-1
2
1
1
-1
-1
2
-3
-1
1
6
-1
1
3
-4
9
2
-1
-1
-2
6
-49
8
-1
-13
-10
0
0
-1
5
3
7
-12
9
-5
-17
-4
-2
6
-3
-2
-7
14
12
-2
-5
-6
2
0
7
35
17
0
-2
14
-6
-6
6
53
2
3
1
-1
-5
66
-2
-8
4
6
9
-22
1
1
34
2
-7
-7
4
1
1
-13
8
4
22
0
18
-6
3
-11
2
1
-2
4
10
5
-4
7
-1
2
-2
10
2
3
-2
3
1
7
-7
0
-3
2
-4
1
-21
-99
0
-6
3
-8
-5
19
0
-39
0
-2
-2
-7
-8
-34
-3
7
1
5
0
80
18
2
-24
8
1
21
-53
-5
0
-2
4
-1
16
-2
1
-2
0
6
0
0
1
-2
0
0
0
2
2
-2
0
-2
1
-1
0
1
0
2
-6
0
-4
2
-1
0
0
8
1
0
2
-1
0
1
-2
1
2
-2
-3
1
2
7
-2
-1
-3
1
-1
-20
-3
3
-11
-4
-2
-3
2
0
8
16
6
-6
-8
11
-99
15
-2
-1
-10
9
6
11
-70
-3
14
-127
9
10
-67
-5
7
-9
-4
7
0
-5
28
4
2
-4
2
13
8
28
11
-9
8
49
-22
-1
8
-83
9
4
9
-4
-16
124
-6
-14
2
7
37
-20
5
9
32
6
-9
17
4
-3
-3
-82
-3
7
19
3
-48
2
5
50
12
-6
1
7
87
3
-10
-11
2
6
2
2
-53
-2
7
6
-10
10
-11
4
-18
10
-3
-16
-19
-112
0
19
4
-58
20
5
10
30
-18
-46
-1
-1
-6
-52
-11
2
-22
9
-14
67
2
3
0
28
2
-38
-88
-3
-1
-3
-3
-1
10
2
1
1
5
-17
-5
-3
-2
-3
-5
2
-3
2
-2
-1
2
-4
-2
0
3
-1
-4
1
-4
7
8
0
-2
1
-2
19
-4
2
-1
-4
-1
0
-8
-2
5
-1
-4
-3
2
8
-4
0
1
2
2
-20
-2
1
-37
-7
-1
1
-2
49
3
19
-1
1
4
5
-57
5
3
-2
3
8
-2
-4
-6
-4
12
12
-1
8
-18
2
-4
8
-3
-1
-7
-1
6
-2
-2
-3
7
2
4
38
-7
3
-2
16
-12
0
8
-10
1
4
3
1
-9
68
-8
-1
-2
6
4
-20
6
2
32
-4
4
9
-3
-1
0
0
1
0
10
2
11
0
4
9
-2
-2
1
1
1
16
-3
-5
2
-4
1
-2
7
7
-2
3
3
4
-4
6
-3
5
-1
3
4
-93
-3
-2
1
-14
3
16
-3
6
-3
3
3
-3
-1
-23
-8
4
-2
5
4
71
2
1
-15
-5
2
-8
-40
-3
0
-1
1
-4
7
0
2
-2
1
-7
0
-2
-1
3
-2
15
0
2
2
-1
0
-5
-3
3
0
0
-3
1
-4
4
3
4
0
3
0
7
2
-1
3
-2
-3
-4
1
1
0
-2
-1
-1
3
6
-4
-2
-1
3
-3
-21
-3
0
-14
4
0
4
-2
-2
-2
-2
7
0
1
-1
2
-17
-1
3
-2
9
2
-3
3
-1
-3
0
4
11
0
-7
-2
0
-2
-3
2
-16
-2
2
1
1
1
0
-2
-1
1
-2
-1
3
-3
-2
1
3
1
3
-1
-1
2
-2
-4
1
-2
1
3
0
-4
-5
-2
0
2
-5
1
0
1
0
-1
5
2
5
-3
-37
-1
5
0
19
5
3
-2
-1
0
-1
2
-1
4
-11
-4
7
2
0
1
1
1
0
-2
-2
-1
-6
-3
1
2
-17
2
3
5
-8
2
5
3
8
-1
-4
-4
1
-3
3
3
4
1
0
-14
-1
2
-2
1
-5
1
-4
-1
-2
4
2
2
-2
-3
-25
-3
9
3
11
1
-1
0
-2
2
-1
2
0
2
2
1
2
-1
0
2
-2
-2
1
2
2
-2
-1
3
-3
1
-5
-1
0
1
-3
0
3
0
1
0
1
-2
-3
-3
3
-5
4
-4
-2
-2
-2
0
2
2
-6
4
-6
-1
4
-27
-7
1
-1
-4
2
-18
-21
-2
-2
5
3
-4
0
-6
2
2
0
5
-5
-1
7
-3
0
10
1
5
8
2
-2
-6
6
2
2
1
2
-7
1
17
18
2
-4
-3
-1
4
-3
-22
-2
3
7
-1
4
6
4
3
1
2
5
6
-11
8
-3
9
-10
-44
1
3
3
11
19
-38
-27
7
-20
-10
-10
-10
-9
0
4
-4
7
8
-15
3
3
0
2
4
2
12
2
7
-6
1
-127
34
14
10
47
12
4
-38
18
6
-33
-25
-6
-8
-10
57
-2
-6
20
-6
5
6
6
-10
7
4
-9
3
-114
13
2
3
9
-19
2
0
0
-6
12
-28
-44
5
-5
-2
-1
-2
-10
0
-2
1
13
-2
-2
-1
1
0
4
-1
6
-1
3
-6
-2
0
-1
-12
10
2
9
6
0
-12
30
0
2
0
11
1
0
8
-12
0
9
-2
11
0
8
1
3
1
5
0
-24
-14
9
6
4
-4
0
-1
-3
4
-3
2
-6
-5
13
-3
2
-3
-4
3
3
-1
-2
3
3
2
0
-7
1
-2
4
5
4
2
-1
-3
-1
6
0
2
3
-3
8
5
3
1
-4
-3
-3
6
5
5
8
7
-14
7
3
-5
-3
0
-2
-1
8
2
-9
-5
1
-6
-4
-3
-9
3
-3
8
8
-10
-1
2
5
0
-4
-7
-1
2
4
17
9
-3
10
4
2
-5
6
7
-1
20
1
3
-19
4
13
14
-12
7
-5
6
12
0
-2
5
-5
1
-4
3
3
-11
4
2
28
16
3
-3
2
-2
7
-3
18
-6
-17
0
-2
5
0
-3
7
-5
-2
1
3
-3
-6
5
15
-2
5
-1
16
7
3
1
6
-3
6
8
-7
-5
0
0
-2
10
-2
1
-10
6
1
-1
-6
2
-1
1
-7
5
-1
-6
-4
-6
7
-1
6
-2
7
-4
-10
6
-3
4
-11
-3
4
-4
9
-1
-13
2
-11
11
-19
-5
-17
9
6
5
-3
0
3
6
10
-6
-79
6
-12
1
-3
-46
-5
-5
2
19
4
71
0
-7
-27
1
3
-4
-30
-2
-1
-9
4
2
5
-5
12
-1
24
-9
-6
3
2
59
19
-9
9
8
-9
13
2
0
12
11
-1
5
23
1
6
14
-5
5
-81
5
36
0
-21
15
17
-3
-13
-10
0
-12
-80
12
-4
0
4
-119
8
0
7
79
3
97
-2
14
-16
8
-2
-12
-54
4
-5
-53
3
-8
-1
0
14
3
4
3
-27
20
-2
127
-42
6
0
9
-14
-29
16
1
1
14
9
-8
3
11
1
38
-21
8
49
-2
20
4
4
-7
-6
-5
-9
-5
5
4
-78
-4
-2
-1
-2
-73
3
1
6
-41
16
70
9
8
-18
11
4
-3
-42
3
5
25
-7
8
-2
13
-16
5
20
-2
7
-4
-2
75
23
2
2
2
-8
13
14
0
-3
4
7
-16
30
4
2
-13
6
-29
-1
2
6
8
-8
-2
2
7
-2
-2
0
5
-19
0
-3
7
-1
18
0
5
4
-6
2
-48
-3
0
-5
-15
4
-4
-18
9
6
5
0
22
-4
5
-4
7
-2
-1
0
-7
-1
11
-2
9
-8
-5
-2
-6
5
-34
0
6
-8
7
-89
-2
0
3
-1
3
-70
5
28
8
-5
-7
2
-1
-2
-18
6
-6
-117
15
-12
3
-13
-11
-2
5
0
-88
2
-12
-4
4
10
-14
0
-9
-17
-10
-7
-9
3
53
-4
0
4
-10
-7
0
4
-34
-11
-96
6
-9
-9
-5
-3
1
8
-34
1
2
4
10
-102
-5
-15
5
2
-31
-24
1
-3
-4
-6
0
0
5
2
-3
0
-5
-23
2
-3
-2
0
20
-2
-2
5
25
4
-54
-4
-3
0
-19
5
0
-9
-6
1
-3
-1
62
2
-3
8
-10
1
-9
-2
-3
0
-36
-2
-1
-4
2
-6
-6
4
-2
4
4
-3
5
-85
-3
6
8
3
24
-1
-4
4
0
-17
0
3
2
-2
1
1
-1
3
0
1
0
-2
3
-3
-1
4
-3
1
-2
-1
0
6
-5
2
0
-2
7
1
1
3
-5
-2
-6
-1
3
-4
-3
1
-1
1
0
0
6
-1
0
1
-2
-2
3
-5
1
2
-3
10
-3
-1
1
0
8
-5
3
-9
-6
-43
6
4
6
2
-2
4
-2
1
-3
3
5
-1
0
-1
-1
4
0
0
6
-2
3
10
-19
4
-3
0
-1
-6
-3
1
-11
-4
-2
-2
1
-5
-6
-1
-3
-2
3
-1
-3
2
-3
-6
1
-2
3
-1
-1
-1
-7
10
1
-4
2
1
32
1
1
-2
5
-10
2
4
1
-3
-1
2
1
-1
-2
3
4
-5
2
-1
-3
3
0
1
6
1
-2
7
-1
5
0
-4
-3
2
1
1
-10
-2
-4
7
-3
1
2
-1
-1
2
4
-1
0
1
-1
-2
0
1
1
-3
0
1
-9
9
2
-1
0
3
1
1
-5
0
-2
-7
0
3
-4
2
2
-4
3
3
2
-3
0
1
4
4
-1
-5
-1
0
-1
4
-5
2
2
-1
-2
-2
1
0
1
2
0
0
-8
2
-2
1
-2
7
0
-4
-1
-4
-3
1
-1
0
-4
-15
0
-3
3
-3
-2
4
2
6
2
1
2
4
-6
24
-8
-6
0
0
-2
6
-2
1
-35
2
2
3
-9
-1
1
6
0
-3
-4
3
-6
-22
-42
-18
6
-8
2
1
57
5
9
-2
-12
-1
-37
-1
-13
-3
-3
-1
-1
3
6
-10
8
-3
-15
2
-5
10
6
-6
-4
64
-5
-3
46
-6
10
4
-6
-3
2
-12
-7
-2
7
1
-2
12
-32
6
10
-5
-4
-25
6
7
0
-4
-1
1
9
-17
3
7
2
8
-21
-1
24
0
5
0
4
3
-10
18
18
-11
-3
-19
35
-21
-15
-1
-5
8
-2
6
-14
-1
-2
-13
-17
3
-8
7
-4
-7
-35
0
-8
12
-1
6
3
2
-3
-4
4
7
-2
8
3
-6
-4
-3
1
1
3
0
0
2
4
0
0
0
-2
2
-11
1
6
-17
-1
-3
15
2
-2
1
2
-1
6
2
-5
-2
-1
-4
-6
-2
-3
2
5
4
5
-1
-1
-14
5
2
4
-22
1
-7
1
7
1
1
-4
26
-2
18
-4
-7
14
-1
0
-7
-8
-7
47
12
-9
-4
-127
35
-7
-8
-11
-4
3
10
-11
-44
-54
2
19
-6
5
-9
89
19
-2
-1
-4
-18
-45
10
43
-1
-11
4
-13
20
6
-1
2
2
-69
10
6
5
-3
-1
8
8
-1
-12
49
23
-1
-3
-2
2
-9
-3
-2
-5
24
0
-5
-25
-63
-8
-18
-27
18
-6
-16
7
-4
-5
-12
-2
8
-121
9
10
6
-3
-30
-18
-45
-5
11
-14
8
-6
-13
-9
25
-22
-34
-14
46
27
-19
6
-3
3
7
13
4
6
0
-29
-3
6
-6
3
-4
-19
-53
-19
-7
-22
-3
-2
1
-2
0
-3
2
-3
-2
5
-1
-2
-5
8
-2
0
1
-4
1
1
-3
0
-3
1
-1
-7
-2
-1
4
-4
-1
-4
7
5
0
-1
-3
-2
0
-3
-2
0
1
3
2
-2
-1
2
8
0
1
4
1
4
-8
-1
0
-6
2
-2
0
4
1
-20
-5
-4
2
7
-3
-5
3
-2
-4
3
-19
-11
-3
-1
5
-4
-2
-2
2
-2
-2
-1
-2
4
-3
4
-21
1
6
-13
3
2
17
5
0
5
3
-1
-14
-6
4
-1
14
2
2
-6
0
0
5
-1
-3
2
-3
1
-1
-8
5
14
0
5
9
5
5
10
6
3
3
-13
0
-4
4
2
-2
-5
15
-11
-1
1
2
-85
-21
11
0
-2
-2
-3
3
-1
-4
-7
9
-1
-9
-3
9
-1
19
-4
0
5
-1
-8
4
-14
6
-4
5
-3
-3
1
0
4
4
-9
0
-12
-1
-11
-15
4
-3
9
0
-1
19
-1
-1
-3
0
1
-1
0
-2
5
1
1
-2
0
-3
-3
-5
1
5
-1
9
2
-1
0
21
-3
1
2
3
2
-13
7
9
1
-1
-2
-2
1
0
2
10
-1
-1
-1
-1
22
1
-8
-4
-1
1
-4
-4
6
-1
2
-1
-6
0
1
5
4
11
3
-15
5
4
-1
3
-14
3
-1
4
5
-15
0
2
-13
-2
0
-1
6
4
2
2
3
4
0
0
-1
-3
4
2
2
-3
-7
0
0
-14
1
-4
-1
0
7
4
0
-1
-19
-8
5
3
10
6
2
5
-1
-4
32
1
0
-2
4
0
-3
13
1
-7
-3
-2
5
-25
-2
1
1
2
-1
20
0
-1
0
-3
3
-1
2
1
-3
0
0
-1
1
-1
-4
1
1
1
-1
1
2
1
2
-2
-1
6
1
-2
0
1
-8
1
1
-1
-1
0
-1
2
0
1
1
-3
0
-1
-3
0
0
0
0
-1
7
-1
1
-13
-3
1
0
0
-2
1
-12
4
2
-6
1
-6
5
2
5
4
-1
-6
5
14
1
6
15
5
-1
13
2
-5
5
0
-4
3
4
14
-4
1
2
9
1
0
0
1
-4
4
-6
-5
8
4
17
-5
-6
2
0
-8
13
5
0
-1
-5
48
1
8
5
8
-5
-19
3
6
0
3
-50
2
1
-4
4
-127
0
-2
18
-5
1
-3
6
23
1
-16
-29
-6
2
19
-2
-15
6
3
1
-3
2
-7
4
-31
-2
-9
0
3
2
3
-2
2
-52
19
4
8
-1
-19
-13
-1
-3
-3
37
1
-1
0
8
-6
-4
0
0
-8
-5
2
-20
-23
0
-1
0
1
-1
25
-2
-3
0
0
-3
0
0
0
-3
1
3
3
2
-1
0
7
0
1
-6
2
1
-2
0
-3
0
7
0
-3
-1
2
-16
-1
-2
0
-2
2
-1
-1
1
0
1
-3
0
0
-7
-1
-3
0
1
-1
-7
2
1
-9
-4
-2
-4
-1
1
3
1
2
0
-3
-2
0
5
-2
0
-3
0
0
-5
7
-1
6
-4
-1
2
-2
2
-1
1
-1
3
-9
-2
2
4
-2
-1
1
1
-1
1
1
-2
-2
-8
-1
6
7
6
-2
4
0
-1
-4
5
-1
-2
1
-1
-8
2
5
1
16
-4
-5
2
2
-3
-2
11
1
-7
6
-7
-5
0
1
10
0
2
-1
2
4
2
-1
8
1
0
3
-2
0
4
-1
2
-2
0
-5
1
-13
1
-3
-1
-3
5
-1
3
2
-24
3
2
5
-2
-1
-2
-1
-1
-2
9
-2
-1
2
3
4
-1
0
-2
-9
-2
2
-6
-17
-1
1
1
1
-1
6
-3
0
0
1
-2
0
-1
0
-1
1
-6
0
1
-2
-2
1
0
1
-1
0
1
-2
2
-2
1
5
1
0
1
-1
3
0
-2
1
-3
-1
-1
1
-1
0
-1
1
-1
-2
2
-3
-1
-1
0
1
4
0
0
-11
-1
1
-3
1
-3
2
0
2
2
1
1
0
-1
1
2
2
1
5
0
-3
-1
-1
1
-1
-2
-1
3
2
1
-1
1
1
6
-6
5
-6
3
2
0
0
1
2
1
-11
0
0
1
2
-4
2
-1
-1
4
-2
1
4
1
0
6
-1
1
1
3
1
-1
0
0
1
-5
3
-4
-3
-12
4
1
2
14
1
-7
-2
-7
19
0
-2
1
9
4
1
4
2
3
-2
-3
3
53
-21
-1
-7
-3
-6
2
-8
-2
-4
1
9
1
20
-3
6
-1
3
-1
3
2
-3
-11
-21
3
6
1
-3
-25
-1
2
19
-94
1
-3
-17
10
3
-3
5
-1
-4
16
-3
2
1
-11
1
-7
6
0
-32
5
5
8
-22
-4
0
3
-8
-1
-5
-4
-2
-35
-30
-7
11
-5
-14
2
59
8
-8
0
-1
1
-36
2
1
25
-27
6
8
5
7
-3
0
5
12
3
1
16
10
-4
7
27
0
0
7
11
-1
0
-1
-6
0
1
1
5
-1
-3
0
2
0
-4
2
-4
-3
0
0
-2
-2
0
-5
-5
-1
-2
3
-11
3
2
-6
3
1
-1
7
3
0
2
1
-2
-26
3
-1
-2
2
7
2
0
2
1
4
-2
2
2
2
8
-3
-2
-4
4
3
-2
1
-5
-2
-3
0
-22
4
-23
5
-2
-4
-2
2
7
-27
-3
-6
-18
5
5
-43
4
-6
10
-4
-3
-8
-8
7
63
-44
-2
-11
-5
-1
1
-85
-4
-6
0
9
-1
46
6
-46
-6
8
-5
-19
-7
-9
0
-56
2
50
4
-10
-26
22
-2
2
-99
2
2
-20
-25
-5
-1
4
-4
-3
8
0
1
8
0
1
28
36
2
46
27
0
5
-91
5
14
0
-2
-4
-9
61
-4
-55
-15
-3
20
-2
19
2
112
3
-4
5
0
-1
-51
-3
37
12
-127
-2
15
-15
5
3
-2
4
-28
-2
2
15
-14
-1
3
23
1
7
26
6
-12
2
-1
4
-1
3
3
2
0
-3
0
0
0
-2
5
0
0
-2
-1
1
-1
-1
-2
-1
-1
2
1
2
-1
0
-6
5
-3
3
-2
-1
-1
3
1
-1
-15
-1
2
-1
0
1
0
0
-1
-2
2
-1
3
0
-1
4
5
1
-1
3
0
4
-1
-1
0
6
1
5
1
-8
1
3
-1
-4
2
0
14
1
-1
8
-3
-1
7
2
1
-1
3
-2
-3
-1
5
52
-28
-3
-3
-1
-4
6
8
2
1
0
-10
1
13
-3
-15
0
-4
-1
1
-4
-1
-2
-20
3
3
-8
-1
-29
-2
3
-1
-80
2
-1
-11
-8
-8
-1
-5
-3
-2
12
2
0
5
-2
2
6
-11
5
3
-11
6
23
-30
-3
-3
2
-7
4
0
2
0
-32
-30
-2
17
-3
-6
2
58
8
0
-2
-2
4
-40
2
7
11
8
5
7
0
1
-3
-1
3
-11
8
-1
20
7
-1
7
31
5
3
1
6
-2
-4
0
4
-1
0
0
-2
4
0
-6
7
8
-6
-6
-7
6
1
2
8
2
4
-5
-3
-3
2
0
-2
-5
18
4
-2
6
-4
-2
4
0
-1
17
1
0
7
10
23
9
-11
-6
-6
-2
-4
1
7
10
3
-3
-3
5
4
4
2
1
0
-9
-2
15
-4
9
-22
1
2
-11
6
6
10
2
-21
7
-2
-2
10
0
2
-2
11
5
6
1
4
-7
-1
3
-1
-3
-12
1
1
-20
1
-3
1
-19
6
10
-1
1
-23
-3
4
4
-4
6
0
4
-13
-4
12
-2
-1
1
4
4
-8
13
0
3
6
0
9
-67
-4
3
2
5
3
14
-1
0
0
1
10
1
3
4
-2
-2
-1
-3
0
-3
-2
2
4
0
-1
1
4
1
-2
-6
-2
1
0
-1
-2
2
9
2
-4
0
0
3
1
3
2
3
-3
0
1
1
-3
2
0
-3
5
2
0
-8
2
-28
-2
0
4
6
1
4
7
0
2
-9
-6
16
2
-2
-19
15
8
-1
-6
-6
2
-2
27
1
-1
-44
1
-5
2
-2
6
8
-7
6
-6
16
-1
9
5
3
-2
16
5
-2
12
5
21
16
9
-3
-7
1
1
-24
8
2
-5
2
2
31
8
-3
15
24
-1
-2
-5
7
3
3
-100
2
0
-35
7
-127
6
-2
46
15
2
-7
11
25
-5
-12
8
11
7
26
2
-52
-10
1
1
-7
-1
2
3
-25
3
-9
-20
-14
-19
6
1
0
-81
37
-2
8
3
-43
-55
3
-1
-3
6
-10
3
-21
6
-24
-6
-7
1
3
13
3
-33
-48
0
2
-1
0
1
-3
-1
-1
-3
0
-4
3
-3
2
0
-2
3
-1
1
-6
3
11
0
0
-4
-1
0
1
-1
-3
3
18
3
0
-2
-1
21
-3
-7
3
2
4
2
-5
4
4
-4
-2
1
0
-2
-2
1
0
3
0
2
-1
4
-37
-4
-2
-11
6
41
-4
-8
2
11
0
-11
7
2
-2
-7
1
11
-2
6
5
-9
3
3
2
2
-14
5
-10
0
3
0
-10
5
3
-3
7
-3
-2
0
1
3
3
1
1
11
9
15
5
11
1
-2
-2
0
-14
6
2
-8
-1
-3
-5
6
3
5
5
-2
-9
-2
18
-1
-3
17
1
4
-14
8
-3
3
1
14
-8
7
2
-4
-5
6
0
9
-3
2
5
0
6
9
8
1
-2
1
2
1
-23
4
-1
-2
-2
0
6
2
-3
-45
10
6
-2
-2
2
-10
0
-3
-2
5
-7
-8
1
6
10
-5
-3
0
10
-2
3
-8
-48
-1
6
2
-1
2
11
2
0
-2
-6
0
2
-3
0
2
-4
-1
-2
2
1
-3
1
-3
1
1
2
3
-2
-1
-6
3
8
6
-1
0
-3
3
2
-3
1
-3
-3
2
2
2
0
-3
1
-2
1
-5
-1
-5
0
6
3
2
-1
1
-28
0
2
-6
1
0
-1
1
-3
2
-2
0
0
6
0
1
0
-11
0
-1
2
0
-1
-1
1
3
0
2
0
-1
0
0
-1
2
0
0
2
-1
-2
1
0
2
1
-1
2
2
1
-2
0
-1
-1
-1
0
0
-4
1
2
-1
1
-2
2
1
0
1
0
1
0
3
2
0
1
0
-5
-2
0
2
1
6
2
-3
0
-10
-1
0
3
0
1
1
-1
2
0
4
0
-2
0
1
-1
-6
-1
1
0
0
3
2
-1
0
0
-1
2
0
-1
-5
-1
-3
2
0
2
5
0
2
3
-1
0
4
2
3
5
1
1
1
-4
5
-1
1
-1
0
-1
0
-1
1
-1
5
1
-3
1
-10
0
0
-1
1
-2
1
2
4
0
2
0
-1
-1
1
0
-1
0
0
3
-2
0
1
-2
2
-2
0
3
1
2
-7
1
-2
1
-1
1
0
0
-1
2
0
1
-1
1
0
0
1
3
0
0
1
-1
0
-1
0
12
3
-4
2
1
-11
-6
7
4
-3
1
-3
-1
-1
1
0
2
-2
1
3
0
0
3
-3
4
-2
0
-1
4
1
0
0
0
-3
0
-7
-4
0
-7
-12
0
5
-2
0
-2
-1
15
-4
3
2
-1
-2
7
-2
-4
0
-6
-2
5
6
-5
-3
-2
3
9
-7
-3
4
-6
-3
9
-8
-6
-6
2
2
-9
0
2
2
-14
-8
1
-3
6
6
3
2
1
2
-2
4
3
2
-5
16
-16
-5
0
-127
-6
-1
15
-6
-3
6
15
-8
1
1
-25
-2
9
5
2
-3
-3
-3
7
-1
-1
4
-7
-33
-15
-4
0
1
9
0
0
1
0
-9
0
9
-3
-2
1
-1
3
3
-2
2
0
1
1
2
-2
-15
0
1
-1
-4
-3
-3
10
-2
-1
-2
4
-4
0
-6
-5
2
5
-14
-2
3
0
-5
-1
-3
-4
-3
4
3
-1
-5
-1
-4
-4
-2
1
-3
-1
5
13
-55
-6
1
4
3
-3
0
0
3
1
-1
0
1
-2
2
2
-8
-1
0
3
2
2
4
-1
0
2
5
2
1
4
0
0
-2
5
-8
-7
1
0
4
4
-7
6
-2
4
1
1
0
0
2
-1
-2
-2
-1
-2
4
4
-1
-2
1
-1
1
-2
10
2
-10
-4
4
1
3
-8
-4
-1
1
-5
5
1
3
1
5
2
-28
-3
1
-5
3
0
5
3
7
0
-1
-4
3
-4
-2
-2
0
3
-12
-8
2
2
13
5
-6
-4
1
5
5
-2
4
3
0
10
-1
-1
-23
-3
-2
8
1
2
-4
2
-1
6
17
4
-2
-7
-1
3
-2
-1
3
3
1
3
-1
-1
2
-1
0
5
-77
1
1
3
3
-1
4
-4
6
1
-3
-2
-2
2
1
1
-2
0
-6
-2
6
-3
5
-1
7
0
-2
6
1
-1
-2
1
2
2
2
0
3
-3
0
6
1
1
0
2
1
0
9
-3
-5
-8
-6
-1
-1
-5
-2
16
-4
1
-1
-9
-3
-1
1
-4
-3
1
5
-6
5
42
1
-2
3
1
0
5
-25
-12
-4
-3
3
8
-3
1
-8
-14
11
4
-28
-7
-6
10
-39
-7
0
1
6
8
20
7
-3
-4
-3
-7
14
-5
9
2
-1
-5
10
3
2
1
-3
-3
4
20
-3
-7
7
-2
20
0
-2
-3
-4
-22
-4
-1
1
2
7
2
-4
-5
-3
1
-5
0
-2
6
-3
-8
1
0
-2
11
37
5
1
-3
4
2
-24
-3
37
5
-4
1
-4
3
26
5
-6
1
-2
-5
-29
-9
1
-10
-9
-1
-14
15
0
1
-1
-3
3
-22
4
-1
1
-6
-8
1
1
-1
3
2
-1
-1
0
2
0
0
-1
-1
0
0
-3
2
1
-1
0
3
-3
-1
0
0
-15
-1
-2
1
1
0
2
4
1
2
-1
3
-2
1
-5
1
0
2
-1
-2
9
0
-3
-8
4
-1
1
-3
1
-10
-27
-6
-10
-20
-8
-23
-10
3
2
-10
-11
-4
-9
16
-6
24
23
-3
0
127
-2
-7
6
8
-1
-3
-4
-29
-11
-35
0
3
-4
8
-18
-12
7
2
-46
1
-1
19
45
-11
0
-5
-4
5
21
14
2
-4
-6
9
15
5
2
-23
-1
3
-17
16
6
0
0
2
-2
28
-7
-73
2
1
-31
-2
5
-1
-3
-87
-4
3
-55
5
5
3
-5
3
4
-5
-1
2
-4
17
-4
13
-7
1
5
16
21
3
5
1
16
-3
-8
-1
-49
-13
-3
-2
-6
0
29
11
4
0
-3
6
-44
-4
-1
-10
-27
-1
17
10
2
0
2
-5
3
-23
4
-2
2
-6
12
3
0
3
5
-1
1
-1
-4
-1
0
-2
1
2
6
-3
2
1
-1
-2
-4
-12
-2
1
0
-2
-38
0
-2
0
7
1
4
6
2
-4
2
4
0
-1
-10
3
2
1
-1
-1
6
2
1
-5
13
2
-4
-4
-54
-4
7
3
-11
-7
-2
9
-5
-3
1
-4
-8
-5
-1
-3
1
0
15
1
-8
58
-2
1
5
8
0
6
-4
-9
0
-14
1
2
-7
-2
-12
4
2
3
-45
-2
2
22
3
-3
-5
-6
3
5
6
4
-11
-2
-7
-5
13
-1
9
1
-2
-3
-6
0
14
-6
5
3
0
19
-1
-13
-2
-1
-14
-3
3
-2
7
-14
-16
3
13
4
0
0
-4
-6
-1
0
-4
0
4
15
-6
1
-5
1
1
-8
37
3
1
-1
9
1
-13
-5
5
2
-2
2
1
4
14
10
2
1
-3
-10
-24
-4
0
-15
1
1
3
11
2
2
0
-3
1
-24
-1
-2
1
-1
3
1
2
1
2
1
-2
-1
-2
2
3
0
1
-1
0
0
-3
2
0
-1
-1
-2
-1
1
1
-2
-11
-3
0
0
1
0
7
-1
1
1
-1
2
1
0
-2
2
-2
0
0
-2
12
0
1
-11
2
0
-1
3
3
9
0
-1
-1
-9
-5
-3
5
-4
-6
5
-3
0
6
2
-1
2
3
11
3
2
0
0
2
21
-3
8
-33
2
-8
-1
1
-2
7
-3
0
-7
3
0
-3
1
2
3
7
0
4
0
11
6
-1
1
4
-6
-5
-5
-5
-6
3
0
3
-3
-5
-5
3
12
-10
-8
-8
-10
-12
-2
11
-8
-8
1
0
3
-8
1
-5
5
3
19
10
4
2
-16
10
22
0
8
-32
13
-1
6
-33
-2
15
41
6
-15
20
5
-3
9
17
1
23
-13
7
-27
-78
-14
1
6
3
10
-9
-2
-5
-61
-1
7
18
7
-11
-22
-2
4
6
-2
-10
6
-9
-4
5
-8
-14
-3
-4
0
3
11
-1
-1
2
30
4
4
0
22
4
13
-1
1
-13
4
-1
4
-27
-1
11
-24
-3
-2
6
0
-2
-1
7
-1
15
-4
-1
-28
-10
-5
2
4
10
-19
-6
4
0
-14
-1
0
8
5
-1
3
-5
5
-10
2
-3
3
-25
0
-2
2
-2
2
2
-1
-47
1
-9
-2
-4
-11
0
-8
0
6
0
37
-2
-3
-19
-10
1
0
-13
1
4
-4
1
-29
1
-3
3
-6
6
-1
1
2
-2
9
2
-2
1
0
-6
-1
7
1
0
2
3
-1
33
3
-5
5
-10
2
-47
0
-21
1
-43
7
0
8
-6
-9
0
6
-72
-1
-4
-17
5
-127
-1
-1
-3
62
0
57
0
-5
-13
-15
-1
-1
-25
-3
-4
-22
0
-74
3
4
10
-1
5
3
2
-29
-3
65
0
-7
-4
14
-11
-67
3
1
1
0
3
-6
37
1
-7
3
-7
11
26
6
-8
0
-42
-3
-5
5
-3
1
-1
2
-65
0
-14
5
-4
-56
-1
-2
0
-35
7
48
3
-5
-12
-21
5
2
-7
3
4
4
-4
-27
0
2
-10
5
8
-3
3
-2
-6
71
-1
0
10
5
-6
0
10
-4
2
2
-1
-5
51
-4
-4
-7
-1
-23
0
-1
0
4
3
0
0
0
1
0
2
0
-1
0
1
1
1
2
-2
0
-1
2
0
-16
0
0
0
-3
-1
-1
-3
-1
0
2
1
8
-2
0
-1
2
-1
2
-1
1
0
5
-1
-1
0
0
1
1
1
3
3
-1
2
1
2
0
-2
2
4
-18
2
0
2
5
1
2
-1
0
-2
1
0
2
-3
1
-2
1
-2
-1
-1
-4
-1
11
0
-13
3
-2
3
1
4
0
2
0
2
-1
-1
3
1
0
4
-2
4
-2
0
-1
0
10
0
-5
-1
-2
-3
0
1
2
2
1
1
2
2
-3
-1
3
1
-24
-2
0
2
1
9
2
-3
2
-3
0
2
1
-3
1
-8
0
0
3
0
1
-1
5
-2
-20
4
0
-1
-1
2
-1
-2
2
1
0
0
12
2
4
1
0
-1
-3
2
1
0
-1
0
2
3
2
0
2
0
-1
0
0
-1
4
-4
-1
2
-2
7
68
-5
-3
-2
1
-42
-3
-6
-2
-3
-2
-7
3
-10
-2
-10
3
2
0
-2
5
5
-2
2
-31
-3
-2
89
-38
-4
-2
-2
4
-1
-12
-2
-44
-14
-8
4
2
-4
3
-4
-1
1
7
4
14
7
17
-3
5
-11
3
5
-16
4
5
-14
3
-1
1
-7
127
-7
-13
3
-8
-45
-2
9
-2
-8
-17
-20
3
-16
-5
-5
-1
-1
4
1
-1
5
-19
-1
-40
5
-1
126
-48
-8
3
-6
1
2
-39
10
-69
-13
-3
-1
3
-5
-1
-8
4
0
-32
-5
-19
6
3
-12
5
7
3
-6
-25
4
-3
-9
10
-2
7
-11
70
0
-11
-5
-12
-45
2
-10
1
-2
-8
-5
4
-9
-11
4
-1
0
2
-6
5
1
7
8
-30
3
-2
65
-24
-15
-5
-2
1
0
5
7
-25
-2
1
5
6
-2
-4
-4
-1
6
-8
4
1
7
-9
2
6
10
3
-16
-22
3
-13
-18
6
0
2
-5
-2
1
0
-1
-2
-20
2
1
-3
-12
-1
-2
-1
-13
-4
-9
8
4
-1
-4
0
4
0
2
-8
-7
0
0
-9
-4
-3
-2
6
-2
-5
-8
4
-3
-8
2
8
-2
-2
-4
-2
6
-2
-1
6
1
0
-5
-1
-3
-9
0
6
1
15
-20
-1
2
2
1
-8
-7
0
1
1
-18
-9
-2
1
2
-10
-8
-13
-32
1
-3
-7
-6
-11
-7
-3
1
-12
-5
-7
1
-4
-19
-10
-2
-7
-11
1
-11
-17
0
11
4
4
-3
-12
1
-3
6
3
-12
-20
-9
-8
-5
-6
-4
3
5
-3
1
8
-3
9
-21
-1
-14
-3
-2
8
0
2
-7
-10
-22
5
-7
1
-11
-10
-5
1
-14
-4
-3
6
3
-3
-6
-2
2
4
14
2
-1
-1
-1
-7
-2
1
-4
-1
-3
-1
5
5
-2
1
7
2
3
-2
1
0
2
-3
-3
-1
0
-10
-2
0
2
8
-8
10
-2
-12
-23
-2
-2
3
0
-6
-2
-12
0
10
-13
-3
4
0
-2
0
6
-1
-3
2
3
6
-1
2
-6
3
-4
0
1
11
-2
0
4
-4
-1
-5
1
0
-5
-3
3
-3
-1
-1
-2
3
-3
-2
-2
1
2
-4
2
0
1
-5
-3
-1
2
-6
-4
-2
1
2
-3
-2
-3
-2
-4
-20
-4
-7
-7
-3
-22
3
3
13
9
-3
3
-7
-6
2
2
-1
-1
3
-7
0
3
-9
4
9
5
4
-2
-7
8
4
2
0
0
-5
6
-4
0
1
0
-8
-7
-6
-3
5
-5
-6
-3
-3
-5
-7
-9
0
-3
0
-1
-1
-2
6
-6
0
-4
-7
-1
-3
-1
-8
2
2
-10
3
3
3
-3
-7
4
-7
-4
5
-3
4
-2
5
-6
-2
-4
-1
5
14
-3
-3
6
-3
11
2
2
3
1
-2
1
0
0
-1
0
0
-2
-5
-2
0
2
-1
-1
-1
-2
2
0
0
3
0
0
-1
-13
-3
-7
-1
-2
-1
2
0
-5
1
-3
-6
1
-5
0
-2
2
2
2
0
-5
-2
4
2
1
1
6
0
0
1
-4
-1
2
-1
-28
6
3
2
1
4
-1
-2
-1
-4
-2
-5
-8
-4
-8
1
1
-1
2
-1
-4
8
-8
-7
-1
7
7
-2
-2
-9
0
-2
1
0
-1
-5
3
1
-10
-2
-5
-7
0
-4
-3
-1
3
-14
1
-1
-14
0
1
-5
-1
-23
4
4
2
2
2
-6
13
-10
-11
2
0
0
-14
-5
0
-18
-3
-3
8
11
0
1
-4
-4
-2
1
3
-5
30
-17
-9
4
-8
12
2
1
-1
-98
-1
3
12
-9
5
-22
7
-3
-7
8
-8
3
4
-1
4
1
-5
13
7
-3
7
1
1
-1
2
5
2
2
0
-1
8
5
2
-1
-4
7
4
0
3
4
4
-1
8
4
-8
3
-1
-5
-12
-1
-1
3
-4
5
-8
7
-4
-3
5
5
-3
2
7
9
2
7
1
0
-6
0
-4
-7
6
2
-3
-8
-18
4
0
-4
1
-5
1
1
5
1
0
-1
4
2
0
-3
0
2
3
-1
-2
-2
-2
-3
-10
-2
-3
-4
2
1
2
-12
2
0
-4
-2
0
1
-2
-6
-1
1
-1
-4
-1
6
0
-3
-9
12
-3
5
-2
-4
19
-1
5
-3
-2
-17
18
-1
-33
-1
-13
0
-3
3
-5
19
1
-10
6
-8
-1
15
9
10
-4
9
-1
21
6
-10
1
1
-9
-4
3
-1
12
-8
12
9
-7
-45
-1
-19
-6
11
2
8
2
24
7
8
-4
-6
-1
-70
0
19
-12
-15
3
4
-2
-1
-8
10
13
0
1
-4
8
2
11
-5
2
-3
-1
-6
-14
-36
-3
-3
-20
7
-8
-18
-4
-16
-5
-3
6
4
-127
1
5
4
2
0
-6
-36
-12
7
-1
1
-2
8
3
7
-8
-13
-11
-10
4
5
6
-5
1
5
-3
6
4
4
-6
3
4
2
1
2
-12
-3
4
2
-8
-4
-2
2
-2
-3
0
2
-3
-1
-1
0
1
2
1
-3
1
1
0
1
2
3
-2
1
-1
5
-4
1
-1
7
-4
0
-1
-1
3
0
0
2
0
3
3
1
1
2
-1
-1
1
-1
3
-2
1
1
3
0
-1
1
0
-1
2
-4
3
-1
0
3
-6
-11
0
0
4
-1
6
-1
-1
-2
0
-9
-7
-4
4
1
4
0
-3
3
-1
-1
0
-1
-1
-9
0
3
-5
4
0
3
-4
6
5
-2
-1
3
4
-7
2
6
-2
1
1
-2
0
9
1
13
0
-9
7
-1
0
3
0
3
2
-3
-5
-1
5
7
3
7
-2
4
-11
0
-8
-2
2
-1
-2
1
0
-4
3
-3
-54
-7
-3
0
1
1
0
5
0
5
3
1
-1
-1
-2
6
0
2
-2
-1
2
-4
-3
1
-5
-4
-6
5
1
3
0
-4
2
2
-2
1
1
-1
1
-1
3
-3
-2
1
4
-1
0
3
-2
4
2
4
2
0
4
-3
-26
1
2
-2
11
0
4
-4
0
0
0
0
5
-5
0
-2
2
-2
1
-1
-5
-1
-3
-3
3
3
1
2
-2
-4
-3
-5
-5
1
5
2
3
3
-1
6
0
12
-7
-7
3
0
7
0
-2
1
-5
-3
1
1
-4
-6
2
4
-2
3
6
1
4
0
-41
4
9
4
-3
6
3
-3
-1
3
0
-1
12
2
-19
0
4
0
1
4
6
-2
1
-4
0
-3
0
-1
1
-1
0
0
-3
-1
2
0
0
4
-6
0
-7
-10
1
-6
6
0
-1
-1
2
-10
-3
-1
1
5
-6
-12
-3
5
3
-2
2
9
2
-3
-21
-3
11
3
12
3
0
0
-1
1
3
-3
1
1
3
2
-4
0
-4
-1
3
-4
2
-8
1
-2
-2
4
-1
3
-1
-7
2
-1
6
-4
2
3
-1
-1
-2
-4
-2
-2
3
1
-2
-5
2
-3
-4
-6
0
-2
-3
4
-8
3
4
-53
1
12
-1
3
17
-6
-56
-2
-10
-2
7
6
2
-3
-2
-4
-10
-14
-1
2
0
-6
8
5
4
1
3
-5
-5
-4
10
4
2
6
1
8
-1
20
15
1
-25
9
-1
6
0
-18
7
-3
-1
-4
1
-11
5
-1
10
6
6
-10
-25
11
8
11
-16
-33
12
0
0
-14
-8
5
-95
10
-3
-55
-1
14
3
-26
6
19
-14
-4
5
-21
-1
-3
2
-4
-19
3
-3
9
-2
-1
-108
30
0
2
-2
11
-8
-60
-7
9
-57
-71
-73
13
-1
21
-1
5
17
-24
0
1
6
-18
1
7
-9
20
-127
40
1
4
4
-43
7
-1
7
-1
15
-10
-96
12
-11
-16
2
-4
-8
0
1
-3
-5
0
2
-2
16
-1
7
-5
-3
-2
8
3
-4
4
14
-5
4
3
0
12
0
-15
12
5
-8
2
16
9
1
7
9
-5
-3
-1
16
-3
8
-4
1
8
8
-4
-32
-11
37
1
-2
16
-3
7
3
-3
16
7
8
5
-78
4
1
1
8
0
2
-8
1
14
-12
3
0
5
-2
0
-5
0
6
1
1
-6
12
5
-3
7
7
-11
8
-16
6
1
1
2
4
-5
-3
7
2
9
-17
2
-3
-14
-3
5
0
-6
-3
6
-4
-5
0
-4
-8
14
5
7
3
14
11
25
7
-3
-119
6
1
7
-5
14
-5
-6
3
-8
-10
2
-13
6
0
2
-1
17
2
13
6
0
27
9
5
13
-15
-8
17
14
1
1
-2
6
17
2
-4
-3
5
19
-58
-3
4
-14
-3
-7
9
-3
8
-7
-2
-5
-2
4
11
11
-2
-1
8
1
20
2
12
-6
-73
3
-1
-9
41
-5
-5
-9
-1
3
-17
3
-10
3
5
-1
-3
0
-2
9
6
-4
5
5
0
7
3
-1
-13
6
2
-2
-3
3
-4
-3
-4
0
4
4
-12
1
7
-4
-3
-5
1
-4
-4
1
-3
5
11
-1
-2
2
-2
-10
-6
-2
-6
-1
-4
-1
-4
5
-1
5
1
-3
-11
26
4
-63
-2
6
-4
-1
7
-8
-36
0
7
2
-2
3
6
2
4
-5
-1
-1
-10
-16
-8
-2
20
-2
3
-11
-8
6
-11
-7
5
7
0
-5
-4
-18
-4
10
6
-5
3
-15
1
-3
-8
4
-10
-6
-2
35
-13
9
10
-12
5
-3
-11
21
5
-1
17
-14
2
-1
-2
-1
2
4
0
-9
-7
-10
-2
5
-6
0
4
-7
-3
-1
-3
-5
3
5
-8
7
2
-10
-10
-12
33
-12
-54
6
-9
7
-6
6
0
-57
3
-11
1
3
17
-24
1
0
-2
5
1
-18
2
2
5
4
4
0
1
-2
2
3
2
-6
0
-1
1
-2
2
-4
-9
1
-2
-1
-1
-6
3
1
5
1
-2
2
16
3
-1
-9
-5
3
-9
-3
0
-1
-7
2
-4
1
11
3
-1
1
-7
3
-15
-4
0
-4
0
-3
-5
6
1
-4
14
6
2
-5
-38
0
-2
4
5
-9
-3
0
21
24
0
13
4
9
-5
74
-1
10
1
3
-2
7
-3
27
-3
-5
11
-12
-1
-1
5
-46
2
11
-13
-11
6
-14
6
-3
-3
9
3
-18
12
8
12
6
-5
47
2
7
-4
-16
56
-24
-2
-5
-1
-9
-14
2
-27
-6
-15
-127
-4
2
12
0
-2
3
25
6
11
-10
-66
17
2
25
3
8
-2
-1
2
1
-3
4
1
-19
13
-17
0
7
-3
-40
-4
7
-24
18
4
14
-26
7
-15
7
-9
2
69
-10
0
21
2
1
-4
-1
2
-20
1
1
-8
-45
-3
-4
-2
5
-3
9
-10
-1
1
2
-5
-1
-6
-2
-1
6
2
2
4
-1
0
9
-6
-1
-4
2
-4
-5
3
2
-3
1
-2
-7
1
-3
-14
-6
2
-3
-1
1
-1
3
2
3
0
-4
4
-1
-17
-5
1
5
-7
1
-12
1
1
-2
12
0
-2
-1
10
-16
3
2
-3
-7
11
9
-3
1
1
4
2
2
-7
7
-2
3
-8
0
-3
19
-1
6
-3
6
6
-8
2
7
3
-4
2
-1
4
0
4
-17
3
2
-5
-7
17
1
-4
-9
4
5
-1
-9
6
1
-3
-4
-5
-9
1
2
-9
15
-7
-7
1
9
-5
-13
21
3
-2
-3
-2
-25
-1
2
4
2
2
3
3
16
-2
4
21
0
2
3
-2
-3
2
-1
4
1
4
5
-3
-14
-3
1
5
-4
4
-2
0
1
-11
8
8
-1
-9
-3
-8
4
-1
-2
29
1
-2
-2
1
-1
0
2
-2
-7
0
3
2
-26
-3
-2
1
0
6
-4
6
-2
-3
-1
-1
4
0
-3
0
-1
-1
-3
1
-1
-1
3
-1
1
0
1
0
-5
2
0
2
-2
2
0
2
-5
-7
-6
-1
0
1
0
2
-2
-2
-4
-2
-3
-3
-1
-6
1
-2
2
3
2
5
-3
1
-11
-1
1
-2
-2
-2
-2
-1
7
1
-2
-3
1
-14
3
-1
1
-11
0
-1
1
-3
0
0
2
-6
-3
15
0
-3
-1
-2
-1
-4
-1
0
2
1
1
0
0
1
1
-1
3
-1
1
-1
1
0
0
1
0
2
2
-1
0
2
0
-2
-1
-1
5
0
-1
-2
-1
-2
-1
1
0
0
1
1
-1
3
0
-17
2
0
1
-5
-1
0
-4
-1
0
-1
-1
-16
-1
17
-3
0
2
0
3
0
3
2
-2
-1
0
-5
-3
2
1
-8
1
-1
-1
-2
1
2
-1
3
-2
-2
-9
-1
1
0
2
1
1
1
3
-1
3
-1
-2
-1
-4
-1
-1
2
7
0
1
-1
-2
-20
5
2
0
-9
0
1
-3
-2
1
0
1
-10
1
13
0
-4
-1
2
4
1
0
3
3
1
-1
1
0
-4
2
-1
0
1
0
-5
0
-1
0
1
1
1
-3
-1
-1
4
-1
-1
-1
1
3
1
0
-1
2
-4
3
2
-1
2
15
-1
1
1
-2
-7
-36
-17
-4
-1
-1
-1
3
2
-3
-1
4
38
-5
-19
1
0
3
-3
8
4
-1
4
1
3
-1
-8
-2
2
1
1
-9
2
-7
16
1
3
3
2
2
8
-36
-5
-3
-4
-4
-3
5
3
1
1
-1
-3
-1
-3
-2
0
0
-6
9
-5
-2
-2
-10
0
-65
-8
3
-4
-1
-7
-12
-1
-1
2
4
41
0
-38
-5
5
3
0
-8
3
-2
4
-2
5
-1
-115
4
2
2
-57
-2
-2
9
23
2
2
-21
41
-5
15
43
-5
-4
6
5
1
4
-1
2
-3
1
-8
-3
-39
7
-3
-1
5
12
1
-3
1
-1
0
-50
-18
2
3
1
-1
-2
0
1
-2
1
39
0
-15
4
-7
0
1
-6
1
-5
-2
-12
1
-1
-7
-9
2
1
0
-3
1
10
22
-2
4
5
-23
0
7
5
-5
1
0
-5
2
-4
2
-1
-2
-1
-2
0
-4
-13
-40
1
5
-27
4
-2
0
0
4
5
5
-3
-5
5
-4
3
-10
3
0
10
4
2
-1
-2
0
1
2
4
-2
-1
-1
0
-15
-3
15
-9
3
-5
2
-3
-1
9
-14
5
4
-7
-3
5
1
15
3
-2
26
1
1
2
0
-2
-1
-1
-1
0
4
-3
-10
1
-2
-24
-10
0
6
6
7
-17
3
4
-12
7
6
3
-15
4
-1
9
9
-1
5
0
10
-2
-2
15
-4
5
2
3
-11
-2
17
-7
2
2
9
6
5
-12
-19
4
8
-11
-32
-4
5
-23
-1
1
127
14
-2
1
1
-3
-2
1
-1
0
-13
-11
-5
1
-6
-20
-2
-1
2
0
3
2
3
2
-4
1
-1
9
-43
2
2
13
3
1
3
2
0
3
-1
4
-2
-1
1
-4
-14
3
12
-9
2
0
5
1
3
-5
-13
-2
2
-7
19
2
-1
-2
8
3
18
-2
-4
3
-6
-1
0
-5
-4
2
1
12
-16
-4
0
1
-13
-31
13
-3
-1
3
12
-2
9
0
1
12
5
-1
1
5
-1
2
-7
2
-17
-1
6
-11
-3
-10
10
1
7
2
3
-2
43
6
-6
-3
-10
8
9
-7
-5
-3
3
4
3
-2
-30
-17
4
4
7
6
-68
11
-1
-55
6
-3
-1
-16
-3
-1
-3
4
-5
10
0
-2
-9
-2
4
3
-2
0
1
8
7
0
-2
7
0
0
-5
1
2
3
7
-10
-2
-5
-1
-1
-3
0
5
2
14
2
-1
-6
-6
2
-4
1
-1
0
3
-3
-4
-13
-10
-2
-2
5
1
-2
-22
8
-1
-13
-2
-2
0
-18
-5
1
3
-1
2
-2
1
0
-3
1
-2
-1
-2
0
-3
-3
1
3
-3
2
1
1
-2
1
0
3
5
-2
3
-4
8
-6
5
2
-1
-4
-3
6
8
0
0
1
0
-1
-2
2
2
-5
3
-5
6
-3
-4
4
4
-4
-8
-1
-1
-5
-4
-5
-4
-7
-27
0
-9
-7
-11
-75
7
-8
-5
11
2
-7
8
-4
8
30
8
10
4
10
-4
-22
0
6
-22
2
13
-7
-8
-17
11
38
11
4
5
-6
85
3
-15
14
-26
1
10
-12
4
7
0
6
-7
3
-80
-44
4
-1
6
-33
-127
14
3
-84
3
-11
3
-12
6
-5
-13
5
1
19
2
-21
-1
-1
-3
-3
-1
-7
-1
27
3
-6
-1
-5
3
-1
3
-2
-3
0
6
-2
4
-1
1
-2
-1
-6
-17
-4
5
-4
-4
6
-29
-4
-6
-2
0
-5
-12
-4
-3
-8
-33
-18
-2
-7
1
-13
-25
1
-5
-25
-2
-5
-2
-17
-6
-1
-3
4
5
2
2
0
-1
4
-4
-7
-1
-5
1
-3
-3
-5
0
-1
1
1
-1
-2
10
1
4
4
5
-2
7
14
5
-9
-2
-3
-6
1
5
9
2
-5
3
-6
-3
4
-1
-2
2
-2
-4
-8
-1
0
1
1
-12
0
-3
-16
-5
4
3
-4
-9
-1
-1
-6
-9
-36
0
-5
0
4
6
5
-7
2
-2
10
14
1
-1
6
2
-2
5
5
-15
3
7
-4
-4
-18
2
7
5
1
7
6
43
-8
-10
-1
-19
4
-1
-2
-2
-1
4
3
-1
0
-27
-27
3
-3
5
7
-79
10
4
-50
2
-3
0
-15
-7
0
0
1
-8
6
-6
-3
2
2
2
5
2
-3
-3
-2
13
-1
1
4
3
-3
1
6
1
-3
7
-9
-2
-4
1
-2
-4
5
7
4
16
-7
-3
1
-12
4
-10
0
-4
0
-2
-3
0
-3
-9
-4
-9
-3
2
2
-22
3
-1
-16
1
-4
0
-14
-9
-2
1
3
0
-6
0
-1
-1
6
-7
3
3
-1
-2
-1
5
0
-1
1
-4
1
-5
-1
-1
-2
9
-6
5
-2
10
-3
1
3
-1
-2
0
-2
1
7
4
-3
1
1
-1
-2
-1
1
0
-2
1
-3
-1
-3
8
-4
-9
-2
-5
-9
-1
-5
3
-5
-3
1
-1
1
0
9
4
-2
-1
-1
-4
-3
0
0
-4
0
3
2
0
-2
2
3
1
-2
1
2
-5
0
8
-4
-4
-2
2
1
-1
-4
-5
5
4
-3
-1
-2
-1
0
-4
2
4
-3
0
5
4
7
0
2
-3
-3
0
0
-2
1
-4
1
-1
-5
-4
0
-1
-1
-20
1
5
0
-9
-2
4
-6
1
8
1
-4
3
1
-1
8
2
4
-2
0
0
3
-15
-6
-1
-4
-2
-7
1
-2
0
-6
0
4
-1
-19
-5
3
-6
-3
-2
-1
0
1
-3
-7
-2
8
1
0
-8
2
4
6
-6
-4
-1
-12
2
-9
-1
0
5
3
-34
4
8
-4
-7
0
3
-19
5
8
5
0
0
5
-3
-1
4
-6
-6
3
-9
-1
-78
-2
-6
-6
57
-12
2
2
2
7
-2
9
2
-67
-5
-7
7
2
-3
-7
-3
-1
-3
-7
-4
13
0
4
-9
7
9
8
-2
0
3
-7
3
-1
-2
-1
-6
2
1
12
4
-6
3
9
-4
1
-5
-4
-1
-3
-2
-2
1
-3
-2
-9
0
-5
0
2
-13
1
7
-4
-9
-3
6
-1
-3
-3
-9
-4
3
-13
0
-3
0
-6
5
4
-2
1
3
1
-5
3
1
-1
0
-7
1
-3
1
17
-3
-1
2
0
-3
0
-17
-4
-31
0
7
-11
-2
1
-2
-15
-2
-37
-2
-2
3
-20
4
-3
0
-2
1
-12
1
1
-25
-6
-2
-8
-21
-7
2
-16
-18
-9
2
4
-2
-30
-4
-18
-3
-5
7
-10
-11
-4
0
-19
-13
8
0
-8
-3
-8
-1
-3
-6
10
-1
-25
-8
-4
-3
-1
2
5
-36
2
5
-3
-5
8
12
-54
5
-44
9
-7
-7
-2
1
2
1
-9
2
8
11
2
-127
4
-2
-4
118
-2
3
2
5
3
2
7
1
-104
-9
-23
10
-11
12
-8
9
-3
-8
-3
-2
23
0
-2
-23
7
11
10
-5
21
6
-27
-8
-2
6
-1
1
2
-3
8
2
-2
0
3
-5
0
3
-2
-1
1
0
2
3
0
-3
3
-1
0
1
1
-6
-4
1
-2
-5
-1
4
2
2
1
-3
1
5
-6
-2
-5
0
-1
-1
-2
2
-1
-1
-3
4
4
-1
-2
-1
1
4
-2
-1
4
0
-1
1
1
2
0
-2
-3
-22
1
-5
0
3
5
2
-2
3
-6
0
-6
-4
1
4
3
1
-3
1
-4
4
-1
-19
-5
-4
-10
-4
-3
3
0
4
5
1
-5
-1
-19
0
-7
-2
-4
0
-1
0
1
3
-12
0
-2
-9
-4
-8
8
6
-2
-11
2
1
-8
0
-5
1
2
-1
-3
-28
3
-1
-2
1
2
8
-11
-1
-14
1
-2
7
0
-2
2
5
-8
2
3
-7
0
-89
2
2
-10
64
-8
0
6
6
-2
6
-5
-1
-71
-9
-12
7
1
-1
-4
5
-2
1
-7
-2
19
-1
-2
-9
12
13
13
-10
6
3
-8
-3
-4
-3
24
9
-6
9
-2
-89
-1
4
-8
-5
-8
-9
1
6
2
2
-4
6
-21
4
-6
1
3
2
-49
-3
-1
-26
-23
-7
-2
8
-6
4
4
1
-10
1
9
-8
0
13
2
-11
5
1
7
9
-6
9
6
-1
2
-3
-10
-5
6
-1
-5
32
-3
-1
-2
-3
7
26
-9
-71
-10
-93
-12
8
-8
2
8
1
-8
40
7
3
3
7
-61
-3
1
-3
40
3
-52
-1
3
-27
-30
-1
-2
39
4
-7
74
-4
-46
9
-1
-26
-1
19
3
-29
9
2
25
-97
3
12
6
8
-37
-3
-7
0
23
-1
-3
19
7
-5
0
-4
18
-6
0
-20
-3
-99
2
1
-9
-2
0
-4
-2
7
6
-6
-1
1
-31
-1
2
-2
-22
2
-45
0
2
-15
-23
-1
-5
22
2
5
-25
-4
-7
-1
5
9
2
20
4
-11
3
1
17
3
0
13
-1
-4
13
3
-3
-1
13
0
0
36
4
-1
2
4
-37
-17
-4
-6
1
33
1
0
1
0
11
9
-1
-32
-2
0
1
-3
-6
0
2
2
4
-3
46
-1
2
0
22
2
-1
-5
1
0
7
5
-19
0
1
9
-2
9
-2
1
1
1
23
0
-6
-2
-4
2
5
0
5
7
-4
8
-2
-9
2
2
-1
0
-48
-73
-1
32
1
16
4
7
4
0
-13
7
5
-78
4
0
1
1
-127
4
0
-1
-3
3
51
1
4
3
20
-4
-2
-47
1
3
-3
0
-12
-1
6
20
10
4
-2
-2
-18
4
68
-2
7
-9
12
-5
-61
0
-1
1
-13
2
0
-10
-4
2
1
-3
-26
19
-1
13
-2
49
-6
-1
-2
-2
-3
6
1
-40
-8
0
2
2
-33
-1
4
2
-5
10
40
6
-5
3
15
7
4
-18
-1
-1
9
-1
-16
-1
0
-13
3
3
-14
-1
1
4
44
-3
3
0
1
-2
4
1
7
3
-11
0
5
2
-4
0
2
-2
-5
2
1
3
1
-1
2
-1
-2
0
1
3
-1
-1
1
-1
1
0
1
0
-1
-2
2
-2
-8
-1
-3
-11
-11
2
1
-4
0
-1
-1
-2
4
0
7
-5
0
-1
-1
1
-2
-1
6
-1
0
0
-3
3
1
2
1
-2
1
-2
0
2
-1
-1
2
0
2
0
0
-2
1
-4
0
0
-2
-1
-2
0
0
-3
2
-1
2
1
-1
4
-1
-1
7
0
-3
-3
-2
-9
-5
2
-3
-2
1
2
-1
-2
5
-1
-1
1
1
0
-4
-1
1
-1
5
0
-3
2
-2
-2
1
2
1
1
3
0
1
7
-3
-2
-2
-1
-8
1
-1
-2
0
-1
-1
0
0
2
3
2
1
-1
-1
2
-1
2
0
1
3
-1
-4
-1
-17
-1
-2
-9
-8
-1
-2
-2
-1
-1
0
-1
15
1
1
1
-1
-3
1
2
0
-1
4
-1
1
0
0
0
2
0
-2
4
3
-1
5
-1
-1
0
-2
-4
12
-14
-5
-14
25
34
-5
5
1
-8
4
14
-9
-64
11
7
0
-2
15
-11
8
4
-1
-3
46
-10
-18
7
-17
-2
-10
-37
3
7
-20
0
33
-8
-11
15
-1
17
-9
-20
11
11
4
17
-1
18
-5
-15
3
-1
-4
22
17
3
11
-3
-4
7
16
4
32
-51
-1
93
18
32
17
35
-3
-21
-17
-6
-17
-101
1
1
-2
13
14
17
-5
8
-6
-7
52
2
17
-13
-11
-3
-3
-77
12
18
-127
7
70
-17
7
23
-9
-14
7
-50
43
12
16
-49
4
21
-6
-17
15
9
7
3
-9
5
0
4
4
3
51
0
15
37
-5
31
10
42
-11
2
-4
-23
-10
12
-7
-89
-16
-8
0
4
14
-2
0
2
10
12
55
11
1
-11
-18
-1
-2
-49
2
11
14
-1
30
-6
11
-18
1
13
-7
-11
4
8
-13
19
1
0
-1
-3
1
19
0
-11
-2
1
-10
-6
-3
9
-17
4
26
-4
3
19
7
-47
0
8
4
-6
-1
3
4
-20
6
-10
9
-5
10
1
-17
5
-4
0
-71
0
1
-17
-69
-6
-3
0
12
2
6
-2
-15
-6
-2
-6
10
5
-4
3
3
0
18
-4
18
-2
-2
-4
12
6
-58
-8
15
-8
3
-68
2
-1
12
1
33
-60
-6
-4
-7
-12
-33
7
-4
6
-34
6
-8
-79
14
-9
-31
-16
-47
2
11
1
-79
-1
-50
1
-8
13
-64
-9
-16
8
-27
-17
-16
1
-29
11
3
-18
-17
-12
-5
5
-24
-13
-106
-6
-27
-13
8
-2
0
3
-36
2
-1
3
9
-92
5
-29
4
-9
19
-6
0
-3
-2
-48
-1
5
7
1
-35
3
-4
-22
2
-2
-3
2
-4
-3
-5
5
15
9
-51
-6
-2
-3
-54
0
9
11
-10
2
7
1
44
-2
-2
5
0
6
-17
2
4
0
-22
-5
-3
2
5
-1
7
4
4
4
8
-1
-5
-67
-5
4
8
5
12
-3
-7
7
1
-18
-6
2
-4
-5
1
3
6
3
-4
4
2
-2
4
-4
-1
0
-6
3
4
3
0
10
2
-14
1
0
5
-1
-2
3
19
-6
-3
-10
1
-7
0
2
3
4
7
-3
11
-8
2
-4
4
-1
7
-6
4
0
-3
4
-3
-5
-7
-2
-12
-9
6
-11
-7
-42
0
0
0
5
1
3
1
9
-9
3
-3
4
2
1
5
-4
-9
7
11
0
2
-1
-2
-1
7
6
-4
2
-3
1
13
-6
-1
-8
-2
-8
-5
-5
7
-6
0
-1
-15
-7
-6
-5
3
-10
11
0
2
1
-6
8
-3
-17
-14
6
10
0
1
-1
2
-17
1
1
-5
-6
-1
5
-1
2
6
-2
1
-4
4
-6
-2
-2
-5
-1
8
0
-12
11
0
10
11
-3
-3
2
-3
-5
-1
-7
-13
1
2
2
-1
-2
4
6
6
-4
-4
0
1
2
1
-2
0
-5
5
-3
-6
1
0
-4
3
-4
-3
0
-5
5
7
12
0
3
-4
-6
-5
1
-1
-4
2
-1
-6
3
7
2
2
2
-1
3
7
-2
0
28
1
4
-5
1
-2
2
4
0
-6
1
-1
2
3
10
0
-11
1
9
-6
13
1
8
8
2
-3
0
-9
0
0
2
-3
17
-8
-4
-1
4
-15
4
0
-20
9
5
6
15
-3
-12
6
3
-8
6
5
2
3
5
28
10
-8
4
-4
-4
8
6
3
1
9
2
-4
6
3
17
31
-2
-11
-9
-5
-1
6
-5
3
-31
-8
6
1
-111
0
14
10
7
15
8
-9
0
55
-3
-8
8
7
-15
5
-3
-5
-6
-1
-9
4
11
1
4
-8
-15
3
-2
-4
-6
-9
-2
-3
-4
9
5
2
-2
5
3
9
10
-2
5
11
1
-11
5
3
6
-5
3
1
1
14
0
3
8
4
-14
0
6
-7
3
-5
10
-1
0
-3
6
-6
-2
10
-2
-9
16
1
-10
-7
8
-6
-16
0
-5
7
24
-2
2
0
-6
8
7
1
-49
2
-3
4
-6
2
-3
-5
1
-9
-2
25
-3
0
-3
-5
-4
-1
-23
7
1
3
2
-11
-3
-2
9
-5
6
-2
1
2
0
6
0
3
0
1
-3
5
0
-11
3
2
8
4
-16
2
1
3
-4
-23
-79
0
40
-1
20
-4
6
-2
-1
-27
11
0
-127
12
-5
-20
0
-50
3
-1
3
-37
3
-4
-2
5
7
3
-11
2
-51
-13
-8
-18
6
8
7
2
19
4
-3
2
1
-42
-8
-18
5
-13
0
17
12
-13
-6
-7
-1
-1
4
1
-6
5
-13
3
-2
-4
15
-3
6
0
40
-7
2
2
3
-14
3
2
-74
-7
4
3
0
-13
-2
-1
3
15
26
31
5
-4
-4
-11
6
10
-32
-6
-1
13
0
14
-1
-4
-16
6
4
-15
2
2
3
6
-3
0
3
10
-8
4
14
4
-3
-6
-2
-5
-6
-4
1
-4
-6
0
1
-1
7
4
-12
-2
2
0
-2
-2
4
3
3
1
-2
0
-3
0
-3
-5
2
1
-1
-14
3
-2
-6
-18
-1
2
-7
4
2
-1
1
8
-4
-2
-4
2
1
-1
0
3
1
9
-2
4
-3
0
2
2
3
4
-2
4
-5
0
2
-1
-1
0
5
-3
-6
5
-4
1
-18
1
3
1
1
3
4
0
0
-2
2
-1
-2
3
1
-1
-2
8
4
-8
-1
0
0
-18
2
1
3
-1
-1
1
4
-8
-2
-1
0
-6
-3
-2
-3
3
-2
10
0
-11
-4
-4
-1
5
-1
1
2
-1
1
0
7
0
-8
0
-2
-1
-1
0
0
4
-17
1
-2
-1
0
0
5
2
4
3
0
-2
-3
1
-1
0
0
-3
-4
-14
-3
-2
1
-18
4
-3
-2
-3
4
-1
-2
14
-1
-2
6
0
5
-2
1
4
0
4
-3
-1
1
0
1
2
1
1
1
4
1
-1
-2
0
-2
3
