2
-13
4
-18
-17
23
6
10
6
-1
19
-1
5
-26
-24
33
-24
5
-4
0
-9
9
7
0
3
-34
-1
-14
48
17
17
21
-2
36
14
-23
7
0
7
-9
-19
10
-19
14
-11
-13
4
14
7
-52
-21
-21
24
-19
-11
-42
-127
99
3
-25
-38
-22
-43
-39
-35
10
-44
-37
-2
5
22
9
-9
39
7
13
-49
4
8
3
5
-16
18
-24
14
-12
-32
24
-31
-10
11
-28
-13
18
1
3
-16
45
10
32
26
37
26
28
21
-22
50
-39
18
78
1
27
-12
36
18
-6
-23
-3
-7
8
31
-29
-27
18
33
25
12
-12
5
16
41
-36
-27
-11
-15
10
-6
44
3
-11
37
-14
19
19
3
7
-9
8
-41
-34
1
6
0
-3
-49
-5
-2
-14
-4
12
-11
-6
-2
-12
-15
8
-2
-4
-14
11
-15
0
-4
8
-10
10
13
-19
-37
-23
22
11
6
25
-5
-9
-8
-14
0
2
-7
14
-2
7
-23
12
13
38
-3
14
16
-4
-14
-4
3
-15
-11
8
-4
0
-3
-3
11
1
-10
10
-19
10
66
2
-21
6
-16
3
-3
-10
16
-11
17
-11
-6
11
-15
-42
4
8
-7
-11
1
18
-3
3
127
2
15
12
-13
-1
3
-12
36
-9
12
-28
2
3
-20
-22
12
18
9
-18
12
90
-8
3
54
9
5
1
-5
-8
-1
-21
15
-15
-7
-21
-6
-16
-3
-57
0
2
9
-10
5
23
-4
3
1
5
-12
6
1
-10
2
9
-2
-1
-5
17
4
5
-5
2
-2
-10
-7
-7
-4
-4
-2
21
23
6
16
20
4
-13
-12
7
16
-7
-19
22
-10
-6
-1
20
-1
-15
-6
8
2
-8
4
-3
-2
2
9
12
10
-4
-1
3
-11
-2
-18
-1
-2
-17
0
4
-5
-5
-5
0
0
3
3
-3
3
3
-6
8
-6
6
-3
11
8
-6
-4
5
0
-1
-6
-9
-4
0
-3
4
0
-10
8
8
13
2
1
13
-3
-4
-12
18
20
-12
-1
9
-12
-7
1
-24
-1
0
-4
11
5
-2
6
-5
-1
4
0
9
-3
1
-4
10
8
-12
-5
3
-5
-4
-4
-10
0
3
-5
3
-4
-3
-32
5
-11
-10
9
-14
3
16
-8
4
1
-6
0
4
24
-11
39
-12
0
18
1
10
-1
41
-24
-18
-9
13
5
-27
18
-27
13
11
-1
-28
-2
-14
-60
48
-45
-5
31
-36
20
2
14
-39
7
-2
1
-1
-5
-25
1
-5
3
11
2
-8
2
2
-8
6
-22
-9
9
-7
-10
3
12
-1
-6
12
19
-5
-7
-21
-6
-10
10
5
7
-10
-68
4
-7
-21
-3
27
-27
-14
-3
12
-13
0
63
-43
-86
29
-10
-9
-13
19
70
-41
9
6
18
-24
47
10
20
-24
18
58
-127
-35
-14
17
8
-9
-11
8
-9
-20
1
-3
16
4
3
-5
3
-5
14
-9
-4
-23
-7
10
4
-1
-8
-1
3
5
4
-7
-9
-25
-2
-8
-6
5
-2
1
-9
-15
-2
-9
0
-3
-6
-1
1
6
-3
0
12
-2
7
8
-4
-45
5
18
8
10
-13
10
7
-8
5
-7
3
-8
1
6
-13
-8
13
-1
-3
4
-6
-5
-2
-3
-5
-1
-1
-4
-7
-5
-2
-5
-2
-3
3
8
-2
-3
1
2
-1
3
-1
-4
6
10
-8
8
-6
-1
-1
17
8
-3
1
-10
-12
5
1
7
5
-1
-12
-7
2
4
12
-19
11
-4
6
-3
-3
-2
1
21
14
-9
5
-20
-1
1
6
17
10
-6
-4
-14
-2
4
2
-2
3
11
4
1
-3
-5
-7
11
8
-13
-6
-8
-8
-1
-1
2
0
2
-3
-4
3
4
-10
2
1
4
-14
15
-4
8
-15
0
0
-3
5
11
10
2
-35
-8
2
16
-5
-16
-3
3
11
20
0
2
19
16
26
12
-28
3
2
-32
27
7
38
6
-66
27
8
24
18
-72
7
23
6
-3
-10
12
9
18
-5
4
-29
0
-5
-15
-11
-7
18
-16
-51
4
-11
21
33
-37
7
21
-3
-73
0
-20
-24
-13
-7
14
7
-11
43
-22
-8
-23
-4
-9
4
9
7
21
-11
-38
6
0
-19
-127
31
-38
9
-19
-10
17
10
-2
112
-28
-2
-24
-36
-17
28
22
3
3
-19
-73
3
-19
6
-84
6
-31
-17
-21
-1
1
17
-6
58
-26
1
-15
-10
-28
5
18
9
14
-8
-51
8
-6
-17
-59
-9
-26
-59
100
0
50
-40
-53
-7
-58
72
-57
18
24
-62
73
3
38
17
27
10
6
89
-55
-31
-18
-101
4
36
71
-52
-57
3
-76
-74
-35
71
27
16
100
-33
53
8
50
45
-39
-18
58
48
19
-82
-61
1
-48
4
42
4
-1
-2
24
6
36
-24
-50
-3
-1
0
33
-14
3
-39
16
86
-7
31
94
20
-31
22
-41
25
-2
-77
67
-22
-22
-8
118
-9
-56
-34
13
2
-32
34
58
66
-2
-74
-14
33
-50
-79
-4
104
-73
-107
-104
-70
-41
-62
33
-125
-127
73
62
67
-44
-18
-17
-83
26
-122
-74
-18
18
-10
45
-43
-17
28
34
11
18
5
-100
26
32
47
14
-37
-4
5
26
-8
-1
-17
73
-26
26
-38
-40
34
-22
-3
-9
0
-24
2
-54
-27
-1
-8
6
0
-15
51
46
10
-7
-49
-5
19
3
-44
2
65
-57
-49
-48
-24
-24
-13
-71
-61
-28
40
45
12
-7
-2
-2
4
20
-70
-122
-23
-4
-2
38
-45
1
-2
14
-5
-3
23
56
15
1
19
-28
-15
-12
-39
-27
-4
-4
0
19
-1
-13
6
9
-4
-5
15
-49
-24
41
-10
22
43
-33
40
6
-24
-8
-13
-14
5
2
4
20
8
-14
-5
11
-5
-7
3
-4
-7
-23
1
12
-21
4
4
-10
-9
1
-8
-3
2
2
9
5
-4
-5
-13
7
3
-3
7
1
-6
-4
0
9
-3
-3
8
-4
-2
-3
-91
-4
22
-1
-8
21
7
4
-8
-12
9
-23
38
-37
-46
127
-29
14
84
-43
74
29
-44
1
12
-13
-2
7
33
22
5
-10
-7
19
3
-19
7
-7
-12
-36
-3
2
-10
-8
43
1
10
-6
11
-5
-5
-6
16
1
-6
-4
-25
14
1
-8
2
-3
-18
-19
4
1
6
-7
7
10
3
-2
-46
16
14
8
9
17
8
-13
-15
-8
-10
-6
-16
-27
-23
45
-14
5
52
-53
24
31
-27
3
-2
4
3
11
6
25
15
-12
-16
11
-4
-10
-6
4
-8
-23
2
-13
-11
-8
-11
-4
-3
0
-8
4
6
-4
8
4
1
-7
-9
9
-3
-6
-2
3
1
-3
-2
1
-7
-5
2
-1
4
3
14
-17
-87
-5
-18
4
-3
6
-9
7
0
-8
21
-12
15
-9
-25
-23
12
4
-1
17
6
-34
16
-70
-127
-19
-20
12
-12
19
-2
10
7
-26
40
-19
20
-9
-62
-13
25
29
14
-6
18
-43
13
-17
-66
-14
-29
1
-6
7
-4
-6
11
-3
18
2
2
-7
-17
-15
14
5
19
14
-1
-46
-26
11
25
4
-13
-4
-13
-5
-27
9
-4
1
9
27
-13
5
-3
14
-6
-15
-16
0
-9
0
-18
44
23
-4
32
14
4
-7
3
0
8
10
-20
9
-13
6
4
84
-3
-15
-1
-5
16
-4
-10
17
12
4
25
5
7
-14
-17
-8
-12
-2
-13
-17
-15
-20
-4
22
-20
-14
-22
4
4
3
-8
-3
4
0
-12
0
-3
-1
-13
6
7
-8
7
10
-3
6
-3
-24
-4
0
-7
-5
0
8
-6
9
19
-1
6
9
8
-5
-12
-1
-1
-5
-11
4
-4
1
6
-14
5
-8
-2
-3
5
1
-2
-6
-3
-3
-2
9
4
-4
-14
4
0
-11
-6
-1
-9
-10
-4
-14
-3
4
-2
3
-4
5
0
-1
2
3
4
-10
8
-2
-2
1
0
2
-8
12
0
2
-1
-3
13
0
0
1
3
-1
-15
4
-7
-6
-4
-29
0
6
-1
-1
-4
3
9
-2
0
-21
-5
-6
13
0
-6
3
-4
1
0
-3
-1
-1
-3
-1
-1
3
-1
1
-2
-1
-2
1
0
0
3
4
2
0
-1
-2
-1
2
-2
-4
-2
12
-6
-11
32
-8
-8
10
1
18
-2
14
1
-10
5
-6
21
8
-1
0
3
4
-29
5
6
-11
-19
-15
1
5
32
-29
5
6
18
-17
6
-60
-11
0
66
-2
-127
15
-56
2
-1
-2
3
1
-3
5
7
1
5
-7
0
-3
-3
-6
3
0
3
4
5
0
6
2
-6
1
-3
-7
-1
3
2
-8
5
1
-1
2
-1
4
-1
4
1
1
3
3
5
4
-1
0
4
4
-10
-2
6
-6
-3
-34
-2
-3
0
1
-5
1
4
-9
1
-8
-3
-1
10
1
7
2
-2
-5
-1
0
-2
-2
-3
-5
2
1
1
-3
-3
0
0
0
0
0
0
-3
1
-3
-3
1
-1
1
-5
0
0
3
-14
-7
-8
1
-10
-10
-13
-6
4
4
-9
7
1
0
4
-6
-12
5
-7
-8
3
-5
12
-12
20
17
-2
10
-1
-9
-11
-6
-7
1
9
10
3
14
12
8
3
-1
7
-2
6
-3
-7
3
-4
6
2
4
-9
-8
-8
-9
-13
0
-12
-5
-4
2
0
-9
4
3
-1
-9
-34
-5
-9
8
-18
3
-16
1
-8
-18
12
15
24
-3
6
2
-12
14
-24
-7
-13
23
-18
0
-41
19
6
-1
17
16
17
10
18
-30
20
18
27
15
15
5
-15
17
-34
1
23
52
-1
7
-24
-7
-15
8
1
13
6
-2
-3
-9
-7
11
-12
-17
-7
-16
-15
9
-36
-20
21
14
-11
-4
37
0
0
16
9
-50
-1
-23
-5
19
-48
-53
-7
2
11
0
23
2
46
12
-2
-12
7
-6
40
34
15
25
8
-49
17
-37
-27
0
-127
-94
0
23
-11
-7
46
-18
52
-22
-26
33
35
-31
40
9
4
7
-9
-54
1
-16
-14
13
-44
-57
20
10
-3
-2
15
1
36
-7
-6
-17
12
-5
3
-2
1
3
-5
7
-5
3
-2
2
3
-5
4
5
2
-5
0
0
6
16
-8
-14
8
-1
4
-25
11
-6
2
-12
-6
-10
2
18
12
-11
-2
-17
-12
14
11
13
15
-4
-3
-5
4
1
4
-3
-1
-4
-5
9
-4
4
-9
-3
4
1
-7
4
4
-8
3
4
9
13
-12
-14
6
-4
26
-34
-10
16
7
13
-16
0
-30
25
31
-8
17
-11
0
-11
-80
14
2
-1
-3
-30
-4
15
15
-10
-4
5
7
39
-16
18
-49
4
48
-21
0
-29
32
7
-127
33
0
10
-3
-84
3
0
27
-28
-13
-4
16
27
-21
-12
-7
13
2
-6
6
-13
-10
20
-47
5
26
-10
-4
1
0
-5
-13
-7
-10
9
-15
-13
13
-10
3
18
-38
-48
20
7
9
-14
-18
-9
-12
5
-24
-62
-2
-65
-29
41
-14
2
7
5
33
-4
20
-9
-98
-98
18
-20
1
2
-34
-27
-7
-19
-14
-97
-18
-92
-4
1
-14
6
-18
0
14
1
11
23
-38
-23
12
-11
14
-23
-13
-15
-15
4
0
-50
-1
-68
-3
-10
3
-8
-21
2
-7
-2
-10
-18
-12
-10
31
22
13
22
4
9
2
7
3
-5
-8
3
-6
-3
0
-16
27
30
5
-9
4
-2
-25
0
12
-6
4
18
-18
8
-8
-23
30
-2
-12
-13
7
8
-16
3
5
12
9
-1
2
-12
-15
-2
8
-6
-10
-11
-12
-5
-3
2
-3
10
9
-4
19
-11
2
6
-19
-38
16
16
-49
-6
-86
-29
49
76
9
38
36
-8
31
29
-11
-2
-5
1
4
32
-10
-4
28
-23
15
-1
24
-17
-92
-40
42
-1
-31
29
5
3
34
-37
95
14
-17
21
39
4
2
13
13
-37
12
4
-9
-12
-58
-36
15
-4
-10
-39
3
-5
19
-14
18
-7
23
-4
-16
-101
-18
-28
29
-47
-8
3
28
31
-29
-8
-10
-48
23
-58
-24
-18
-11
6
2
-53
-12
-11
13
-127
25
-43
-35
-67
0
-6
-8
21
1
-21
-14
-2
23
-50
-28
-35
-48
24
-38
-65
20
-6
-16
-62
16
-19
-32
-38
-12
0
1
13
-19
-5
1
4
23
5
1
7
-6
2
-7
-35
-11
-10
10
26
-35
-5
-15
-49
-40
-8
2
-8
-24
-14
-20
-11
-9
-4
-2
-27
-4
1
2
1
-17
-3
-69
-5
-4
7
30
-56
81
-25
20
12
-5
-10
26
38
-32
23
-16
-26
1
-11
-29
12
30
-14
10
-17
8
9
14
-5
11
6
-4
14
11
7
-14
-2
5
-18
7
8
21
10
25
19
26
11
5
-28
-45
9
-33
-7
104
24
-27
-62
2
-9
74
-17
-4
12
-6
-3
-8
21
-2
-16
0
-2
59
-47
-65
10
-111
-21
-121
18
66
44
22
-91
-127
-37
75
-21
-2
-7
-29
18
18
13
-24
14
10
30
12
26
-13
-25
-17
-12
-10
52
-6
5
-16
17
-3
15
12
10
19
8
50
10
-33
7
-15
8
10
-2
-1
25
27
14
7
-35
11
-7
3
9
-1
17
-3
14
-7
-15
-3
-10
-4
0
26
29
-26
9
-104
-49
-68
-11
0
17
11
-44
-3
-42
22
-22
4
-14
-16
-8
-4
44
-14
7
17
-8
17
17
2
-39
-4
-3
1
50
4
17
-10
3
-2
3
15
14
11
20
40
-23
-16
-3
-3
-10
5
2
-2
9
-2
-1
-2
19
0
-4
17
-9
-3
-2
-6
6
-6
-4
-2
-9
6
8
7
-11
18
1
10
5
0
-11
-22
44
20
-2
2
-6
-22
-7
-3
11
-4
-7
-1
-18
4
11
4
-11
7
7
12
2
2
-1
0
9
0
-8
-2
-9
-10
-7
-4
0
-3
1
-1
-5
1
10
-4
-16
4
-10
-4
12
2
1
2
7
11
-13
10
-7
-18
4
-6
7
-2
-18
-8
-10
-2
-6
12
-15
4
-4
23
18
-6
2
25
26
61
-14
4
-13
-22
-2
8
41
17
-7
-11
-28
16
9
1
-22
-9
-7
18
11
3
-11
1
5
16
-12
-6
-17
-12
-8
1
8
-2
-7
-4
-7
6
-3
-33
-13
-17
0
-36
15
-26
0
4
-13
78
22
2
3
3
15
-10
6
-19
14
-13
55
-14
10
-51
35
-6
14
10
31
-13
18
7
-15
127
38
-10
10
36
-2
-37
11
-35
34
-3
77
-18
13
-13
-33
-24
12
-6
19
-10
3
-3
-3
62
16
-17
-16
6
-13
-3
0
-18
21
-7
59
-3
8
-4
3
-3
2
3
0
-9
-8
2
-6
-6
2
8
2
-1
1
-3
-8
-4
0
-1
0
-5
1
6
5
0
-2
-2
6
15
9
3
-2
-3
4
7
-1
3
3
-1
-2
-9
2
-1
7
-26
3
-2
-7
0
-5
-21
-33
-8
-4
-7
13
-6
-7
-13
8
12
7
0
-4
2
3
-6
4
11
0
-13
9
-1
10
-8
-15
-2
-9
0
-27
6
-9
10
8
4
0
1
-4
-2
1
3
-3
-9
-9
18
-6
6
26
-13
-24
127
-8
4
-65
-25
-37
9
-19
-10
14
14
-10
-15
23
-17
32
-113
-19
-24
-21
5
26
-67
-17
-12
-17
-8
45
-1
-6
-19
5
21
-14
4
-1
6
22
-43
4
15
7
7
-19
-2
-2
-9
-29
9
6
-4
4
2
-2
3
-6
5
-8
3
-1
1
6
5
-4
-3
-4
-32
-54
-24
1
-6
-41
-92
-10
16
25
-15
0
18
16
19
0
0
-8
6
15
3
-19
56
2
13
-21
8
-15
21
-28
5
7
10
16
-7
-19
14
7
1
6
8
2
0
0
0
-3
-6
-2
31
-4
0
3
11
-26
0
-17
-2
11
9
3
-24
-33
-4
13
-60
-6
26
-21
-8
2
-2
-12
32
-5
-4
14
-13
-42
-18
-40
-2
15
-4
-21
-1
-47
-48
44
-127
-17
25
-58
-40
15
11
-44
24
-1
12
4
-4
-34
4
-18
-3
8
1
-3
4
-19
-5
34
-57
3
18
-18
-5
-1
-6
-13
-13
-11
-52
2
-4
-31
-13
1
-18
3
-3
-11
38
2
4
13
3
-73
3
17
-14
-5
1
4
20
-64
-119
0
3
-22
18
18
38
13
-2
-3
45
-26
37
18
-2
-82
2
66
42
-22
-7
-74
-5
-4
-21
12
-22
-21
-5
0
6
9
13
-9
-3
-7
-1
-13
-1
-50
-3
1
4
-4
12
-6
-5
-1
-18
1
-9
-9
3
9
3
-10
-7
-1
10
15
-2
6
1
8
7
5
-5
-8
0
4
-16
15
-5
-4
24
17
2
5
0
-19
-33
-6
7
-4
-5
7
-5
33
-4
-21
5
-1
-4
3
1
0
-18
-2
-5
-17
0
9
4
-5
-15
1
5
-7
3
-5
0
4
6
-2
-1
2
7
2
1
-3
6
0
-19
27
5
14
-4
-1
-3
-1
49
14
6
-3
14
20
-9
11
1
-5
6
7
12
-21
1
21
20
22
7
-36
-3
-6
-21
-24
-14
-17
-12
4
-2
15
0
-23
6
5
-5
-12
5
3
2
8
1
-21
9
-6
-2
12
-4
-5
-2
-11
-9
-5
-2
-1
9
-3
3
1
0
-6
28
-6
23
11
12
30
31
38
-30
-39
7
3
127
74
38
8
26
22
36
46
-23
9
-11
12
-8
-36
-16
1
46
25
11
-60
-116
90
-9
-47
-33
-37
-90
-49
-30
1
-51
-89
102
10
-5
-12
5
-9
-5
1
7
-13
8
-1
-15
4
0
-13
-11
-1
-12
-16
9
-10
1
-5
-3
1
7
4
6
4
2
-5
-1
28
1
3
2
-15
6
-2
25
29
3
1
8
3
1
2
4
3
9
-2
-4
-9
-15
10
9
21
7
-14
-1
-2
-10
-15
-13
-18
0
4
-5
-14
-15
-7
-14
10
1
-3
5
-5
5
9
-4
-26
5
-6
3
10
-5
-2
4
-7
-4
-5
2
-6
0
-2
5
-5
-1
2
-45
-52
-10
-2
5
13
-49
-33
-127
94
0
-12
19
30
-32
-6
-16
4
-17
-4
-41
-20
-36
16
7
-36
-5
-5
16
39
-11
13
-19
21
30
-7
-5
-12
5
18
-23
18
0
5
-4
-1
-21
4
-3
-21
1
-12
12
22
9
1
-1
-4
15
-10
-5
-14
-7
-3
-5
-2
2
9
-11
18
0
1
-3
11
9
25
21
26
31
-8
3
9
42
-27
23
74
-7
7
8
37
17
-5
-2
-20
-27
4
13
75
-29
33
35
46
13
-1
-4
-37
21
-38
-25
-15
6
9
0
32
30
-17
22
14
36
-13
4
33
-4
20
7
0
7
0
7
-12
6
-25
10
-8
-6
-12
-10
-10
6
-7
-9
15
9
2
-1
12
-8
10
1
15
9
-7
6
-6
-17
-4
15
5
-1
-4
-3
6
-5
-3
-5
-5
2
5
5
-4
-15
9
-8
13
3
6
0
-8
-25
-15
4
-11
-1
-11
-1
-7
-12
-1
7
7
-1
-2
8
-7
-3
7
-20
-23
5
2
3
0
-22
-8
2
-5
0
-8
6
11
2
-14
-5
3
1
0
-1
-3
-3
-1
-1
-2
2
4
0
1
0
-3
1
5
0
-3
0
-1
0
-1
1
1
3
2
-15
0
-10
-2
0
-27
4
-1
1
5
-2
2
-8
0
-1
0
-5
-4
5
0
2
-3
18
2
-9
3
0
4
2
-12
1
1
1
-3
-1
1
1
2
-2
-2
-1
-4
6
-4
3
3
5
3
3
3
1
-8
0
1
1
9
-1
-2
-1
-14
5
-2
3
9
2
-2
-3
-4
-4
0
11
-2
-38
0
-12
-3
-1
-4
-31
0
58
-28
-5
5
-36
7
-4
-21
-16
0
-29
-19
21
9
127
-4
-3
0
-1
-6
-9
-10
-11
4
-2
8
2
-20
-7
4
0
11
5
-6
8
-2
16
1
21
3
0
0
-1
2
-1
-6
-2
-3
1
0
-1
0
2
0
-1
0
0
-3
1
-4
1
-1
0
2
-12
-11
3
-8
2
-29
14
-2
-1
3
-4
0
3
-1
-4
0
-2
-6
5
6
2
-3
11
-4
-11
-1
0
1
1
-12
1
0
0
-1
1
2
0
0
0
3
-2
0
5
-2
1
3
1
1
-8
0
-2
-5
2
-4
-3
4
4
-5
-1
-3
2
-4
0
5
-3
-1
-5
1
1
-1
-2
-2
-8
-1
-13
11
9
-9
-1
-4
0
0
3
-13
-22
-3
-1
22
6
-6
-11
6
-2
4
7
-1
6
-4
-5
-6
1
-19
1
2
0
3
-5
-5
-1
2
0
-8
0
-14
3
-4
-2
0
3
-3
-12
2
4
-2
5
-4
7
1
0
-9
-2
19
8
-2
-1
-7
-1
1
11
7
-11
-1
-10
0
-112
-12
-21
-10
0
-2
18
6
-8
-13
13
-56
-36
-78
-9
-5
13
-3
104
-7
-106
-4
-127
-2
-8
-2
-3
-3
-4
0
13
2
7
1
-2
11
-6
-3
7
-7
-12
6
9
6
5
1
-14
-4
-6
-1
0
0
7
-3
-3
1
-4
-2
-4
2
1
-2
-1
6
-2
-1
-1
2
-1
-4
-1
-4
-14
-5
1
-5
4
-19
3
-8
-7
1
-8
-8
-6
-3
0
-1
5
-9
21
0
-1
9
4
4
2
2
-2
-5
-2
-4
-2
3
-2
-1
-3
-4
-3
0
-3
5
-4
-3
-5
-5
0
2
-1
-3
1
1
2
-4
3
-7
1
-1
-2
1
3
3
-1
0
1
0
-10
-2
-3
1
1
3
5
9
-10
0
1
2
-2
-8
1
-3
2
-1
1
5
-1
9
11
-7
-13
-5
-5
15
4
8
-4
17
-6
1
3
-3
3
-5
-2
-1
-1
1
-2
-2
1
1
5
-3
3
3
-3
6
4
2
-2
5
-2
1
-8
-1
-6
-23
-8
5
-1
-3
1
-12
10
-8
-6
2
0
-20
2
-6
-7
-12
-3
36
2
-30
-43
-3
-6
-16
-1
4
4
2
-8
-30
6
-9
-7
1
-26
-34
1
-13
7
-41
8
127
-4
8
-2
2
-8
-19
1
-1
4
4
4
-7
2
-1
-7
-1
2
-10
0
-12
-2
-7
-1
19
-3
3
-4
-4
-5
-1
1
-2
-1
-1
-3
-1
2
5
-4
0
-2
4
1
-2
-1
2
-1
7
1
10
-6
5
5
7
3
8
-2
-10
-7
1
-2
3
3
-1
-4
21
-2
1
4
2
0
5
0
-3
-4
2
-2
-5
0
-2
-1
1
-2
-3
1
-1
0
-1
-1
-3
-3
1
-1
3
3
3
-11
6
-6
-1
-7
-1
-5
0
-4
-8
-1
-3
-2
11
-8
3
-3
-8
-8
5
-10
1
-7
-1
1
-2
-1
-4
11
8
-2
3
-5
-13
3
-2
-1
3
6
5
-4
14
-4
9
-4
0
6
-2
0
3
-4
0
-3
3
0
1
-5
-5
-5
-4
-16
1
-1
-10
-5
-4
-3
3
2
5
-2
-4
-14
6
2
13
-20
-19
0
8
-26
1
-3
-17
28
18
6
-10
-18
2
5
2
-17
10
-9
-2
-24
36
4
5
17
9
19
15
-28
-25
-19
-31
33
15
32
-11
-60
16
-13
10
34
19
-2
-1
-3
12
-10
1
-4
-5
3
-1
-7
15
-24
-26
-7
0
-3
-26
-18
0
-9
4
4
3
4
-4
-12
-71
-10
-19
8
-34
-26
3
-14
1
-15
24
-6
-11
-23
5
62
5
-21
-22
-14
55
-5
28
11
-51
4
-30
7
-69
-13
-4
-37
6
-60
25
7
-13
-62
20
92
0
9
-47
-3
127
0
32
1
-58
-1
-22
-8
-41
-13
5
-7
-6
2
23
-9
-9
-18
-7
43
24
-20
-30
-4
52
6
38
7
-1
4
-2
10
6
-4
2
-2
1
5
1
-1
10
3
-5
4
0
0
5
-1
-2
0
-1
4
5
-7
-4
4
-20
3
4
1
7
-9
-8
-34
-5
-8
8
2
-3
-9
-6
-14
7
9
-4
-8
-7
-2
-7
-8
-19
-3
19
-1
9
8
-9
-7
-16
17
24
2
-3
-30
10
-14
-9
3
6
-4
-3
0
0
0
2
-7
-2
-8
-3
1
5
-4
14
4
-5
1
0
1
7
8
1
6
-1
-17
-2
-10
3
4
-26
-14
-7
23
15
-3
-31
-102
-68
-18
1
-11
1
-39
-21
-9
0
1
-2
-13
14
15
19
-18
3
1
9
2
-45
14
-62
-45
-39
35
127
30
7
-109
49
43
-9
36
-17
4
-8
9
2
4
5
-13
3
-4
0
0
-2
4
5
6
-5
2
3
-3
2
0
0
-2
-2
2
-11
-3
0
4
-16
2
0
-1
7
-17
2
-11
-9
-4
7
0
6
-11
-3
-12
-4
10
-5
-11
-1
9
1
-3
-27
-1
4
1
3
-11
4
-2
-11
4
-10
3
-9
2
2
-2
-4
-3
-5
-5
-2
1
6
-6
0
-8
1
1
0
3
-4
1
-1
-4
1
1
-4
-1
-1
-4
2
0
-3
2
-9
7
-4
5
7
0
-1
-3
6
8
-5
2
-11
-4
-3
-6
8
6
0
-5
-5
3
-2
0
-4
0
2
2
2
1
0
-2
-1
4
-6
-8
-4
-4
-7
1
-3
-3
-1
-4
5
3
2
-2
-19
0
6
-10
3
-14
-4
-2
4
18
3
3
-3
-8
0
2
-3
3
-3
-17
-4
-6
0
16
-15
6
-9
12
9
-8
6
6
18
56
1
2
-13
-21
14
24
25
15
-9
-1
7
1
14
7
-23
-4
-1
0
8
-6
-7
-3
-2
18
-8
-15
-11
-12
-13
4
1
-2
-7
-7
0
5
-2
-47
16
-5
-8
-12
13
3
3
7
7
-24
9
17
28
18
-17
-57
3
-50
8
6
40
-4
17
-70
79
2
16
1
12
10
13
-19
0
-64
-15
4
35
44
-32
-127
-13
-51
23
15
21
-15
17
-44
21
-12
0
-4
18
0
4
8
2
-34
17
15
6
24
-18
-57
1
-50
19
14
36
-10
20
15
-19
7
0
6
-12
-9
4
0
-8
13
-2
-9
-10
8
7
-45
16
16
5
-8
2
-1
-15
-28
12
-15
2
8
-24
10
11
11
7
-3
-25
-4
21
-4
-37
84
-14
-23
10
9
7
-8
32
-3
-3
1
6
3
-16
-3
1
4
4
8
-4
1
11
4
-1
11
-9
-5
4
-5
-6
2
3
6
7
26
8
-21
-21
-2
-16
14
12
3
-14
-62
-11
-3
-11
-13
-21
-14
1
5
-8
7
77
-11
-10
-39
23
-14
-14
-5
4
27
-56
8
5
0
-21
43
-11
35
5
-22
54
-76
41
-16
-127
-2
-8
-2
7
-15
-18
0
-6
3
10
-2
-3
2
-3
11
-6
-2
8
-6
10
-4
5
-1
-9
2
-9
-3
-3
-11
-18
-2
7
-2
-3
-5
1
-2
-3
1
-7
3
3
-1
-1
7
0
-8
4
-5
4
-4
3
-6
-27
4
2
10
-4
-13
4
8
-11
2
-3
5
5
0
-3
-2
3
0
-13
-6
-6
-2
-8
-3
-7
-3
5
0
-1
-2
-3
1
0
0
-4
1
1
-3
0
0
-10
-1
-6
-3
-6
6
16
-2
-6
5
-14
-6
4
-5
-5
2
13
-5
4
-1
-1
7
-1
-9
4
-2
-2
4
-2
0
-4
4
19
1
13
-3
0
-4
-6
2
-14
6
-1
3
8
-4
7
9
-7
-10
4
4
2
-1
-2
-10
3
5
-1
-6
-4
-3
-6
0
-6
1
-2
4
1
0
-1
-4
1
0
-1
-38
-34
3
3
10
3
-6
-27
-127
58
-6
-21
52
62
-41
22
1
0
-14
-8
-50
-18
-35
3
27
-1
3
-7
22
20
-3
26
0
-25
8
-32
-4
-33
16
15
2
15
-2
-2
51
0
10
2
-2
6
-1
4
8
5
-1
1
-3
-12
-4
-9
-1
-11
0
3
-4
-2
-4
0
-2
-2
-2
-7
-12
-8
0
7
6
7
15
2
5
6
10
-2
7
15
-6
9
-1
-4
-2
-6
-13
-6
-5
4
3
3
-10
3
10
31
-2
0
0
-8
5
-5
-2
-16
5
2
1
7
-2
-3
11
14
0
2
-2
3
0
-1
-4
-3
-2
-2
-2
-5
3
3
1
-9
-2
1
2
-1
0
-3
-1
-1
-2
0
-3
7
-14
5
6
-1
0
-1
-7
6
9
-7
9
-3
17
5
9
-83
0
23
-7
15
9
29
-9
9
-56
-2
3
21
-3
30
-26
10
10
-17
18
-13
6
2
30
-127
2
4
-17
11
9
90
-11
6
-16
-4
-24
10
1
4
-13
14
14
-17
5
-7
14
-6
17
-114
8
21
-12
6
7
35
-18
13
-17
1
-14
2
-5
-5
-19
2
-7
-9
-9
30
-15
-14
2
24
-12
-23
-9
16
-12
1
-24
34
5
2
20
17
4
0
-60
-4
10
-7
-10
44
-38
-17
2
91
0
-36
5
9
-6
-17
0
16
-32
-3
5
15
3
-10
-21
-15
-11
-12
-26
3
-19
-28
-2
51
-27
-21
0
18
6
-5
-8
4
5
-6
-6
-9
2
-3
-10
0
-11
-2
3
5
-5
4
1
-10
-6
-5
-9
-7
-8
3
-6
11
13
-5
4
11
8
0
-19
-2
-6
6
-8
-1
5
8
8
-8
4
-5
-2
6
2
2
-1
1
-4
-1
-7
0
4
-6
-11
0
-12
-8
-5
-5
-3
-6
0
-5
-8
-3
5
3
-4
2
1
-7
-2
5
1
-1
-1
-3
-3
5
-5
-3
-3
-3
-5
1
-3
2
-2
0
0
2
-1
-4
-11
-8
4
4
6
-1
-20
-9
-8
-3
-2
0
9
-10
-11
3
4
-4
-9
-8
-14
-6
8
3
-3
-15
6
-7
-17
5
80
4
14
0
-6
-7
3
-1
-7
2
-14
-2
-5
-2
-3
-6
-8
-7
-4
-7
3
-3
0
3
-18
0
-10
-2
1
2
4
6
-2
4
5
-1
4
6
-7
-1
-3
2
-23
-1
7
6
38
7
6
-5
-13
-1
8
7
29
15
-13
16
-1
8
-2
-6
-7
-9
26
-1
38
-15
13
-15
-2
5
127
9
-7
-10
12
-21
-16
-50
-13
-17
-22
6
-10
-10
4
13
-62
-6
-2
2
-4
-1
-1
2
-2
-4
-4
1
-6
-7
-3
0
1
0
-2
-5
0
-4
-3
2
-1
-5
-14
5
-4
9
12
5
-10
-5
-7
-8
-6
4
-2
-8
-9
0
1
-13
-2
-14
-12
5
11
-2
-8
-2
3
-11
-20
-2
68
0
14
4
-4
-11
13
-1
-6
3
-7
1
-2
-9
-10
0
-8
-1
5
-3
-2
-9
-13
0
7
7
5
-5
-4
-4
2
-10
6
-4
-2
2
-2
2
6
3
0
3
-3
-2
-10
6
-19
-17
-65
7
-9
4
11
1
-7
-8
13
-8
7
2
-8
4
1
-1
21
8
15
-7
-9
-15
-3
-4
6
10
6
-8
-3
-35
-3
10
-9
2
-3
-5
-10
-18
-12
-2
15
-16
2
-5
12
-7
-5
20
2
10
12
-17
8
-7
0
-8
7
4
3
14
4
-4
-4
4
-5
-6
3
31
12
12
-38
0
-127
7
9
-16
14
1
-13
-40
18
-10
10
11
-8
6
2
17
5
8
2
-2
-4
-34
2
-13
-17
9
-20
-6
-16
-73
4
-3
-6
-3
-21
-4
-15
-18
-7
-17
-10
-21
4
6
-5
-5
-12
1
9
1
0
-7
-2
-6
-8
1
3
-3
-3
-3
-1
-4
7
-3
-4
-5
-6
21
10
14
-23
-15
-62
-11
-12
0
-2
5
-1
-2
4
-8
4
-7
-8
-6
5
17
16
-7
21
-4
-9
-25
11
-10
-1
12
1
0
-11
-34
-6
8
-8
7
-3
-2
-7
-14
-8
4
12
-11
16
-14
10
9
-27
18
3
6
-24
-8
10
-26
-7
-10
-3
2
-20
-79
18
-3
-15
9
3
-21
41
-31
18
1
-14
26
-15
16
-21
-10
25
-31
16
-20
-6
8
-38
-127
48
-2
-13
10
11
-28
27
-33
-3
19
0
30
-10
7
-16
-19
14
-28
-6
-6
-11
-8
-38
-69
26
-15
11
18
0
-32
10
-16
17
8
-43
21
-6
-4
-11
2
8
-6
29
-18
5
7
-13
7
-9
11
-6
2
1
-7
12
-24
48
-1
14
14
1
23
-25
-6
17
-21
49
-4
24
-2
-17
1
9
28
-20
-5
-4
12
4
-10
30
13
10
33
-8
-19
-22
-10
11
-21
-10
-1
5
7
-10
5
-8
-10
39
10
22
-30
6
11
1
10
3
22
-4
-11
-15
15
12
2
-5
11
-7
0
-6
8
-2
2
-8
20
4
-8
9
26
30
15
26
-6
16
-11
-54
29
28
-16
-22
33
-22
-13
1
-11
3
-23
-13
43
-8
-22
-1
5
-10
11
9
16
-11
-34
-71
35
17
-22
-36
24
-35
-23
-2
-24
-17
-40
-5
21
14
-10
-5
-5
-56
11
-27
-4
-23
15
-2
10
15
-18
12
-26
19
7
-5
-82
-9
26
-25
11
3
-39
44
-44
-127
-14
14
-37
-3
19
-44
67
1
-9
15
-40
29
-11
-21
-70
-16
23
12
-2
-22
-45
5
-6
-44
14
-43
-48
0
4
3
15
15
-34
-18
-12
41
1
1
-68
15
20
-8
12
-5
-41
-45
6
-29
9
-27
-24
3
10
28
-6
-2
-8
25
-12
-25
42
3
45
23
-10
-2
26
12
19
69
14
-29
8
38
-16
22
17
28
19
20
-43
26
-8
-7
8
20
71
-93
9
14
35
-51
51
-32
-22
-55
15
-13
-32
27
0
17
-5
-4
-20
14
-43
-13
2
3
35
-15
-4
42
18
-36
18
-22
9
20
2
-11
-6
-16
5
0
-33
-13
7
-9
-11
-1
19
-11
11
19
-4
-3
3
3
-3
26
2
-4
-4
32
5
13
8
4
-16
-12
-20
0
15
28
12
-1
-6
-8
-6
7
12
-32
-1
-14
7
11
4
12
7
13
-1
11
-24
11
12
-31
-15
0
-1
-9
14
7
2
11
-2
-21
-8
-4
-10
3
6
10
8
-8
-19
-12
11
-6
-7
7
-5
-8
-2
8
4
0
-4
-3
-4
-5
-4
-1
-8
2
5
7
9
-3
-6
-2
-1
-12
-14
6
-5
0
-3
-3
5
-6
-7
-3
-6
-3
-1
-11
2
-13
0
2
-1
-56
-1
-7
-5
0
-21
0
14
21
9
19
0
20
7
2
-3
-10
-5
-4
-3
4
-5
17
9
-20
-12
-28
33
0
-15
21
13
-24
-6
3
-2
1
1
3
-8
-13
-3
-1
1
6
-6
16
16
-20
-2
8
-1
-4
-13
19
4
-11
6
7
8
-1
5
0
0
-16
5
-31
-2
-4
-10
59
-4
-127
2
-2
19
10
-14
22
27
24
-12
17
3
37
12
15
7
2
7
2
4
-7
8
5
12
7
-1
0
15
-10
-5
-6
-8
1
5
4
-10
0
-16
-3
-5
-9
3
-1
7
0
4
9
9
1
-1
2
-2
-14
-10
0
-8
2
-6
-4
-7
-4
-13
-3
2
-4
-1
-14
-1
-8
0
6
-7
-60
2
-12
6
-7
-20
6
9
19
-1
4
-4
16
12
7
0
-12
4
5
-2
-32
18
15
-11
-27
-21
22
-8
2
-11
7
0
-15
-6
-5
-10
-21
-23
-20
7
-44
1
37
-26
-21
8
6
42
1
-1
-12
30
-1
-29
-1
-48
-16
28
3
23
-56
-21
21
1
39
-13
5
3
-6
1
5
6
-5
0
-6
-6
3
18
2
-9
-7
-10
-7
-10
-15
-22
-28
-2
13
-1
-83
-44
-39
-12
106
-75
-35
-46
-127
18
-28
-77
28
29
-67
-74
11
-25
-71
-37
-24
16
-80
-47
90
-12
-10
21
44
15
8
17
-27
3
-10
-75
12
-50
-17
-24
34
29
-109
-1
49
43
99
-33
-3
-1
2
8
20
-37
6
-3
7
-3
-10
-7
25
-17
-16
-45
6
-7
-21
0
-45
17
26
-16
-10
-26
-40
16
-7
-19
9
-19
49
-11
8
-29
-9
4
18
-8
-1
-49
-14
53
-13
-28
-28
-15
-2
-33
-27
17
13
10
-1
-5
2
31
28
-44
-20
-30
-7
4
24
6
6
-13
-11
-38
7
-2
15
-8
13
-9
3
-10
5
9
8
-4
19
6
6
-14
7
-32
-2
-20
-16
7
-8
-23
16
-15
11
6
-1
15
-2
-8
8
-8
2
-8
4
-37
-3
8
-10
-20
32
-10
6
-7
0
-24
-4
-37
-18
9
-1
8
-7
-6
-9
5
3
-17
-2
-69
12
-3
-52
-25
50
0
-11
-35
-1
-24
-24
-42
-1
3
-1
13
-12
-6
-3
-7
1
-6
2
-26
5
5
-1
-4
23
-10
11
-15
-3
-20
6
-15
4
10
-36
9
1
12
9
-2
-15
5
-3
8
8
8
0
-1
11
-20
1
8
-4
5
1
-68
3
23
-49
18
12
18
4
6
-23
12
-7
16
-5
-1
21
-7
25
9
-2
1
16
43
11
-127
2
15
-14
5
-1
9
3
-6
-6
-2
-6
-4
2
3
-7
0
-3
3
1
-3
-13
5
2
5
1
-6
3
-2
-2
3
-3
-5
2
-7
4
-3
1
-4
2
-2
-1
-16
0
0
1
-3
-2
-10
-1
-11
-4
2
6
9
1
-1
10
-6
-2
1
0
1
-1
8
6
-13
3
-3
-2
2
-2
-8
0
-4
3
-2
-4
-1
-5
-3
-3
-3
1
-5
4
3
4
-2
-1
-10
0
-5
-3
-1
3
-9
3
-1
-3
-6
-9
-11
-3
6
-1
1
-2
-6
-5
-1
-1
-4
-3
-6
2
2
0
4
-1
1
-10
-2
-10
-8
-11
-12
3
4
-4
-1
-5
-12
-9
6
-6
-2
-7
-5
1
6
-6
0
12
-4
-6
3
12
5
21
-20
14
1
9
16
-3
2
-2
1
5
10
7
-6
10
3
-4
6
-7
3
1
0
2
4
-9
9
-3
0
0
-17
2
0
9
1
3
-1
2
2
-1
2
-6
0
-11
-1
22
-14
-3
-5
-38
0
127
9
-6
-21
18
-25
-25
-53
13
1
0
12
15
18
-11
-2
-72
3
-59
0
5
45
8
-31
53
-27
5
26
-1
53
-1
12
-12
17
13
-13
5
11
-55
-10
-4
6
3
4
-2
1
-4
1
-2
2
-2
-3
0
-1
-7
1
1
-1
3
1
0
-5
0
-1
-3
1
3
9
4
-5
-32
-9
21
-4
-7
-8
-6
-23
-9
-8
-1
1
-5
4
-9
-7
-16
11
-18
-11
-12
-9
9
15
12
-32
23
0
5
13
-5
24
-2
-5
-2
3
9
-8
5
14
0
-9
-1
8
2
-4
0
-5
-3
0
-2
-1
1
3
-5
-2
0
3
-7
1
2
-3
1
-1
1
2
-3
-1
3
0
-2
-6
-3
2
1
1
6
1
-4
6
2
-3
-1
2
9
8
-2
-2
3
6
-1
-5
3
-3
-1
-4
5
-4
2
-2
1
0
-5
0
-1
-1
-7
-4
2
-3
-3
2
-1
-1
3
2
-2
-13
1
-4
-5
-26
-18
2
-2
7
-2
2
-8
-12
1
-5
22
1
1
-4
-4
9
-3
-2
11
-20
16
-3
-4
-14
5
-23
60
-61
-48
10
11
-18
-54
21
127
0
17
-32
-13
114
0
-62
1
-10
4
-4
-17
-23
-3
3
2
5
-6
-1
3
-5
-9
-5
17
-2
-5
-9
-8
14
4
5
1
-7
-4
-2
7
-14
12
3
-1
0
1
1
-2
1
-1
3
8
-4
0
5
1
4
2
0
4
-21
-10
-11
1
-20
10
-7
5
7
2
2
-4
13
-9
-3
27
0
-1
2
6
1
-3
4
-3
-5
2
-5
-2
-16
5
4
4
5
-2
-1
0
3
-1
2
7
-5
2
0
-1
4
0
3
-2
-2
13
5
27
-12
-1
3
2
-4
20
-2
9
3
13
-6
15
-14
-2
3
2
-8
-2
8
27
-7
5
17
7
-19
-22
-11
8
18
17
-5
26
21
-12
-9
-7
-22
18
-14
10
5
-6
-9
1
-12
4
-4
12
-2
-8
8
2
10
17
12
11
1
7
19
-2
-9
3
-13
-6
-12
-5
-4
18
19
26
9
-5
-18
-18
-15
-1
8
4
-15
-62
11
1
6
-30
4
20
11
-12
8
16
-44
-85
-53
-127
-9
-14
-6
12
40
-1
4
-5
-17
-17
-18
56
-22
67
-80
-57
53
-26
34
11
104
-12
14
-2
13
-36
-39
3
-16
-2
22
-11
-12
-4
2
13
-7
-20
-47
-4
18
-17
27
8
5
8
-16
7
-5
-20
-36
-21
-6
13
15
-5
11
-59
-38
25
-20
4
-44
1
22
13
-25
-5
-13
-37
95
1
24
-22
-13
13
-13
-4
-74
1
-39
-12
-3
-19
0
2
49
0
-33
-50
67
-7
33
-7
10
-8
-6
-14
-8
7
-1
-8
-5
-4
1
0
0
4
-4
-4
17
1
-6
-3
-5
3
-4
-45
-6
-24
7
8
14
7
-4
-2
0
-17
-16
-11
-37
-7
-56
-3
0
46
-17
23
0
-21
4
7
-21
10
-8
-14
8
0
1
-10
8
-1
-15
2
-6
0
18
-3
-6
-9
2
-3
-10
6
0
-2
-1
0
4
-4
-2
0
-10
-9
8
-4
-2
2
0
0
0
2
2
1
2
-2
1
-5
-2
-108
-6
15
-2
63
-4
-16
14
-36
2
7
-22
40
-31
-18
-127
-16
8
124
-41
40
2
-48
6
18
7
14
-2
21
14
14
3
-32
-1
19
-17
0
2
-11
23
0
23
-48
-7
67
-10
24
-4
4
-8
3
-7
17
6
2
-5
-10
0
5
-12
-3
-6
-9
-7
2
-7
7
3
6
4
3
2
-53
7
9
4
13
-2
7
-4
-4
-10
-20
-22
-31
-39
-10
-52
-11
-7
51
-25
23
20
-23
-4
16
14
-7
-9
-6
8
9
-2
-9
-2
-16
-3
-2
10
-2
14
-2
-10
4
-9
-3
17
-7
-3
0
-1
-8
-3
2
2
-1
-2
-3
8
-8
-6
2
3
1
4
-4
-6
2
0
7
0
-2
4
-9
12
26
14
-30
18
14
-6
-7
8
-13
-7
-4
18
-10
12
10
31
2
-7
-11
6
-1
22
-5
-26
15
1
23
28
13
50
-6
-7
-4
0
25
-2
17
6
28
127
-11
41
-16
10
-27
-58
4
-37
-4
-5
31
39
20
21
-18
-35
-23
-2
0
-22
-3
-8
1
110
-15
19
11
3
9
-52
-6
1
-28
3
-20
-9
-6
-8
-11
3
6
9
-19
14
-5
-4
-7
-27
4
0
-3
12
-3
-13
-43
24
61
20
4
19
2
-33
-76
27
33
-22
-29
57
-31
-4
-8
17
-6
-35
-40
25
-27
1
-15
25
38
16
26
41
-14
-25
-22
-9
24
-21
-32
-2
-21
1
0
10
-8
-21
-20
6
-8
-4
0
-4
-3
4
1
-15
4
9
-4
14
-4
-2
-4
3
-8
2
-1
-18
-6
-1
-6
4
0
-10
1
2
-2
7
-8
4
10
7
-33
19
5
-4
-2
13
-10
2
12
-35
0
-5
-13
22
-11
-6
6
-5
1
2
-15
8
-3
4
-18
15
8
-7
4
-4
-18
-3
-8
-27
-10
-2
-11
8
-3
-10
1
2
-7
12
-1
-16
2
-9
-3
13
-5
3
3
-4
0
-4
2
-4
1
0
0
-1
7
4
-5
-11
4
9
3
1
-2
-6
-9
4
-3
1
4
-6
-19
1
-7
7
-2
-2
-12
-10
1
9
-3
0
-6
2
-1
-11
-4
-2
-2
9
-2
-5
7
-2
1
-5
2
1
0
3
-7
3
1
1
-13
-18
-9
-3
-14
2
-12
0
5
-6
10
-2
-9
-13
-6
2
-3
6
-15
6
-11
3
-4
-3
-45
-42
-1
-32
14
3
-19
16
-127
53
102
11
-4
-19
7
-30
-44
29
-68
-5
-6
-44
-11
19
-5
-25
-9
-9
-1
-1
-10
-1
-5
-5
9
-6
-2
-12
6
-13
-1
12
-9
8
-21
1
-1
-5
6
16
17
20
-16
-7
-2
-11
-5
-12
14
-19
12
-5
1
-6
-4
9
18
4
-5
-2
11
0
18
126
11
63
-14
-2
32
29
-1
-29
23
-32
-3
5
19
6
31
22
57
-11
-10
13
28
-26
4
10
4
36
7
-9
3
-12
-7
-9
12
-12
16
2
1
-6
6
3
10
3
-13
1
16
-3
4
-2
-2
-2
-7
-4
-9
-6
-4
2
-7
-3
-5
-4
-8
-4
0
3
-4
4
2
1
-3
-2
-14
-20
5
-16
2
10
24
11
10
2
-10
-5
15
0
-16
2
-13
7
-6
-5
-10
-6
5
-1
35
0
-10
1
-68
-14
-34
5
-10
12
-1
-20
-17
-2
22
-8
12
6
15
12
8
14
-7
0
-10
-6
1
1
8
9
-20
0
-9
-8
-2
3
16
10
-2
5
0
1
3
-1
-9
-1
-4
-3
-10
-14
21
-6
27
14
84
15
-35
-3
25
-5
31
12
-18
21
-6
10
-20
-14
7
-4
-8
3
49
3
2
4
-127
13
-54
3
-16
10
8
-46
-38
-14
19
-15
24
4
22
10
14
16
7
3
-2
12
-11
2
7
4
-5
-5
-5
-9
-10
-3
-3
7
-4
7
-1
3
-4
-1
-2
6
0
2
-23
19
-1
4
11
6
42
5
4
-17
2
1
4
12
-11
9
-9
1
-6
-21
-14
9
3
-5
20
11
-6
4
-86
-16
-48
-8
-5
14
-2
-31
-16
-10
19
6
5
4
6
8
-4
12
0
7
25
14
8
2
12
-7
9
-4
1
8
-3
8
-39
18
-1
-3
-9
-3
-7
1
-3
0
5
-7
36
-9
-9
-7
-31
-28
10
12
-19
13
5
-17
4
-1
17
3
6
-11
-59
18
-57
2
38
10
-5
-13
-4
-9
-9
10
-5
18
-8
-12
-1
-2
-2
-6
2
-9
2
6
-2
5
10
-1
-4
9
17
-15
-9
17
6
-13
25
-5
-5
9
-6
6
-44
-16
-1
-5
3
-7
-33
16
10
-15
2
-2
78
22
22
15
-47
-17
14
-2
-2
-22
25
-24
25
20
24
10
15
-3
-67
18
-127
31
-3
13
-12
17
0
6
10
18
0
2
0
-44
5
-11
-5
-6
2
20
-3
21
6
-7
17
11
-6
-2
12
-5
6
6
13
-7
-5
-6
-6
9
-6
13
1
-2
1
1
9
13
-18
10
2
-14
3
4
19
-7
-1
4
-14
-36
10
0
-8
8
-9
-24
-8
0
2
4
3
-4
-38
2
-13
11
34
-4
-6
5
-5
-2
-6
0
-4
4
-3
-6
-2
-2
-4
0
0
-1
0
-5
3
-6
-4
1
0
-1
-17
-5
2
-12
4
12
8
32
-13
-32
2
-5
23
-3
10
10
14
-9
-9
-11
-9
-6
-9
-3
11
8
-19
-15
-72
-19
-22
8
6
-3
-7
-11
-38
-35
32
-27
0
-11
-18
17
22
42
-14
17
-2
6
7
-3
-14
-54
4
3
6
31
-3
19
-9
12
-6
13
-7
5
-3
4
-9
-15
-3
-11
-1
20
3
0
-1
-38
94
-9
-36
-59
-43
-24
29
23
17
23
3
-14
41
36
-6
8
0
-5
24
37
14
50
-96
3
-45
-16
54
-43
-117
-108
-127
-69
56
-21
-3
-3
-3
48
57
39
-14
-35
-32
-43
37
-18
-48
-56
-8
10
15
43
71
37
-24
-2
-5
15
4
5
-20
12
-63
1
-29
12
20
-56
-19
-6
15
-71
-39
0
-7
18
-29
22
-12
-29
-4
-6
12
-10
5
10
-3
10
6
-3
-3
-127
17
-10
18
-78
24
7
21
21
6
0
45
59
-8
-16
4
-23
-14
25
-40
-5
4
-15
7
47
0
7
19
-11
24
13
-11
0
18
-18
3
-9
10
-8
-18
3
6
-1
23
20
17
5
9
-17
-3
-10
-21
26
-13
-20
-47
-4
21
-1
62
-39
22
9
56
43
-56
9
18
-34
5
-8
6
-18
-2
2
-1
40
14
-22
-16
-11
17
1
70
1
-10
26
77
24
28
-33
53
-6
-11
9
-15
-47
-8
-24
-7
29
5
14
-51
-24
24
-3
41
-71
28
-5
42
36
3
9
14
-20
-5
2
-50
56
-16
21
-4
12
12
2
-29
-25
105
-32
58
12
82
-76
-123
22
-117
106
24
-40
-33
-28
-120
25
-54
26
13
-45
84
-2
45
-72
41
-57
40
40
96
-13
-91
-41
-75
90
68
-20
-47
29
-98
50
-13
-1
8
-2
-1
12
-28
-26
127
-16
47
11
62
-47
-86
19
-74
62
38
-9
-24
-8
56
2
12
48
-11
40
-9
-31
-53
25
50
-28
37
50
49
-5
-27
1
-15
89
12
98
2
13
58
-80
-48
11
-19
4
52
-23
-8
22
15
20
60
39
112
26
-22
-18
101
123
71
101
-11
-8
-2
1
38
13
-17
28
-12
-33
-43
10
82
-33
11
42
38
-32
-62
27
18
61
71
95
15
24
-2
14
-16
1
5
-32
-44
1
0
0
-14
0
-8
6
-5
2
2
-14
6
-3
-1
-1
9
3
5
-3
-6
10
-4
-27
25
3
-2
10
9
-23
-3
-9
3
0
0
-8
6
7
-17
5
-24
2
-3
-6
0
-6
10
7
4
5
-4
-4
0
-1
0
-4
2
-6
-5
3
-2
2
5
-4
0
-4
-4
-26
-13
-10
-21
4
67
18
2
-39
7
12
7
-32
5
20
-2
13
7
22
-7
-13
4
6
-125
-21
-6
14
-22
-37
60
-11
-13
-5
23
-54
-31
11
-16
0
8
8
14
-4
-48
4
127
-6
5
2
-1
-13
7
1
6
8
-3
10
-8
27
-3
5
0
-8
-2
5
1
-5
1
-5
13
-3
-7
1
4
-8
-7
0
7
5
1
-9
-19
11
-4
-6
-1
3
-8
-4
-6
-2
1
2
-5
-5
-21
-11
5
0
-13
-42
29
-5
-19
-8
-10
-25
-1
-9
-11
-6
4
-10
8
6
-22
5
27
1
3
-5
-6
-3
7
8
0
7
-3
2
-5
6
2
0
1
-9
-3
8
-3
-1
3
5
2
-2
-6
0
1
-1
-4
7
1
5
3
3
-2
4
8
8
-3
6
-3
2
-2
-1
0
0
0
-3
-14
2
-1
-1
-1
-6
5
7
4
-6
-4
-7
-7
-5
8
-11
-3
-4
7
-4
-12
2
10
4
-4
-6
4
-2
6
-7
1
-5
-1
3
-2
9
-1
0
1
1
1
2
-5
2
8
-3
0
2
-6
9
-7
0
-1
-16
-6
-3
-3
-8
-6
4
19
29
1
12
1
1
-1
0
16
-5
-9
-6
-92
7
2
6
19
-25
5
-8
38
0
-52
-26
-18
-19
2
-71
2
-16
127
-13
-21
10
-30
-48
-13
4
-1
0
13
-33
6
-4
-1
-3
-12
-11
-1
2
-3
-5
0
-9
-3
11
13
-7
-1
-4
5
-9
-4
2
-6
-24
-8
4
3
-6
2
-14
-26
-15
6
-11
8
-4
1
11
-5
-3
8
-8
59
-52
-41
0
-15
-14
10
3
27
-30
1
-33
13
9
18
77
18
-12
-101
51
30
-59
7
-9
18
-35
-5
-6
-24
-33
-2
6
11
-3
-1
-16
10
-6
-3
-18
0
-18
0
4
3
-9
5
-7
1
2
-9
5
-9
-18
9
-4
-3
-1
9
2
-19
9
-3
4
2
0
3
5
0
-1
7
4
37
-12
-4
20
-21
-14
-6
-17
2
15
25
-3
2
-15
-24
1
7
10
-18
-8
1
-8
-10
-19
0
0
-7
13
-11
-20
3
-8
2
-5
4
-7
-4
1
-8
1
-4
-1
4
-1
-5
3
4
8
-3
17
-5
10
27
-16
-18
13
5
27
-5
-34
-4
29
-2
2
-37
-3
-4
-14
-10
-3
-9
-15
-56
-57
-62
-36
13
30
-2
-46
127
-107
15
-90
27
1
-72
13
17
27
31
-62
-93
70
12
-5
5
17
-4
7
16
-15
-9
-3
9
38
-3
-12
0
4
-11
-19
-31
-2
6
-30
-9
3
0
-9
-5
4
11
4
0
-23
13
5
-3
-3
15
-4
-11
5
-7
7
-7
4
3
-14
-4
5
-3
7
28
-22
29
-2
2
-19
4
-8
-7
11
-2
-19
-7
4
-18
12
-1
13
-30
-17
11
-6
-20
0
-4
2
6
7
-2
-26
8
0
-6
7
6
-4
-2
4
-4
2
-7
0
-2
-7
-4
4
2
5
13
2
-12
-5
-1
-32
0
-2
-4
-2
-12
-1
-24
-8
6
-7
-7
-7
3
-1
6
-3
0
-2
-20
17
-4
-4
-13
-13
-1
16
13
-19
-8
-7
0
3
9
-3
12
-5
-17
7
-13
6
-7
8
-2
1
-4
-5
-3
-7
-3
1
-1
-2
-5
-7
-2
3
-2
6
4
-11
-1
-8
-1
3
1
0
11
-48
5
-21
-13
-36
-39
-2
22
12
49
15
-73
-52
-7
-6
36
-1
-31
-13
-4
42
-6
-3
-16
84
-2
52
-5
-14
27
8
57
-79
-83
-58
-27
11
71
-22
-49
-3
16
69
-72
-53
2
-7
-4
11
2
5
-5
-32
5
3
3
6
-6
-9
-2
4
5
-9
-2
-6
-9
4
-26
-7
4
1
0
20
5
18
10
-20
24
4
2
16
22
-13
-5
14
13
-17
-12
5
11
8
-7
-3
0
-4
9
-127
12
1
4
-30
-4
-17
0
20
-17
4
3
-1
-3
4
9
-22
-18
14
18
53
-6
9
-2
-18
16
-5
-14
-30
0
12
4
20
5
-4
-4
10
3
10
-4
-4
-5
-4
-5
4
4
-2
-21
-2
-3
-4
-7
-30
13
-1
-2
10
9
1
-7
16
26
-14
37
-30
-12
33
10
7
6
3
-49
13
-19
1
-6
-44
21
9
6
28
-1
-11
-17
65
44
-62
127
-49
-33
48
10
5
-6
47
-11
-2
15
-12
-16
-22
0
5
5
9
16
7
5
9
16
-1
-4
7
-6
23
-4
5
1
-10
-3
-6
-33
-5
-11
-9
-2
2
-17
-3
1
-4
27
6
-13
-2
4
8
0
-7
-12
-3
-7
-52
23
-6
-65
6
1
-17
0
11
12
-17
-2
1
10
-22
11
-3
0
48
-3
18
27
14
13
-116
-6
2
1
5
-31
-26
0
-18
-4
13
7
-15
1
6
-6
-17
-1
-31
-9
-15
-16
5
-2
13
-4
0
11
8
6
0
-2
-3
-3
-13
-7
1
1
-9
1
4
1
-12
-4
-1
-7
-4
0
-3
-4
22
15
0
9
17
3
-1
-10
-17
-3
2
-11
-6
0
11
0
-1
2
-10
-2
-3
2
5
-2
-6
-2
-4
-10
-13
-2
1
1
-11
-19
-2
4
-2
1
0
0
-14
-2
-5
3
5
1
-8
1
-2
-6
0
0
-4
1
2
1
-3
-3
4
0
-5
-6
6
-6
1
6
-3
-4
-3
0
3
-5
1
-5
6
-4
1
-2
4
-2
0
-3
-2
10
11
11
-6
-4
-4
-7
7
2
3
-2
2
0
-3
-7
-2
-3
1
0
5
1
-3
-5
0
-1
-5
-3
13
-8
0
3
-8
-2
-1
2
2
-7
-8
6
-3
9
-16
5
-9
0
1
1
-1
-5
-6
8
-3
3
0
-5
8
-3
6
-2
5
46
-16
16
25
-14
-16
-10
-40
-4
14
14
10
9
-27
-16
33
-127
1
24
-6
-14
5
7
-1
-5
-5
-1
-8
-7
-11
2
0
0
3
0
-1
-5
-5
2
1
2
2
-6
2
2
8
3
0
5
-3
-2
1
5
-34
-9
0
-1
7
1
-3
-17
3
-1
2
-1
-5
7
-5
1
13
2
17
-15
-43
-123
20
-2
-3
9
-2
56
-38
2
-33
-6
2
-16
12
-13
-32
11
27
-10
-70
-7
51
3
0
12
7
-4
-32
1
1
2
13
3
-3
-2
10
-3
-2
2
-8
0
-1
-20
9
5
17
3
-5
-9
-3
4
2
1
14
-2
2
11
-1
-2
0
5
-6
3
-4
7
5
-6
-7
0
3
25
-6
-36
-10
-34
-10
-19
20
-8
2
-1
-14
-40
-38
20
-11
0
4
-5
17
8
-10
7
0
-7
22
20
-9
-23
-53
5
-4
6
12
-9
17
15
11
-3
-5
-11
-7
-9
-3
-13
6
-12
11
-10
3
4
-5
-5
9
5
6
9
-27
17
-13
10
5
12
-11
-22
11
-17
12
3
-20
-12
-6
-29
40
-12
9
-46
-25
-38
54
50
-40
51
-28
-66
-64
95
-70
-127
28
-51
63
3
-36
1
-19
28
-31
33
-21
-58
-59
-7
-28
9
25
-14
-19
9
0
-35
9
87
-18
32
-19
-101
43
-13
22
15
9
0
7
-19
-19
-11
0
-22
-13
-21
-8
-5
-9
9
7
9
-1
16
-3
-5
29
5
3
10
25
13
27
-34
-31
-19
9
-10
2
-70
-26
-10
-23
22
-2
1
-9
24
12
-22
95
4
25
-1
-22
24
-25
-40
-30
-5
-1
1
40
55
11
-1
14
-5
-20
-11
20
-20
17
-2
-54
-1
-22
-6
-5
-2
8
-7
-24
24
-5
-8
0
3
20
-21
10
8
-24
10
-19
31
0
9
13
15
11
-23
-7
1
-2
-15
-10
8
11
-2
-8
5
-6
-7
-23
-5
18
-3
-6
-27
7
4
-2
-8
2
-2
-1
0
-7
-13
8
2
6
1
-15
-2
-1
-1
-4
-3
-3
-6
1
-2
-1
3
1
-6
3
17
-13
-4
27
-40
-35
41
-22
-29
27
5
19
-65
-8
9
-50
16
-21
58
18
-28
19
26
15
-55
4
19
20
-28
-18
19
20
-1
-42
11
-41
-14
-16
46
127
28
4
-39
56
34
-15
-21
-5
9
-1
-1
-4
1
21
6
-5
-4
-34
-2
-3
-3
-9
0
-4
-6
7
14
-2
13
2
4
-6
-4
-5
-6
12
-9
-41
10
-8
-5
22
4
16
-9
3
5
-22
14
-1
24
6
6
7
9
14
-23
18
10
10
-14
-17
4
1
-12
-17
11
-18
-20
-14
-6
30
3
4
-26
-10
1
-3
-11
-9
-6
7
-6
2
-6
17
3
-2
-6
-18
-2
-5
-6
2
-3
5
-4
1
0
-4
0
6
0
0
-6
-2
3
3
-40
-9
-11
-9
-8
11
5
1
-7
-6
-13
15
-6
-5
5
-6
-10
3
0
-6
-21
-20
11
0
2
3
7
-11
-8
9
-2
-2
38
20
-15
13
6
4
-9
-12
-4
-9
-10
-15
9
-8
-5
-6
-7
25
4
34
-8
-13
6
-13
4
-15
12
-8
24
8
6
3
31
11
18
9
-17
0
-5
22
-56
-14
-3
-13
-17
13
13
8
5
7
-23
24
-3
3
12
-4
-18
2
-5
-2
-50
-23
-1
2
-5
0
21
-20
-127
30
-1
-25
59
79
-50
54
19
-6
-1
-9
-35
5
-58
-21
12
-12
-11
-9
11
-4
5
37
-5
-43
-5
-39
8
-12
42
21
8
0
9
23
43
43
34
18
-6
-5
8
7
-15
-20
0
0
-4
7
-4
-5
4
-6
-16
11
-4
-3
0
-5
-3
3
-4
-5
-15
-18
0
-6
-21
-31
-15
-6
-13
9
-22
-9
-2
1
5
-2
-1
-17
0
9
5
-6
5
-5
-6
4
14
0
1
-40
-7
-9
-6
7
-22
-6
17
19
21
8
5
10
10
-2
-12
1
11
2
-12
-2
-2
2
-2
-18
-10
1
1
-2
2
-4
10
11
5
-3
8
-7
-10
10
2
5
2
0
-43
24
-12
9
6
-5
10
25
18
-32
-10
-9
18
8
67
-12
-127
6
-51
59
6
-26
-23
32
-13
4
-10
6
1
-9
3
-2
7
3
-6
6
8
-5
8
-13
-7
-3
-16
9
11
2
-1
-1
2
-23
-6
5
-4
-18
-8
-1
2
-1
0
-7
-6
-7
9
-11
-14
-5
-10
11
-2
-13
-5
3
-22
-76
-2
-12
10
-32
-10
-14
-4
11
-33
-9
0
-19
3
-4
-10
-29
-10
2
-16
51
-3
18
0
-18
-2
-6
-9
-23
-5
5
0
-1
-11
-16
0
3
4
-3
-8
-13
-7
4
-7
-6
-5
2
1
-1
4
2
1
3
3
1
-1
-2
0
-1
1
-3
5
-3
-3
-4
-1
6
4
-1
-1
-4
-4
-4
8
1
1
-3
5
-4
-4
2
8
-3
3
7
-5
-3
10
-1
5
-6
-1
5
1
2
-1
-2
7
-3
0
1
1
0
-1
2
-1
-2
5
3
5
-1
-6
-5
3
8
-1
-6
3
-4
2
3
-5
0
-3
-4
-5
-3
0
1
-2
-1
1
-6
-7
6
2
1
3
-5
-3
-1
-2
-4
-6
1
1
6
-8
-4
-5
-8
-1
-3
0
-4
1
2
14
-18
-1
3
0
12
8
-6
-2
15
2
0
-2
0
-3
-6
-2
-7
1
-2
-1
-2
-1
-7
-1
4
1
-3
4
-5
1
-2
1
-3
4
-6
2
3
10
-9
5
-4
4
4
6
3
-26
5
1
2
3
1
5
5
1
7
0
-34
-18
6
-39
2
-1
4
17
-8
38
-32
5
-44
-3
7
-45
14
-10
13
-3
-28
-28
-44
-9
127
-1
-4
2
6
4
-10
5
-4
5
11
6
-2
-6
6
-7
0
3
2
2
0
-8
7
-2
-13
1
6
6
-1
-1
-11
-1
5
1
3
-3
-2
-7
-7
1
1
2
-3
0
0
-1
4
-2
-3
-3
-11
21
-5
1
-7
-1
-4
1
11
-9
-4
-8
-12
1
3
-7
-15
-11
5
-5
1
-1
21
-2
-1
10
0
0
-15
-1
0
4
7
-4
0
0
-1
1
-1
3
-14
-5
3
-4
-1
3
0
-3
-12
7
8
2
0
-7
-16
-10
6
4
2
10
10
-3
2
8
6
3
5
2
3
-13
-4
-9
-16
5
0
-11
14
0
-12
-9
11
-9
-2
8
12
7
9
9
11
-5
11
-4
-8
-2
4
-15
-15
5
19
56
-9
0
-27
1
-38
14
-9
37
-11
-18
6
2
1
-35
-17
-55
8
39
7
-23
-10
0
5
7
3
-27
-16
-51
30
3
-18
9
22
-23
1
1
-1
8
-1
-4
-1
-19
1
-11
-26
4
-9
12
14
-13
-11
-39
28
0
-9
32
36
-6
30
-1
11
18
13
-12
-24
-26
-9
2
-18
8
22
127
-21
60
-5
-33
-72
32
-16
75
-41
-51
4
-26
4
-60
-33
-46
16
78
-3
-10
6
-7
2
3
5
-3
-1
-6
17
-4
-6
6
1
5
3
1
-6
1
-11
-1
-10
-12
1
-1
8
-7
2
-10
27
8
-6
-5
12
-14
-6
1
15
1
7
9
-13
-1
-2
3
-5
-11
-1
0
19
12
25
88
-19
18
-12
-22
-46
-7
-17
33
-24
-23
11
1
-9
-51
-29
-53
15
52
5
-9
-1
11
-8
6
-5
-12
-2
2
1
4
-1
-10
11
6
0
1
2
4
19
9
8
-8
1
29
14
-29
4
23
-33
-40
-16
17
29
-16
-31
-12
-6
0
-6
17
-13
-12
2
10
-3
-68
7
32
13
-14
9
-2
-48
-3
-15
15
27
-22
-4
18
14
-6
-54
-1
-38
-9
11
-21
8
4
1
5
-10
24
15
6
-19
-1
-28
-4
44
-1
13
-62
-13
-2
-17
10
-8
-12
-1
-3
-4
17
11
-92
-73
-54
15
-59
-11
109
2
-20
-29
26
-34
2
25
16
17
28
-2
51
54
-103
-12
117
-6
-103
-41
-45
24
-48
-4
44
-10
39
-87
7
-85
-17
-76
-11
68
-4
0
10
2
127
-1
-39
-14
-1
-5
5
18
13
-14
-14
-6
2
23
1
-2
0
9
2
3
12
15
-1
5
1
-14
-8
6
10
-50
-22
0
-6
-44
-23
-13
5
31
-31
-32
0
-39
19
0
15
-17
2
28
-1
13
-23
-8
15
-22
0
8
6
-51
5
1
18
13
-21
1
4
-2
7
-25
-10
-29
5
3
1
16
-1
-4
-30
-1
-8
0
-26
-3
9
5
1
-6
1
-26
-13
-16
-4
70
6
-6
-31
5
4
-9
-3
-1
5
-17
1
0
0
2
-2
-4
0
11
-11
-9
6
0
-7
-12
2
6
0
-7
-1
-8
4
1
1
-7
-4
1
5
-5
-2
-5
-1
6
-5
-8
0
2
-7
5
-2
6
3
3
0
-1
-2
0
-24
3
21
-6
-33
4
-2
8
-28
-12
27
-40
12
19
-9
127
18
3
-93
13
-7
-20
12
-13
-7
-7
8
-3
41
15
1
-6
5
12
3
-3
8
-7
-9
-3
-4
13
25
-25
29
1
-4
-1
2
-8
1
-3
20
2
-7
3
-9
-5
1
0
-5
-3
-6
-17
-2
-8
1
1
5
2
6
-4
-25
7
9
3
-21
-9
8
6
6
-13
1
-26
-28
-19
-6
53
7
-1
-34
0
-1
-4
-3
-8
-4
11
-12
4
8
7
2
-7
-1
10
-6
-6
-4
0
-9
1
5
-13
12
-20
-5
7
1
0
-4
-1
-7
0
4
3
3
-5
-1
-2
-10
-5
1
7
-5
0
-4
-7
2
-1
0
1
-1
0
-1
1
3
3
-7
-3
-7
-4
2
-4
-12
0
10
0
1
4
-7
20
-3
-3
1
1
-1
0
4
-3
3
-10
20
0
3
14
3
1
-21
6
4
-11
6
15
-23
27
-7
3
-7
1
-8
-12
-1
3
0
-1
1
-10
2
-1
-3
-6
-6
-7
-5
4
2
-6
3
12
-3
5
-5
3
2
0
-4
-15
7
12
-11
22
-15
10
3
-15
5
-8
29
-6
5
-2
-15
13
8
27
-1
2
-3
-13
20
-46
8
12
13
38
-8
40
-1
-29
14
-4
23
-19
66
0
-54
23
32
66
12
-8
21
-16
2
-16
4
8
0
22
2
2
0
-25
9
-10
5
-14
13
-8
-13
4
-1
22
2
9
3
-6
4
22
0
15
9
10
8
-19
-7
8
2
-6
-51
25
-4
-10
-4
5
1
-12
-1
8
8
7
-26
95
85
9
15
25
0
-54
-127
46
-16
-20
-60
52
-46
-30
-13
16
-30
-94
-20
50
2
-35
2
17
-14
6
15
14
1
-9
-16
3
3
-5
-15
24
-4
5
4
-1
3
-4
-24
12
8
6
7
-9
-3
-5
-4
1
4
0
-5
-1
-12
0
-5
-3
-3
-8
2
3
1
0
3
-3
3
3
16
-12
4
-6
-38
0
17
19
-29
9
15
-12
0
-37
5
-19
-13
4
1
8
-3
7
-27
9
-95
-22
-24
5
-24
-37
25
-10
-20
9
-11
13
-6
11
-19
-5
-8
-11
22
-8
-21
-13
89
-9
-2
-7
-3
-10
9
1
6
5
-7
-27
3
2
6
14
1
15
2
-1
3
-2
-2
-1
-1
1
10
8
26
-2
-11
18
44
32
4
-14
42
-13
9
12
3
1
0
21
8
5
18
6
-39
-1
-124
11
3
7
-66
-44
-55
-15
-46
17
-8
6
-19
-27
-27
-19
-14
13
36
-24
3
-5
127
-17
8
7
-5
-5
6
-5
8
2
-7
-12
-11
-4
2
2
-5
0
-4
-6
3
2
-2
7
-3
4
11
11
4
-8
-23
-5
2
2
-7
4
-9
-13
-24
-1
5
-11
0
-12
1
-8
-3
17
-11
3
-78
-4
10
8
-21
-45
30
-16
-7
2
-26
2
3
-12
-23
6
-9
10
23
-11
-35
-2
50
-18
14
-8
-10
-6
-47
-15
-11
7
-14
-20
1
-5
34
12
7
-47
0
-16
-18
9
-56
7
2
-1
25
-17
7
-9
-4
7
8
7
5
19
-10
-10
-1
-19
-14
20
-8
20
-7
-19
-15
-3
9
-4
5
-7
-5
-1
5
-1
3
-4
-4
2
-8
-5
-3
2
-8
1
1
11
-1
4
6
2
-4
-1
13
10
18
-10
-100
-18
-29
19
-20
-33
28
-31
68
27
23
-63
6
-2
-42
17
-127
-17
-5
-13
15
6
22
-13
32
29
28
7
-6
14
8
-22
23
5
-35
51
-13
20
-24
-45
24
-2
7
-8
-4
-15
-2
-14
38
-6
-10
-5
-33
8
-1
-14
-14
-9
-21
-27
-8
-8
5
-17
17
3
1
-3
13
0
5
1
-41
-33
-3
10
5
-13
-3
-21
22
2
4
-64
0
-5
-9
5
-56
-5
-6
1
1
24
-17
-1
9
17
20
-1
13
-3
-4
-3
-7
2
-13
26
-7
-6
-1
-29
-13
15
3
0
-3
0
-14
0
12
6
9
-9
8
-2
-9
-8
1
3
-3
0
-2
-15
0
-1
8
7
-4
3
-16
44
-35
-11
32
-65
39
-2
-7
1
-28
-11
-45
-1
-24
-60
44
-35
-19
-64
-19
10
-6
77
-29
70
-44
1
-68
-91
27
7
-27
18
-15
-32
-12
34
-59
-30
100
-44
-64
-79
-26
-7
-8
104
-47
53
-21
12
-55
-58
-14
-6
-8
11
-25
-6
-22
24
-26
1
65
-8
-16
-52
-3
0
-10
82
-23
-20
-103
9
-33
-19
-20
8
-57
17
-13
-31
90
21
-9
20
3
-19
-18
24
-13
-17
-5
-3
6
4
-84
-19
43
4
-14
61
51
5
-13
-19
97
-20
0
3
24
45
56
-6
58
19
-19
51
3
-35
-127
-4
3
-14
21
19
-18
-10
-30
-34
25
-48
-2
-58
-11
-12
-9
5
42
13
0
-14
-8
4
-8
-11
-30
-4
-13
0
-12
-12
-8
-12
14
28
10
22
-7
14
-5
-3
-14
-8
-11
-3
-6
14
0
-7
56
33
-2
-5
-7
-17
-34
-1
-14
22
-5
9
-3
12
9
-26
3
20
-11
-13
0
9
-21
-9
14
7
14
-6
-13
-15
-14
-13
-5
-11
-3
-17
-5
24
-10
-7
-2
9
-2
8
10
7
4
-3
-6
-11
-3
-11
-8
-9
-4
2
-4
-15
-1
1
4
-3
3
4
-3
-2
-7
3
-6
-1
13
5
-12
11
8
-1
21
-18
3
-18
16
17
0
-6
-3
-7
3
-5
-12
11
8
1
5
13
-2
-2
-9
-15
4
2
12
16
-2
2
17
4
-9
-24
-13
-8
-27
-4
-19
2
-27
-2
5
-4
-6
8
-1
-3
-17
2
4
-6
0
12
-9
3
5
-6
4
-3
8
18
2
3
-14
3
20
-23
7
1
-34
9
33
25
-85
28
32
-45
27
6
17
15
15
10
33
27
-25
-19
-127
12
-20
11
0
10
-33
-32
6
-10
18
18
-6
21
7
-25
-10
-31
-33
-3
-42
-26
-106
-16
-24
-19
9
7
0
-1
2
4
-11
-5
0
-2
-2
13
-8
0
5
-8
4
-2
9
5
4
-3
-12
-1
29
20
7
19
-49
17
2
-3
-36
4
21
-25
3
-9
9
4
17
23
6
-2
-23
13
-116
-2
5
16
1
15
-25
-46
20
-6
16
19
-23
34
6
-7
-20
-21
-5
2
-34
-5
-72
-17
-30
-9
9
0
6
-1
-5
-27
-1
2
3
0
3
-5
1
-1
-11
-10
3
-16
5
6
-11
1
-4
-2
7
13
-4
-4
-9
-4
-1
13
23
-10
-18
2
2
-5
22
-1
-8
3
-11
25
-5
-4
1
-3
8
2
4
8
-5
-18
-3
-6
3
0
-11
0
-7
2
-5
-2
2
-7
-2
0
1
-4
11
3
28
-13
11
7
-7
-35
-5
-5
-4
-5
-10
-21
-27
3
7
-14
6
-5
21
4
-28
-22
1
-7
127
44
8
67
5
-19
-12
-6
109
-54
-103
-73
-13
15
55
36
65
6
74
42
-6
-68
54
-23
11
4
7
0
-10
-31
-5
-1
12
-4
-13
-18
-20
-3
-15
-5
-5
0
7
-7
-17
-14
5
-10
0
-19
-7
16
-6
-20
4
9
-3
-11
-18
-5
10
12
1
29
9
-12
5
11
15
5
6
-9
-55
-123
-18
-41
21
-25
34
-10
5
-12
-12
-25
9
5
-36
-8
-18
-33
29
16
18
-110
-41
-16
-1
-22
7
0
-6
-25
15
14
4
9
-22
-24
5
3
7
10
15
-17
11
7
3
15
10
-11
14
0
-16
17
-16
-26
0
-8
-3
16
3
6
-67
-21
1
-16
-10
-31
-15
-14
1
-2
-3
-4
18
-10
8
-20
-66
-25
9
40
-19
-15
13
-4
19
-3
1
-12
1
7
6
22
-52
-2
23
12
-10
-9
-11
-6
-19
8
3
6
-11
-13
1
-2
-11
6
6
3
6
11
-9
-3
-4
0
8
8
13
0
-26
-6
-8
-58
-67
-30
21
16
-43
-20
-127
-76
-38
-43
19
-23
-54
-54
0
28
3
33
-6
31
51
-50
-74
-11
10
61
33
-36
89
14
8
-26
50
-37
-67
29
48
22
-70
-12
74
-31
3
-8
4
-10
15
54
-1
-3
-1
-35
31
19
-10
-7
23
-11
-9
28
-16
18
23
-9
1
-25
12
-18
-13
3
-12
-48
-23
-15
9
36
-26
1
-70
-56
-2
-39
10
34
-36
-9
-4
-19
-27
-10
20
59
57
-4
-54
-26
5
9
-23
-50
-6
-27
0
3
10
-29
-4
1
19
-19
-76
69
29
2
6
18
3
13
-15
13
1
-17
-18
-34
-18
-5
-6
-3
0
-1
-3
-21
-9
1
3
25
11
-2
