// per-channel right-shift amount
40
41
40
41
41
40
41
40
41
40
41
40
40
40
41
41
40
41
40
41
41
40
40
40
41
41
40
40
41
40
41
41
41
40
40
41
41
40
41
41
41
40
40
41
41
40
40
40
41
40
40
40
41
40
41
40
41
41
40
40
40
40
40
41
