-21
-23
-1
6
28
2
2
-31
-6
15
5
22
18
6
17
-6
6
-6
-37
19
-51
11
-8
-54
25
27
29
38
27
23
21
23
-14
-24
-7
1
6
-20
25
-68
-3
14
14
-7
2
8
49
-36
-7
-2
-30
30
-38
-63
36
-45
-2
-1
23
-5
-20
-1
0
-12
-13
33
-13
10
11
-20
-18
-6
50
26
30
18
-3
-9
19
2
47
-32
-5
7
6
-11
22
11
-5
11
2
23
7
2
21
17
1
-23
-27
-3
-24
35
13
-60
4
-4
41
43
19
11
20
-49
30
1
17
10
-51
36
-2
-10
23
-4
-4
22
8
-39
-51
-14
12
-40
-13
-9
-16
26
34
-127
-51
-8
25
-15
33
8
54
-96
12
19
3
4
-59
-50
22
-19
5
-24
28
-6
-45
-76
-87
-42
14
18
-33
12
19
11
-1
-65
19
33
50
22
0
2
24
-23
49
-21
-6
10
-18
-48
0
5
12
3
-9
16
33
-30
-20
10
31
22
-6
4
17
30
24
-28
39
34
28
2
-12
43
12
3
-6
-13
-25
-11
-56
27
5
-14
39
21
5
23
45
-11
-9
3
38
32
36
50
14
32
3
-121
-28
7
27
-36
8
7
32
-28
-18
-4
14
-30
-38
-6
9
-19
27
31
70
10
5
-50
-56
-12
4
2
-9
-2
11
-4
1
-63
-34
1
36
-3
6
16
30
-13
-17
-27
-28
0
-10
-10
10
3
14
42
19
18
10
-8
-51
37
36
-63
20
33
-11
3
29
76
-29
-48
-23
1
4
-43
14
-31
-45
46
-112
-21
5
31
13
-30
-22
-21
-33
20
-24
42
-28
-21
-12
-36
67
16
52
16
51
55
19
-13
-32
66
-32
-44
10
-13
-38
54
-127
1
-15
23
53
-61
-30
-62
-44
-14
6
57
-33
18
-16
-59
-3
4
5
-7
-1
-2
6
4
-10
22
-25
-8
19
3
-42
15
-88
14
42
-16
-22
-7
7
24
4
-37
-1
19
27
40
-3
-65
-5
-3
-18
-43
-27
9
11
-57
0
14
-5
-18
17
-12
-18
20
-51
26
55
-4
-41
-36
-8
15
-39
-53
27
-2
42
-12
8
-31
72
66
82
13
2
44
36
-56
-39
30
-1
-29
2
-38
-95
35
-113
-21
33
-6
23
-4
-33
-48
-32
-51
-29
-36
3
3
14
3
-12
15
23
21
-35
47
25
-62
-14
-12
30
-8
11
10
-39
19
-69
-82
10
15
-40
3
1
-37
6
-18
-46
-1
-31
4
-26
-19
9
-13
-11
-51
12
-18
31
-51
3
40
15
42
24
-6
-33
44
-9
30
37
-6
-21
-5
-22
5
-17
-65
14
-13
79
25
-61
28
72
76
27
-1
1
-48
12
-77
-57
57
33
-98
-68
-37
-115
-30
-74
63
61
11
60
-11
-95
-32
-45
-66
59
5
101
85
-51
40
77
67
63
6
0
30
-25
-76
-33
33
35
-39
-7
23
-86
13
-83
-16
33
-35
27
21
-4
-16
35
-40
-51
36
-1
59
8
-9
7
-4
24
-2
22
-16
15
41
-3
-54
10
26
19
6
-1
-14
-12
5
35
18
-22
2
13
39
23
-34
19
-6
127
-27
34
-12
-8
-9
-20
14
54
27
34
14
-7
-45
-8
26
-6
-8
-14
-4
-18
-48
47
9
-17
33
-11
-28
-6
-2
-23
8
73
6
-51
-10
-8
-10
-8
19
15
-29
-21
-21
-53
-37
-46
-65
-46
4
7
-32
4
-59
23
-3
-9
-21
-24
-17
-34
0
-27
-28
35
51
-20
9
-14
54
-44
-1
67
28
18
31
-3
-1
-55
-13
-19
-3
9
-21
-40
14
-50
27
-72
30
-3
-39
12
3
-6
-23
-31
30
-22
-10
-54
27
-46
-8
6
19
11
-2
-39
9
-86
-60
-25
15
2
-13
-49
-27
-81
-42
-54
-8
-70
-76
-35
14
-90
-42
-106
43
-58
49
-8
-17
8
6
-33
44
-46
-56
-14
53
-88
-49
-19
21
9
-9
-17
25
-41
-23
11
-43
6
-33
21
5
-85
-77
-81
54
-33
9
-52
-31
-3
-15
10
30
-33
-5
-22
9
-31
3
12
52
-10
66
17
-11
-52
11
12
-5
13
-37
26
-52
-14
21
-42
18
-36
25
-48
-36
-2
-3
28
15
-78
-19
-1
51
-37
-50
-17
24
-8
6
25
-18
-56
-15
64
-3
-25
-41
7
-5
-39
-17
-52
22
-19
38
-29
7
2
3
15
-1
-1
-12
-3
60
-34
4
-11
6
-7
28
45
-1
2
-8
30
15
15
9
53
14
-35
-39
-39
-29
-33
-8
-8
22
23
13
18
-4
28
-58
-19
54
-6
-19
29
6
-55
-28
-41
-82
-37
1
35
36
45
-17
-33
84
-11
37
16
-47
49
-25
8
12
13
9
20
45
61
9
-12
26
-24
18
7
-14
-69
-35
-127
-81
8
-78
26
33
-30
-66
-47
72
60
32
75
-16
2
-25
19
23
17
44
38
59
11
-14
-35
60
-24
-35
-33
-25
-23
-5
-126
-37
30
-83
28
-9
-15
-37
-27
6
110
33
99
4
-18
4
-11
20
-9
-37
30
25
4
41
-28
28
-15
12
-20
23
-17
-8
15
-17
-37
-1
43
21
33
-20
38
17
-16
40
-21
4
34
-46
24
-10
-40
-46
40
-7
11
-28
-19
25
-23
14
-56
-47
-59
-26
-13
-6
-22
-77
22
8
-13
-3
28
4
5
31
-24
70
-41
2
14
-13
10
-30
24
-11
-49
-20
-55
25
-43
-15
-45
-46
-30
-2
6
-7
36
-86
13
-78
26
70
48
24
38
61
45
36
-5
48
-49
-5
-12
5
0
-18
-11
-2
38
0
-33
17
-9
-18
49
-10
35
-2
-14
4
-33
19
60
-13
38
-8
-19
10
-2
-38
27
31
-16
-3
-51
-31
-13
0
-3
0
29
-25
-25
41
-37
-35
2
25
-12
1
-33
4
-34
61
40
4
24
-14
7
-13
4
-6
-26
31
-48
-34
-16
-24
-31
-12
-13
-13
16
8
-36
8
1
-16
19
30
21
0
11
-22
2
-51
44
9
37
-45
-31
-54
-33
-46
74
-53
10
5
15
-33
-3
-11
4
-4
10
-46
-5
43
44
-111
20
-26
22
12
-24
51
-38
32
72
4
20
-26
-7
-66
-43
-44
71
-39
5
-23
20
-27
-49
46
39
8
27
-9
27
-2
18
-68
2
23
16
13
-85
20
-43
-75
1
-32
-22
-46
22
-52
-60
56
-10
21
-14
27
20
-12
8
1
2
32
-13
-4
23
-3
-26
0
-13
27
-33
17
-73
-24
-12
-40
19
-21
-40
-53
37
-14
1
7
-5
-51
23
-2
-33
21
-18
-40
-7
0
39
-5
-14
19
32
-77
-10
-11
-34
-41
33
6
-35
3
68
33
44
-62
13
-81
-9
0
36
-20
49
46
79
29
-49
50
25
16
69
31
28
61
44
-91
8
89
-66
-55
-25
13
-30
-127
-2
-25
112
-96
2
-67
-14
51
86
56
-7
23
48
46
-42
1
-23
22
25
35
38
72
-5
41
48
32
-18
61
-55
24
26
-8
19
-46
11
-79
50
-8
-36
30
-21
-9
-7
-67
15
-12
-20
-93
-13
28
21
-18
-39
-29
3
-2
-25
-60
8
32
72
-3
-34
33
-29
19
-64
33
23
-7
23
0
-52
15
40
58
-5
11
18
-51
32
47
44
1
48
-46
-17
-82
1
1
30
-55
57
-18
-66
-27
-44
49
7
39
34
-23
106
50
-50
45
2
48
25
28
-36
-32
21
22
15
-10
22
-55
-61
12
16
-36
-15
-31
-56
15
-19
-61
18
-8
11
14
18
-8
17
-12
2
6
-9
-4
-17
14
-7
24
-3
-4
-22
9
-13
-3
-21
17
-22
7
-37
8
27
0
14
16
-14
6
0
28
20
21
-7
-5
1
3
-5
6
10
35
15
-14
-9
-14
-3
9
-7
21
-10
-1
-14
-2
-9
3
-21
-5
11
-2
46
-16
4
6
21
16
9
3
3
-5
-6
-4
3
-4
-2
14
-3
3
-12
-15
-8
12
-15
16
-14
3
-24
11
10
-3
13
16
5
-8
18
-2
10
1
-1
3
-50
21
-7
3
-36
-26
-19
0
2
-16
13
8
-13
-10
-21
-2
-7
4
109
23
2
6
-36
1
-8
-2
-1
-31
-20
2
-16
6
-17
10
-1
8
-5
14
4
-23
-10
-26
13
16
-14
15
-14
-3
-8
-5
57
-7
-13
1
-23
3
32
-23
7
-38
-11
7
10
10
3
22
-8
8
15
-13
-20
-8
-26
-12
14
13
-14
-2
-30
13
11
-10
127
13
-3
5
-16
0
-6
-13
-6
-52
3
-19
7
3
1
7
1
-3
2
0
2
28
-4
20
21
-9
-13
-6
5
-12
-10
-1
-24
-2
12
-5
4
-13
-22
-7
-4
9
9
-3
27
17
-4
-6
-6
0
10
25
8
-9
0
6
8
-1
-10
14
24
-17
-4
-17
2
-9
0
-1
7
-3
41
-4
4
23
8
-1
12
11
-6
-14
-7
-14
1
5
-3
14
9
3
7
-3
-1
2
3
2
7
-5
-6
1
0
-12
1
-5
4
-27
4
13
-12
11
17
5
-58
-1
45
18
-49
-21
39
-61
-1
20
-25
-22
-40
-17
-41
-37
32
-7
35
11
-9
-63
-64
-28
-81
31
27
79
-14
38
27
13
-80
18
25
68
11
17
-64
44
2
-1
-64
71
-26
2
39
-38
111
-30
79
-41
14
127
-32
-79
-39
74
14
43
105
-62
22
-53
23
-77
67
32
1
40
-7
-17
28
-33
6
35
106
6
0
-76
20
6
27
-6
45
90
-79
109
-32
14
50
-127
75
21
23
-78
-12
9
-21
54
-47
-40
73
-47
74
12
-26
3
-40
-67
-59
10
51
-9
13
85
8
-50
29
3
-37
-49
-69
57
-99
-5
-60
15
-47
-50
-23
-3
2
27
-40
79
43
-78
-33
-4
-45
8
79
57
-7
-46
-92
-47
-67
12
44
-127
2
-75
-53
-19
-126
-82
-34
-6
82
-89
29
-38
-11
67
-42
-21
8
-17
-27
-8
-66
49
1
-44
-120
-26
-83
-118
36
63
-27
7
6
0
36
-74
35
64
-15
-41
-22
-9
-26
-4
-22
-10
-42
30
-5
-32
-13
-35
-59
-49
-18
-10
-7
26
-16
52
-23
-1
84
-36
-4
-3
-31
0
-21
39
-28
60
38
-1
-5
2
-7
-36
-9
63
19
-92
-2
39
-38
18
56
51
-105
24
-23
-11
-51
4
94
-61
-10
3
16
-21
-63
-32
-8
-9
51
0
76
4
22
16
-5
-19
32
-6
28
30
-40
35
-20
19
-26
6
-6
-68
7
-8
15
28
52
-2
79
11
21
5
39
-75
67
-26
-15
-7
-8
66
26
59
23
104
-34
16
-4
7
-7
-7
10
-7
-125
16
3
-55
-12
-33
-38
-60
-13
-54
127
45
54
9
30
-48
-49
-11
-40
-13
4
-8
-48
55
-10
-15
-32
7
22
-10
15
-18
30
56
-6
8
-20
-6
-26
-26
8
-66
40
-57
-34
-13
24
-39
-1
-29
-19
-4
21
-23
9
-1
33
32
-21
-25
-1
-51
6
14
71
14
-15
2
-36
11
-6
37
-16
-28
-29
-5
-45
26
17
-18
25
-11
-25
53
-4
120
11
21
-35
1
3
-12
-20
-25
-27
2
-53
14
2
-29
28
-26
-39
-13
41
-30
83
62
-6
31
28
-24
-14
18
-26
23
-14
54
60
-9
0
-24
-17
4
32
-48
6
-41
-14
44
-11
-21
-40
-26
-18
-1
-18
-84
29
-93
-6
-19
39
6
-52
-26
0
-35
29
15
-11
10
17
3
-28
-6
11
-67
63
6
61
38
0
-3
-32
-9
25
41
-4
-68
-54
-114
-60
-12
-15
2
-13
-19
8
-1
-11
95
-39
21
-8
-32
-5
-6
-34
35
1
-29
28
-23
36
-15
27
17
-38
-13
7
17
13
64
16
-30
-16
9
-26
-2
-29
3
-19
34
28
-9
3
-15
-36
-36
-15
32
-5
-36
-12
-1
19
-24
1
2
-26
1
-25
-8
24
-47
17
9
4
16
-17
-11
-24
12
7
21
-11
-35
8
-4
0
-31
15
20
13
-6
12
2
17
-27
-30
1
11
35
36
-37
-45
-43
-20
11
2
-6
19
11
-10
31
-14
12
-1
-21
-36
22
54
6
24
-19
3
-25
-4
-30
-22
33
11
22
-17
0
-13
2
19
-31
-11
-15
-9
-37
90
32
61
6
8
28
73
-35
-21
3
93
-9
42
-9
-24
-15
-11
-5
-20
12
5
-15
6
14
54
-35
-21
-56
-8
-3
85
-47
-12
10
8
-45
2
4
33
-29
8
-47
-13
41
127
-10
-26
-13
4
-41
44
-45
-43
-2
-30
-22
72
-116
-27
-32
8
-31
6
-20
54
15
-36
19
0
14
46
-2
9
28
18
9
-3
36
-74
-17
-10
-49
-34
11
11
22
-34
-21
-28
13
-40
-36
-80
50
-49
-36
45
45
-31
40
31
34
4
59
24
6
36
-66
-10
3
-70
-65
-84
-11
-50
-5
13
-17
-27
-63
-30
0
-73
56
-96
14
28
-51
-8
-24
-17
25
25
89
-10
25
14
-1
-34
2
102
-15
-31
-79
-90
-51
-12
-96
33
-34
-34
-42
-29
-16
-86
46
-62
-14
-43
-27
-43
42
-56
-96
7
-40
33
27
74
1
-56
3
-58
-77
6
-44
-7
21
-52
-19
-15
32
-50
58
-54
48
-104
-5
-79
-76
-66
1
-41
15
-63
-16
30
57
-8
70
51
21
-16
-99
-19
-22
5
-94
-29
31
-61
-8
38
5
-29
-59
-75
83
-61
94
-74
-24
-42
4
-48
-98
-17
-19
25
65
25
18
-9
29
-21
-40
41
8
4
-56
-14
-18
17
5
-22
0
12
-10
24
24
-47
20
-28
-5
8
8
-4
-9
-4
-14
13
16
32
-1
-1
16
-27
-4
-2
5
-31
20
-25
2
-26
-12
10
9
-1
11
7
-2
33
18
26
10
1
63
-18
17
16
-13
-3
84
9
1
-2
38
-70
-84
-16
81
53
68
4
-16
-98
-27
14
-55
-6
-17
-21
-7
-3
-1
2
-16
24
-21
-37
7
22
-52
1
48
23
16
20
-6
3
30
21
-13
21
-13
-4
-19
-46
23
-3
-56
-1
-27
-22
-24
-25
-25
-13
-51
16
-19
11
8
-21
-13
1
38
37
-3
1
-16
-18
13
2
-7
0
30
-1
20
-67
-4
-34
-10
34
12
-8
-13
18
27
-23
11
39
3
-11
-6
8
1
-31
60
23
26
3
-16
-36
-5
14
18
-15
55
-38
9
-127
-40
-4
-70
4
-22
-21
-42
-64
2
-57
-16
18
10
-22
-16
9
4
13
29
-8
10
23
9
-12
15
-4
13
6
-13
-12
-20
-50
-41
-8
-30
0
-25
-3
-7
3
-4
-4
-27
2
-3
15
31
-45
-48
-22
6
18
16
-3
-7
-5
-8
-5
-23
-8
16
4
36
-32
15
-22
-29
8
-19
-15
-3
-8
19
-49
-5
62
13
-32
-12
-13
-3
-36
76
62
-6
24
26
-12
23
38
-4
-21
-12
0
9
-43
4
57
-39
-6
-35
-18
-3
-24
-31
-68
-18
11
20
-9
-30
-13
5
11
-67
2
-15
18
-11
10
-1
-23
-3
14
-12
4
-26
-9
-10
-28
24
2
-6
-10
14
17
-15
0
2
50
-13
33
61
-31
-106
-6
54
-19
-25
-27
-27
74
47
-5
-2
12
-13
15
24
47
32
49
79
-12
-36
76
30
13
-41
37
-69
21
62
5
60
-76
-38
-28
50
-19
-16
-27
2
50
-26
-16
-12
12
25
79
30
-15
-26
30
-10
78
-4
60
19
-2
-56
-72
-88
-57
15
-40
21
-20
-20
-34
-6
1
-67
-63
-86
39
-1
11
24
-21
70
-41
-27
28
-10
-18
-46
44
-47
33
16
4
56
5
-47
-17
66
74
59
-65
74
-59
-35
93
-35
-39
49
-32
-26
-27
46
23
-34
4
-14
14
42
-24
98
-33
-99
-82
89
13
-60
-49
45
-84
33
32
35
-20
127
-114
-99
-19
-45
-13
3
13
-101
-27
-76
21
-54
7
24
-33
29
-55
69
12
-39
-108
-7
7
-122
-104
88
-59
-31
100
71
38
60
-35
-67
-19
7
-60
-32
10
2
28
-30
-68
27
-56
-26
45
9
-50
-42
2
-5
-4
-27
70
16
12
59
-61
-11
76
-32
-20
89
-98
7
28
16
33
6
-90
-83
-21
-50
-40
-20
36
-47
19
0
-94
32
-6
-14
-115
-33
27
-51
12
60
-43
7
23
-8
11
70
-117
-38
-29
-74
85
59
-80
-78
0
-38
-64
-18
15
-38
62
-1
-16
58
-33
-19
-69
-25
-59
-95
-24
100
9
-38
-19
-61
41
18
-14
-80
-15
30
4
24
-28
10
54
8
-29
-19
39
-47
39
-36
-66
12
-61
-20
-63
-7
-18
-47
63
17
14
-40
34
-13
43
-10
13
-7
12
3
-33
-30
8
32
22
-56
-26
-1
37
-52
28
80
-2
17
19
19
43
-21
8
-13
-8
7
53
-33
7
13
7
-43
0
4
-21
24
-37
14
-20
6
-9
-34
-25
39
8
6
3
3
3
10
-37
18
36
-29
30
-17
-16
-15
-12
-12
-25
-24
27
5
2
-32
-38
-7
26
-12
-2
-20
-33
7
45
11
-15
39
1
-48
7
-3
-32
5
-42
-11
-15
-51
5
-25
3
-29
40
7
10
-31
16
-5
-4
-11
-38
22
11
-7
-16
-2
5
-3
43
58
5
-4
-17
39
-39
11
-47
-14
10
-45
0
9
-16
-44
24
33
23
23
-44
28
-15
54
1
75
-19
-30
2
-56
39
4
26
76
-3
105
-12
-27
5
36
-14
27
127
53
-52
-47
-18
-2
-6
23
31
29
-43
16
80
-25
45
27
0
34
36
-23
-7
15
-68
-36
58
85
-28
10
3
-14
80
-15
12
39
-51
-19
7
8
-14
-11
-10
-23
-33
-1
-13
12
-25
5
-7
-6
-22
9
18
14
32
3
-3
21
3
23
-13
-8
-11
24
16
3
-25
-13
-27
22
-16
-6
33
-51
-50
39
-14
33
-9
29
-17
-39
7
23
25
4
7
15
-10
-23
48
-12
3
9
0
51
-6
-23
-12
-47
14
19
-32
30
-15
-37
-21
-14
-11
33
4
-18
-29
1
-5
15
-5
7
11
-48
-35
25
-7
-45
15
-29
58
-4
-27
-39
-14
-40
21
2
-44
-4
0
4
11
-26
-25
-42
16
2
-57
20
-14
-3
-23
-5
-16
-10
-16
-9
29
33
-7
5
-14
-10
-31
-9
-45
11
-33
-18
-70
-6
-36
59
-6
-17
-30
-35
29
45
-122
-15
-45
12
-27
-17
7
-30
-30
-19
-19
12
-41
-25
-15
-3
3
-38
-38
73
-46
-27
-38
12
-15
30
8
3
15
-35
20
26
-25
6
-33
-38
-17
-8
-7
13
-4
-4
-5
-1
17
3
-21
-40
-6
-32
2
9
-21
-32
-25
18
21
10
15
12
15
-17
9
-16
-39
4
-17
10
-75
-13
-11
-18
-5
9
2
21
-3
-14
0
-8
-16
11
-43
41
-56
-80
-92
-60
-27
55
-50
-12
-41
-48
25
16
-119
-24
-15
-40
-97
-15
-12
-22
-14
-25
-66
9
-33
-73
-27
-37
-40
-38
-48
127
-33
-8
-19
-13
27
65
-2
-4
15
-31
16
6
-27
10
-28
-53
-77
-6
-6
-40
-11
-12
-11
-7
-2
-13
8
-42
-8
-38
-12
48
-24
-17
-37
9
35
0
-17
6
-9
-1
39
-9
-9
-2
-18
-21
6
-1
31
-14
-15
11
-17
-20
-1
-17
-9
-9
-31
15
-4
9
-37
8
-63
-14
-3
48
-36
1
-11
-9
63
36
-58
-2
-22
-61
-12
21
-3
9
-2
-11
-43
6
-4
-4
-30
-23
-17
-6
-33
69
-13
17
-11
-22
-10
23
-12
-16
9
13
51
12
32
-1
-20
-32
0
8
14
-14
25
-15
-23
3
5
6
-5
-24
-32
-8
0
25
-13
18
1
-6
-46
-1
7
56
13
31
-8
23
-20
0
-40
19
-61
-10
-38
36
-52
-4
8
-1
-45
-51
-56
49
83
73
24
-20
35
-4
24
34
13
22
26
10
22
-17
-10
4
-10
14
42
-19
-41
-13
5
-39
33
-8
11
92
-40
-12
-35
-7
-48
-9
59
-36
42
-3
-12
0
-17
15
4
39
-10
-2
6
-25
-10
6
-21
-11
23
11
57
7
7
-57
-16
-6
10
21
-27
-8
-17
-27
16
-47
-25
3
10
-13
-33
-19
-13
11
10
-20
-14
31
-18
-3
-21
32
-28
-33
-30
20
14
-18
-9
-10
-21
-25
-48
30
20
32
35
13
-13
-29
23
20
-2
-12
11
-34
3
-11
-32
9
0
-39
28
16
-55
-34
-26
-21
67
15
7
11
-58
-39
-36
-25
-28
41
50
68
42
-20
34
32
6
-7
5
3
-8
-45
-18
4
3
1
-22
-12
8
14
23
-17
67
-8
22
127
-12
-8
17
-11
-47
-26
-15
22
-24
-17
-23
-29
-18
-19
-41
-27
-19
-17
-15
17
-22
-4
-18
11
-3
-10
-5
-12
15
-5
-5
12
-8
1
-13
1
20
-12
27
12
-43
-5
7
2
-38
-42
-3
-4
-1
-8
-11
7
5
-65
14
-4
0
-33
15
-23
41
-10
21
-46
-47
-6
2
-6
-44
18
10
29
4
-16
-5
5
-10
-6
-25
3
-10
-49
-21
14
-29
3
40
-13
-8
-25
26
-5
89
42
45
48
-33
1
40
-37
-64
-3
-50
3
25
24
-19
-20
-2
-45
-6
-97
-18
-36
19
2
-11
-31
-19
6
36
-26
30
-14
42
1
29
39
-8
-5
-47
2
-52
-86
-11
45
-9
38
11
-4
42
-45
0
-15
10
-83
-6
34
-27
-70
-49
28
32
-11
23
-21
17
13
44
60
-22
20
13
35
-27
-51
-54
7
-42
10
23
33
64
-32
32
17
51
-58
-11
64
5
23
21
7
1
6
-4
-48
39
27
3
12
32
9
59
33
-28
3
19
-32
27
-50
-45
-24
-5
-21
-30
-56
21
-80
9
16
-13
23
32
-49
42
20
-24
-62
64
51
16
0
38
8
78
4
-76
-16
-29
26
-8
30
-15
24
51
-86
-22
-19
20
-127
-17
13
-45
-18
-20
11
-6
-10
-20
-58
50
-5
68
28
-11
7
79
46
-120
-33
-55
1
-16
18
4
27
47
-32
-6
-80
-5
-11
-24
22
-49
10
1
57
-20
-39
16
-11
66
-11
-16
31
-14
-2
65
35
-1
-28
62
4
49
-5
11
65
42
3
8
-49
8
-11
0
14
-39
15
40
-11
-1
-25
13
-23
42
47
5
6
11
7
27
45
-42
-38
6
-4
4
3
0
44
-36
-68
11
-41
-40
-36
12
38
-53
-20
-63
13
-40
-47
-11
41
1
-5
-12
7
6
-3
-3
18
-60
-48
-5
-12
-23
40
-12
61
-5
-47
-26
-58
12
-31
-11
58
-64
-69
-41
29
-32
-43
4
42
48
-4
-19
3
-26
0
-15
28
19
7
29
4
6
34
-6
-9
-30
-25
-26
61
-5
-46
-25
20
-24
-28
-27
44
8
1
-12
-31
19
13
30
16
1
-1
34
12
-61
7
-17
-25
-9
33
26
35
-3
9
5
42
35
-25
-45
12
-15
-10
17
39
-23
-4
-50
-63
5
-27
2
-17
-17
-30
-14
22
-40
23
-43
-29
0
11
15
54
-15
-21
39
-16
8
32
-23
-5
-6
-29
-6
-28
-40
-16
-12
-1
-37
-40
12
1
-32
-26
-5
14
-8
-35
-13
0
5
12
-14
-24
2
20
-36
35
-11
-72
-21
-39
-15
3
-1
76
-52
24
-101
-127
3
-22
18
4
11
-19
53
-29
-77
-13
-7
-14
-15
-12
-10
-44
44
29
-20
-41
-19
-92
-15
-21
-3
-7
10
32
-77
21
-91
-62
-10
-39
16
-56
-60
-13
-21
-40
-65
-63
-23
-8
13
-8
-16
3
6
-8
24
-29
-36
9
15
9
-2
-36
-13
-38
-3
-7
22
50
-21
29
35
-21
-36
42
-40
1
16
-13
-9
8
28
-12
16
-9
20
17
-33
-4
-19
-6
-11
-13
-22
26
15
35
-34
33
15
-62
7
2
7
18
22
53
43
-15
29
27
2
5
6
-2
4
-11
31
33
16
-9
6
-35
-18
8
19
-1
46
6
-34
59
-6
-9
35
33
19
8
-7
37
31
-23
8
1
7
18
25
-12
-26
-1
22
-15
23
-44
-12
-20
-16
-1
17
-4
12
8
31
17
-14
24
1
50
49
-23
-34
10
-28
-14
22
-7
15
35
-12
-5
-14
3
46
-9
4
-13
-4
-24
-6
-6
-20
11
4
-30
10
-10
-19
-7
19
-4
-6
5
-9
2
12
14
0
-16
9
-20
-4
-21
-25
2
0
-30
-10
3
-6
3
-21
30
-21
-2
18
-22
-2
13
-20
55
29
12
1
-10
7
10
-18
12
4
5
29
-17
27
-7
-21
2
-10
-24
17
2
29
10
-19
13
-27
19
-3
-10
-6
19
3
-3
10
-16
2
21
-1
40
-13
18
5
-22
9
-42
14
-2
-18
22
23
37
14
8
-19
2
-16
26
-30
-7
7
0
-11
7
-23
-37
-10
-13
-26
17
12
5
16
18
26
12
-2
7
51
-28
-44
-15
-29
-26
-46
8
-63
-8
-12
87
-32
-13
50
-8
17
51
-3
72
-4
-21
28
-36
8
17
-12
-10
-2
4
-16
-16
22
-12
-64
-10
-43
-26
-24
-26
3
-3
-17
43
-46
12
17
-29
13
-3
13
31
7
24
10
1
26
28
-13
12
0
15
3
-9
-13
-6
-31
18
-6
42
-17
12
-21
-16
-22
-43
-22
-7
5
-14
-7
21
19
-10
-4
0
0
29
-22
-8
-15
-1
-3
-1
-19
15
51
-6
-19
127
-50
47
-2
11
-48
15
-27
6
-24
-22
-13
-9
-4
53
-2
-13
-27
0
36
1
-8
17
3
-12
0
-2
-12
-40
27
-4
-25
55
-23
30
-13
-23
-40
-18
-40
-8
-24
-16
17
6
-5
15
0
-12
31
-3
-1
-9
1
31
2
-2
1
19
-6
-12
-22
53
19
37
-13
-41
-16
-4
-11
-28
61
40
-6
-20
-22
28
-41
-3
-5
-8
22
12
3
-10
-4
-21
-16
-45
-22
1
-27
-43
9
45
21
32
-26
-43
-1
18
2
-20
16
2
-1
-39
-15
34
-18
1
17
1
28
24
3
25
-10
19
-2
-51
-9
-34
8
-45
-20
28
14
40
6
-12
-18
-15
-10
-46
28
57
-18
-19
-17
-21
-27
16
-7
-5
22
53
-16
13
17
17
-6
-46
26
4
-35
-50
22
-18
-14
44
16
-31
-7
27
-11
-1
104
90
-26
13
1
13
-15
40
7
-45
40
20
-46
-19
1
-18
-27
-51
3
17
14
-5
-1
-24
-25
16
-34
-77
4
-5
-17
-4
69
70
-2
9
-25
-25
0
0
40
23
43
4
-64
37
8
9
-64
-36
-5
-37
19
-14
-31
-15
-55
33
-9
-47
-6
50
-8
-24
103
127
-56
-6
18
-46
-8
25
7
-29
56
30
-42
-6
24
21
-30
8
-34
9
-34
-27
38
28
-47
61
6
-34
-13
19
-14
-9
28
-8
-6
-1
-39
14
26
50
-1
-26
-31
7
-28
4
-21
-11
-18
-9
3
52
-5
-19
13
36
-63
12
-5
-28
-1
17
-14
2
21
12
4
0
-29
8
21
29
-15
0
30
27
-36
27
-1
22
-41
-9
17
34
2
-22
15
19
-65
48
-37
-44
-8
-30
-17
-14
23
23
-4
-39
-52
22
23
39
7
-7
52
10
-31
59
10
18
2
16
7
19
5
-6
13
-50
-39
-16
-18
-6
-20
32
-16
-9
26
17
-44
12
19
-26
-11
7
-11
9
29
0
30
23
-10
19
-1
37
-36
2
1
-16
27
-59
-21
-24
0
-2
-17
3
28
-25
22
3
-37
34
53
-24
-12
-12
-39
-43
11
-4
12
11
15
32
4
40
-32
-1
-17
-23
27
-17
3
-9
9
16
-14
9
8
0
-12
-7
8
17
16
10
-8
14
-35
-18
23
-68
-15
-18
14
4
5
-22
37
4
14
-8
29
-64
-21
0
-10
-12
-10
-38
-24
-49
-7
-7
-25
14
5
-31
-4
-2
-55
-17
63
11
20
34
16
50
-14
-14
25
0
30
-4
46
-98
-15
40
-40
-14
-7
4
-38
-90
1
-15
-53
15
37
-25
-56
-11
-41
-55
40
22
6
21
9
12
35
-39
-41
-20
-22
12
16
-29
9
30
12
24
6
50
-3
-56
-23
-26
-42
18
-8
-25
-64
33
-49
-68
4
-39
-18
-23
37
-1
-33
-25
13
22
-54
-33
4
-25
21
19
-28
-4
-17
-30
-46
-9
-15
-43
-35
-24
-56
-25
-19
-25
-5
-29
35
12
-9
-11
-42
59
16
-14
14
-19
-24
38
30
-29
27
127
-31
-1
-26
52
11
4
-24
-64
-63
-28
-31
-29
-31
-41
27
-49
27
6
-20
13
7
-4
-2
13
-9
-41
-71
-12
33
3
17
18
11
39
-49
12
-12
-5
-35
-68
-66
-4
-43
6
-33
45
-7
-34
-22
-29
-57
-1
18
9
-51
-10
0
-20
-60
-21
-2
61
-45
3
39
-16
-18
-8
21
-33
12
41
19
-27
-32
19
-28
40
-37
-3
-22
-42
41
-6
-5
34
23
-21
13
36
-25
-38
-2
6
-47
-4
3
-1
-2
-24
-3
-11
18
32
62
-12
-26
3
10
31
-36
66
24
66
34
8
-53
38
17
-27
44
51
-12
-31
40
-44
45
-2
5
12
34
-52
-15
-9
-1
-40
46
-33
-10
-27
-25
16
1
36
2
24
0
9
0
-16
16
3
-18
-19
7
11
-9
46
-59
25
88
-30
81
-28
-50
-6
43
72
-12
-10
-1
28
4
69
21
60
-19
-32
21
-16
13
82
43
-13
1
48
25
15
-13
-13
-76
87
-11
25
76
21
97
29
104
15
20
-30
6
12
25
11
-15
47
8
33
35
31
-34
52
91
9
5
90
3
-17
40
-28
-15
33
-14
47
-54
-10
127
-37
-22
-109
25
-22
13
-7
-18
6
-5
15
10
12
16
39
-25
28
40
-39
3
-24
14
-24
34
-51
-44
42
50
-15
69
-2
29
-30
35
-7
69
-21
-39
-40
35
16
14
48
-12
-24
-18
12
8
21
-21
0
4
-23
-17
-10
-10
-51
-18
41
5
0
33
-16
44
25
44
-33
9
-50
-35
20
6
-2
7
-4
-39
-49
13
48
-21
2
-5
-1
-1
9
-15
-40
-6
4
-3
-15
3
25
-49
-27
57
-56
-26
-19
-68
-88
-17
-4
-30
-6
-46
0
-42
-50
0
19
1
-17
1
-16
-12
-22
-25
-36
-35
-41
2
11
-56
-21
50
21
32
-98
-46
-1
-12
-55
99
-78
30
15
0
-27
2
-41
-85
-28
97
-31
-39
2
-54
25
94
-62
-48
5
48
34
21
0
10
-41
25
-25
-24
2
8
-32
14
-13
-56
12
-41
-60
-41
-57
28
33
15
-81
18
-69
-6
30
73
-41
-15
19
-37
6
-32
24
-40
-17
-23
17
-2
-5
-41
3
-17
16
-52
-56
-74
-33
-27
-51
16
58
3
-35
-13
-39
27
-20
38
-50
5
-26
26
12
-5
-17
-11
27
24
-59
-9
-1
6
-38
55
18
-9
44
-62
15
65
-21
-72
-44
55
-35
2
-19
-40
28
-6
54
-65
-35
24
66
-20
55
9
-24
-9
79
12
24
39
-51
-32
-13
-53
13
-113
-7
-56
-77
-45
-54
-1
-94
-1
-78
2
82
86
32
-47
-3
21
31
6
24
28
-22
-32
78
7
28
5
-5
-40
54
-58
-53
-93
-10
-27
-74
-9
-10
21
-8
15
-58
72
21
24
-42
-28
-11
17
6
16
-79
-29
-3
-33
-12
-23
-42
-42
-62
-44
71
-49
74
55
-54
-51
8
-13
-25
-16
-104
-10
-16
-26
-39
-71
-31
7
0
-17
0
-9
-24
-22
-4
-8
-7
1
18
-23
-68
-38
35
-20
-18
-7
-1
12
-34
-6
-95
6
-79
-34
-15
64
-30
78
67
25
11
-77
11
13
-14
-41
-6
-21
36
77
-43
-9
-16
-44
15
-6
-31
-52
27
-68
-69
-54
-71
73
-18
-127
-64
37
-108
23
-24
-15
5
23
-4
15
-32
-23
25
31
1
-11
-32
-21
32
-14
57
47
22
13
-7
-33
-8
-13
5
15
16
-27
8
-17
0
-26
3
-26
4
22
11
-7
-35
-34
-61
36
22
-15
-27
-29
-31
-33
46
60
11
-1
18
-41
44
-13
-9
-29
16
-40
-17
40
20
-49
10
-21
-6
19
7
40
12
-28
7
-22
19
-16
-20
4
20
5
-30
31
-16
-10
-36
57
92
6
70
-21
-2
-31
-45
33
16
-5
8
25
-12
28
-2
-5
-4
3
0
37
-15
-14
7
-17
28
16
4
-9
14
6
60
-31
23
37
23
10
2
-29
16
53
-15
1
6
-5
8
41
-11
-28
-18
-32
-55
-16
-52
-12
-14
2
-40
-1
-15
-31
-1
7
127
-11
12
34
-11
11
24
-25
-26
10
-6
-33
35
43
17
44
18
24
2
0
1
-17
-33
-13
37
-24
27
50
-2
-14
-11
8
42
52
29
89
7
21
0
19
-21
-3
24
-6
1
-8
5
6
-31
5
34
-5
-8
-3
12
-12
-43
-15
13
-6
16
-7
-2
17
-19
9
3
21
21
8
3
-17
26
9
4
-1
-6
-11
1
34
-36
-16
27
-15
4
22
-1
-11
-31
1
20
-3
-6
-17
9
-6
9
22
3
22
17
25
12
-6
-2
36
-19
-1
-1
14
-1
30
12
11
24
-8
19
-10
10
-2
-22
13
20
47
9
-6
4
21
0
7
12
35
-30
2
-3
22
-20
16
-12
-39
-36
16
-15
-11
1
-59
-33
14
34
-16
80
16
2
-24
37
-21
-22
4
30
58
26
-29
-20
17
-7
-22
31
-2
-70
12
-29
-104
-24
15
-40
-20
-25
-63
3
4
26
-33
64
5
12
-20
8
0
-26
-9
21
-19
21
-8
-23
11
-20
29
-33
27
-55
35
-13
-74
-5
40
2
22
-12
-12
7
2
48
-16
30
2
1
-2
7
-6
-22
-28
29
-27
-33
3
-39
30
-22
8
-42
16
-18
0
-37
-49
-24
31
-10
-72
-9
-43
-2
20
10
-30
16
18
-5
1
22
-33
-60
51
11
-4
69
-11
-12
-29
21
-41
-34
-21
-126
32
-48
-31
-10
-7
-22
-29
1
-97
29
8
-27
-53
67
2
2
-9
-26
-25
-74
30
12
-22
56
-71
-59
-57
-65
-8
-47
-8
-97
72
43
-23
12
0
-11
11
47
-30
62
3
-28
-28
65
-3
28
0
-5
-39
-16
3
22
-31
-16
-17
16
-23
-29
-8
-61
16
-82
127
80
7
25
-5
-2
-27
-30
-36
7
-20
12
-6
9
2
19
-23
6
-11
-10
-16
15
12
28
-3
5
-26
24
-21
10
-14
-28
36
-12
-3
31
-7
3
6
3
-30
-9
-26
-11
-50
-15
5
-1
-1
3
15
-34
4
35
15
10
-21
-12
-24
-29
-9
9
4
-45
53
-42
-10
18
10
4
26
24
-3
-23
-6
2
-5
-32
7
-20
19
17
22
7
-17
24
14
-12
-43
-11
-20
-73
-8
4
-3
-12
-4
31
1
7
-7
-5
-11
-2
-7
7
-14
-11
-29
-36
-14
20
6
1
11
15
-54
25
-9
-23
0
-13
12
4
-10
-21
-13
28
-37
-6
-2
-31
5
19
58
-24
14
2
-24
25
9
-35
-18
62
9
-4
12
15
-25
-12
30
52
34
-5
32
7
4
-3
-5
-1
-7
-33
24
-21
-4
8
16
4
-23
20
-15
-13
18
-9
-9
11
-7
-11
23
-6
-44
7
-11
34
-14
-6
-13
14
-6
-38
-23
-39
26
17
3
-24
-8
-2
-4
-5
-6
25
-22
14
-26
53
-22
52
-20
19
16
32
-36
11
-17
-11
-8
-5
39
-1
5
2
10
6
-9
-17
2
-6
16
22
104
-32
8
35
-46
58
16
-22
-18
110
-18
22
16
-3
-46
6
31
33
37
-9
50
7
25
3
127
-28
-10
-19
9
18
15
-12
57
-1
-7
49
-46
-3
4
-7
-15
29
1
8
19
0
-68
-5
-3
36
-6
-33
-30
-15
-12
-12
56
-3
-6
31
8
44
-15
13
-27
-17
-3
23
-5
-25
-23
48
-19
23
-38
-1
7
1
8
-15
-16
-32
10
-28
3
-1
-22
-27
13
-6
-16
-1
42
-33
-48
15
39
33
-21
14
-15
1
-32
70
-28
56
-31
-46
16
17
37
13
36
-14
-5
7
-11
4
-26
-15
72
15
-9
17
14
-26
-14
-7
-10
-1
-8
-4
-29
4
-34
36
-10
-3
-14
-27
25
-8
25
-12
-3
6
-28
-1
-34
-26
-13
-23
7
38
4
-10
-7
3
16
19
32
20
18
-6
-5
-33
35
-50
1
39
32
-14
-32
-68
16
-34
40
46
31
5
34
29
-7
-34
-16
-49
14
-22
-15
46
11
-10
37
4
13
21
-32
-5
22
-86
45
34
51
-33
-30
-52
33
-32
15
55
-31
-12
23
18
-26
-61
-60
-56
-36
-62
-64
41
9
7
49
7
30
5
34
16
11
-36
8
54
-16
29
18
-32
26
22
49
20
-77
-8
3
-41
17
4
25
-17
-47
-46
-24
-9
5
-8
-12
39
-11
19
13
-24
14
-20
7
47
-8
31
-14
-57
20
-13
-8
-48
27
20
-4
31
40
-7
-7
-60
1
42
-18
3
-15
-45
22
40
30
-26
-4
-10
19
-80
63
13
56
1
-18
-89
22
16
-32
-35
-19
-8
14
-7
6
-64
14
-127
-80
-38
-59
0
20
-9
36
36
3
-8
53
6
-9
-32
31
37
12
52
-10
27
39
31
19
-28
-29
-36
8
-7
15
-49
33
-77
-42
9
-40
-30
-52
31
50
-1
-39
-23
33
-36
53
25
-17
31
11
13
12
5
-38
-8
7
-24
15
31
25
-10
17
5
27
-45
-31
39
-45
3
-78
39
65
-9
-10
-82
20
13
-44
8
11
-7
41
37
13
-36
-36
-22
-40
2
-30
-15
44
-54
-14
-71
81
-68
-55
-13
-69
-16
59
-11
61
17
18
-54
75
-18
-8
48
27
21
27
49
26
16
-35
-9
59
6
-7
35
10
-35
4
-42
1
-48
-28
36
-51
-21
-48
20
2
2
29
-14
-8
49
-4
-6
50
-14
35
-4
-47
94
63
-46
-32
-36
-28
43
-31
-8
-99
-68
-124
30
-7
-5
-1
-18
-96
42
40
-23
30
-48
2
9
6
5
81
17
58
-73
-44
6
33
-36
-39
17
67
-26
2
-24
-87
-50
-83
-27
6
-9
49
-46
-103
30
-36
-13
10
40
5
-17
-5
26
69
-3
19
-79
17
0
76
-1
-13
-7
12
-21
-13
-22
0
-41
-127
-15
45
82
23
19
30
24
52
42
38
14
46
44
40
72
16
-17
34
-24
-50
39
-76
-36
-102
-20
4
28
50
10
-94
-113
-115
-56
41
-19
25
106
-83
60
74
64
29
-59
19
17
35
29
43
9
19
-93
-107
20
3
-86
18
21
-39
7
19
-34
-117
-97
-92
5
65
-30
-48
-43
-75
23
47
45
52
18
43
55
16
-1
13
41
-15
-41
46
30
21
-46
-40
-42
5
6
18
-60
-25
-45
-51
51
-13
45
-49
1
-31
-19
52
69
-21
-4
-6
-45
47
29
33
-14
-3
-27
-49
5
-42
-69
3
38
32
16
-44
-9
-82
-31
-53
-19
43
-36
6
80
-94
24
-1
59
9
-53
-70
-6
2
-5
61
-10
-8
-82
-86
-16
18
-69
-8
60
16
11
-2
-33
-83
-71
-70
-6
30
-85
-45
-23
-73
17
-3
48
48
5
-12
32
-40
35
44
-20
-10
-39
-30
7
2
-53
-8
-1
-32
-15
18
-68
-1
-33
-45
14
-44
-36
-46
18
-12
-35
-13
5
7
25
27
-23
15
-28
1
-11
-8
-10
7
-55
-52
-45
-89
-56
-22
10
19
7
-5
-49
-4
-16
-37
-12
0
-11
15
105
-7
12
39
-33
-33
-30
3
-32
38
33
-16
6
-1
49
10
-20
23
-15
-5
0
-18
6
30
14
41
-2
24
-22
-10
-15
-3
2
-14
26
14
-27
-14
-13
10
3
-9
11
15
-1
-11
8
-10
16
39
3
-7
32
-45
17
50
44
26
5
64
-20
6
-8
-57
-6
-18
7
-17
35
33
0
10
4
-11
30
-19
25
7
-71
-23
-3
-21
-33
-31
17
-8
7
29
16
40
0
5
-6
-41
-6
37
-15
-21
-21
36
-2
-50
19
65
-17
39
12
-36
30
-8
127
23
51
-52
-32
76
-22
-24
28
56
-11
47
-10
38
12
31
37
-12
-13
-37
-19
50
22
-40
34
11
1
-5
8
-17
41
12
-6
41
16
-26
-1
13
63
2
8
27
-45
8
-16
26
24
25
-7
-56
-3
-17
13
11
56
13
2
2
-9
-4
21
-31
-3
-3
18
26
-18
16
-20
-45
-4
-7
22
25
22
11
-1
1
19
-26
-22
-29
-16
14
-36
37
-12
-22
21
20
2
16
23
-7
28
12
2
-24
25
-22
-7
30
-29
-17
-1
49
13
55
-24
19
-1
39
23
-13
-1
-28
-37
15
-27
-28
30
36
-3
23
13
8
21
-1
10
-15
-8
2
9
-18
-20
-17
0
22
-4
26
-8
9
-11
7
-15
-8
30
-46
-31
-52
-4
61
62
-32
1
13
33
-40
6
1
1
49
61
31
45
-94
-35
-6
-34
6
5
19
15
-23
-48
-66
-40
-30
20
-72
13
-9
-52
-10
29
-36
-13
-12
32
-29
-1
56
-43
27
15
5
-3
-10
-38
32
-36
-15
27
-6
49
-47
-40
-62
-16
23
6
2
35
3
3
-5
28
51
5
0
-40
-13
28
50
-23
-27
-19
-47
-50
9
-18
-8
8
-4
-39
8
56
-25
-11
-25
6
-1
59
-34
-21
61
-11
-17
45
-26
14
22
24
-20
0
56
-45
30
6
38
-20
43
-35
-26
1
-27
66
12
29
-58
-31
-42
-18
-34
7
-28
-8
-34
-36
-45
-2
9
40
29
16
-21
-19
49
-17
44
-26
2
-31
73
-24
4
-2
-48
41
-6
22
-32
-12
116
37
-7
-4
-6
1
-30
7
12
-31
-20
-19
-19
-19
-2
-6
22
-11
-6
-18
10
-13
73
7
12
69
-16
3
20
-1
-23
-9
-10
39
48
-13
-23
-1
-24
24
-16
2
-23
-1
-6
6
-35
-3
-24
24
-28
-45
-28
-30
31
-4
-7
10
-15
25
-42
4
1
-6
0
25
15
-24
-37
-27
-68
13
-16
-71
-8
-14
-28
-28
-15
-46
-4
-20
-18
-13
-29
2
91
-42
-57
14
-47
82
-16
-16
17
63
127
-15
22
-18
-26
104
-54
50
-17
-47
-43
-14
-1
-60
35
-81
24
-6
-5
5
29
-13
59
-15
-9
31
-18
-5
0
-59
-2
20
75
14
14
51
-5
-9
33
-59
-3
-127
36
-4
5
14
-35
-19
45
-48
-8
-32
-38
-14
99
-39
-23
-24
-31
20
-32
-39
-48
-5
26
-10
-25
-46
37
-1
-31
-18
-2
-81
-21
39
-29
25
-21
-30
6
-11
71
-89
-11
-44
106
122
-9
64
-52
-30
11
-55
39
37
20
62
-18
1
4
-36
23
-7
-6
-21
-24
18
-18
54
-14
3
-26
-22
10
7
-29
-9
19
30
11
19
-3
6
19
2
20
23
-5
-29
-2
-57
-22
-2
-7
5
-6
-64
32
-3
20
-22
22
2
2
-45
-5
-75
-49
-20
68
-17
-28
9
25
23
-44
-7
-14
-4
10
8
-1
-124
-31
0
2
14
-31
-114
2
-15
-42
-17
36
-25
53
-91
-29
-101
-57
-22
77
-6
24
7
-6
5
-14
-78
-68
36
-9
63
6
-16
12
2
19
5
10
-54
-38
32
-11
39
-8
6
12
11
-14
-19
-10
-3
47
-17
-1
54
5
31
26
-21
6
-3
-17
-21
8
-23
-36
-9
9
45
12
-36
-11
17
29
-13
13
-4
-4
-18
17
-5
7
-42
-13
-2
5
10
60
-16
-28
-9
0
-51
-90
-33
-1
-69
-31
-44
39
14
-73
-91
-6
-30
0
15
27
5
57
-28
-8
-12
-23
20
100
-16
52
-22
49
18
9
-45
-17
-15
6
57
17
-18
-17
4
29
-10
-19
-81
-75
20
-25
-1
-13
11
-6
36
14
-13
7
37
16
-3
37
18
6
3
3
-32
14
-32
26
14
-34
-3
18
8
-5
34
9
-28
-16
-3
-5
-37
-3
-9
-16
0
-7
-29
-14
6
-19
4
-27
2
4
13
-25
29
36
-30
-4
-20
-18
-93
39
-5
-30
22
-33
-26
20
-18
-1
-35
-39
-39
35
-17
-23
43
-77
9
-13
-4
-31
-46
-8
-6
-28
3
-8
7
-34
25
4
-41
23
-15
-19
20
-31
-22
-29
6
-13
11
-54
-3
28
0
-17
36
-53
-56
6
18
41
-6
-34
-15
-8
-6
26
14
3
4
-6
-40
-15
10
-20
30
8
-5
4
23
0
-26
-37
5
-26
43
42
-10
6
9
-17
22
-9
11
3
-4
-23
32
52
-11
10
-14
17
-127
1
-27
-42
-17
-27
-39
24
-7
4
-39
-29
-27
27
13
-33
29
-84
20
-18
19
-22
-48
10
4
5
-5
-10
-25
-58
-4
31
-48
3
-42
2
19
-14
1
0
-15
-9
-5
-56
33
34
-18
-35
-7
-68
-58
-21
21
1
-49
21
-5
22
-12
11
13
-27
-21
-8
-30
47
-4
-23
2
28
7
18
-32
-2
8
-65
-3
-31
0
20
0
13
16
-12
20
-15
9
5
4
-16
21
-8
9
-17
6
10
-36
28
-5
-15
-38
-6
-6
6
-22
-12
-7
-55
-25
39
-31
-10
28
-22
45
-23
21
5
-58
-3
-6
12
-7
-32
-39
-43
-10
62
6
-12
-14
41
5
28
17
-3
-8
-3
21
-50
36
42
2
-18
-13
2
10
-26
31
25
-36
5
-15
-16
-13
6
-44
-10
13
-5
7
12
-12
11
-41
10
-49
-19
-45
-22
-13
13
26
12
-2
-44
1
-16
-54
2
-18
-5
-19
-6
9
-6
37
-28
-20
-13
-43
-22
11
45
-2
43
5
11
11
-21
-43
-16
26
-20
-21
17
-13
-28
-16
11
-35
43
-27
36
-16
47
46
43
26
-53
-13
-12
-39
37
30
-15
-3
12
-21
-23
6
13
13
-9
15
2
10
20
20
-7
27
8
-25
47
-28
-18
34
-1
44
12
7
-48
-56
38
-7
36
-61
-2
-44
16
-17
-8
-77
-1
20
5
25
-6
35
-31
-39
1
-39
-42
22
75
-6
-35
-11
-49
14
-48
-42
49
-9
60
47
-43
-61
-17
-10
-34
23
0
-117
-103
21
15
26
34
-90
-97
-45
-13
-73
-7
46
-36
-56
-67
-17
-42
-39
-57
-22
2
-17
-9
76
-51
-30
11
-31
-24
-8
12
-127
-81
10
39
22
-52
-46
-33
-19
6
14
33
18
12
-71
-67
-13
2
36
5
-31
5
-85
-10
50
51
-15
61
-25
14
-41
26
-9
-4
17
-15
34
-31
55
-24
-25
16
6
1
-38
19
5
1
15
-31
24
49
42
31
-24
53
-43
-9
-15
31
-16
-27
-12
-14
-58
-41
-10
-15
7
-1
-19
-105
-2
26
-29
22
33
61
16
-52
2
-96
13
-36
31
78
46
118
33
-49
-12
24
-17
-22
-19
42
-39
-69
-3
12
13
-29
-22
-81
-13
41
24
27
31
-35
-10
-41
-35
13
25
12
-3
54
-15
60
-22
-56
48
52
26
-19
12
-14
23
8
1
-42
38
-127
-21
-14
71
-9
-8
-5
-23
6
38
-33
-62
-1
-20
-11
-12
-30
-47
-32
40
-70
34
41
37
-33
42
13
16
-25
15
-13
48
-125
-44
2
6
7
-8
-15
-28
-8
65
-67
-35
-32
-8
-25
-8
-3
-74
-26
40
-26
-24
19
5
17
53
-46
-13
22
13
-31
17
15
37
-32
14
-11
-26
-6
-12
56
60
-67
33
-31
1
-1
-23
41
0
-10
-31
-2
-48
92
-11
-32
-4
4
-27
19
-45
-42
99
-90
-1
-35
30
-47
-11
-6
26
1
19
3
-44
-17
14
-15
-22
7
-13
-33
45
-14
-83
34
-23
-46
-18
32
5
-46
-52
-63
119
-111
-44
-17
13
-21
-9
6
15
-30
14
3
-17
-43
7
-19
-12
-17
-63
-28
46
-12
-51
57
-3
46
-22
16
-4
44
-45
-53
100
-84
-13
-91
34
-48
-29
-36
8
6
52
-15
-21
-15
-19
-27
-33
20
-51
-45
23
-13
-55
58
16
-3
5
51
-3
-5
39
6
99
-30
26
-32
16
-42
1
6
9
29
38
36
4
-35
6
-26
6
25
-22
18
-14
-28
-35
43
14
-32
3
78
5
-30
1
-43
69
-12
-34
-19
8
-23
4
51
15
34
35
27
-12
-14
8
-3
2
28
-3
-17
-1
-50
-40
23
20
2
-9
20
17
24
-11
4
46
-35
-32
-24
53
-46
-16
-29
4
50
46
-12
-38
3
-30
-44
42
20
50
-35
-6
-31
-4
-11
6
-17
39
-51
-16
-4
17
32
-71
-53
-22
-21
22
-58
69
-6
-58
-127
-3
-24
-32
-41
-47
-34
-55
15
12
-83
18
-41
30
71
17
18
5
-43
-15
20
7
29
-18
-13
-32
-69
9
-54
-32
-34
-55
7
44
40
76
-49
-49
-14
-50
58
1
-20
-15
-44
30
97
1
-8
-9
-79
-18
17
-60
34
-7
-30
-34
-75
28
-57
-13
-20
-16
41
-6
25
95
-22
-25
23
-43
42
-15
24
9
35
17
-19
-20
-1
14
-38
-19
28
-28
125
-110
-34
17
35
-27
-56
-1
-42
-20
-38
-52
-19
-29
-9
-27
-76
-39
-42
-66
-32
69
21
56
36
2
8
51
-48
31
29
-33
63
-108
-44
28
-6
20
-52
-61
-59
-37
-12
-6
1
23
-32
-82
-43
-78
6
-53
-36
8
18
6
76
-8
-8
52
-38
11
22
-75
26
-49
-10
65
-54
53
-50
-20
-46
-40
0
27
8
34
4
-39
25
-13
14
-36
25
9
-2
21
34
-14
4
-82
-5
-56
0
-12
34
-76
-39
27
-7
-54
23
-27
-23
-9
22
-57
20
-7
-16
-41
9
-42
14
-54
60
29
-3
-18
75
38
-17
-64
-6
53
-13
-30
1
-22
-63
-15
-34
-28
-5
-49
-35
-7
-42
-54
72
49
-41
-63
35
-38
33
-94
55
-25
-36
-9
84
59
-20
-47
-16
30
39
-48
34
-3
-53
5
-85
-3
-37
-67
12
-28
-38
-24
39
27
-24
-41
76
36
-18
-83
-21
-16
11
21
8
10
-20
3
40
13
-16
5
-36
18
-68
12
-43
70
21
12
-4
-55
-20
18
55
3
-93
15
-39
40
-17
-9
-60
32
-93
65
11
-1
-30
37
33
-25
-58
-5
-17
16
40
-127
-107
19
4
-47
-22
122
6
11
31
-1
-78
32
-73
-10
66
-11
-28
-13
-24
-64
34
0
-12
59
33
-30
-20
16
-17
-7
7
-8
23
-18
19
20
-26
-31
29
31
-32
3
19
-18
76
-19
20
46
18
33
0
-9
-16
29
16
-28
-1
30
7
3
-4
18
-55
0
-25
6
6
27
10
-16
3
-21
15
-11
1
10
-31
41
-53
-4
-42
-10
-26
25
-11
-53
36
10
-31
-27
13
-29
65
-17
-7
-12
-31
51
-7
1
-22
56
49
102
-1
-27
-14
36
-41
-46
42
-12
-42
-2
16
-56
20
16
-26
6
31
-35
-36
34
-19
-27
-19
-7
-3
-65
-15
2
0
-53
18
-54
-42
17
7
-3
9
-28
-20
0
15
31
23
-20
-19
1
25
12
-18
21
10
-18
0
-27
-18
12
48
-21
0
10
6
16
12
-9
-11
-6
61
37
13
2
-3
-17
-51
-26
78
-23
-27
-25
9
-23
-45
8
3
-61
-8
-22
-15
33
90
-3
-61
45
-12
0
43
20
76
-32
14
9
52
-30
-54
-23
2
-14
32
-3
-28
33
-11
-28
14
-51
-9
-7
-9
-42
-3
7
-33
-37
-22
1
3
8
-27
-35
-9
-9
12
14
-22
-22
-18
-31
15
23
-17
11
-40
24
-25
-17
-40
27
-27
-29
15
-29
6
34
17
7
-42
-9
9
8
8
18
8
21
2
23
-1
2
-45
0
3
-17
18
-1
-58
33
-60
21
-51
32
-26
40
12
-8
-23
12
-15
-27
-26
15
42
16
14
38
-5
21
-42
-41
-27
1
78
19
-89
-13
-15
1
-41
-8
-13
23
30
-59
18
46
-30
29
-14
-78
-2
20
-62
-13
-47
47
6
51
19
39
-22
-63
-17
10
27
-20
-48
31
50
1
-1
-29
-25
19
-31
-28
15
15
56
-1
31
-11
27
13
-40
0
12
-15
46
-25
-9
-29
30
-25
-12
-26
-1
-33
50
26
20
-47
11
-20
19
77
-23
58
-19
5
92
3
19
-36
51
-19
35
-21
34
5
-17
21
-49
-13
-58
-75
-20
127
1
7
-16
-13
68
-32
-10
-23
36
64
8
65
77
22
-1
81
-13
104
81
-34
-10
-3
-24
-8
-8
100
-61
-25
-49
-50
-3
80
36
42
-22
-20
8
-6
42
-24
2
8
5
-29
15
3
10
-2
8
16
-7
-34
11
-14
26
15
10
-10
-29
-3
8
4
-14
-7
-10
-31
23
-24
-22
-21
29
9
27
-4
18
104
-1
9
13
1
-15
-9
45
-60
66
-46
-13
-4
-6
-10
-34
19
-49
-25
7
38
-20
1
-42
-40
66
-7
4
-4
16
38
8
12
-8
30
-48
21
-9
12
-1
-21
16
-12
33
17
-3
-29
-17
-30
-42
1
-11
2
10
33
14
-37
9
-7
41
0
23
-9
-20
-3
71
-32
8
-5
14
-11
56
-36
-3
1
-18
-43
-29
45
-7
-59
78
23
86
-1
36
-33
-16
10
88
77
34
6
46
-23
-31
16
63
-57
22
43
-46
28
3
42
-6
15
1
-25
-14
-10
-13
-22
-5
17
84
-71
52
-41
65
-15
-3
4
-32
-47
34
-7
-37
-15
-33
-21
38
19
-11
6
-65
-26
89
9
33
-41
-96
17
-60
-20
-19
3
18
-43
59
-19
-2
37
4
-20
12
95
31
-26
45
76
49
-65
-7
0
-53
22
47
16
-76
18
-56
-10
-84
23
43
-22
32
-46
-6
58
-41
-71
-24
-59
39
-53
38
56
-37
25
75
42
42
-38
-19
9
-98
-29
6
32
-55
43
-16
28
-112
-53
-53
-53
-7
11
-57
-91
80
-83
0
-31
17
-12
-10
-6
35
22
32
12
17
-18
8
10
-52
13
40
-3
13
70
-68
-82
-65
-39
-48
-44
18
8
0
-60
28
-36
-54
3
67
-35
33
26
-20
-30
-71
37
30
-7
-1
17
-45
-56
-40
14
-14
36
-27
109
-91
-26
-82
-3
-91
-41
-44
-40
87
-48
52
74
-10
-25
-12
47
-78
10
14
-13
-83
-29
-2
23
-107
-127
-61
-58
3
21
27
69
-97
-53
-101
-19
2
-4
-68
-6
42
-44
41
-6
26
4
11
-20
-5
-7
14
-7
40
-33
-2
33
-58
78
43
11
-7
58
-51
20
-101
-42
-70
6
64
13
16
27
2
-56
2
12
1
-34
33
-8
-26
-19
-4
-34
24
-42
65
34
38
33
52
20
22
-21
29
-4
8
5
-5
3
51
-2
19
37
-70
-57
-58
31
-7
62
31
22
37
24
-1
-27
18
-77
0
12
-4
88
105
-2
18
-6
-21
-54
37
5
33
-22
41
-6
18
58
-83
-37
-80
-33
11
12
20
9
1
34
-12
-42
-14
-9
24
-14
-49
0
32
19
8
-14
-29
-53
-4
-16
4
-18
-2
5
-10
88
-33
-21
-6
79
-29
72
-15
1
-35
-37
-9
-4
51
-25
27
18
11
-2
-36
-46
1
-31
48
18
-29
40
15
19
2
8
1
28
-59
-33
-127
27
-46
39
23
17
22
-13
-13
2
19
-40
-20
5
19
22
33
12
-6
0
-1
-9
3
-38
-17
-15
17
24
11
7
-73
-58
-125
-7
18
-23
12
12
-4
-10
-10
33
-28
3
25
-23
-11
-3
-4
-11
-17
25
17
18
0
-56
-17
-24
8
32
1
-31
-33
-36
14
117
-18
62
-39
-15
4
-20
-33
15
41
-18
16
2
6
20
-85
45
30
35
12
-9
-50
-23
-16
53
-3
-24
-34
1
8
35
-59
10
-66
16
21
15
63
50
22
94
9
36
-45
38
5
-18
2
23
46
-27
-18
-28
-3
40
-8
16
4
-36
-24
5
95
40
-54
-32
9
4
12
-14
-2
19
0
47
-10
24
2
4
-2
38
-20
-1
51
11
40
-17
12
10
13
15
18
-42
6
-9
34
23
32
7
38
48
-29
9
-29
-26
-8
-44
38
78
57
-14
-39
-63
1
15
4
-24
5
-13
31
-28
-33
-59
6
-52
-26
20
-3
3
13
76
-9
-19
-11
33
-39
-22
-4
29
-43
-14
42
-7
-28
-9
21
-7
12
7
7
16
29
-9
-18
-41
27
-2
-3
16
-9
-52
22
-38
23
-2
21
14
1
-15
13
-14
-3
-1
17
-3
-12
8
-2
-26
-13
18
4
20
-19
33
-7
-31
-10
-35
-2
6
-13
-43
30
-50
53
-66
14
39
-14
15
-29
-55
57
15
16
-52
-2
-47
38
-93
13
-18
-28
0
118
-6
-40
-57
42
-23
-19
-14
-11
-44
-40
74
14
-13
-16
50
-27
-7
-28
-22
-59
-15
54
-44
17
-63
14
-56
71
0
35
-9
-18
-5
-30
-59
-30
-23
-23
-46
-9
-127
-58
27
29
-2
-5
7
36
-26
9
27
-51
-17
49
-25
-11
26
21
-25
-5
30
29
-12
-26
-26
-34
-32
-18
4
-50
1
-35
-92
-10
-16
-18
9
68
-11
20
-27
-1
-30
-10
0
-3
-6
-18
-16
35
7
-14
20
-17
10
54
6
6
-40
57
27
-41
18
7
-2
-34
40
-32
22
53
31
-25
-11
35
-19
-23
-6
12
8
-8
-42
14
64
-11
3
2
13
-24
27
4
-63
-39
19
-29
-16
14
-54
2
36
-7
13
36
-7
-3
9
22
-16
-15
-12
12
3
-21
-18
4
39
-42
9
-3
6
-33
39
8
-25
-14
12
-59
6
-4
-49
-15
-20
-37
-42
86
-35
17
-8
22
44
3
6
-3
-37
32
2
-15
4
-12
5
49
-32
30
33
32
-57
-7
-18
-31
-5
-21
-8
7
-19
24
-20
50
-51
28
4
20
120
-7
-13
-3
-22
53
6
-3
10
20
8
26
-24
92
62
57
-26
19
-21
-14
-9
-8
40
115
-10
10
-10
68
-17
14
-17
10
20
0
-33
-2
-37
23
19
-2
17
-13
-28
33
-67
25
16
7
-13
-26
-26
-22
31
-33
-3
83
3
11
-52
-15
26
-11
-13
76
47
-33
8
-16
-40
30
12
-31
-61
57
-33
-6
66
-73
14
-19
35
-25
37
-59
1
-34
-75
-61
-59
-36
-12
29
69
-54
-51
127
-50
-35
33
-3
-31
16
-35
-99
-34
54
7
38
58
-5
-24
-42
20
27
54
-38
-48
-44
-94
-57
-98
-32
-4
22
7
-30
-36
66
-104
-47
47
7
-81
-4
-33
-69
-33
-2
7
6
3
35
-77
-82
7
23
67
-58
-59
-41
-94
2
-22
35
30
-19
8
-12
14
-24
6
-13
-66
31
8
-55
-37
26
-52
24
-26
-28
34
-23
27
-37
-22
-34
2
-4
-40
3
-63
-79
38
-4
68
-10
-10
-47
5
0
-28
-39
-35
33
-6
-20
-31
-3
-42
21
-3
2
37
-34
40
-53
26
1
19
-24
-42
-16
-81
-60
-23
-36
36
-5
-25
-34
2
23
-46
6
-25
23
-30
-35
-3
12
10
-20
21
-2
19
-6
-11
-62
18
24
19
-30
-23
-13
-66
-17
-5
30
127
26
24
44
-23
11
19
39
1
1
-12
-69
-41
-10
37
5
19
-4
-42
16
-31
29
-52
31
-23
21
0
15
-5
-2
-27
-6
-27
-3
28
-28
-39
-23
-27
-11
39
-11
-53
-25
-33
-21
75
68
48
36
0
-40
8
-44
-5
-65
-13
-4
-1
25
-13
-25
26
-23
-49
-8
29
1
-6
31
13
-24
43
9
-22
-41
-27
5
-12
26
12
36
0
-4
4
-3
0
-17
-9
13
-30
-16
-38
-11
7
57
-87
43
-5
12
15
-14
-25
18
-30
-23
-26
-39
56
41
21
-31
39
-101
-71
30
-19
-43
-63
79
0
4
12
1
-36
44
11
30
-98
-24
13
-9
4
-12
-63
-11
-2
-9
-10
-6
-9
-7
-25
15
10
-41
44
-17
7
7
-48
-69
-52
-23
-52
50
-11
13
66
6
-8
5
10
22
8
36
-16
-43
23
-19
-15
-34
-29
11
-35
30
16
51
50
20
-3
13
-9
-23
1
-15
1
12
-11
8
3
38
-18
50
-10
-3
6
10
-26
5
-4
-15
-1
-36
15
50
-34
-38
6
-23
-17
7
8
-12
-63
74
14
27
17
18
-8
59
20
-7
-30
2
-9
-8
-29
-16
-50
-21
-3
-19
-13
-3
8
14
-32
-15
15
-6
18
12
3
28
-58
-63
-21
17
-48
36
12
44
80
-27
13
8
10
4
-26
-21
-20
-48
-25
4
-44
-25
-27
-12
12
38
32
21
9
6
-4
-32
-39
-24
-8
3
-23
11
-26
-20
23
21
-56
-15
-65
-50
-46
-16
39
4
3
35
3
-35
-1
-39
28
-12
56
-15
32
-20
13
9
18
15
-7
-30
-22
-6
-6
-10
6
1
-18
-42
-86
7
-36
-30
-19
-43
-25
46
6
-86
-8
-16
22
17
27
-18
30
25
41
45
-2
-13
14
-49
-39
8
36
1
-4
16
-32
-41
-42
16
-20
-3
2
-16
-30
21
-33
-3
6
-22
-8
-1
11
-6
27
51
17
1
2
-6
47
-52
19
-18
14
26
-14
45
-108
-61
-67
-65
-15
-63
13
21
-60
39
-45
-20
43
27
-14
-107
14
-43
-48
11
2
-33
10
18
17
20
-19
-41
-3
-11
-17
32
-125
-97
-124
-15
-70
-49
42
-84
-68
37
-50
-48
56
31
-43
-110
15
-38
-68
0
-32
-9
-32
22
14
17
-30
-52
-19
7
-39
19
-49
-43
-64
20
-23
-17
8
-11
-7
52
-14
-25
24
6
8
-37
25
-4
-34
7
-17
-10
2
3
14
-36
22
-3
-15
44
-42
34
-101
-38
-74
-27
15
-33
38
24
-71
63
-35
19
-1
16
-21
-118
61
-45
16
41
8
-24
9
10
32
3
-58
14
41
17
60
12
-80
-81
-83
4
-43
-26
61
-62
-78
12
-52
3
-11
12
-39
-127
40
-59
12
9
-37
0
-19
1
20
46
-11
-75
16
42
19
-26
-2
-52
-72
23
19
-14
14
15
-19
58
22
29
33
8
26
-36
8
-3
12
-4
-11
-27
-13
17
-1
18
-4
-9
-6
35
-22
6
60
-2
18
-7
8
-16
20
-8
-18
-5
6
-34
-10
0
15
-11
42
53
-29
-15
-10
4
-6
4
19
-14
-23
-6
2
-7
10
0
8
-22
27
-26
23
2
-19
-42
17
3
-11
-46
-57
-52
17
27
24
20
-2
-18
-46
-9
5
-70
-11
9
17
-21
12
-16
14
-28
-19
5
-6
-46
43
-5
-41
-44
12
3
-3
-48
-61
-21
15
12
6
50
21
-4
-37
-32
11
-4
-9
-6
-12
14
-10
47
37
4
19
81
2
-41
-30
-24
-19
2
17
6
55
-16
-32
-23
32
7
68
30
28
52
-48
-23
-6
-18
5
53
20
-22
16
36
67
-66
40
-13
17
-57
-29
-5
-81
-95
22
19
15
-4
-113
-67
8
56
-42
-5
74
-100
-59
32
-66
-100
-46
5
24
-11
-21
-32
37
-61
39
-14
-28
-48
-8
15
1
-107
54
19
24
-10
-127
-28
-10
56
-28
19
75
-102
-45
16
-33
-77
-38
27
1
29
-24
-15
45
-30
34
-38
-14
-33
-6
-5
-3
1
34
-3
-21
0
-17
-13
-9
14
18
27
-6
4
4
-7
1
-3
13
-8
30
-9
44
-21
-55
-31
50
-53
-41
4
16
22
4
5
-16
-10
-25
24
29
39
-27
-2
-15
-11
-8
11
13
15
23
32
-9
30
17
3
-9
-18
-74
43
25
-56
-62
1
-2
-9
5
-19
18
-3
-44
18
33
-4
5
28
22
20
12
-34
21
-30
38
-7
-37
22
-21
30
-4
3
-17
19
-32
7
-47
-31
-48
-34
-2
21
56
-18
-58
-27
11
-44
-27
18
-11
-28
6
17
-32
-55
0
-14
23
-36
-35
-12
-23
-67
40
-12
39
-67
-49
18
-23
-19
27
13
48
-10
10
-23
-40
-19
3
35
4
-2
-23
-31
-1
-1
-43
47
-12
-15
-46
56
38
4
43
-9
54
-112
-49
-5
-25
-2
-38
-40
17
2
-2
-14
-2
-63
-9
16
3
-3
-75
-17
-11
-1
16
35
18
-25
-26
-20
23
44
-24
14
-12
111
8
-20
-15
-19
39
60
-27
-13
54
-59
-8
-11
-24
1
-23
-66
64
67
-13
33
25
0
12
-8
22
35
-41
-17
-2
-3
17
57
-22
3
-44
-17
-22
60
-51
-48
43
-44
-34
1
-29
39
-7
-89
32
-3
0
5
13
13
-51
45
-49
49
11
21
38
-16
34
-127
-14
-6
-83
-42
-68
-36
-45
-2
-40
-28
-5
-9
19
5
-1
-61
-76
-10
22
-31
13
31
-29
-20
-12
-26
21
12
-9
28
12
57
16
-36
57
8
15
-8
-14
-3
35
-33
-3
-8
-15
-16
-8
-44
16
-7
13
16
33
-23
-7
-3
8
59
-41
-15
-54
-13
43
113
12
-16
33
45
-44
-11
-50
-32
58
-42
-38
-25
19
-58
-13
-26
34
-9
-22
-17
8
-7
-25
77
-41
72
-28
-24
29
-6
-1
-81
-39
-20
-98
34
-17
-48
-50
-30
-25
-24
9
36
53
-22
-16
-30
-30
-15
-25
-5
-24
20
-31
34
-15
-31
0
-52
-19
4
-51
-28
-6
-47
2
4
29
-7
31
-6
-65
19
11
2
-68
-35
24
-8
33
2
4
-13
15
24
19
29
-60
31
25
1
-15
44
-58
-28
-8
-21
-3
20
7
35
4
1
-34
-33
58
15
-40
-52
42
-26
-42
-7
28
8
-1
38
17
44
-31
-29
17
10
-4
19
4
-28
1
-11
-12
0
19
-3
-29
-26
-33
-38
26
-38
-15
-58
30
-4
-16
11
-13
36
-7
19
68
44
30
-54
18
10
-19
37
63
-34
-1
-4
-36
7
-57
-22
-31
-41
-36
-34
4
-12
56
10
-11
6
16
8
2
-4
27
-38
24
47
49
41
-14
-30
-31
-90
-17
-63
76
-67
-22
39
-60
-18
56
-66
-28
-34
-109
-98
-14
19
-57
22
-10
-71
-58
-48
6
-66
2
-43
70
34
25
29
-32
-72
4
-65
19
-19
-6
30
3
22
27
-41
-20
-19
-46
-35
16
34
-21
9
31
-13
5
21
8
31
8
27
33
21
-42
24
-67
-12
20
4
67
8
-63
31
15
26
14
-55
4
-55
-17
-14
22
-25
9
18
16
47
3
47
44
-32
13
49
5
-20
47
-12
17
-63
18
-64
-14
-23
-4
5
23
-16
17
-65
-31
-42
-127
-67
8
2
-57
14
15
-27
6
17
7
-55
-16
-64
5
19
36
35
46
-47
20
-1
6
15
-22
41
41
36
10
-60
-4
-21
-23
-21
7
-15
9
28
24
23
13
6
8
6
47
64
-4
26
0
10
-25
-45
-63
-11
-12
-73
-21
24
18
27
11
23
-31
-15
-77
-10
-27
59
-56
19
-9
26
-37
-61
48
-113
-16
-12
-10
-21
-29
72
25
-29
-108
-49
20
17
77
17
-127
78
-41
-7
-66
56
-12
28
-101
10
-96
3
-30
-30
-33
-29
41
57
-15
3
7
-24
-5
-7
-28
12
-32
13
-3
47
42
24
-1
5
-41
0
-29
-46
-1
-38
-53
15
-29
-8
-24
46
-22
-18
61
-8
-30
-24
15
13
47
9
0
11
0
-16
-46
-86
-56
74
15
-31
-32
-35
-5
14
-25
-18
-72
36
-16
62
71
-6
2
36
25
-96
29
35
35
17
1
1
-7
10
-4
-53
-82
-37
24
45
-120
11
-69
-56
-52
83
12
4
-85
-4
-88
50
19
-60
2
60
71
45
2
72
105
-13
13
13
-18
9
18
-3
-104
30
35
12
-30
34
-81
-54
-54
28
11
-22
-33
-78
4
-54
18
17
-39
30
46
35
22
27
20
13
62
4
-34
-54
-46
-4
-2
-52
-9
44
16
32
-1
-14
-7
6
-11
18
-5
37
-5
29
-13
24
-36
-20
5
-23
25
56
3
-59
40
0
-62
12
-7
-69
-41
47
75
-8
-75
14
-72
-41
-48
-7
63
91
0
11
-41
10
-41
24
20
7
33
76
-11
77
7
-53
35
2
-24
75
-25
-45
-88
42
59
6
23
3
-27
-4
-26
-20
105
17
0
-41
10
-25
-13
4
7
-11
23
20
-31
-6
-25
26
65
95
7
-5
-18
-1
-4
-4
-1
-9
10
-16
25
-3
15
-12
67
24
-31
-41
-24
-5
-26
14
41
-28
0
6
-13
48
35
42
-15
-44
-23
17
25
-8
15
-6
-15
4
26
-4
33
-6
24
2
28
-21
3
-28
-6
-8
19
-8
4
-4
-2
24
-7
12
24
27
-10
-32
-43
8
45
0
13
-15
-9
-1
-32
-1
20
-13
-22
-16
-16
-32
31
-44
23
-5
9
18
-33
-21
-17
42
13
29
35
24
-35
23
-29
-12
17
-11
-16
-3
45
9
38
37
-14
31
-6
37
31
-18
-3
-42
-64
-22
10
-52
29
-31
14
-12
-6
-87
38
12
-17
-9
24
-28
21
-28
-26
3
60
-40
-55
19
6
46
19
36
-23
-52
-10
-49
-45
-5
25
-72
19
-22
-29
-17
20
-127
14
-7
-22
-46
8
-19
18
9
-37
33
46
-13
-19
18
-4
15
-12
20
-11
-33
5
-65
15
-13
-6
10
-17
-22
3
10
22
-120
34
26
-8
-13
23
13
16
-31
-59
23
-1
23
-2
31
-27
5
5
2
19
-33
-7
-15
-15
-25
14
-39
1
-14
6
4
29
-82
2
16
12
8
-22
-16
15
-20
-57
7
-10
16
2
-4
-3
17
21
29
-26
-38
-13
-8
5
-8
13
-47
22
11
-2
7
42
-66
31
12
8
28
-10
4
-23
5
-62
3
-30
26
-7
19
-15
-3
15
-13
17
-31
17
-17
24
-17
-15
-25
-29
-5
4
3
53
-66
22
-15
0
37
14
10
-6
-25
8
-13
25
17
-1
21
38
-30
27
6
-2
22
-51
-1
-23
-4
-15
7
-11
-9
-1
-8
-12
-27
-7
22
50
-3
-5
11
-15
19
-16
2
-5
18
-7
19
0
-57
10
32
-7
18
-2
9
-1
14
-36
-2
16
34
9
-37
7
2
-12
-11
11
-11
11
-2
-15
30
0
41
12
23
-13
-13
23
-46
-9
8
10
21
-7
4
-8
13
-46
5
-14
-21
3
-4
17
-6
31
-16
10
24
55
13
-49
29
-29
10
-10
-24
-21
40
3
-6
-24
5
1
2
-26
-15
-10
-69
41
68
-17
-37
-25
47
-16
-77
-53
39
10
96
-8
23
-63
73
-13
-14
-75
-15
-26
-23
30
4
-21
32
0
26
-73
-7
18
4
43
45
28
-16
-39
34
-25
-16
-24
-49
-41
67
8
25
-21
5
8
28
-63
-11
116
18
3
8
19
-17
22
65
-30
19
-28
-11
-38
-13
-33
73
-40
8
-31
-69
68
-127
-17
-44
-18
45
1
4
-33
10
-28
26
9
21
-1
-1
4
-5
6
-24
-11
-36
32
-26
42
-27
-4
-55
-38
-9
2
-34
-31
36
-11
21
34
55
16
32
-15
-6
-47
85
13
-37
6
29
72
-27
-34
-10
-55
29
15
30
1
20
13
-21
-7
-23
23
-21
15
16
-74
-22
30
14
-21
-6
-19
-9
-61
45
17
23
-20
19
83
-74
-44
-14
-15
20
1
13
-18
14
-14
34
65
-27
-6
-36
56
-67
-17
-53
-33
-27
5
3
15
18
-17
-30
17
-18
44
36
28
2
51
-19
-4
25
-10
-9
-1
-25
18
3
12
6
31
-27
-14
22
-53
-16
-35
-2
-5
-4
13
-17
0
-14
-7
-8
52
20
34
35
28
-40
11
-6
-2
-26
-7
-22
-25
8
27
-33
-25
-37
-42
40
9
-69
-14
-58
30
-26
10
-31
30
-11
-67
-28
28
-24
6
45
-23
-38
-3
-7
-5
-13
-19
21
-45
-23
5
3
-46
-7
-60
45
56
-25
-8
-22
5
2
27
-21
20
-32
-10
1
5
16
51
-1
13
-27
13
-20
-25
-38
-8
-6
11
6
-4
-8
0
6
-36
57
-17
-27
11
-24
-18
34
-1
-22
11
-48
-7
-1
-14
16
26
24
10
-33
0
-56
-6
-66
-33
29
-5
5
-5
-14
-18
-2
-55
41
36
-24
40
-58
-18
1
-3
-53
71
-37
-42
1
-44
-1
22
56
-17
-20
28
-57
-52
-103
-52
63
21
0
-16
-42
-49
22
-10
26
127
-18
33
-49
-7
10
-10
4
23
-42
-19
-18
10
19
24
15
-11
-40
8
12
5
14
15
-40
7
-12
-34
-14
17
-9
-21
39
-23
5
-9
-44
38
32
17
5
-20
-25
-1
-5
-15
39
14
15
-26
-60
31
13
-2
-1
-7
11
25
12
-24
1
5
9
14
34
31
-14
37
-69
-5
38
-4
-28
19
-16
82
-5
17
19
19
28
-32
25
36
-5
-39
15
-55
30
-18
-6
-31
-11
-5
32
44
-36
83
-21
-37
16
-7
-8
21
-40
-6
-22
31
-56
12
18
11
-33
-42
11
-23
84
9
38
3
-22
-16
-19
-23
-65
-98
8
21
1
28
-71
70
-62
-26
-40
23
-127
-33
-21
-17
-80
1
36
-19
29
-82
-36
-54
25
-11
24
77
-8
-55
-26
-46
-112
-122
-14
30
25
-36
-15
39
-10
-46
8
31
-18
50
-26
-30
-47
-6
-4
-19
61
-45
59
-44
13
11
-10
25
14
20
-31
-58
-34
-107
2
-34
-20
-50
22
71
-92
72
-80
55
-47
-50
-31
14
-53
-7
-4
24
-62
-45
50
-54
49
46
55
-19
-41
-13
6
1
-65
-16
98
1
-16
40
-49
48
-100
48
-72
42
-108
-57
-19
-24
-34
-24
32
-29
6
-49
1
-46
17
40
16
23
26
33
-40
-12
-74
-10
108
-36
46
31
4
9
21
-31
3
77
-30
-22
-38
-24
-40
-58
-35
-2
70
-1
44
-32
-41
61
-13
-28
-4
43
-26
-30
-39
-51
80
-69
-39
-14
4
32
-76
67
-24
30
-13
30
-36
3
-26
6
-18
-2
-50
-19
48
33
40
-3
0
13
10
-13
-11
-52
-49
-51
48
45
-14
20
-22
41
-66
-26
-32
40
-66
20
-31
-10
-31
31
-13
-25
-15
-48
3
21
-1
2
3
11
-9
30
-26
-59
-114
-30
59
7
30
43
-19
3
32
-42
53
39
-12
19
-32
24
-10
24
-53
38
18
66
34
-18
-24
-3
8
-31
-53
58
-19
-46
-41
-41
13
-8
33
-28
-3
-37
-2
-7
-24
-34
22
-6
20
6
16
-40
16
3
0
6
-6
-6
8
-34
17
-12
40
-2
-15
29
5
-11
-40
11
-24
-3
-19
-34
8
12
-20
-23
22
-4
-6
35
33
17
1
21
18
11
34
7
7
-12
3
-25
92
-29
-16
-22
57
5
-50
19
-10
-22
31
6
3
-5
7
-11
2
-25
-6
-26
16
0
-15
34
20
-6
-10
-2
-1
-28
25
-40
9
-11
20
-7
-3
-26
7
19
2
-24
-1
15
25
-22
2
-16
2
1
-21
45
-6
-21
0
-14
-10
32
6
6
-15
-13
-18
-17
-19
20
22
43
-24
-78
-48
14
-13
-24
-15
5
-3
-27
62
0
29
41
49
-3
36
-48
28
34
-10
-33
-12
-5
-26
-24
-10
-18
127
-36
-19
-5
28
32
-96
32
36
-20
33
-1
2
11
40
-7
-11
39
25
21
25
-4
23
25
24
-27
-12
-21
-13
-6
-1
-19
48
-27
-23
-26
35
-9
-50
27
12
5
70
-19
17
3
-19
1
-47
29
-17
-1
5
-14
-20
-27
-15
23
-15
8
-23
-8
10
3
-9
8
-7
13
-29
19
7
-18
43
51
6
-3
-33
26
-18
-41
-39
21
-20
30
-60
2
-27
-30
-11
-44
-87
9
-11
26
18
4
-45
-13
25
17
-25
-2
-51
23
30
42
15
14
21
25
-24
-33
8
8
14
7
-20
-28
-11
-21
3
2
-42
25
4
49
-1
-4
-10
-25
2
-16
26
17
-31
2
9
-6
18
-4
-17
-14
17
-2
-16
24
-17
2
-11
-9
4
-9
25
2
3
-39
-19
-12
-54
-28
-5
2
4
2
-5
-32
-11
41
43
-20
-7
-41
-16
-4
24
20
-8
21
2
-35
-32
-38
-1
15
7
-1
29
-43
5
-14
-41
-44
-14
9
-13
-2
37
-18
25
81
-35
-31
16
22
7
-31
4
4
23
-57
3
-47
-37
-45
39
6
1
-8
-18
-16
40
-11
95
17
-6
-8
-43
-13
30
66
4
42
-54
-48
21
-4
-54
15
27
39
13
12
3
11
-45
28
19
32
19
-25
-25
69
-43
15
-127
-50
-30
1
23
-16
-9
-49
-13
48
38
93
5
66
-56
-12
-19
62
13
-21
-14
-21
-50
-29
7
45
9
2
4
12
17
-36
-32
-45
-1
16
43
17
12
-56
5
120
-87
-1
10
36
-20
13
-33
14
5
-47
7
-42
-28
-52
30
7
12
11
-20
-13
59
-12
55
34
-13
-26
-25
-6
25
11
-23
45
-54
-95
-30
-68
-42
-3
22
19
10
-5
20
13
-15
40
-8
31
0
-12
-19
19
-19
27
-7
-15
25
-10
41
-24
-8
-22
-1
-26
18
30
6
57
-16
19
6
32
-8
-5
-32
6
21
20
8
17
-30
-6
-12
-14
4
-45
4
-7
32
26
30
16
14
-19
10
34
-1
3
-27
-2
-10
-11
-62
-12
-5
-23
-45
-16
-6
-7
13
-11
-28
13
-10
-8
-5
-9
13
-7
-11
0
-20
6
-8
-9
-15
10
-11
-41
-40
-41
-3
5
-10
-4
-4
-35
-21
34
-33
-17
-12
12
-30
-12
-50
-20
7
-6
8
-8
-8
-17
-27
23
-4
11
-9
55
-3
57
-27
-21
-48
2
24
3
11
-12
8
-3
-5
-35
-18
29
-31
-18
-21
8
23
-13
-39
-16
-22
-5
-17
13
-17
-20
-5
76
-21
52
39
-2
4
-14
-8
24
50
-1
35
32
0
34
-21
24
-11
45
70
20
19
-60
-75
-40
25
35
-2
-12
-43
-63
-72
51
-52
35
-11
-30
-26
-18
-49
9
-29
-71
-36
-56
-11
12
28
25
-1
8
-22
-39
29
-9
45
1
-24
21
-8
16
-10
-12
-28
127
-74
-34
-29
-33
-48
7
-3
47
37
-28
-33
-41
-55
-36
23
18
-5
-36
3
-66
67
-71
-64
-9
-16
-17
7
11
-62
-48
-42
103
-80
-21
-9
23
36
6
34
45
53
7
-14
27
5
3
-25
27
-10
46
37
14
19
-4
-101
-46
18
-49
72
-31
-30
-21
14
11
-5
-16
29
32
28
-7
-19
-28
1
-44
-43
-56
14
-41
31
7
-22
2
-20
-58
36
-38
-11
16
3
55
18
44
-24
-23
-25
58
6
-83
-7
-33
-9
6
3
-7
17
-17
-19
35
28
-51
-15
13
0
-21
23
-2
-2
-62
-20
-49
-9
15
60
21
-31
-60
16
26
2
-37
6
34
49
0
20
-16
-45
3
-16
-41
-14
15
-29
-41
9
26
0
20
-34
-11
58
-51
-16
17
-3
-35
-13
-18
27
-32
7
49
0
-28
51
35
-25
-63
-47
18
25
21
5
25
-41
-1
1
6
-16
-3
-16
-10
-4
13
-2
-2
-36
44
-49
-9
19
20
20
76
28
-34
12
53
-32
-44
-7
42
30
-1
-49
51
5
21
10
-25
6
42
-19
-27
8
19
15
-23
-9
10
-19
62
-37
98
-12
53
51
22
-23
13
-91
-67
27
-46
-63
-7
-70
17
14
-29
5
-12
9
39
34
-13
27
4
61
-6
10
25
1
61
-69
55
-42
-19
42
-9
5
60
-79
-36
-6
29
-11
5
-42
-28
-24
16
63
9
45
49
37
123
-44
3
-29
-32
5
6
21
1
-19
13
-1
29
-38
22
24
39
-4
-10
26
66
-37
-7
-8
-30
79
70
82
-23
-6
17
71
12
-32
-3
-31
-20
55
-45
-2
-42
-60
-10
45
-49
-7
127
23
52
-17
37
-12
35
-64
-25
30
-37
27
52
57
-13
24
-28
43
10
-31
7
18
32
10
23
-10
-33
-37
-42
26
25
7
-24
-3
-32
-83
-72
43
13
-22
-26
-23
-36
-36
20
50
21
96
79
-13
68
-66
-40
42
-29
-2
-45
9
32
-10
-39
3
-35
74
-19
-26
35
66
25
24
58
-3
-43
18
64
31
98
45
-19
-23
17
24
-51
-8
-72
-25
28
81
-22
-25
-52
7
-39
28
-90
58
61
-20
1
28
-24
-18
35
-61
25
24
-29
22
90
24
-33
37
36
-7
-50
-11
-61
-40
-9
28
-61
-25
2
1
13
23
41
-90
43
-27
16
-12
-1
-1
-22
19
-12
2
-13
3
23
-21
-19
-33
-11
25
-15
-15
14
-22
24
-1
-17
-30
-11
-12
21
5
0
-11
-19
-26
-18
3
23
-19
-8
-3
-1
1
-30
-13
16
-17
-31
5
-12
2
21
34
2
25
-1
-19
-10
52
64
29
30
-34
-22
10
0
36
-3
-9
13
-5
-14
-7
30
14
7
-6
-16
-7
-15
-23
21
-26
42
14
-29
-5
-31
-25
-5
19
11
-19
-49
2
18
12
-7
42
39
0
7
35
-17
-6
-51
5
30
42
58
-10
-23
9
52
-14
67
-29
-20
44
-12
3
-20
28
-14
12
5
15
-5
25
34
35
14
27
5
-18
-1
-43
-32
-15
43
64
18
-11
-44
-17
127
19
34
24
30
25
-50
10
-41
25
-20
-19
-1
7
-40
71
67
0
20
1
-15
13
6
-25
15
24
-5
-1
22
17
1
19
-23
-23
6
10
0
-4
25
-17
-39
12
-17
-36
14
8
17
-21
-35
-5
7
-14
-3
-21
3
-9
-29
15
23
-21
-5
-5
-15
8
-18
-3
4
16
-2
20
5
-10
-5
27
0
14
8
-17
9
-19
-27
17
25
26
7
-10
32
-13
-18
7
45
-18
-28
18
-18
-2
-14
26
-18
6
13
40
-3
2
-23
-4
-10
-2
-12
32
-47
19
-11
-13
23
-17
-10
16
-8
10
13
-3
-13
-10
-12
11
21
-6
8
15
-10
28
-10
-6
-13
-12
-18
18
0
-21
-7
-21
-17
-30
-41
-14
-29
27
57
-65
38
15
-32
-37
-36
-16
11
-17
-3
11
10
40
-37
-8
-58
29
-2
13
-15
4
0
48
112
-55
-30
-37
-1
-45
-62
9
26
-125
3
-11
-50
-92
25
7
-10
-22
-4
-30
-7
50
2
58
-1
-26
-25
0
-3
9
-4
28
56
-27
-60
-50
-32
-55
-36
48
19
-31
22
12
-79
-52
56
23
4
-27
-21
-34
-30
52
32
67
-12
-11
-11
-37
-41
-7
36
-18
0
96
2
-43
-10
-1
-68
-61
-22
-54
-12
-1
-44
-113
-21
14
-6
-59
-17
20
91
3
8
7
-43
-2
6
34
-9
-26
-66
-42
26
-72
-45
-61
21
-53
-46
-34
-11
-127
-41
-11
-27
-112
-47
49
-36
-75
-23
-1
-20
11
14
29
1
19
1
-20
-7
-16
-45
-12
14
-65
-51
-52
-33
-46
8
-10
-13
-67
38
-9
-34
-43
-78
28
-9
-72
-42
26
-27
8
23
-16
38
4
-15
-51
-49
18
-17
-37
21
-54
14
-44
62
27
-19
11
-16
-14
21
-29
-40
-59
6
-4
-1
-33
29
25
-21
-14
20
3
-16
33
15
17
-12
18
-22
25
-15
-44
23
15
48
-26
7
14
28
-66
-17
-8
-28
-42
6
11
-25
-47
-8
-11
30
30
17
40
-25
10
14
-3
-25
-9
-15
33
12
-22
41
-4
-20
-51
15
6
-16
-33
29
-6
-24
-8
-21
-4
14
-45
-32
0
20
25
23
8
0
36
1
-21
-15
13
25
26
3
-8
46
-26
12
-22
-21
-19
-18
-26
2
3
19
-25
36
34
25
-10
-13
-18
-41
21
34
30
4
-57
1
-41
-2
-24
-8
19
-27
1
9
-71
-13
-16
-21
-6
-5
-67
-13
-10
-33
-32
-20
33
42
-25
-10
-26
-34
9
39
31
8
-8
-9
-28
2
-13
16
-1
9
-25
-30
-41
-2
-33
-28
10
11
-21
-13
8
8
-19
-19
18
3
8
-25
-22
-71
46
-26
22
-34
-65
6
-27
-9
12
-8
-29
125
-73
-75
-3
-18
12
-39
36
-23
-33
-21
6
-24
-34
-9
-3
-21
-23
-7
-21
-78
19
27
32
20
9
6
-41
9
-22
-35
18
-8
31
-36
47
3
-31
0
-12
3
-35
-38
10
12
-28
-52
16
4
-29
-32
-29
-68
29
7
57
28
-42
-6
-1
12
-19
-26
-7
3
-44
-79
-21
-13
-22
-35
-9
15
40
-1
-29
127
6
-44
-5
9
-32
-6
30
-50
31
-25
-13
-56
-37
-14
60
-38
5
-37
-15
44
-70
-66
-10
-13
14
12
15
7
-13
14
31
-14
-13
-14
11
38
-19
19
-7
-13
-21
21
11
8
-52
12
-14
-3
-18
10
-4
-22
22
-18
-33
3
-22
-14
-17
-13
-10
27
44
-11
-17
3
10
52
-19
-11
-26
2
-19
-4
20
-13
-6
13
13
55
-16
9
-7
16
-12
4
-34
-1
-25
-23
-11
-11
-1
29
-13
-6
-4
35
27
4
-7
2
18
2
-13
-24
3
-21
7
21
5
2
14
-4
-1
-1
0
18
-4
-19
41
-28
53
18
-8
-15
-7
17
-23
-45
-12
-3
-23
-46
-17
-14
66
-17
93
70
13
-3
-11
4
-20
16
-9
22
-26
-72
-35
30
-13
36
37
-14
-23
4
24
44
6
-58
-2
1
-72
-127
-77
-12
25
38
51
48
31
-65
0
-56
-8
46
-16
-48
-3
-18
-41
15
-15
14
57
19
-19
-13
14
1
-18
-10
-17
66
-119
-89
-40
-8
-26
24
25
32
38
-4
57
-47
-37
45
-49
31
40
34
36
38
1
11
23
15
14
45
26
-12
6
-59
-32
27
-50
-24
-23
28
85
-31
33
55
-22
11
14
16
57
-18
-44
-2
8
-37
8
-92
36
41
27
-51
-3
24
-6
76
10
-43
-23
14
-47
-93
-34
18
18
104
-3
-10
8
-88
8
5
59
7
-47
-9
-38
46
9
-51
31
-22
28
-29
-31
35
-16
17
-15
-3
-28
33
-54
-83
-10
20
40
-33
0
28
48
-34
73
10
-16
-18
-67
49
-19
18
85
-44
-27
-15
72
-6
47
49
3
56
21
-53
-79
7
-28
2
52
19
-34
3
-25
-30
-1
-17
66
-11
97
-16
-14
20
16
25
3
-9
34
-42
46
2
10
22
32
32
-16
-2
-25
-5
-2
-32
-2
-22
-57
112
-10
-30
25
-6
41
-36
-5
-29
-17
-10
-5
3
13
51
40
-30
29
-6
-29
38
-11
6
-24
-12
-14
-5
-9
-74
-20
10
-41
-29
12
41
-8
-24
64
-36
-5
16
-54
27
16
-23
-2
-32
59
-45
3
-13
17
-1
-31
-13
2
-1
31
11
31
-12
25
-81
-1
24
38
-18
-10
-1
-11
12
-2
21
-10
-92
-49
-21
-34
-7
37
-33
-5
9
-48
-9
-6
-79
-25
-18
35
3
-38
8
87
-71
18
17
28
-5
-26
0
-46
-39
41
41
12
-77
-76
-65
-53
-2
19
-16
-7
-6
-2
0
12
-14
8
-50
12
-4
-12
-24
39
-67
-13
12
32
-17
1
-18
-21
-16
21
56
0
-72
-116
-42
-23
-3
62
1
-37
16
2
-9
-2
-52
18
-24
30
-9
75
-3
34
-127
0
8
-7
-26
-4
45
-9
64
-14
6
-6
-71
-75
1
-70
-13
18
-19
-35
27
-23
27
24
-86
-34
-19
43
-43
66
-53
32
-104
2
-10
1
13
-42
-23
-56
10
-7
43
-5
-91
-104
-59
-60
-6
-8
90
-19
26
37
30
25
-19
-12
-36
13
-24
39
-44
18
-14
12
28
-15
11
-16
-74
-33
-23
16
66
13
-85
-92
-45
-65
-13
41
3
-45
1
47
-34
4
-20
6
-20
32
-10
24
-14
5
-12
-3
-17
8
-34
38
53
19
14
-27
-3
29
1
-10
-11
-9
-6
25
59
-25
-18
30
-8
-23
17
-4
-33
55
-18
50
-42
-38
-5
8
10
8
61
6
48
-5
10
-17
14
-8
-15
11
-27
-8
-26
7
12
-26
-24
9
18
0
34
33
-31
8
6
29
-33
-22
82
-3
50
-9
-15
4
6
-21
-20
-5
47
-8
-39
-6
13
-34
-30
-7
-40
14
-11
14
1
11
10
-1
-17
-15
-6
-37
11
-13
0
9
-9
-15
-4
-11
26
17
21
-3
9
-16
9
42
8
28
-3
9
-40
16
25
5
11
29
2
6
-4
20
-22
-19
7
-4
3
11
-5
15
4
-32
-48
-8
14
12
-6
3
16
10
-18
42
10
7
-2
-18
2
3
-8
35
37
5
-31
17
-2
-26
-7
10
4
14
35
12
-23
-11
-78
-12
-11
20
18
16
-14
-20
4
30
-26
11
-54
-2
-10
-24
26
2
16
42
-22
-37
-44
-10
19
4
-10
-1
-17
-19
-16
-8
32
9
39
12
-56
-56
-6
2
-47
-40
-7
37
-47
-14
-47
16
54
-26
-10
-4
12
-18
-121
18
0
-17
-24
13
-11
30
-32
-50
-59
-15
3
18
-35
-77
-8
0
-46
-36
8
8
42
12
-12
30
13
41
14
6
-10
-15
-37
-2
-11
-13
20
17
49
10
-36
9
-72
-13
3
15
13
-22
-18
-7
-29
47
-17
-16
-15
-5
-19
-48
12
-62
17
55
20
-15
-36
-22
-4
14
19
-55
-16
21
-36
-6
5
20
23
39
-25
-1
-4
42
30
-29
-1
2
31
-4
-51
-5
26
-127
-5
5
-20
6
-86
5
7
6
14
-53
22
16
-20
-2
-11
11
-6
13
9
-1
-17
-1
9
-48
15
-10
48
7
-22
22
-4
-37
14
-47
-27
-6
-43
0
19
-21
33
-13
42
17
-18
12
-21
-3
-8
-13
19
17
-14
-5
11
2
-15
-10
8
35
-17
2
-34
34
-25
-67
-20
-33
39
-3
-18
22
24
-9
53
-12
49
6
10
54
-46
-21
8
-36
5
-16
-11
-30
-41
-5
-2
-7
-39
-54
-16
7
-58
-44
28
-48
12
-27
-13
27
44
1
-3
23
122
13
31
26
-78
49
26
-50
9
6
-31
-59
-30
-6
-17
11
-23
-17
-10
9
-48
-2
-4
-28
-46
-30
-7
-10
-29
-18
-12
-19
38
-12
43
28
-12
33
-20
-73
-80
4
-22
-4
-24
30
-31
-15
11
-1
-42
-3
80
-104
-2
-61
15
-20
15
70
28
3
109
-12
-52
10
-14
127
18
-36
6
41
4
-19
9
24
-36
24
-18
-3
-4
-33
29
0
38
-26
17
-57
-19
-61
35
25
59
22
59
37
-5
65
-3
40
41
77
57
18
30
66
52
-7
-60
-2
-25
-33
8
-26
3
-17
6
-14
-4
-56
-50
-17
4
29
-20
-26
9
-24
-11
39
38
34
-36
5
33
28
-71
26
55
3
-36
19
-7
-5
-2
2
-59
-22
-28
-83
-5
-35
-73
22
-12
0
-18
5
-33
25
-13
24
-33
13
-21
-72
-11
26
-14
-52
-31
54
-19
-53
-2
27
8
-4
19
28
40
7
45
-61
-81
-26
-11
-32
10
-4
7
34
-5
-11
-22
-89
60
59
-20
41
60
-20
43
34
-65
-37
-1
-32
-2
-9
-23
-28
27
26
15
-34
-33
20
-19
15
1
-29
-20
-3
-4
9
-35
-26
-34
36
-2
11
1
-39
-24
-56
-27
-45
-16
-68
-1
-11
-40
8
-67
7
-35
0
-22
7
-1
-36
1
-12
12
-9
-64
-97
3
-42
-40
24
-40
-31
-17
-3
-15
-44
-127
-19
-21
-3
3
-9
-79
11
-35
-9
-37
-15
11
24
-43
-18
22
30
18
11
-25
18
9
-8
-8
-35
-36
42
23
-18
17
-30
-28
-48
-21
-6
-11
1
-77
-12
17
-44
-18
-26
-10
-21
-26
3
-10
21
-24
10
10
32
-14
18
-25
-35
-32
13
-31
-43
-17
17
-50
-23
-47
-37
12
22
-59
-5
-24
27
-38
-9
-13
8
44
17
60
13
15
-26
-39
-74
2
25
-40
44
-34
-25
-9
-43
-32
-50
-70
13
-22
41
57
-11
-60
-6
11
3
-7
-25
27
30
7
5
16
47
8
35
-2
3
-10
52
17
10
-15
15
38
-26
-24
-73
-14
14
12
5
9
-2
-16
-29
-27
17
25
12
17
11
-26
21
-24
4
-34
-12
22
54
-16
18
-30
-23
-17
-27
-23
33
-15
-3
2
42
-42
-7
-39
1
-42
13
-63
-9
1
5
4
-37
66
4
11
-35
-47
-23
8
-60
6
33
-21
51
-79
-29
-39
39
-22
33
-61
24
-7
24
-4
-16
-4
19
-34
8
11
17
13
-14
23
-40
-36
-16
-16
7
27
-41
14
9
43
-3
-44
-57
24
15
-7
-22
-25
-3
24
24
40
-16
-8
4
-17
9
0
19
4
-23
-32
-4
-11
-25
-23
-40
4
53
23
-5
-31
-9
-5
-41
28
-15
36
29
-24
-11
-6
-15
7
15
8
18
-31
9
19
26
21
0
-6
-24
-18
18
-13
19
-32
1
-5
-30
7
-20
-6
-19
-8
-11
5
-1
-3
-37
9
-14
-21
-12
9
-16
27
17
31
36
23
11
-37
-23
-13
6
-15
14
-20
-17
5
-12
-9
-16
2
-27
4
11
33
1
0
-7
8
-24
-16
21
15
-20
90
31
22
3
27
4
23
18
1
-11
-12
-25
-41
-7
-2
49
-19
-3
8
-25
4
13
24
19
-56
8
-26
0
-29
-25
5
-1
-44
-9
4
3
-21
-4
13
-3
-33
4
-29
-1
14
-13
12
-8
-12
-24
-19
-18
-13
51
-21
-11
14
29
-44
19
-22
-10
-16
73
10
4
-4
23
28
-17
1
-16
-40
-2
-37
10
35
15
-9
59
23
-9
-40
-47
43
20
-10
12
3
-25
7
1
6
-8
7
41
22
46
-17
18
24
-36
-49
-43
11
-12
-44
-33
-21
19
-40
64
33
-18
-26
-39
48
4
12
17
-33
-14
-11
-8
-1
-24
8
-29
-53
-1
-5
9
8
0
17
44
-18
13
-2
13
-9
-10
-4
-32
19
-6
-41
49
-33
-39
-10
-28
10
30
-8
-25
-17
-30
21
17
-127
-24
0
1
-2
6
41
9
-44
13
-26
0
7
18
34
-71
25
15
-32
35
1
-20
-13
-29
37
-9
13
-3
-29
10
29
31
-50
-19
-29
-6
-4
0
-22
-10
-26
-6
-7
-17
-2
52
2
-30
42
13
-6
37
-5
4
14
-22
9
-11
19
-21
19
5
-1
-29
21
-10
-15
19
14
10
-2
-35
13
9
13
17
22
17
-4
19
-4
36
-12
-49
16
19
-15
52
-14
26
-38
20
48
50
-1
-12
-63
52
-54
63
22
-9
127
33
-7
-29
26
-33
-37
-19
12
4
-29
73
-9
-32
-14
7
25
-2
-19
-8
-3
-9
13
-46
12
-11
26
-26
-23
9
17
-8
-14
-2
-5
-2
1
7
24
33
25
26
7
-14
-8
-17
23
7
3
-32
-14
43
-15
-18
14
-7
-12
-44
-35
3
2
-14
32
-8
12
-15
21
-15
28
-16
29
23
12
14
-2
25
-19
-52
-21
33
-29
36
20
28
-32
-6
-17
-8
-12
-40
-87
-12
-52
16
43
-12
34
16
-7
-38
3
-43
11
-52
5
37
3
45
-17
-38
-14
2
11
-41
20
8
-4
-12
14
-43
-4
-14
26
24
-34
-9
18
-13
-6
31
22
-6
5
-4
-5
29
23
17
8
18
23
-5
66
-14
-16
-25
-4
1
-20
12
38
3
14
-22
-63
-32
28
-5
51
-7
-40
17
-25
9
51
28
11
11
-13
-8
-21
15
15
-20
-35
37
-20
53
-9
47
0
1
-38
7
-12
-51
-65
-21
-28
57
57
10
121
83
-34
-23
51
-40
29
-67
16
52
7
94
-31
8
-21
-8
12
-34
3
33
2
4
42
-39
-18
-26
32
-9
-5
-10
19
-9
-36
12
21
3
11
8
-8
31
-12
28
-13
-43
-5
-10
41
-41
8
-20
38
-4
18
-2
0
-5
-35
70
7
-19
-32
-18
33
-5
12
-18
8
-52
21
-22
-8
14
-35
33
-43
63
-37
16
-30
-51
-30
-14
-45
-20
38
51
36
1
80
85
-20
-15
-64
55
31
-27
9
9
-2
-45
-5
-30
27
21
6
-19
-42
13
-27
-62
-41
-33
-40
-40
36
2
-16
19
13
11
29
61
-5
-36
-15
-4
22
16
41
7
9
-47
9
-28
28
21
10
-4
11
-16
-47
25
-43
-52
-7
7
-52
15
57
40
15
63
4
62
-8
30
6
36
2
-10
10
16
21
-74
7
-47
-63
67
3
4
-38
94
-58
-6
-17
-10
-25
32
-22
-55
23
82
26
13
64
105
3
39
-36
127
21
-38
-7
56
-10
-84
-31
-25
-37
16
19
-64
-73
-10
-70
-65
-38
-57
-81
-25
87
19
-11
9
9
34
54
15
-16
32
-18
39
-19
-33
68
39
-11
-86
-1
-52
-4
20
52
-47
32
-32
-42
-11
-15
18
-4
-4
-75
6
46
-3
-39
67
-30
-34
8
33
0
10
-16
2
22
-50
56
-33
0
-18
-58
84
3
-21
-40
37
-32
24
-11
28
-15
14
-8
-40
21
74
-36
39
-13
72
-11
16
-1
118
12
-21
-6
-50
0
1
-22
36
-53
4
-10
-87
2
28
8
-50
-21
1
-52
-12
69
-34
-1
-27
-51
42
14
-78
28
77
-34
38
-8
-34
10
-36
16
-37
-10
-11
-28
-8
5
-56
51
-25
11
25
-15
16
12
-30
-46
