// per-channel multiplier (Q31 unsigned, stored as int32)
1328947747
1191711723
1331944445
2136721333
1157475981
1269446274
1896365757
1534846745
1601596299
1669692345
1588041356
1737949552
1282991215
2011199213
1252897256
1287954699
1456892424
1273992514
1747732246
1175570441
1793703861
1299929114
2132879572
1728083080
1278544983
1118548005
1729018068
1682959725
2049452549
1570765809
1310313247
1134989309
