6
5
12
8
5
1
-4
9
0
2
2
-12
-14
8
0
-5
-7
-6
-3
-12
4
20
-5
-1
17
-12
-8
6
-42
14
-16
-11
0
14
-2
-9
-6
-8
-3
15
-4
-3
-10
9
-5
-21
7
34
4
-11
6
9
11
5
-16
-6
1
-2
-5
5
-8
7
1
-1
-13
-1
-4
-6
5
23
-10
6
17
25
6
19
0
-28
7
18
-1
-6
-127
-10
-12
13
-8
-1
3
0
11
12
23
6
7
-23
31
4
-7
16
26
-54
-4
-38
-4
25
-14
-1
3
9
-18
-8
7
-47
-9
-41
-24
-12
-7
69
8
3
0
11
2
24
-6
-3
-3
-11
-14
7
-9
14
19
-10
-94
-6
7
0
9
12
-7
-11
8
6
-9
9
-6
-2
12
3
-3
2
-1
-36
-6
10
3
-4
0
-7
0
-11
-11
8
3
-19
16
4
-14
-1
-3
0
0
-9
-9
-2
-1
-25
-10
1
9
-11
2
-1
11
-18
21
-9
-12
-25
4
-3
-11
8
-2
6
-1
-11
-4
-1
0
22
-3
19
-7
-13
6
-1
0
-9
3
12
-14
-14
-7
-11
-1
-5
2
-15
21
14
5
-18
-15
19
-7
-6
10
-8
9
13
-14
4
-8
-31
-15
10
-25
-11
0
-1
7
-12
13
4
49
14
-15
26
-17
-4
-1
-14
4
-11
22
-34
-12
-13
-27
-12
-6
0
-4
-7
1
-4
15
-1
-7
-17
-9
-4
9
-2
-10
-8
-16
-6
-8
-19
-15
-27
-5
13
-11
-31
-14
13
-10
-8
30
14
9
10
-20
-5
-6
-6
-6
-21
7
13
-57
-8
-20
8
13
-11
-13
-8
22
-1
-35
20
10
-8
34
27
1
4
-13
-5
-2
-19
2
-12
-66
-33
-46
2
3
15
-17
9
-14
-1
-5
-5
6
-14
28
-11
16
27
28
20
-8
0
-78
-27
-73
1
-21
3
-6
11
-21
-23
2
62
-13
-3
10
-8
12
-22
16
-127
26
-21
-8
-11
37
6
-56
37
-18
14
-13
-11
-11
-13
1
60
-25
-7
15
-19
19
30
16
-77
25
-10
-26
-2
-7
-30
-105
84
-54
3
-58
-2
2
29
1
61
-8
-13
-4
-34
14
-12
17
16
19
-7
-2
-5
-1
-19
-45
73
-22
23
-67
-5
7
18
-41
6
9
1
27
-11
-9
2
-4
-2
-19
25
13
70
-14
11
-16
7
15
12
16
6
1
43
-65
12
18
20
40
2
-23
15
-12
1
9
33
40
55
-17
8
-5
4
15
15
6
17
25
-23
-31
-3
8
12
26
-7
-10
-9
-15
6
-13
23
-21
75
0
10
-9
5
9
14
10
8
-15
-44
-24
14
-2
18
26
-7
10
25
15
2
-9
28
47
96
-8
15
3
-11
21
2
8
1
-127
-53
7
9
13
32
40
-13
18
91
-3
-2
7
10
93
12
-10
1
12
30
34
6
-26
56
51
-56
4
6
-1
24
25
-9
10
16
-3
15
-13
29
-10
82
8
13
-5
-7
15
4
-10
-3
5
20
-16
20
4
-8
6
-19
1
10
4
9
-12
12
7
48
-3
8
-10
-15
9
-11
6
3
4
28
-10
49
15
-2
15
-3
-3
7
-5
16
13
17
22
17
-3
11
3
-21
9
-9
-11
9
22
-2
-9
13
2
7
-2
-1
0
-6
-11
7
-6
12
8
40
7
-2
-12
-25
3
-10
-9
-1
9
-7
6
37
10
-11
14
-39
1
2
0
-6
6
15
-12
13
7
5
1
-12
-8
22
61
8
-9
-9
11
15
-15
0
15
-32
-27
19
6
-14
19
4
-1
-19
-9
-14
11
-13
-11
-95
29
1
9
-2
-2
30
2
1
-3
-65
-8
4
5
64
13
12
-16
7
-24
-1
-2
-29
0
32
36
10
-15
-20
2
37
11
-4
16
1
3
15
-42
-18
2
8
-11
-10
-1
18
-10
-2
-2
-31
6
-13
-19
-3
6
-38
-4
25
3
-20
22
63
13
2
16
-17
-25
-21
16
-16
-13
-10
1
14
-31
-10
-9
0
5
24
11
5
-7
-14
1
5
-17
10
11
9
-2
-1
-81
-2
-20
-15
-8
-6
-21
-11
-4
-7
-2
63
-1
-6
7
8
5
5
-4
-127
-4
-2
-1
5
43
1
-15
-10
13
36
17
0
-1
-10
3
55
-10
3
22
-30
10
5
-5
-48
6
5
8
-18
-9
-8
-6
13
-2
-8
-16
3
10
5
4
53
-6
-6
-19
-11
7
1
17
23
0
-1
-15
5
14
2
-17
6
13
46
-58
7
-10
-31
71
2
35
-4
-11
-16
9
2
-5
-3
20
-11
-20
-38
17
-11
17
1
-7
12
-7
-28
-9
-56
97
-3
11
-17
-18
1
17
28
-6
3
-1
-10
-43
-22
-11
26
14
12
-4
19
-59
-11
-4
3
44
4
4
8
-11
-1
-1
2
-6
-1
-12
-5
36
-7
-12
7
6
14
-14
7
-3
-18
5
45
67
10
0
21
-21
3
10
22
28
-5
37
-16
-57
-98
0
-19
0
-10
-51
4
-18
-32
61
27
-1
5
-27
9
-17
-10
13
64
3
-8
5
2
-127
-5
-1
-1
0
-11
9
-12
13
-22
-36
10
11
15
-6
14
-6
12
3
47
-12
-2
4
-17
25
-36
-13
7
4
0
3
2
-12
-1
19
-4
41
-12
7
3
-19
-11
5
5
12
-29
6
21
3
-50
6
-6
12
-2
-19
-2
0
-25
20
-18
10
-43
-1
1
-9
9
7
40
7
-21
-2
16
1
1
3
23
17
-1
2
3
20
-20
5
-1
19
11
-8
4
-8
7
1
12
-3
-9
-5
-7
15
-21
15
15
6
-34
-12
-10
8
-2
12
-8
5
3
1
-9
-22
5
2
-9
17
3
23
-27
-20
-51
11
4
-15
-5
-14
-7
-13
-2
-6
-54
55
7
21
-12
-37
44
49
-33
5
-3
-10
-26
-62
-80
13
34
-44
-18
-23
33
-7
-6
1
6
-16
2
23
-12
-19
25
-17
-19
-3
0
15
-10
19
-74
20
11
-8
-15
-16
-9
12
-12
30
60
34
-10
-19
50
13
10
4
8
25
42
-6
-27
-51
-84
9
-12
42
-26
28
-12
33
-1
127
32
-5
-6
1
61
10
26
31
-62
-1
26
4
-13
-83
-54
4
55
45
-12
-31
-25
29
59
9
19
-1
-10
-16
5
13
-2
16
16
-8
3
-1
-13
31
-69
-15
-7
27
-29
2
-1
19
-12
-11
1
-29
26
3
4
11
-9
-15
-25
-46
-18
2
-1
35
34
2
6
11
-38
18
-8
-15
12
-65
-5
-54
33
17
-13
46
-62
16
22
-3
-42
49
-6
61
2
-13
-68
-1
-30
51
-25
-69
5
30
-28
-20
50
11
-5
20
-13
2
-16
1
23
22
7
4
29
-13
-17
-2
-36
17
-1
-44
-1
-15
3
-12
12
18
-10
-27
13
10
-6
31
-1
-58
-64
-18
-3
7
-8
-18
-8
-17
31
6
-5
-11
-16
57
33
-65
-24
-49
118
63
-44
9
13
-8
-25
-6
-15
14
52
-56
-45
-20
87
-43
59
0
13
-10
8
14
-7
-46
41
1
-27
-3
-3
-29
-38
-15
-4
34
11
-14
-13
-34
24
6
9
-12
-45
10
19
-10
12
-27
51
-6
-16
80
16
-51
-65
-18
-42
21
-50
29
-40
-71
11
-12
43
-127
-37
-23
-28
-58
1
-32
47
-25
-24
21
-2
-24
19
-100
-64
41
-28
15
3
-21
15
2
-79
-46
-31
-11
11
-2
-14
-23
30
9
6
4
-7
-15
-33
-15
-29
71
-2
18
-23
-34
4
-5
-4
-1
-17
3
13
-16
-21
-22
13
1
-1
14
49
-37
-74
-9
-35
-3
-16
22
-29
10
13
4
-2
-14
-22
-10
-13
-8
-11
-20
42
1
-7
3
45
-21
-45
-27
-50
15
18
16
-17
-7
16
54
14
-16
-5
-1
-13
-16
-5
-10
13
0
-8
-5
1
-13
-50
-2
-30
14
12
19
-25
1
12
19
-13
-2
-31
44
1
4
-10
-37
1
7
-21
14
0
-12
-9
-4
-80
14
-13
-18
-14
-31
2
-6
-23
-39
-59
111
-9
3
-40
-50
5
34
-16
7
-7
-32
-14
-49
-68
22
10
-13
-7
-15
-8
-48
-34
-19
24
36
6
5
-20
-30
2
-3
-6
4
-1
-12
0
-1
-86
-3
7
-17
-8
-16
-4
-7
-24
2
21
72
-14
-12
-19
-34
2
-14
3
-2
1
-14
-15
-34
-127
15
-24
3
-1
-41
-9
3
-11
104
43
37
-14
-44
-7
-47
1
-25
-52
-7
-3
-21
0
-103
-21
-2
23
16
-27
-40
-26
40
-45
-66
66
37
-7
-10
-27
-29
13
-16
5
1
-18
-4
-3
7
-122
-16
-1
-5
7
-24
-7
20
-6
17
-4
68
-42
-11
0
-28
0
-1
-3
9
-31
-12
-1
-17
-113
19
-12
3
6
-23
1
15
4
22
-25
32
-70
-20
1
-10
-9
-3
-2
-1
-29
-11
32
-55
-56
15
2
5
50
-40
15
20
-10
-13
23
37
-27
-16
-22
2
1
5
7
12
-24
-13
9
-3
-92
-6
6
11
19
-13
7
16
3
-21
-18
15
18
6
2
25
-43
-10
-11
-16
2
48
-2
-22
0
2
2
11
-16
8
-37
57
6
-42
-37
23
4
-40
-2
12
-57
-87
-8
2
16
30
16
-25
-18
-22
-36
-6
4
18
-127
53
4
17
-20
2
4
-3
1
24
-34
-7
-9
7
12
5
-13
10
-8
-12
-4
-2
1
-1
-15
35
-2
-36
-21
3
-4
15
0
12
-6
22
-21
-62
-1
65
4
-31
-5
14
2
-12
-1
-12
-31
31
4
-26
-13
3
-33
-4
-24
16
-32
19
29
4
2
-20
11
-19
-15
4
-3
22
3
15
-1
15
-15
-11
-19
-1
-3
-23
2
11
9
-4
8
-4
0
-39
-14
15
-13
-24
7
3
-24
-10
0
16
-17
-8
-17
13
-1
4
-3
-5
-3
6
-10
-28
-6
17
-2
0
-1
1
-4
-7
33
-7
6
5
-5
-27
-19
-27
-3
-17
2
-10
0
4
14
-3
-18
-5
-17
-15
-16
10
1
-10
15
-2
1
-5
1
2
-24
-7
6
-16
9
-12
17
-3
-7
-1
-7
-13
-8
15
-18
9
7
-3
-8
-2
2
-3
-10
-23
8
-54
8
19
-3
-28
15
10
3
15
0
-16
-1
-18
-8
-2
-9
4
-5
-26
3
-34
-17
-15
1
-56
0
-4
-6
-47
14
-16
9
-2
-18
-11
-13
4
-24
26
13
19
-9
-29
-10
-48
-15
-8
-8
-39
16
27
-6
-39
35
19
-1
-10
-24
-19
1
3
-13
9
3
-5
5
-34
8
-31
-22
4
-23
-10
-1
10
3
-43
9
11
-27
-110
-4
53
-13
-6
-18
0
7
-37
20
-46
-13
-26
-13
8
-11
8
0
12
-56
-47
-65
14
24
26
-30
16
-9
-19
-5
8
-84
-127
21
3
-17
-85
-27
0
-17
-25
0
14
-20
-39
0
6
-6
-5
-13
30
-11
-2
-29
-90
-21
-21
37
-16
-15
-15
-13
2
-13
-8
-37
5
16
-18
-15
3
-21
-20
18
22
-14
-12
-13
-23
4
-6
25
2
-17
-10
-13
8
-21
-26
-71
8
-5
12
-37
6
5
-3
-25
0
-26
-22
6
-4
-22
-28
32
-25
2
4
13
1
-13
-10
-42
5
3
7
-4
-9
-4
-16
-17
7
-22
11
-4
-34
-14
0
29
-1
-29
11
-10
-14
37
-10
8
11
10
-10
17
-5
-6
-6
10
5
-36
-20
-36
33
-13
40
12
18
11
-21
-1
15
45
-1
19
29
28
-26
17
42
21
-3
-4
-7
-65
-54
-96
28
12
95
-39
-11
-12
-54
-18
-47
60
3
19
3
-2
-21
17
-3
-16
2
1
-2
-36
11
-68
-21
-8
19
3
-11
16
-9
-9
-9
-124
-89
4
35
19
-11
27
27
27
32
-33
64
45
39
94
33
20
-87
46
-64
7
-30
-18
-56
-63
12
32
-2
44
-9
9
36
105
11
-8
54
20
63
-1
-14
48
-108
81
-8
-14
-56
-9
-7
-93
-69
2
20
-28
3
8
45
20
28
8
42
45
5
54
0
20
-86
41
-50
9
-54
-14
-18
-27
-79
46
0
-1
-5
-41
15
-19
-4
88
68
43
1
127
-16
9
-21
22
-27
-21
-50
-33
-31
-39
-53
72
20
8
56
-22
24
19
-28
70
71
57
2
103
-15
0
-21
26
-97
-14
-44
-12
7
-36
-65
18
10
-14
30
-16
14
-21
-19
21
64
28
-13
107
-11
0
-16
27
-45
-31
-48
-26
-1
-23
25
-46
-35
11
60
-27
-59
-26
-46
47
23
-74
19
-7
11
7
-5
-40
21
-94
-10
-11
-11
-38
3
-30
-50
-21
69
-70
-118
-8
15
30
9
-67
8
-10
9
-43
42
-54
66
-127
-26
-8
7
-7
22
-40
-1
-11
102
-19
-47
-2
5
-21
36
-70
17
-20
-68
-21
7
-40
31
-73
-21
-5
-25
-22
-6
-61
-35
74
80
-27
11
-32
-83
27
-12
-79
4
-1
23
22
20
-75
-21
10
-17
14
25
-13
-26
-46
-27
65
67
-84
25
17
21
-1
-79
-26
-19
17
-22
-116
-59
-54
119
19
-45
-50
-31
6
-27
-41
-13
-15
99
-44
30
-4
19
17
-1
-75
-15
-1
-98
-48
14
-49
18
5
-16
3
-57
-22
-23
-70
-20
37
46
-18
-1
-25
7
4
-22
-84
1
0
1
2
5
-42
3
24
-9
-24
-50
-23
-40
-102
-23
20
75
-27
21
-26
-11
-5
-47
-62
10
-21
7
-15
7
-36
-31
46
-15
-16
-27
1
-25
-69
-15
-29
90
-25
7
7
11
0
-27
-95
-10
-7
-20
-11
3
-30
-3
34
-5
-9
12
-2
-2
-13
28
-2
8
5
-13
22
20
-12
-30
81
13
-8
13
-1
-4
18
-16
28
-29
-16
-1
-4
27
-26
43
-6
35
37
-6
-19
0
-3
-36
40
9
-25
2
14
-34
-22
27
52
-18
-42
10
10
13
-6
18
-14
12
8
-11
17
-7
1
-9
74
-2
0
16
2
-2
12
-8
20
-23
-1
-7
-9
5
-21
-18
63
31
-10
-14
-7
47
-16
-38
77
0
-2
1
-14
4
-20
-18
-1
-15
-48
-20
3
19
-25
-100
124
4
47
20
-14
-4
-18
-67
-14
12
-26
-24
20
18
54
127
-4
-24
-101
-7
-20
14
-19
-11
5
6
-8
0
13
2
-3
-29
80
-29
-3
33
10
-2
-13
27
-7
-36
-38
3
-1
-12
-11
13
11
17
-8
-2
3
5
-3
13
33
18
11
-4
-4
17
-14
21
-7
8
-13
-4
4
2
-22
5
26
37
-21
9
-16
-5
-1
28
55
42
-21
7
-14
8
3
-47
-7
1
-23
18
-12
1
3
18
3
26
-5
2
0
-8
-6
12
25
9
-3
0
-3
8
-14
-12
3
-6
4
-2
9
-59
6
-1
-27
-15
32
27
-16
10
1
-38
32
6
-8
-1
-15
-18
-2
-33
49
-31
-29
-26
18
-48
5
15
-10
8
43
38
-21
4
23
-45
25
-3
-5
13
-17
-21
-6
-27
62
-9
-34
-3
-17
-38
-3
-26
3
-32
36
20
-6
-9
-11
-22
21
-14
-3
42
-2
-13
13
-34
37
-4
-8
-18
-5
-48
8
-26
2
-8
35
-5
-48
65
2
-66
43
32
17
-9
-56
45
-29
-50
25
-1
-74
-99
-8
-35
-1
-53
21
35
92
14
-82
14
22
-71
9
15
-1
23
57
68
31
24
0
27
-127
-10
-36
-21
3
-22
-16
-5
31
-1
-19
4
10
-53
38
-24
10
78
9
15
-13
-10
7
-8
-39
2
-5
-40
20
-9
-12
-11
2
-7
-17
-2
42
-6
19
10
-6
-9
-11
15
-20
-13
-10
-15
-30
-25
-1
-37
16
1
-5
9
17
-3
-22
-3
13
8
7
3
0
6
-10
25
-2
-17
-4
-11
-46
-11
-22
-24
18
0
-6
-8
9
-7
-12
-12
7
-5
12
-9
-14
11
3
8
-20
1
-12
-7
-7
14
5
69
29
10
4
-46
5
8
23
25
13
7
-83
-5
-2
11
11
15
13
23
9
20
40
6
-28
57
33
-119
0
-24
23
53
31
7
-9
29
-21
-14
-15
13
22
-8
34
-30
34
-32
71
16
27
39
26
18
22
-36
16
-5
3
6
12
-10
-52
17
-13
21
6
12
28
1
3
-1
25
-18
16
49
53
34
-1
-59
15
-25
46
68
-16
62
-90
-42
-10
-9
29
-24
42
13
-24
-13
91
-38
27
1
48
6
-65
-52
28
-48
96
10
-16
68
45
-127
-20
-10
27
10
-32
-81
-46
43
85
-13
23
8
44
23
27
-66
24
-25
51
-9
10
35
-60
32
18
19
25
-13
51
-25
-16
-10
36
40
1
51
37
-21
-27
-64
16
-2
8
8
46
-10
-101
-17
-8
-7
2
-7
16
63
-35
13
74
14
-6
34
94
-12
-35
-70
30
-3
-20
-8
42
-37
-111
-28
-24
3
8
25
13
31
-34
58
80
5
24
35
33
-13
32
-65
29
-9
12
-19
11
2
-84
22
-2
2
6
-2
23
31
-16
36
28
-6
-43
-6
-35
-14
17
-9
12
3
-3
-24
21
-30
-12
2
41
4
17
29
-15
22
-8
-25
-3
31
-60
32
-12
-40
8
-3
3
28
31
-29
5
7
-6
-14
11
17
10
41
-10
16
27
-86
3
-23
-1
70
-39
16
-3
27
-3
15
4
2
-7
18
-11
-22
-2
2
5
32
-14
31
-21
-47
-23
-7
-10
27
-13
-7
0
-17
28
-1
19
-12
29
16
-14
-34
-59
4
31
-22
0
-16
18
-6
-14
102
19
9
24
-62
10
-33
-1
-18
53
-21
17
27
-9
-127
-20
8
-10
-28
-45
-57
-3
37
18
-32
68
46
-35
-15
-36
11
-8
-9
39
9
12
50
-26
-34
-76
47
19
-30
10
-57
4
-6
-26
34
2
71
-24
-8
13
12
-6
9
-7
-6
33
10
-36
-8
-75
-15
27
-3
26
-9
-2
-10
-27
94
-28
51
-37
-8
20
16
0
2
39
-5
1
17
0
-70
-42
14
0
-24
81
-47
4
28
-24
-14
47
72
-43
-19
-5
51
-22
16
16
8
-23
32
-37
2
-70
-14
8
-5
69
-20
11
20
-12
-7
20
-27
12
-17
-6
0
-25
5
-10
-44
-15
-4
-21
13
4
-19
1
10
5
-19
69
-8
53
-45
12
-70
16
-81
6
21
-60
3
44
-27
-1
12
-26
-7
-27
-25
-79
119
35
-9
11
-25
89
-2
-21
-12
25
-7
7
-18
-12
14
0
-20
-25
0
-12
3
-20
-33
-13
-3
22
-24
69
18
50
14
13
-5
34
17
-39
-2
17
-26
-31
0
-53
-31
43
-3
-44
-6
-14
-19
23
-56
24
-35
-20
-63
8
30
15
-55
-3
28
86
-97
-12
2
-15
-23
-32
-76
-39
-33
-8
-23
-34
22
18
21
-59
-12
9
-11
6
17
4
0
33
-14
-6
-13
-7
-19
17
11
-48
60
19
-1
22
-53
33
-32
-36
6
13
7
-41
-2
8
-5
3
6
25
79
56
-38
53
0
-61
-15
-16
11
-14
-37
9
-18
-62
24
-12
4
-24
-12
14
32
69
8
-60
3
37
-46
81
8
-89
23
36
48
25
-74
5
37
-127
-22
-7
0
-62
0
-3
28
23
6
29
-8
0
-37
50
6
-68
76
-1
13
-8
-42
8
12
-52
-5
10
-32
-1
-16
-7
1
1
-15
-12
-4
-5
-22
-31
21
28
-13
-12
-6
-7
10
3
-9
0
5
42
-59
-1
-45
-4
-23
15
14
-17
-3
-6
-9
-30
33
37
-5
-21
-14
15
2
20
-2
-9
-10
-9
-29
8
-6
3
-13
8
-11
-9
-7
-7
-9
-32
-13
26
13
-3
-9
-7
10
11
-6
-6
0
-37
-38
-5
-1
-55
-26
0
9
-21
12
-4
-36
-45
30
57
-23
-6
6
2
20
-4
3
25
-108
-63
-14
-7
14
-127
-27
24
-16
-99
-2
7
-32
-48
51
18
-3
5
37
-14
-101
4
16
80
27
-50
-25
-7
-5
3
-26
14
-2
-25
-5
-2
-37
-47
-8
53
4
4
6
-1
8
-6
5
18
-13
-4
-23
18
-11
-10
-3
1
0
-4
-10
12
-4
-10
7
41
-6
-5
6
-20
-8
-14
-3
-9
-24
-1
-33
33
-11
-34
-30
0
5
-31
-6
8
0
-40
25
32
-1
-18
11
-46
0
-1
5
14
12
-26
-24
17
-9
0
-26
8
5
-9
1
17
9
-12
-9
37
5
1
3
-26
5
-14
-1
-7
-4
-25
-17
24
6
10
-5
-25
-45
0
30
11
7
22
-6
-15
-32
23
8
50
-6
-43
-7
4
-34
-12
21
40
-74
20
-13
-61
-127
-22
0
-1
36
39
-20
-18
-20
-51
-13
31
-8
-109
10
48
-27
36
-5
2
19
28
-11
-42
-37
1
-4
-6
28
28
-47
4
-13
-34
25
22
10
-57
26
26
4
-13
-13
-34
-11
-3
-30
-18
-2
21
-10
2
-24
17
14
-26
-21
32
-5
-24
2
-49
-5
-13
-19
-7
38
-23
-6
23
-21
-70
19
40
-1
8
-5
51
36
-21
-11
-118
13
-3
-6
-63
16
22
-36
31
-3
-47
27
3
30
-53
15
5
1
1
86
42
-69
14
-74
-52
-43
23
20
-75
-11
15
2
-22
-16
-16
-8
11
-14
11
-13
10
31
13
-19
13
16
-5
3
15
-3
-27
8
-38
-18
-4
5
-16
1
-9
0
9
-6
-21
0
15
9
34
-11
1
15
-16
13
-16
8
0
-35
-35
2
16
-27
33
9
-38
15
-3
38
-15
5
23
-1
18
18
8
-11
10
-13
-8
-12
36
-5
-50
-6
18
-4
4
4
11
0
1
6
14
5
8
-35
-19
-3
1
-3
-4
14
6
-6
10
-6
23
-8
1
-7
-3
-7
12
-45
6
8
-13
-82
40
5
-13
-8
10
2
-12
-2
3
45
1
5
-37
8
-1
0
7
11
19
-1
11
-13
-24
10
9
0
15
3
0
-6
2
-38
-1
-5
5
1
33
1
5
-11
6
7
20
-6
0
14
34
0
6
-127
-13
-9
3
9
8
7
-2
15
-1
-7
14
19
5
-22
7
-2
8
5
-3
1
-44
9
85
4
-10
0
3
-4
-6
-4
-120
-32
-13
-11
-15
-28
0
-18
8
10
26
6
14
-6
9
5
18
2
16
17
8
-1
7
-119
-1
12
6
-3
11
-6
-5
-2
7
12
3
6
-4
12
9
-2
3
-19
2
1
-4
8
0
-3
-3
7
-7
4
3
11
4
-3
-2
-6
-3
8
-7
3
-9
-1
13
-5
-8
-7
-12
17
7
-3
3
4
-15
-5
-13
-12
3
1
2
17
11
8
5
-4
-9
3
5
-3
25
-2
0
-1
-7
-6
3
8
-5
0
12
4
2
-6
22
-61
-5
3
5
44
-56
-59
-20
-4
9
-15
34
21
2
-7
28
14
16
-3
-34
-10
-32
5
-19
7
12
-33
14
20
-3
85
-5
7
-12
-27
-37
0
-11
-1
-13
28
11
-16
2
-33
1
-4
40
8
-8
-5
-19
5
9
38
-15
21
-2
-18
-58
-48
-4
11
11
9
4
-5
-2
-15
14
-2
15
-50
32
12
-18
62
-65
-11
15
-40
-16
-38
4
-15
-56
-60
61
-38
30
23
-2
-17
-59
58
39
41
62
10
9
-19
111
-51
-68
11
35
-13
-90
-58
-53
-37
84
34
-67
-127
-2
24
101
-38
79
18
-5
15
-42
-14
53
-55
-14
31
14
-49
-95
-44
-23
29
29
9
-19
-56
-8
1
74
31
-11
-25
8
-6
0
35
0
-3
-1
4
-40
-13
18
15
-33
0
13
-17
4
-5
10
-3
-55
33
8
17
37
-6
9
-33
42
-11
-54
-4
11
-24
-66
-17
-58
-4
27
19
-34
0
-12
12
40
-20
17
5
-30
-7
5
-36
21
-5
-11
4
15
-32
-63
10
-18
-7
14
17
-31
4
-5
11
50
-17
-10
5
6
-20
20
36
-40
-68
23
4
-9
4
1
-8
0
-2
32
20
13
38
-59
20
12
7
15
-5
33
41
6
4
-14
24
-15
-3
-19
-40
3
24
-8
-8
13
-10
-14
-8
24
-20
-23
-17
15
-9
-5
-2
-8
14
42
30
2
0
12
-20
-9
16
-6
-17
5
2
1
-16
4
-29
0
-14
7
-13
10
28
-38
25
-90
29
75
0
-5
-11
-32
-19
-9
-17
127
-82
25
79
-36
-23
4
38
-31
-18
21
-27
6
-3
74
-5
-77
-12
-13
-33
-26
57
-27
-33
71
66
15
-74
9
23
-4
-6
8
-17
-14
-10
-9
-4
60
-23
-9
-6
5
-44
-9
-10
-9
18
42
42
2
-11
5
6
-10
-20
5
-3
18
8
11
44
-11
11
19
-2
-80
-10
5
-1
-1
15
16
-41
11
19
4
-15
7
35
15
6
20
-5
5
-7
16
-2
-24
2
55
-6
-1
25
-11
4
4
8
10
9
-30
-4
-17
-8
7
-13
-26
11
0
-7
37
-1
-3
-3
15
3
7
6
-1
-7
3
20
-9
-3
-14
14
-7
-15
0
-11
-1
11
15
-14
24
57
-1
6
1
-17
-7
5
-8
19
-5
3
-13
-29
43
-33
-4
-4
-16
-8
11
-16
36
-2
-3
47
23
-3
-12
-33
-14
5
-12
-7
49
16
-3
-9
19
-25
-21
18
-19
-11
17
9
26
24
-57
-82
11
2
1
20
8
28
-19
-17
-11
26
-5
21
-53
43
1
1
3
-9
-26
-18
-7
-29
73
-33
3
44
17
-53
-13
3
-5
-7
-49
67
-8
-40
42
17
12
-48
7
-20
39
-5
-127
-26
65
-17
-20
-7
-3
-46
-42
-29
-39
-4
99
73
-16
-44
-18
48
38
51
-27
5
41
0
63
39
-42
18
55
-25
-25
8
-11
59
-34
-73
-25
-63
23
41
-28
-23
-29
9
7
-1
-20
14
8
-4
30
-7
-5
-5
62
-1
3
13
-5
10
-2
29
-27
14
-1
14
3
-5
-4
-9
-1
9
2
-28
20
1
-15
18
-45
5
1
29
-21
23
40
10
-14
21
-26
11
0
45
-20
7
35
-4
20
31
-29
7
0
13
-22
1
31
15
-18
24
1
-35
-1
6
-3
-38
-30
-1
6
0
-2
3
6
-11
6
-9
4
17
-1
-3
7
-3
6
-1
-4
1
-3
1
5
-3
3
-2
0
-1
3
3
5
-3
24
-11
7
6
2
-7
4
2
2
-1
11
3
-4
-1
3
13
3
1
-2
1
-2
5
-5
-1
18
-3
2
3
-15
0
1
-2
2
12
4
-1
7
-2
-6
6
-1
-1
-1
-8
7
7
16
-10
-9
7
-4
-25
-3
12
3
-5
7
-1
11
-21
-1
-8
-6
-21
3
-3
-2
5
7
21
14
-11
-13
15
38
3
-8
-5
7
-10
6
-8
-2
-127
-21
5
-14
-54
9
0
-2
-6
-4
-1
-2
-5
-4
6
9
2
-12
-16
-1
4
1
-17
12
-1
-5
0
-1
-7
3
0
6
2
10
3
-2
-3
0
3
0
20
-48
14
2
-3
-1
16
-5
-8
4
1
-5
-3
0
-4
7
7
2
1
1
-9
12
0
14
6
-39
9
8
2
3
2
16
-22
1
-1
-9
-4
7
-3
2
-2
12
1
-3
-10
3
-2
2
9
-17
4
-1
-1
-2
33
4
-7
-7
-3
-6
-10
-4
