-4184
-23987
-542
-16671
580
4603
-2579
-8396
-13631
458
-6743
-6221
-12167
-10955
-5570
-8205
-9759
-678
-4619
-13345
-7888
-12982
-4600
-22896
-6935
-10154
-10742
-7112
2330
-17790
-21938
-5397
-4817
-12595
-16361
-2294
-9326
-3765
-13932
-11983
2603
-6880
-12069
-13076
-8800
-13202
-17030
-6723
-1897
-1294
-15427
-560
-6476
-19041
-14833
-23882
-10515
-14027
399
-19344
-24049
-10778
-7510
2593
-16927
-2514
-10143
-15847
-16739
-17451
-12249
-12679
10737
-11888
-15336
-1567
-14705
-13759
-24201
-15862
-5153
-7861
-2177
-22385
-10207
-10167
-17600
-8527
-4046
16491
-7122
-2504
-21223
-3161
-14939
-6076
-7235
-16570
-5181
-16549
-15999
11595
-2275
5707
-10795
-6314
-8290
-5029
-16280
-13728
-7045
-5038
-21310
-18949
-21521
-3624
-8557
746
-2682
-7348
-18660
-9362
-8444
-5427
-9256
-21360
-8091
-17159
