// per-channel right-shift amount
41
41
40
40
41
42
40
41
41
41
41
40
40
41
40
40
41
41
40
41
41
40
41
41
41
40
41
40
41
40
41
40
41
41
41
40
41
40
41
41
39
41
41
41
41
41
41
40
41
41
41
40
40
41
41
41
41
40
41
41
41
41
40
41
41
40
41
41
41
40
40
41
41
41
41
41
41
41
41
41
41
40
41
40
41
41
41
41
40
42
40
40
41
41
41
41
40
41
40
40
40
41
41
41
40
41
40
41
41
41
40
41
41
41
41
40
41
41
41
40
41
41
40
40
40
41
41
41
