4
-53
93
77
27
-29
-37
87
9
25
11
-26
-59
70
-4
9
-25
-14
-28
12
-5
-34
8
7
61
-43
22
-37
7
-73
-20
-29
-6
14
-4
70
-17
43
-34
-5
17
-43
22
65
51
-4
16
76
-61
-71
-14
-22
5
1
-38
-70
-4
58
-15
-4
33
17
-42
-81
-2
-47
70
46
38
6
-21
70
-7
1
43
-23
-75
31
-61
-28
-2
-35
-43
61
27
-4
55
-29
62
-54
-33
-35
28
-17
-48
5
54
40
99
13
-23
22
-40
-25
-23
14
16
86
90
-33
29
88
19
-23
-42
-10
-6
5
-67
-68
18
72
-9
-29
-21
5
-63
-47
-37
5
46
-45
24
21
-1
16
10
-28
42
-28
-70
37
-16
-5
9
47
-31
58
35
19
9
16
10
-42
4
-36
19
-56
-36
-5
66
30
27
-66
-69
-11
-24
-20
7
85
29
35
38
-32
14
44
-18
-27
-80
-10
-36
1
-9
-99
23
43
13
1
-37
19
-38
9
42
-71
90
-52
20
26
-8
32
20
23
29
-45
-41
-46
-40
-19
-41
25
24
-37
-12
-63
70
12
-11
-43
-20
-57
-37
12
-17
-10
-22
-11
-87
-13
-4
41
8
-56
66
-48
6
-22
23
-59
-2
23
-86
-82
-33
-8
-22
-9
-50
-59
18
-33
41
-76
30
32
59
-65
24
-75
81
-28
13
23
-25
43
9
40
0
-62
-10
-71
-45
-52
-9
-39
25
27
-21
-69
127
33
9
-71
3
-67
20
21
-27
14
23
23
-11
-31
-46
-17
8
-30
-11
-83
6
18
52
-84
16
67
16
-90
-24
-13
-26
-17
-59
-48
31
-6
11
-39
-10
-7
34
-28
-22
-19
56
-78
-23
37
11
-5
25
0
3
-23
-14
-55
-17
-34
-16
0
123
28
22
-16
82
24
-38
-21
-40
-67
5
71
-64
23
30
72
-29
-64
-72
-9
33
-54
-37
-20
69
-23
-15
-53
29
12
35
-87
-45
4
-43
-16
-28
-29
-6
-5
19
-27
-39
13
31
13
2
-25
40
4
-14
25
-28
33
30
-1
-10
-2
-66
-22
-32
-13
-49
41
47
-88
-32
-61
-9
8
5
-44
-20
-12
-65
-17
-38
-15
-10
-14
-25
-14
6
45
-49
-24
33
-31
-10
-4
5
-68
-12
-5
-51
-63
-10
-19
-83
-36
-40
-34
12
-45
14
-62
55
52
-22
-60
-9
-80
41
-2
-32
53
21
56
16
-27
-16
-40
-35
-31
-28
-41
-5
-64
8
-25
-16
-77
42
29
10
-35
10
-21
-29
-22
-31
-18
15
18
29
-29
-44
-24
-51
-21
-46
-55
-33
10
80
-51
-39
59
3
-44
11
-33
-80
1
-52
-38
38
-10
44
-59
17
15
18
-6
-66
-41
18
-50
-53
16
21
-9
38
-51
-19
23
-35
-50
-1
-70
-14
-65
94
-13
15
-34
44
24
-52
-27
16
-31
-13
11
-78
-5
4
37
40
-3
-43
-18
13
-48
31
-32
27
3
22
-58
-54
11
69
-64
-3
-33
-78
-45
-25
-35
-12
-47
-9
-45
-50
36
7
38
-21
2
-50
-28
18
-14
-57
-17
-11
-12
14
-7
-3
-35
14
24
7
4
-25
11
6
33
-17
-15
-12
-4
12
-15
13
28
-38
-2
-8
8
22
-8
-1
-22
-7
12
-6
-8
6
-39
-37
-4
-9
-19
-10
10
3
3
-10
3
-57
16
20
-28
-1
-24
38
-19
10
12
20
-10
-61
-48
6
-10
-38
0
18
-47
-1
-2
-5
-54
21
18
2
-20
-6
43
4
21
-30
-25
-17
-39
-24
4
51
22
-51
18
-17
35
5
-9
0
17
-7
-11
10
-11
-15
-13
-8
-22
-20
-18
35
-26
-11
-20
14
26
-34
21
13
-19
0
-1
3
-32
1
-23
6
20
-29
-9
-33
-15
-45
-4
-4
4
-22
-33
-21
-71
23
25
-29
19
-16
40
-42
87
-85
-15
-16
10
-18
16
9
-69
-50
25
-65
3
3
8
-17
4
-29
-1
-15
-53
-6
7
-37
33
-17
-45
36
-42
-23
-54
-16
6
-38
52
50
-10
-32
-18
-8
-31
14
-12
-22
-11
-46
15
16
6
-35
40
-5
-23
-21
-17
46
-68
32
-4
36
1
-18
-34
-4
19
5
7
-19
-2
18
9
7
31
-40
1
3
68
-12
-3
-23
34
-15
2
21
3
2
13
-34
12
-27
-24
-12
11
-44
13
-5
5
-18
5
43
14
23
-26
22
-29
-28
38
46
-47
-48
-14
0
-31
-5
67
-16
-63
-15
-4
34
-59
2
-16
20
-26
-1
6
26
-23
23
-21
-6
-52
-47
2
67
44
-71
33
-5
88
-9
-61
27
17
-14
-8
14
-26
2
30
-21
-9
-26
-34
11
18
-41
-1
3
18
-22
23
73
58
31
-6
38
-44
-27
5
-10
-57
-36
35
-92
-63
-59
64
-24
44
-37
-23
26
-21
30
-47
-72
20
5
105
-2
1
-2
-19
23
-14
-60
52
67
-54
-75
31
-15
-2
72
-80
-25
-8
-29
8
31
-63
-24
15
-23
-20
11
-51
-2
-2
-39
-23
-38
-31
-17
29
60
62
17
6
-17
-34
-29
42
-3
-40
-14
55
-73
37
64
16
-18
6
15
-4
17
-32
39
-35
-2
-17
-7
-87
-12
0
-16
-30
-27
43
10
-9
-19
44
-51
-16
-1
37
-16
-54
-3
-5
5
-28
8
-21
5
55
1
23
-37
-30
-9
8
-73
-2
-54
-2
-15
-55
36
39
34
-24
10
-71
23
24
0
-98
25
78
-39
-10
10
38
-28
19
-8
13
11
-40
40
-30
19
-36
9
-59
-10
3
26
-21
27
-28
-3
-24
63
67
-44
21
-27
27
59
-74
23
-28
-15
0
4
-56
24
70
-31
17
-57
-36
21
22
-80
-14
-43
-15
-22
-58
38
61
24
-22
36
-50
23
23
-30
-89
20
69
-111
-90
-16
43
-27
95
-11
-27
39
127
16
-48
-10
-26
79
41
3
1
93
-47
0
-10
-27
52
52
-62
-17
6
24
2
125
-89
-2
-48
-17
-14
42
-68
-7
48
7
-25
-13
-65
-35
22
-56
-15
-77
-20
-23
-82
52
77
37
22
40
-23
-45
10
7
-1
-9
-20
-8
-14
8
1
-3
26
4
-16
-26
17
-25
18
-7
1
6
25
-12
17
-42
-13
2
-26
-55
-4
2
-2
-29
-13
7
-25
10
-5
-38
-22
3
-38
-11
1
29
-15
-15
7
2
-12
-37
-38
-11
20
16
-14
4
1
-30
-44
-7
28
-21
-11
-29
-3
-34
2
-15
-31
-38
-10
1
49
9
-24
51
1
-66
-3
-61
-19
7
-52
-20
22
17
13
-46
-32
-33
-36
-76
5
-29
15
16
-14
-75
-37
-27
-68
-79
-8
-11
-38
14
-9
81
2
-6
10
-10
-18
-70
-16
-28
1
53
-33
-1
-21
-28
-88
13
14
24
-10
-27
55
-28
-10
1
-3
-4
2
2
8
7
18
-11
8
-4
11
-35
12
-25
-23
-17
4
-17
26
-18
-16
-12
-6
-7
-6
-17
5
-12
-15
-7
1
-2
-35
6
-13
-5
-40
-35
3
9
-5
0
-31
-7
-15
7
15
38
-8
19
-49
12
-3
-30
-41
-12
15
-31
-7
-29
-6
10
-7
2
-37
-24
-10
-25
-13
2
-1
-32
24
-13
-2
5
-20
13
-17
-13
-22
31
19
-18
5
-12
-34
11
-14
-11
2
-5
18
3
14
-9
6
15
9
-15
21
-9
28
-14
-10
-1
-3
12
-20
28
-2
4
9
-41
-26
12
-24
-13
-15
-8
-13
4
23
19
2
2
-47
0
-48
-43
3
-17
28
3
-1
-127
3
47
3
39
-37
80
-56
1
-22
55
2
-26
-11
55
35
-5
-34
8
-39
17
25
50
-1
3
29
28
-7
33
9
61
-1
-32
-10
69
33
14
-24
54
19
-35
-1
-57
38
-2
-41
21
-27
-83
-8
11
-22
21
-5
-27
-6
0
-27
-4
-6
-32
5
22
19
-9
12
-7
-13
-2
-16
30
-23
-18
10
-20
-8
-26
20
-6
3
-16
21
-19
-17
-6
6
13
-29
2
47
31
-3
-22
-7
5
-5
-6
-1
1
-1
43
-28
-7
-22
31
12
-14
-21
-11
-10
7
3
-25
-14
-3
14
17
19
15
-1
-4
-18
-11
0
3
4
-1
-5
-11
2
11
6
2
-21
-16
11
4
8
16
20
-14
2
-4
-12
7
-2
-12
4
8
15
-15
14
1
-2
-8
-8
1
34
-13
5
-5
-4
2
10
8
-14
25
4
-25
-7
-5
1
6
25
-8
-8
1
5
0
6
-4
-2
6
-12
-2
-6
-34
-12
6
19
-7
1
-3
1
30
12
10
-23
19
2
15
18
12
16
-1
-13
17
-5
9
7
3
1
3
20
-15
6
-1
3
7
-6
16
12
9
-13
4
-6
14
-3
8
-17
34
10
-19
-15
-9
16
15
6
22
19
0
9
-9
-28
2
19
-15
16
-11
-7
-11
10
-7
18
7
-4
-1
0
-15
19
12
2
9
-3
4
-6
-11
12
-5
-3
9
5
-5
-10
-8
5
2
8
-21
-12
6
14
10
-2
-12
-14
2
-18
-5
1
-6
-13
22
9
-16
-9
3
-16
2
-8
-14
15
18
-7
5
-12
-9
-1
3
17
-57
-23
-18
-27
-48
-58
-33
-2
-2
-46
23
-26
-14
8
-24
-39
-21
-57
10
-7
-27
-50
-39
-27
-16
43
-2
55
1
-44
-6
-37
-1
1
-15
-18
-11
-7
-21
-88
47
20
26
14
-29
-20
-33
10
-9
94
18
-46
-49
16
-39
-1
-18
-7
-21
-13
19
-26
-27
19
-15
-20
-2
-53
-31
-49
-14
32
4
-24
21
-32
-29
-22
29
-72
-14
-55
-1
-3
-4
-42
-53
-35
-20
77
11
20
-40
0
-24
-46
16
-39
-21
25
-17
-20
-25
-48
6
-9
-14
1
-18
56
-14
57
-6
-9
55
-62
-16
-6
-21
-19
-14
2
15
-20
26
4
-54
14
6
-31
-26
-21
-6
-49
8
-20
-29
-57
-1
-24
-41
-7
14
-2
17
-12
-33
-28
-50
-7
-16
-34
-20
51
24
11
-41
8
-15
-32
4
-44
-76
7
10
49
-22
-17
-2
72
32
-6
-28
76
-3
8
-9
-25
-59
-14
-59
-14
-11
-57
-15
-70
26
-31
42
-14
-23
-25
-41
-18
-16
-49
-112
-52
-27
26
3
-32
10
-23
-13
5
-49
-27
-17
-44
-21
-18
-13
-49
-40
0
-24
53
18
26
30
39
-27
-37
18
52
-10
34
-14
-1
-34
-43
-6
-5
13
5
-3
-16
-70
58
-22
34
-29
8
-30
-16
-22
5
-2
10
-14
-9
53
5
-5
11
6
-12
1
-10
-68
-53
-47
60
-6
-17
6
-9
1
27
-55
-62
-4
-31
-12
15
-34
-28
-13
-21
-13
127
-7
17
-20
31
10
-40
48
57
15
-4
-28
-10
-1
-32
13
1
10
34
22
34
-78
67
-24
-19
6
-25
-23
-54
-36
24
51
21
-26
-24
38
-3
-46
7
-5
-41
-1
-27
-66
3
-24
26
1
-20
-4
-7
-6
4
26
-19
-45
-20
17
3
-39
31
25
-32
-29
92
-32
7
-26
-31
-26
-27
27
-10
-65
-29
-26
-2
-24
-4
8
29
36
13
10
50
-34
40
-72
-43
-39
25
-43
-2
-8
-31
3
-24
29
-12
65
12
-22
-31
-69
-58
17
-90
-45
-10
58
16
22
-34
-15
-6
-6
-27
-29
-52
21
-18
-68
-27
-3
-42
11
-16
-48
44
-46
-14
-3
53
-53
-24
-20
102
-36
72
0
58
-33
-41
15
-67
23
29
-15
12
-3
21
-5
-10
-17
28
-17
-15
-63
-45
-29
16
19
4
46
3
-25
27
-9
-72
37
-38
32
9
-50
51
5
-24
-19
3
-11
-27
-85
-63
-1
-6
-44
30
-20
-2
75
1
-29
72
-38
-32
-3
27
-21
-31
-31
118
-9
18
-25
34
-39
-36
-27
-47
32
48
-22
24
-42
12
-8
-65
2
-9
-7
-73
-47
-11
-20
64
-32
-16
-5
-13
-27
-7
-15
-68
-2
-18
-13
7
-58
6
4
-1
-15
21
-30
-52
5
-66
-7
-47
60
51
-14
-23
107
5
-20
48
-32
-17
-28
-57
-48
-30
-19
27
-57
-24
-2
-10
-39
-25
-3
-12
42
-25
-37
24
11
-10
-41
-22
-2
30
-46
27
-38
-57
-50
43
11
-7
56
-16
-28
-11
-9
-13
-3
-17
-20
-13
6
40
8
12
53
-31
-41
-40
-21
-48
14
-25
3
-33
6
-3
-33
-23
-18
11
-16
15
44
20
12
0
8
-26
24
-56
-1
5
-9
13
-8
-43
25
-29
-7
41
-16
10
-23
6
-18
8
-49
21
0
-19
3
-6
-19
-7
8
-37
-6
25
0
4
-2
-10
-14
-32
-11
-41
9
-19
-20
20
0
-19
-15
2
-9
-22
-8
-35
-29
-7
-16
-44
-14
20
-20
-13
-22
21
-11
-3
18
-19
-43
-60
-56
-23
-27
7
-25
-1
19
-14
-22
-11
41
-2
-12
-7
-28
-26
66
-48
18
-4
-24
-39
83
20
-34
-3
-63
-16
11
-11
1
-2
20
7
-1
-2
14
-8
11
4
21
-12
8
5
-9
25
-26
-10
-9
-15
-3
-22
7
-19
2
-1
6
23
6
14
18
3
13
-38
-3
-6
21
12
-1
14
-6
-2
14
-3
1
-4
18
21
5
-5
1
-46
7
21
2
-6
-17
-3
-2
-7
-12
-10
-20
-37
-2
-9
-34
-15
34
80
23
-28
-51
-20
-19
23
60
-51
24
-43
26
5
43
10
-25
-127
-25
24
44
58
65
-25
8
-13
-35
39
26
-30
15
38
59
-5
-17
17
16
-20
42
20
-38
11
2
35
-33
15
-49
77
12
-106
-14
35
-32
-74
5
-97
18
1
-72
1
-42
-39
-33
-97
-17
-3
-26
-41
-53
-30
30
-23
-50
-6
-29
-16
12
-10
-15
-21
-9
2
1
24
-24
-2
7
-47
-28
-13
91
-41
9
-84
-97
-52
-18
-6
21
1
-33
-32
-28
44
63
-24
-2
-36
4
4
57
-26
-17
-51
-38
-22
91
19
-58
-9
-110
-25
15
-2
-7
-12
-9
22
9
31
2
-19
22
-3
-10
-32
9
-6
-20
21
-20
-8
8
6
-29
-39
10
-29
2
3
-1
30
11
3
-31
8
19
-2
0
-5
8
15
-33
15
-13
-16
-2
-7
-14
-8
29
-14
-1
2
30
-89
-7
21
-4
11
-35
2
-15
-6
-19
-5
19
12
-14
-12
13
3
24
11
1
-24
-15
-12
8
17
4
-20
-14
-30
-8
18
3
24
-8
-17
-13
-14
10
-36
-6
22
11
-12
-14
-6
-16
-26
21
-17
33
-13
-12
26
-23
-19
-23
-7
-6
22
2
-20
-14
10
17
6
29
-30
-12
32
-21
-45
1
-6
-10
-3
-15
-10
-39
-32
12
11
-14
-64
25
-26
3
18
0
-10
-9
0
-41
-4
-31
1
6
6
-4
-13
17
-26
-9
24
30
13
17
-3
40
-39
12
-1
-24
2
-6
2
17
2
-17
-9
-23
-5
7
16
-38
-43
16
-32
15
-26
6
-19
-25
-8
-16
6
-8
14
-18
-4
-5
-19
-8
-10
15
-1
7
-15
-5
-11
5
-11
0
-15
9
-7
0
9
-3
2
-7
-6
-3
-13
-1
-4
8
-2
5
13
28
4
-2
22
36
-2
12
-13
2
17
1
5
-15
-12
-2
35
-20
7
11
-1
2
21
29
1
6
-6
16
-15
0
-21
6
-6
15
0
-3
-18
11
21
25
25
-7
-46
-74
40
-54
-14
24
-30
0
36
-26
-3
-46
15
-1
8
19
7
11
-27
8
13
-24
-24
21
18
9
39
-25
19
54
-13
-27
43
-2
-7
20
-1
-53
5
-7
-5
-17
-30
32
-39
-6
2
28
28
52
0
-35
29
-5
-71
29
-6
-13
28
8
9
12
54
-25
-31
-57
72
-69
2
67
-33
46
33
5
34
-28
29
-10
-1
49
-36
-22
13
4
-16
3
28
-19
37
2
50
14
81
72
-16
-61
56
-6
11
-14
-6
-43
-6
-9
-16
33
-67
51
-65
-3
-13
-26
50
37
-3
-65
54
-9
-6
29
-33
-28
-9
-1
-20
8
14
-7
-44
36
39
-40
-13
32
-12
37
40
7
6
-18
38
-29
16
14
-69
-8
4
-1
-21
-13
51
-33
24
-28
2
28
21
37
-18
-33
51
2
11
22
-27
-62
-15
13
12
14
-58
15
4
-5
-11
1
49
28
27
-78
36
-5
-2
15
0
9
32
44
12
1
75
24
4
-54
6
-38
5
30
-28
23
12
-12
10
28
10
44
-1
4
-29
14
-15
-5
29
-9
-41
51
19
38
33
-14
6
-12
-22
-13
63
4
18
3
-6
-12
27
2
-11
-36
0
-9
14
-8
59
-25
50
32
-12
-14
-16
41
10
80
16
19
74
29
18
20
126
23
-9
-28
35
23
45
67
-8
28
27
31
43
51
-7
80
-26
45
-79
-23
-10
19
30
15
11
22
23
-55
41
-1
31
32
21
-46
30
-19
12
54
4
24
3
14
-42
3
-29
-1
-52
18
49
-58
96
16
-26
0
-57
19
-22
57
45
16
43
1
11
3
84
2
5
16
-10
-37
13
39
2
15
20
25
29
22
9
13
10
35
-22
-12
32
5
33
4
56
52
19
-61
1
7
-5
4
7
-30
2
-9
3
18
8
6
-18
25
-8
22
28
-9
25
0
14
-12
52
25
-12
12
-66
12
-13
87
9
34
10
49
33
-21
-7
55
-66
27
19
-7
-9
3
-46
1
8
1
-9
-2
9
3
-4
32
-35
-19
-4
34
-13
0
-21
12
45
20
25
2
-11
-10
-25
-7
8
-21
-11
-2
-8
-14
18
-3
-6
-10
-22
-15
50
-35
58
33
69
20
-31
-3
18
8
127
-6
30
18
27
49
39
4
6
59
-67
34
36
-18
38
49
47
22
68
30
10
54
19
36
-8
28
-21
85
6
46
30
-16
-41
-24
38
-5
61
6
25
16
20
70
-17
37
40
28
-24
18
40
3
-31
19
26
12
-49
-17
47
31
63
4
-23
4
-18
9
11
-23
21
18
36
22
28
8
15
-9
-59
6
33
9
-5
15
24
-3
37
9
31
35
13
-5
10
-8
102
17
21
43
50
-30
19
-28
45
16
36
-11
38
-15
8
0
6
34
-1
33
4
-28
10
58
-15
3
52
4
-1
-58
-1
22
49
34
-15
6
-21
-16
-6
24
12
25
-5
3
-52
-15
5
-28
-10
14
3
-3
0
-21
8
-9
-2
-3
8
-5
19
-32
-16
20
-19
-5
-16
-12
-7
13
-21
-9
2
-7
7
-7
22
7
-16
9
-42
-3
-8
8
-24
-31
14
-18
-8
-33
-31
-4
-2
2
-2
3
-12
-4
-3
-25
8
-10
-5
-12
-6
6
-6
0
-37
-19
-3
-12
-4
-21
20
-14
-2
-25
-7
-8
6
11
-16
0
11
-10
-1
20
-5
3
-15
-35
17
6
-6
-15
-11
-6
-10
-23
-12
17
-6
22
-8
-4
-2
-4
-26
-54
1
-21
-45
-27
-15
-23
-12
-26
7
3
-34
-14
-17
4
19
-3
1
-14
3
-11
-8
-13
-6
10
27
3
-18
4
-14
-10
1
-10
-23
-24
24
10
-18
3
0
-19
-21
9
15
1
4
-5
-2
-4
-18
-7
-12
3
12
-18
-14
26
16
17
-9
-7
0
23
-3
-24
-19
-4
-28
3
12
1
7
-15
-6
6
-13
-16
-17
5
8
6
-4
23
16
-9
-20
23
-25
-45
28
-21
-3
-5
11
-6
25
-23
-10
-32
-10
18
4
10
22
-21
-13
-22
25
-8
-20
-7
3
38
19
43
15
-11
-8
27
34
-17
-31
-2
31
9
-16
-14
14
11
43
4
-20
-16
-23
-8
19
-58
-10
5
-10
17
-38
10
-3
33
-5
10
-12
28
-41
36
-15
-71
32
-7
25
18
15
127
24
2
-7
11
-12
31
-50
10
-54
-13
-24
20
-50
-8
42
-37
32
-4
9
42
6
-12
1
33
-33
-5
-10
-10
38
28
-9
5
-2
40
54
-11
-61
10
0
-25
5
-127
20
-8
-41
30
-70
73
-1
34
-45
-2
-44
-3
0
30
-29
-22
17
20
-9
16
-22
1
21
23
-21
-38
-8
18
-49
1
-25
-13
-11
15
14
11
31
8
10
-33
8
22
7
3
4
30
-30
0
-10
-12
35
8
-20
-12
17
9
5
74
-57
24
-5
-9
13
-77
14
3
-34
13
-43
63
-15
20
32
34
-22
6
-24
-6
-28
7
-36
-3
1
-24
-8
11
5
-31
9
0
-15
-16
3
-12
2
-29
-29
11
3
32
4
-9
-20
9
12
8
1
12
18
2
-43
-1
-2
-18
-44
-3
-8
-13
-7
-20
2
-2
18
-16
14
-11
-5
-9
-2
21
35
-4
10
8
21
-7
-33
-42
-29
11
-29
25
-26
8
-56
-11
11
-7
20
-55
-17
-19
25
-20
-5
-8
-6
11
-38
-48
-50
19
-44
-20
17
-26
-13
-26
5
-4
-5
-45
4
7
-61
2
3
-7
-31
-26
-11
-28
-2
-10
-19
78
-34
-36
-16
-33
0
0
17
113
-26
-1
28
30
6
8
-23
-12
-61
3
-5
-7
-32
25
-56
-3
13
14
1
2
-29
-34
28
-33
-28
-20
11
6
-37
-23
-25
-3
5
-3
11
11
15
-19
34
16
6
-16
18
8
-4
4
-7
-16
-3
-14
-19
-19
26
-14
-17
27
-24
-21
-18
-13
13
-11
-12
16
12
-5
-5
21
17
13
29
-23
-26
-33
-29
7
19
-17
-4
-7
16
1
9
-2
28
-47
-36
-55
12
-15
23
7
7
-2
-5
8
-37
-3
0
27
-14
-10
2
-13
43
-7
-10
14
29
-11
5
-24
20
-9
-12
-29
-4
-31
1
23
37
20
-23
4
-26
44
-39
-11
5
4
-29
-4
15
-28
-23
11
1
-50
-23
10
16
20
-11
-28
47
-23
48
1
32
-19
-29
-33
10
-19
3
12
45
-4
-38
5
-33
4
-5
-1
-31
2
-1
-12
29
-3
-2
34
29
8
-10
-32
13
-11
-23
-44
7
-3
-10
32
75
54
-8
-24
-9
40
-31
-15
6
-4
-7
-11
9
-5
-35
-1
8
-25
-22
-24
-7
-1
5
-11
-2
-5
28
-7
18
-54
-26
-11
20
-19
-1
-1
25
16
-33
47
-25
-4
15
0
-22
11
-29
-18
39
2
-13
-2
1
-2
-52
-36
-15
7
-43
-24
-14
-34
-7
20
78
5
6
-19
-1
34
-32
-31
5
21
-16
8
28
3
-24
12
11
-17
-12
-2
29
-28
45
4
10
10
0
9
77
-48
-23
-38
-1
6
-15
-3
10
-8
-40
5
-9
-15
26
22
7
-7
-27
-3
-16
19
-25
-8
17
-6
3
-22
11
-6
11
-49
-3
-14
-30
33
12
-12
-22
-3
1
2
-10
-17
22
-36
-3
27
-2
3
-8
-8
-52
-21
-28
-10
43
-21
25
9
44
-12
22
36
50
-7
-11
-21
40
15
-39
7
73
30
-49
-9
-37
-9
9
-6
40
-22
-14
27
-32
-1
-21
30
9
-14
-19
-25
10
-7
-18
-44
-2
39
-23
8
38
27
-18
-7
1
19
15
-53
5
-35
30
2
-43
-13
-39
-7
-37
10
20
-34
6
-11
31
-14
-4
30
-11
5
18
-55
-36
-20
17
6
-14
22
19
2
-37
1
-19
-8
3
19
-4
-47
-54
20
-13
11
-23
35
6
5
-29
0
-41
-17
-10
-30
-33
-8
-2
12
2
-1
-49
-21
3
-7
-4
-2
-4
15
30
1
-31
1
9
-3
-2
-5
-11
-24
33
5
4
-6
-30
20
-31
3
65
-54
4
-11
-13
8
-13
-17
8
-23
-68
5
4
-26
15
4
-27
-40
-25
30
-21
-13
-37
26
21
15
-14
-14
4
-3
-3
-11
8
-33
-14
26
20
-13
-32
16
1
-19
-17
23
12
-11
62
31
5
-12
16
-32
-7
3
-48
-36
73
17
-39
13
3
-11
-10
4
42
25
46
-1
-6
-3
-71
27
46
-18
-67
-24
3
19
-9
-29
27
-51
-32
30
-15
18
-37
34
20
-2
-37
-17
13
-3
17
-23
-1
24
-11
1
42
27
-22
16
-11
-11
-1
51
-43
-27
127
35
30
25
-21
-76
-34
14
1
-54
21
7
-17
-17
-35
31
-34
8
-1
-39
-7
2
-7
-6
-8
1
21
-9
-38
-24
2
4
-24
18
0
-45
-11
20
8
-6
-39
59
3
6
-27
-1
1
-26
10
-25
-14
-41
-4
-7
36
-18
-27
-14
-4
-28
-18
6
-14
16
82
-44
-28
-8
11
-46
-7
5
-22
18
-12
4
-15
1
12
2
69
40
-39
-66
-20
-14
1
19
-23
-55
-37
-47
-42
10
-8
7
-66
-30
43
48
-9
-28
-34
44
-29
-20
-46
4
78
-7
-34
-61
87
-30
10
-27
43
6
-30
-14
-39
35
-24
12
-7
-27
-20
-10
13
-4
-13
-27
-59
18
-10
-28
-46
1
-14
-24
-13
-49
32
-14
-46
11
-42
8
-20
31
-62
21
11
7
-51
-32
33
20
-80
-36
-59
-25
72
14
-83
-3
-17
-33
-51
-53
-90
10
71
-47
-22
-21
61
69
7
-24
119
-18
-22
37
-24
-73
-40
-69
49
-19
-112
-2
-34
-19
-5
53
-21
-6
67
-87
-24
-24
21
-13
-66
10
-13
-3
-42
5
-63
9
33
-57
-54
21
-54
-15
-32
-8
17
39
31
-24
-44
-52
-25
-31
-104
-62
10
-46
-7
41
-72
-51
-17
-57
0
16
-19
19
9
-7
91
127
-34
-17
-42
-118
-57
-5
12
5
-57
-6
-55
-10
68
-32
-21
-20
39
-6
0
-10
14
-68
38
-28
68
-3
1
25
-5
-18
-36
13
-29
3
-1
-21
-4
-24
-11
46
3
-35
-84
-37
3
32
-28
-47
-44
-3
56
-13
-15
8
20
1
5
-63
41
2
-5
-53
37
-36
-49
-27
26
4
-28
5
-42
-33
44
16
0
-8
-1
-28
-50
20
-23
-1
-40
4
17
-22
15
-35
99
1
-83
-21
-18
-12
-5
94
-49
28
55
61
-9
1
42
9
-32
-26
-47
-47
16
29
-94
-42
-20
24
2
-6
-47
-7
7
-66
14
-63
27
-31
-12
-47
49
-25
-64
35
-23
-21
-41
-40
-67
-47
-80
33
-22
-50
13
-25
-9
14
31
-55
9
2
2
-11
-57
-18
17
14
-43
19
-26
-10
20
-67
-17
-19
27
82
28
4
-4
-11
20
-32
-75
-15
-24
-48
-109
-54
-10
15
-19
11
75
-23
-23
-35
10
10
-15
-5
5
-10
0
74
-29
-16
-30
-65
-14
19
-27
-18
-32
-14
-47
-50
33
-30
-13
-13
34
-4
-29
11
30
21
25
-36
44
5
-5
-18
4
-31
-50
14
-41
-24
-40
15
-28
-29
35
17
-16
-53
-31
-18
-8
30
18
-74
-17
-39
83
-10
-25
7
20
-60
-1
-26
-13
-6
-31
-59
21
-28
17
9
-52
-6
-8
-22
-25
-21
33
13
-8
-8
23
-23
-53
-13
-31
20
-52
11
33
-33
-27
-2
39
-7
15
-18
-28
-64
7
21
-45
-18
61
59
39
15
61
52
-18
-27
30
-55
-36
66
-59
-98
-2
26
17
58
-46
-29
-21
-10
41
-19
0
63
-42
-53
1
18
-32
16
-52
-41
-21
-17
-46
-33
-69
-24
-36
3
27
-45
-48
-17
82
-9
33
1
-19
-14
-35
-44
-8
52
-7
10
3
-57
17
-71
6
11
64
20
27
25
5
-21
53
-39
-68
-15
-31
-44
-69
-60
-10
-9
-31
-52
68
-20
24
-31
4
38
0
47
1
-16
-35
72
-3
-62
-11
-25
-1
-6
-36
-14
-16
-18
-58
-31
-7
-36
-13
-31
-22
6
24
-17
20
-52
4
-2
-10
-53
-29
5
22
-30
-28
-23
-18
-14
-26
-57
-50
9
15
-21
31
-1
-4
-19
14
-15
-32
14
-1
-12
-21
5
-21
-4
-23
6
-21
-7
-10
-1
-40
-20
4
-18
-10
-17
23
-28
-12
4
-11
-7
-3
-21
-34
1
-36
-7
-58
-30
-47
1
63
11
39
-28
-5
-45
28
-68
-15
-8
30
-1
-18
-14
-43
-1
-7
-46
-44
11
5
-14
-30
-32
-10
-28
31
-22
-13
39
3
-23
-10
1
-34
-30
32
-6
29
1
-20
-14
3
-3
-35
-10
-33
26
-8
-41
-10
3
-3
6
2
-4
-39
-3
54
-6
-84
-44
-5
0
33
25
-5
-47
-8
-75
3
4
21
-16
10
-30
15
-15
-42
-16
22
-4
-27
29
42
-43
-51
-13
-29
10
4
-49
-37
33
-11
23
22
-23
-74
-18
20
-2
2
-7
4
17
-9
8
8
-16
-7
7
-48
0
47
12
22
-34
-3
-16
-37
-32
28
-21
29
-38
-6
-23
25
12
6
-2
29
36
-4
-17
-5
-22
46
-42
-11
-52
-42
-3
-28
-48
-23
-8
-28
-44
33
0
6
-38
1
-10
-7
-5
-41
21
13
17
3
6
-61
20
-7
14
69
-34
-9
21
-18
-18
-9
-23
16
-51
14
-33
-3
3
3
-11
-20
30
-69
-16
-96
-19
-56
14
47
5
54
49
84
-15
13
-46
0
-57
43
15
-27
2
-20
3
18
-41
-9
33
-64
-26
-60
-67
-9
-24
-13
-45
-16
40
-71
-23
25
24
19
6
-13
-21
0
24
19
-39
14
68
0
9
-44
44
-49
-61
-23
-16
75
-45
27
-9
-56
24
-121
-10
-127
-5
17
14
58
-16
-13
-12
4
-35
0
69
36
-50
3
4
-30
-22
-67
-26
26
-25
-7
22
-15
-49
-40
19
-24
0
-41
-51
-19
12
-50
5
22
-27
-12
-2
1
13
7
-26
-6
-1
20
16
4
-3
-43
11
-73
-2
23
-25
38
-3
19
7
-47
13
-90
-30
41
-15
21
-12
67
38
-60
22
-16
0
-10
-25
-5
35
-16
-8
8
-38
-31
17
-1
-45
-8
-12
-19
-10
16
-29
17
-27
-52
-39
-27
-5
-56
-2
0
1
-57
26
-20
10
-28
-17
62
-16
-6
-33
-6
0
-46
-21
4
-34
6
-28
-15
36
5
-27
-47
23
10
-14
-49
-20
-2
18
17
44
20
25
-37
5
19
-15
-19
14
54
11
-10
-11
-26
-18
21
-18
-13
10
-19
-20
-5
-50
-26
-45
-30
-64
-27
9
-70
-23
1
3
-11
11
-45
-12
2
3
68
-29
-16
-19
-16
-22
-51
19
-66
-41
-14
25
25
22
-8
-56
-56
-4
-54
5
-73
-6
-12
18
59
22
-3
24
-44
-8
-4
16
20
42
30
1
-34
5
-11
-10
16
-22
-15
7
-9
-33
-50
-9
-15
-16
0
-49
-21
-6
-49
-8
22
-74
19
-20
-21
-1
4
0
20
-38
35
-29
9
-6
-48
7
-58
45
11
-24
-7
47
-1
-57
-27
-15
-9
-1
33
-26
-26
-14
6
-7
-74
-21
-38
-34
7
35
10
28
46
-50
5
-33
21
0
34
-7
18
-35
44
-47
7
-18
5
22
-33
-3
-30
-11
-5
-2
23
11
-51
-21
29
2
-100
-29
-39
33
-21
-36
-50
-6
-12
4
-127
49
32
-86
2
20
-50
-66
-47
-4
-4
-47
52
-9
-17
11
-12
-22
-58
11
10
-29
30
-25
-22
-59
36
63
-10
56
-29
-2
-46
39
-5
59
-91
-44
14
-38
-29
15
-40
-61
44
-14
-6
-50
1
0
81
25
54
-33
44
-59
-45
-21
-54
5
-3
-32
-32
14
66
35
-13
16
-15
6
-63
-6
-30
4
0
22
-8
-3
-88
2
-2
-21
-36
-3
-1
-49
-12
4
15
-35
-26
12
31
17
-8
-34
-68
-4
-36
-16
-40
-12
8
-32
-17
-15
-45
-2
-34
19
-29
14
-16
8
-30
-16
-1
-15
76
5
-15
-14
10
14
-9
5
-18
-10
-10
-34
-2
-5
-9
-19
-38
-11
22
-5
15
12
-30
-21
-8
-49
13
1
-65
12
2
7
25
4
-10
12
-18
-45
1
-62
45
1
46
-38
18
-26
-3
0
25
4
17
62
-48
31
-54
-12
-18
58
-30
15
-21
-57
2
28
-90
6
-30
21
-33
-36
-36
6
-21
10
-54
29
-24
-40
36
0
-15
-65
-15
-8
-5
-31
39
-29
-12
-30
-9
12
26
-4
13
-4
122
-13
-17
-59
70
34
-12
-6
-5
-11
-36
-8
51
-2
-40
-15
7
-25
-13
26
-16
-42
0
-32
-15
-33
6
-1
41
-15
-19
-54
21
-20
-12
-26
-74
13
-33
8
-52
-12
32
15
-24
42
-7
-29
16
-7
-35
-37
-26
-34
0
-2
-25
-1
7
-37
3
-11
-16
-33
43
12
26
-36
-1
-5
-6
5
4
-55
-37
-11
41
-17
-25
-16
19
-22
-19
-17
-16
13
-58
-17
-37
-24
-4
16
-44
-8
3
-22
5
-2
-15
-26
-20
-35
-36
-4
-12
-20
-4
29
-13
-3
-13
-20
37
50
23
-44
13
-13
1
1
7
-64
43
-15
-81
-5
25
0
27
26
-7
12
11
-56
-23
-77
-8
-25
55
-33
-19
-20
-19
3
14
5
1
45
-58
49
-54
4
-8
33
-53
26
-44
-58
-12
57
-51
31
3
9
-58
-2
-21
-32
-13
1
-21
6
-43
-30
37
-27
1
-47
-43
18
11
-1
16
-34
-20
-40
-5
36
87
6
-14
15
34
-24
-17
22
76
-5
-3
-1
-37
-47
-70
-12
-13
-12
-51
5
-13
-41
-6
53
8
-15
-31
-17
-13
-24
-8
-23
49
-37
1
-40
-1
-21
5
14
-31
20
-55
-12
-46
9
-9
-19
-17
3
-7
6
-10
-70
-48
-22
-15
-6
-10
5
-8
-8
-23
-18
50
16
-30
-25
-3
-17
4
30
-6
-9
40
3
-17
-39
-21
-4
18
-4
-43
-18
17
-39
-15
-24
-32
15
-65
-25
-36
9
-15
-44
-46
2
-16
-15
7
0
-11
-4
64
-5
-42
-28
-29
-25
6
38
-5
-43
4
7
10
-19
31
-13
62
-6
-19
35
-10
-13
17
-13
-11
-2
-1
-5
-4
-22
6
-5
-6
6
8
2
-5
-4
4
-5
-9
0
-6
4
-9
13
-2
-4
-5
-10
-10
-25
-5
-1
5
-7
14
2
-5
-2
-29
-3
4
-4
-13
8
-8
-1
-12
10
-3
14
-8
-3
-7
2
10
-15
1
-4
-2
-6
2
-22
-6
15
9
-1
-13
27
-2
-10
-12
-13
7
-5
-12
14
2
-13
28
-2
3
0
3
0
0
11
-4
0
-6
-12
8
-4
-7
-7
-9
-23
-6
1
-10
32
-10
7
-25
24
17
-10
-10
9
11
-2
-5
-12
-4
-15
-14
-28
8
-3
2
-11
-19
-3
-11
9
-29
-18
-25
4
0
1
-20
-1
7
-8
3
17
29
-7
1
-31
-11
-52
8
-26
-4
-17
6
11
10
-10
-2
-16
-5
-37
-18
0
19
-9
-12
27
-2
-10
-13
4
-6
-16
-27
-16
9
38
-22
-13
10
-5
-21
-32
-66
1
-31
22
-7
3
15
-14
-46
-11
-6
-28
-7
0
0
-2
15
14
-16
10
-14
-1
8
-12
1
2
-6
12
0
8
-9
-2
22
-14
-1
3
6
10
-3
3
-4
-4
-8
-2
-16
4
-24
-5
-5
-10
0
-3
-15
5
-17
5
0
-1
-17
4
-11
3
-8
20
3
-7
-6
-5
6
-3
19
-13
17
11
7
11
20
-5
-11
10
2
-21
-13
16
-19
-33
8
-67
7
-29
-15
26
6
-30
10
-10
6
-2
-5
-13
17
17
19
-7
4
-19
-6
-23
28
-6
-24
33
-27
-29
25
37
-36
-5
-15
1
17
-13
-27
-15
1
14
-20
0
-27
-16
-12
-10
27
-2
21
-23
-10
18
-10
-12
34
-48
-8
12
-37
17
-10
-44
-30
3
31
127
-12
22
7
-14
-16
1
-19
-1
-37
-15
-29
40
-20
-41
-16
62
-27
45
17
10
-28
-49
-8
-67
33
-16
-17
-14
12
29
-28
30
18
30
-28
31
-38
10
-44
14
-66
-28
-13
-3
-44
-2
-56
-22
-47
-23
1
-37
-50
-21
9
-12
3
4
-14
5
-7
2
-1
-14
0
2
4
3
-9
-4
-15
-12
-2
-16
-1
0
-6
0
2
5
-5
2
-7
-6
-11
5
-23
-9
5
-8
-1
-4
-6
-3
2
2
6
-15
-18
6
2
0
-8
5
-5
-14
-9
4
1
8
14
-9
13
15
11
1
12
6
1
-8
-7
-20
-15
12
-10
-7
-13
-29
2
26
5
-4
5
-18
-19
-9
13
4
-13
-8
1
7
17
-6
-1
-34
32
-13
-5
11
-21
17
-15
-26
10
15
-5
-19
-8
14
12
-17
-10
6
5
0
3
17
5
-30
-16
6
7
-14
-8
-29
10
-11
-20
-11
-18
-12
-3
-9
0
11
-22
10
-30
13
1
32
0
8
-2
4
-8
-12
-10
-12
-2
-10
-10
-33
11
3
8
30
-12
31
3
11
-11
14
-13
-24
-17
-18
-6
-17
-19
11
-19
-3
17
-15
-23
-17
-39
11
-16
26
-13
-34
-22
-1
-31
42
-30
-40
-4
-11
15
-17
-14
-14
-8
-12
-1
-42
-6
-48
-51
-48
47
1
-58
-43
-8
-30
-11
32
-47
46
-19
13
-1
13
24
-32
12
-22
120
45
23
-68
-12
-27
-9
-29
25
-4
48
31
-4
-51
-13
-1
-13
-39
-3
-5
44
-17
-34
-10
-16
-36
0
16
13
-19
-2
24
-8
7
-43
28
-25
-42
-3
-18
-33
-25
-19
-53
-34
-23
40
-22
-58
1
-26
-2
56
-15
-1
-14
78
72
-10
-4
70
-2
-30
-36
88
27
-1
-47
-16
-15
-17
-18
-51
-30
-18
-16
-23
-38
20
-6
24
-52
-47
-34
-15
23
-4
-5
-20
-37
-37
17
20
12
-34
-11
-41
19
36
-21
-26
2
12
19
41
-11
-10
101
4
25
11
-16
-17
-16
10
-22
-29
13
2
-20
-20
-32
-38
-36
10
-5
3
-51
-23
8
-73
-10
-14
-2
-25
-38
-1
-6
57
-67
24
-18
4
-32
34
-62
-7
-15
-57
35
-34
-69
0
-44
-5
29
-39
4
44
-4
-32
-8
-23
-34
-20
45
32
6
-54
3
-18
18
-4
-12
40
-38
-20
-5
5
-29
25
-32
-53
84
-6
7
-2
-22
14
78
-29
-7
127
-12
-42
-28
30
-6
-6
-13
59
5
-49
20
-39
-2
-11
-16
-68
21
5
-25
-4
-32
-14
-56
-31
-61
1
-40
68
-17
12
-62
5
64
-41
34
-28
-8
-42
-18
-24
-19
-24
-92
-31
-5
49
-16
-40
-10
-34
-38
11
16
-33
-4
-2
47
6
17
19
104
16
-18
20
-41
-29
-43
-22
-35
-21
-28
-40
-28
-47
-19
-70
-6
-7
7
-33
20
-40
-63
-46
29
-9
-52
1
-41
-3
-49
49
-12
-19
-38
-44
96
-12
-43
-23
-55
-16
3
67
-39
-4
-44
12
39
21
-17
-20
-19
-12
-5
-13
8
47
25
-61
-62
-11
-13
17
10
-33
-40
-15
-13
-55
15
-50
-56
-32
-19
-3
0
18
-30
6
-30
-14
22
-20
-20
0
2
-27
26
-33
-26
13
-26
-19
-14
-34
-7
26
33
-13
-18
-46
-38
14
19
2
-12
-60
-21
-27
6
1
98
9
-34
-42
-11
31
-60
31
-25
-37
41
-41
112
-48
-8
10
35
19
-18
-16
-32
-66
-7
0
-49
-15
0
-13
-36
-61
4
-31
-38
15
-13
-11
17
-45
-27
7
0
-28
-15
-37
-37
4
1
43
-27
-34
-47
-20
35
-28
-5
-22
-21
-70
-49
-4
-22
-15
-55
-41
62
1
-14
-57
-3
-2
-31
-13
3
-29
-29
-77
6
-12
-2
-16
24
-22
-50
-43
-13
-26
28
-23
-23
-28
-26
-7
-39
18
-8
-32
-7
-2
53
-39
26
-17
-56
2
73
-12
29
7
-34
-50
-6
76
-3
-25
-34
22
73
-15
-14
-14
-34
-2
-47
111
-20
-43
-41
-17
-39
-14
-7
-31
20
-28
42
-9
-60
-16
5
-80
-49
-26
-30
6
-21
-20
-6
3
-26
-7
-3
-34
-9
-34
-34
-10
-6
34
-16
9
-14
-17
44
-53
9
-8
20
-23
76
-1
-35
-2
-10
-63
0
-28
-29
-28
-14
51
-35
14
-28
-27
39
2
15
44
-86
-31
-39
56
-55
25
0
-17
-22
-51
-48
-24
-12
-46
-14
24
-28
8
-49
5
-9
13
8
-39
-16
-22
-39
16
-83
-8
-17
-42
-6
1
13
-77
-18
25
-26
9
10
4
-12
-2
17
33
-44
-3
62
-25
-5
1
21
14
41
26
-31
-52
-65
-27
-40
-15
31
51
-39
-22
-43
72
-45
22
-21
7
-29
30
-28
-15
-2
-25
27
26
-55
31
-38
-34
-22
-6
41
-45
-52
-12
-11
-22
-99
49
-5
-39
5
-7
-13
-26
-28
-42
-5
-1
-29
-27
41
-30
37
-40
-17
50
22
-26
-17
-11
18
29
84
-1
-32
-24
-43
-36
-39
15
13
2
-4
8
2
25
-37
13
-9
23
-9
15
-99
-24
-13
-34
3
19
-68
87
-9
-28
-44
-2
49
-33
-38
-24
16
-44
-72
18
-3
-32
119
-30
-18
10
5
-10
8
-10
-37
-7
39
-19
-8
2
-63
40
27
-32
29
-70
4
15
17
17
-15
-20
-29
-4
-36
-18
-3
-27
54
-33
-34
53
-25
54
-48
-28
-42
-24
-25
-1
-34
21
-63
-36
-1
-36
-24
-22
-34
30
25
-8
-1
-9
-30
20
-10
45
-6
-63
16
-36
23
-52
-16
19
5
5
19
115
12
18
-34
-29
-10
37
-6
-8
15
-24
12
-35
62
16
-42
-23
-50
-107
18
-3
-13
-42
30
-22
-6
27
-35
71
-49
25
-45
12
-10
38
-22
14
-22
-1
-7
-16
-39
-16
-2
-39
38
-19
-14
-21
-5
21
-2
101
8
-38
120
-35
7
-28
-30
-14
8
-3
-15
16
68
-14
-54
-77
-20
4
0
-23
0
-25
-2
-35
42
17
-28
22
-32
-69
30
-6
10
-39
64
-58
-8
-2
-13
37
-30
9
-33
3
-50
110
-14
-2
46
-42
13
-3
-19
-6
-13
-25
13
-8
-20
-13
-25
-66
-23
53
41
-34
51
-44
-18
-6
-30
-25
10
-14
-28
56
82
-48
-74
-33
-29
18
36
-23
16
4
-5
-60
-20
-44
-13
-8
-20
-8
-23
-46
-65
-21
104
-51
-35
-32
20
3
-20
29
22
-1
68
33
-35
45
-24
23
-10
-27
28
-17
16
42
-14
-19
21
-74
39
-41
-28
-34
-1
-7
-110
-43
-24
-27
15
-53
16
17
-6
-18
-37
1
-63
-32
25
-46
-17
12
26
-48
53
-65
-115
-75
12
-8
19
-4
-11
-50
-25
-1
55
-41
11
-33
11
-17
-43
-34
5
-6
56
69
-3
45
-9
21
-14
-66
19
-15
29
2
-37
-12
11
-41
47
-71
-21
-14
15
-16
-107
-38
-42
2
-3
-27
3
-9
-36
-55
-68
-20
-55
-37
-5
-2
-26
-3
31
-26
35
-49
-127
-53
-19
-4
67
-15
25
-37
17
40
35
-52
2
25
18
-5
7
-54
48
35
57
-72
-2
33
14
-6
-93
-59
20
-21
-51
8
-23
4
-12
-45
-12
-58
-16
-48
21
-50
-121
-70
-37
19
-9
-10
10
-19
-33
-60
-48
-47
-75
-42
10
0
25
37
8
-18
2
-8
-104
-76
-3
0
31
25
-3
-31
-16
4
4
-11
-17
-15
-17
2
-14
6
32
-15
-10
-19
-17
-5
16
12
-12
-5
6
-11
-16
-15
-34
32
-36
14
-1
28
-2
-12
-8
-28
-25
-23
9
-15
-18
-7
9
-22
29
-24
-4
-10
-4
-14
2
-18
-24
-7
8
-1
-11
-4
-16
-32
16
11
-19
-20
-4
2
4
-9
-1
1
29
7
1
1
8
-3
-29
31
-10
-31
8
31
-3
-13
-27
-3
-18
-4
18
24
3
-13
-9
-23
-9
-15
-9
-13
-11
3
-22
12
-18
3
2
-13
-7
-2
0
0
6
-36
8
-6
-12
-2
10
-29
-10
-36
14
27
-25
2
-69
-14
-4
-8
-12
-1
-14
6
1
0
-2
-2
0
-15
15
-4
-2
-9
13
3
-9
3
-5
3
9
-5
-4
-8
-13
22
-1
12
-7
-20
-2
1
-4
-9
-14
0
-12
-12
10
-5
-6
-2
14
-2
7
10
0
1
5
1
13
9
-2
9
-10
12
-4
-15
-15
-10
11
3
5
-10
-1
7
-54
-38
8
-23
-41
-37
-11
49
18
-22
0
-46
29
26
16
-15
22
-24
13
-8
41
-22
-21
-127
69
74
-3
58
28
-17
-1
0
-3
-6
-4
-50
-15
-14
53
0
37
6
25
-22
56
50
9
-11
29
39
-31
-18
-23
34
-9
-62
-27
-21
84
-32
-10
-79
-22
17
-17
14
-10
-23
20
-8
-11
18
63
-11
-35
4
-6
-59
-32
20
24
-39
-44
4
-22
30
-9
100
-9
-43
-4
-10
-34
-3
-29
-2
-53
-13
-6
12
-8
8
-37
-21
-37
-9
-21
-5
-34
-27
39
-20
-12
-37
10
-26
-2
-90
2
35
-13
-1
-106
-24
-36
15
-46
-8
-5
11
1
-2
-2
10
1
-8
15
0
-10
0
12
-3
5
6
-3
7
6
-1
-3
-15
-17
15
2
7
4
-12
11
-10
-1
-3
2
-4
-9
-2
13
-5
8
-8
6
0
-8
2
13
11
-3
-2
6
14
-9
4
-8
-1
-13
12
-21
6
15
4
18
-5
17
13
-25
-4
-9
-19
-8
-25
1
10
-14
-19
-1
-2
13
40
-1
-9
-5
-10
12
14
-9
24
-2
-38
25
-38
-11
0
-4
11
10
2
-1
-14
-27
-25
13
-26
45
-9
4
17
-16
-11
-18
1
13
-14
-5
-11
-28
-11
6
-7
42
-16
-31
11
-8
9
0
-11
-24
-12
3
-1
-22
-29
20
-14
-2
4
8
8
36
-7
-16
-28
9
-16
8
-7
-14
-9
-16
6
4
11
-15
-15
-1
21
-10
-2
14
-7
-20
-28
5
23
-12
10
-45
-10
-54
-6
-30
1
-9
25
-1
7
-20
-35
4
-36
6
-30
-20
12
-8
3
-6
-35
-7
9
-14
-2
-4
2
0
-3
-8
-1
-1
-19
4
1
-8
4
11
-5
1
1
0
-6
3
-10
-4
-15
-6
5
7
11
2
-13
5
-10
4
-10
3
5
-5
-14
11
-12
14
5
7
9
1
-2
1
-4
4
1
8
-6
1
3
6
1
-2
3
-12
-13
5
12
3
-8
5
4
-9
0
-10
-19
1
18
9
-17
2
9
8
-5
-2
-35
0
-3
-12
-17
-4
11
4
-25
-21
-7
4
39
-21
1
-3
-20
-14
-20
-8
8
10
12
3
-18
-3
1
-5
15
0
-14
12
-1
3
-2
-10
11
-2
7
-1
21
-15
-2
12
9
-8
-3
3
14
-11
22
-20
-17
-7
-23
-26
9
-23
16
26
12
16
-25
-13
-25
-4
-31
16
-16
7
-39
-2
9
-25
0
-1
80
-26
22
-14
-13
12
-9
2
-17
56
-33
21
10
-13
-30
17
-13
10
-29
9
28
-41
-9
-7
-3
-6
11
-30
41
-11
-15
7
9
-14
15
4
2
-17
12
-20
17
-14
-4
-17
-57
9
-14
-5
-18
-35
15
11
-29
-23
6
-10
-24
-33
-11
-13
-28
-16
-36
-17
24
-20
6
-40
0
-50
-27
3
-29
-69
-52
-70
-23
-31
-28
2
31
16
-4
0
-6
28
17
-37
-10
-4
-10
44
-10
-7
22
-81
-52
40
16
-30
7
-46
-50
-16
-22
0
4
-33
13
21
13
5
-16
-22
15
21
-12
10
-4
8
-5
4
8
21
-5
-14
17
0
14
14
-10
-2
34
-18
-20
4
31
-3
-12
15
13
12
-2
-16
10
0
-4
33
-7
-4
-34
-15
13
2
7
-2
16
-10
2
20
-6
9
20
24
15
41
21
-36
-52
15
2
-35
4
21
61
45
0
-25
-12
-13
31
45
-38
38
-10
36
-7
21
18
3
-82
-10
64
24
24
69
-24
41
-15
-45
33
46
-31
29
18
60
-18
-31
11
22
-57
51
2
-38
-40
36
22
-2
1
-34
94
-10
-47
13
47
-32
-39
30
-48
50
-25
-54
-8
-40
-31
-47
-112
-6
13
-41
-43
-43
-46
35
-7
-40
-19
-15
-28
6
3
-11
-29
20
23
-18
-13
-21
34
-12
-30
-61
-35
58
-21
-28
-82
-108
-34
-9
-37
22
8
0
-43
2
30
54
-9
11
-31
-3
5
38
6
-25
-42
-77
-40
127
-2
-65
-8
-111
-38
14
-13
18
-5
-1
-1
6
-5
1
11
3
-12
-3
9
22
-9
4
-3
2
-7
-12
-3
10
7
7
-11
0
-6
7
20
9
-16
-11
34
25
-24
22
-3
13
-25
-10
3
-17
-29
2
9
-22
-11
-4
-25
-32
5
15
8
4
-2
-5
0
-8
6
3
-3
-1
10
-9
-14
13
-5
1
-15
15
16
-3
0
-9
-10
-19
50
34
-9
19
10
27
20
-9
11
6
9
5
-11
-15
-1
14
-20
-1
-29
-32
-15
10
-27
7
-3
22
-10
-5
31
-12
-53
9
-25
-18
-20
13
-19
-39
-23
30
21
51
-37
-44
29
-30
-28
-4
-5
-4
-8
-32
6
-31
-30
10
-18
-2
-12
16
-35
6
4
-24
-12
-10
6
-24
8
-27
-3
-11
-2
-3
12
-5
-51
-7
44
4
18
-4
-28
21
-31
-38
4
-48
11
-7
-6
20
8
-13
-28
-3
-18
21
-7
-54
-32
18
-16
36
-41
9
-7
-66
-20
-10
11
1
2
-40
-7
49
4
71
26
82
-23
2
-18
-21
-30
-57
35
33
43
-56
-31
-30
-35
29
-30
-26
21
-40
7
-33
51
-26
15
57
39
-6
-1
31
39
-33
61
-13
-14
29
1
21
-68
-4
28
27
-41
26
-14
-59
-28
-82
-3
-22
2
25
-22
-20
-9
20
-4
-67
7
-63
40
37
-28
48
-69
-18
-4
-9
9
-4
-2
62
93
-50
55
-63
-56
9
-9
-46
-23
26
-2
-110
-38
-54
-21
-52
31
-10
3
-52
-21
-19
-55
14
-102
-45
123
-16
-53
18
-76
127
-33
-43
5
-14
1
-18
-96
-49
-23
-22
10
31
-69
-38
-74
-35
42
6
-32
-95
62
-12
0
36
-31
-9
-12
-17
-12
3
9
62
2
-35
13
-34
-20
-15
26
33
-48
50
-17
-17
-40
-42
19
1
3
-24
5
17
-37
-20
-43
-12
-29
9
53
14
-15
14
-30
-21
5
-63
-27
-3
-29
2
73
45
-10
7
-9
-2
-57
-47
-68
13
-1
12
-13
-44
63
-22
-2
27
8
80
-59
-41
-7
-25
-40
-35
11
-16
12
-103
23
-6
-23
-9
-33
-87
6
-14
-5
-27
40
17
-95
35
-21
-12
-22
23
-34
-28
-6
-17
-37
29
-40
17
-44
-11
-31
29
-100
59
-16
21
-123
-44
-15
-25
29
44
-35
-27
23
-15
25
-25
-7
-83
43
-45
-26
-5
-69
-72
5
28
58
10
-72
-75
69
-4
8
-50
-72
11
-33
22
-13
84
-32
-89
-17
-26
-50
25
38
-28
-38
-69
11
-40
58
0
3
10
89
-69
42
49
-61
23
-42
-21
-64
-20
-23
94
103
-63
-9
-36
-41
-66
-58
-50
-56
-8
12
-24
6
-11
18
-21
-20
-22
-12
-82
42
-36
22
-1
-58
-25
2
-18
29
-18
-15
31
-1
30
-17
-40
-34
2
15
-36
68
-6
42
-27
-42
40
-9
9
7
14
-22
-7
45
-44
68
97
12
-40
10
25
27
1
-42
-30
25
104
6
-19
58
-48
-25
32
16
-25
-30
-17
-26
50
44
-44
2
-3
-50
35
1
-18
12
0
-27
-31
5
-24
-14
-78
50
37
7
6
-6
-46
10
-17
-31
-28
-22
16
-49
-8
-24
18
-42
42
-81
12
-68
-23
-66
21
-73
38
57
-26
-41
-7
-74
24
-24
-21
-87
-10
-13
-39
22
-8
-64
-35
48
-19
2
-7
39
-37
42
-48
-39
72
23
-63
-9
40
25
26
-6
-28
21
6
29
5
-48
-10
33
15
-53
-12
-18
-53
-17
-29
-35
42
-24
16
-25
-67
-17
-72
80
4
44
-12
-7
12
-44
11
11
41
-33
-3
-107
21
-40
75
42
-18
11
1
-33
-70
-10
-42
-93
-2
12
-35
38
-7
37
-39
-47
7
1
-3
30
-57
-3
-23
28
-25
26
54
13
-26
-24
4
-5
-25
-21
-40
-28
12
-28
31
39
-31
13
53
7
-32
12
4
84
27
-17
-6
3
17
30
6
-23
22
38
-25
-34
2
-27
-2
-40
61
-6
-65
59
-43
37
37
-23
4
4
-2
-4
37
59
10
5
-10
-3
39
-3
-55
43
-27
-10
-29
-14
15
-37
-11
36
15
-6
24
3
-12
10
4
-12
-4
-2
-14
-19
3
23
-7
-4
33
-29
1
10
27
-16
11
-4
9
-7
-8
-20
-2
-9
9
-16
-1
-30
-20
-9
-28
19
8
-4
-4
0
-8
-11
-17
-28
-12
-2
-20
-27
5
-3
-18
6
37
-32
7
30
46
53
-15
-18
-1
-52
25
-1
-4
-5
15
-21
-33
-42
-24
-9
24
-11
-19
2
-38
0
8
10
22
4
-10
1
-27
-20
-12
-13
72
-20
-18
26
-21
-21
2
-77
-7
-28
-24
-5
-27
-17
-25
-31
-4
15
-25
-48
-11
11
-11
-3
-20
10
2
1
-8
-20
-4
-14
-6
-1
-2
4
4
9
-3
2
16
1
4
-3
-15
1
-6
5
3
-6
-38
-1
4
2
5
9
10
-2
-2
4
-7
1
-11
-12
-29
-8
-14
19
-3
-21
2
-2
-13
4
17
-17
3
13
22
-18
22
4
22
-5
-8
-14
-26
8
-50
1
6
-19
-67
61
-100
-13
-46
-18
-1
-35
-85
2
12
1
-8
-2
-21
17
10
30
-20
-9
-4
-42
1
22
-8
-4
110
-79
-22
24
0
-28
-25
-1
-11
16
-18
-15
-24
-41
33
-29
8
-53
-11
-20
-13
-13
-24
24
17
-6
2
-41
-57
51
-50
9
8
-51
40
23
-59
-19
66
0
88
-3
-18
53
15
6
60
-52
31
-24
30
-33
24
-20
-69
-84
65
-16
53
66
-1
-17
-66
11
-99
44
14
-20
-19
9
101
-26
45
16
13
-18
86
-47
-4
-13
46
-43
-37
-39
-54
-55
-14
-73
-18
-19
-13
-8
-29
-127
-16
-11
-19
-22
16
18
-27
-9
19
0
-15
-13
-46
-18
18
7
3
-2
-8
-17
5
-8
1
-1
-5
45
-8
18
-11
-3
-26
-33
-12
7
-11
-11
-9
-34
4
-9
1
-6
20
-8
-20
-4
2
17
32
-2
5
-8
10
4
4
26
-13
-2
3
-5
49
-23
-8
19
-26
-6
-13
-4
-30
2
18
3
-16
22
-9
-7
45
0
-10
-21
-36
-12
-15
11
-17
16
-21
-13
4
12
13
-17
-53
28
9
-9
7
-11
47
-44
-6
11
3
-13
-29
3
7
-8
-24
10
3
-17
-8
-8
-9
1
-16
-28
1
-10
-32
11
6
3
-17
-26
-3
-24
6
5
27
5
5
12
-6
-24
43
-34
9
9
0
-6
18
-2
-2
-7
-14
-12
12
-8
-37
17
-18
-33
33
-7
-5
13
-10
9
13
-8
-39
-48
-4
-25
-26
-28
65
-28
-10
-3
-26
3
-28
-24
15
-11
39
-24
-27
-42
-3
-39
45
-34
3
-4
1
10
15
-20
20
1
-10
-5
10
19
-23
-3
12
-8
-3
-10
11
-5
-1
10
0
-21
-19
0
16
18
1
5
-11
-6
-9
-6
-8
7
-3
-18
3
-5
1
-26
-6
-1
4
-7
-12
10
0
-9
-11
-6
-21
-17
-14
7
12
-28
-6
-6
-4
-11
13
9
-6
-19
4
3
-4
-1
-13
6
-3
-1
-8
13
-4
7
11
2
6
-11
4
11
10
-19
9
-10
5
-1
-1
0
6
-16
-7
2
-3
-8
0
8
-1
-2
10
-6
4
-9
-6
14
18
-9
2
-1
1
13
-12
-7
3
5
-7
-2
1
-5
-8
16
-3
3
-3
0
13
-20
7
-12
15
1
-2
6
-4
15
-5
17
20
-9
-3
24
-1
-1
7
18
10
-14
-10
7
-8
6
4
8
5
-5
17
3
-12
-3
8
-10
-3
-24
13
-9
-23
15
21
26
23
-8
1
5
-1
4
-6
-4
2
7
-3
3
18
-19
19
-1
-3
2
-21
11
13
-17
18
-27
8
-3
8
-16
2
-4
-26
-6
24
-6
-2
-25
-5
9
-4
3
18
-4
3
-4
-6
-6
-5
1
-3
2
-7
9
-7
7
-2
-13
1
-20
9
-6
-2
-15
15
-2
7
2
1
-17
0
-5
-16
-7
1
18
-11
14
-3
-5
24
8
-7
-11
0
-6
-3
7
-1
-16
17
5
-9
-7
-5
-16
-5
-21
15
10
-14
-17
-28
13
-4
-4
7
-13
-19
37
-3
15
-14
34
1
-6
-26
17
3
-15
-64
7
11
4
-18
-11
16
-21
0
2
2
-27
13
-5
-13
-13
47
-14
11
7
-14
-13
-34
-42
-29
16
-8
4
1
-10
5
-57
-14
6
-13
-39
-14
-7
-12
-9
3
-6
-11
-5
-16
10
-38
17
55
4
-62
-13
13
6
-25
-14
-26
-17
-32
29
-29
-57
-31
-6
-61
-32
-14
40
-6
-20
6
-43
-20
-21
-12
-19
-8
2
-54
-38
68
-18
-18
-46
-17
-40
-34
-51
14
-13
-2
-25
0
-24
5
-73
-15
26
-7
-27
-34
-42
-9
18
-20
-3
34
-9
-20
-36
-3
14
-26
23
22
4
8
15
-15
2
-12
0
2
-23
23
-33
8
21
3
7
-9
-24
-18
-5
14
-5
4
20
13
-18
18
-1
-9
-9
-16
12
14
-4
-10
0
30
18
32
-9
-13
-28
2
-12
5
-11
7
-25
-10
-7
-34
-27
6
-24
6
-17
-16
-47
-10
19
39
-55
-49
42
-1
-5
23
-25
-6
2
-12
-11
10
37
-55
-16
10
-45
18
25
6
8
-49
-32
-3
-7
-18
23
6
18
-2
3
24
41
18
-15
-18
-24
24
-27
3
-22
-47
27
6
-16
5
-39
30
-68
-28
9
-14
86
4
-10
-46
-36
9
-47
-40
-51
-32
57
-7
-48
-127
-1
5
5
-10
-42
42
-54
-9
-16
81
-38
-26
36
83
58
3
49
6
-82
19
-24
-9
-6
1
-26
-32
-11
45
-2
101
-7
-6
-33
41
13
7
-29
-14
46
-25
-1
-26
57
-2
-83
0
-92
37
32
-7
-28
-13
9
-24
23
-16
-23
-7
-43
-27
5
24
3
8
15
44
-5
-10
5
-17
0
-33
14
-23
12
-10
22
10
51
-9
9
-27
7
-39
-27
-24
-9
0
14
47
-11
-8
-25
0
-1
-26
4
-39
-34
29
-22
-13
12
64
5
-15
-45
-11
20
-38
-22
-4
11
-22
-10
-57
-9
-11
22
-5
-36
-3
-34
4
-57
9
-65
17
63
-3
11
-40
-20
48
6
-13
10
-6
-5
-48
1
0
19
-20
-93
-11
-88
-61
-22
-35
2
-11
3
-18
-10
14
-53
9
-22
42
-44
-19
10
-8
12
-4
-71
9
43
-88
-49
10
-42
-32
-14
-40
25
-11
-22
-55
-20
-7
-12
0
8
-35
8
-21
96
8
4
12
-20
25
7
-28
-53
43
-16
34
11
-6
7
-30
34
7
1
9
53
-10
41
15
41
36
28
33
-24
-36
7
24
24
20
-17
4
0
14
37
26
3
4
9
14
-32
20
9
-9
4
47
-22
30
0
47
-10
-12
-9
15
-5
4
-3
-11
-8
-30
53
28
1
11
-14
-16
5
1
-24
16
13
30
26
-12
-11
3
2
0
-14
17
34
0
3
-14
11
24
27
-26
13
18
8
10
10
6
-10
-35
-16
-15
12
13
3
9
7
25
1
35
22
-1
38
25
-9
29
12
3
0
-22
2
-26
2
0
-14
-39
-11
-1
-40
-2
-61
2
14
-38
8
-62
-4
15
-12
-16
-4
-2
0
-54
-10
4
-10
-44
-73
12
-74
-66
-44
-42
11
-9
-1
-40
-20
5
-37
5
-28
10
-64
-2
-18
-24
-15
5
-52
-6
2
-76
-45
19
-42
-55
-30
-12
-3
-41
-27
-31
-7
17
-14
-28
32
-36
4
3
86
12
-18
6
-19
27
50
-39
-37
47
-46
15
28
14
-12
-17
48
9
-5
-33
57
-11
29
17
53
16
37
23
-2
-31
-26
-1
10
36
-11
-9
31
12
25
5
-25
-4
-8
-8
-19
0
19
18
16
15
37
19
-25
5
-15
19
2
29
6
-35
7
-13
13
-34
-4
8
-17
16
10
-11
1
-7
-32
1
16
18
-1
-6
-4
3
-18
2
-16
-7
20
-3
27
-16
17
27
21
5
6
1
-8
-22
6
-2
-10
-29
37
-13
-16
-2
18
-5
10
-8
-12
-2
32
9
27
16
7
-3
-2
13
11
-12
6
-65
-2
38
-32
-40
-7
12
-34
20
-54
-1
5
-41
-3
-49
-4
10
42
-44
-16
5
13
-59
38
-7
-18
-56
-70
2
-127
-82
-40
-62
11
-1
-24
70
27
6
-49
27
-9
22
-53
12
-26
-7
-15
18
-6
-4
77
-55
-23
35
-35
-55
-70
-52
-7
-32
-43
-68
-3
17
-28
75
-4
-8
-45
39
108
2
-32
-6
-3
48
37
-28
-40
3
-24
14
-20
7
-22
-17
17
-7
-1
-38
50
20
49
-10
61
27
34
1
18
15
23
-5
17
16
-6
-5
5
3
13
9
-15
21
13
-22
-16
-29
-11
15
-33
13
44
-7
-9
-2
-20
25
12
23
-22
5
-9
11
-21
-20
65
-17
-21
8
30
5
-31
-24
-48
23
4
3
-18
-15
-2
-1
10
6
-2
-11
14
13
49
10
22
6
9
-25
19
17
-2
-19
27
0
-12
-8
52
2
14
8
21
34
0
-18
0
-25
12
-16
26
18
32
17
48
2
5
16
-28
2
5
-1
-9
13
4
13
-31
13
2
19
20
-5
12
0
-4
-1
-2
4
-8
-4
-19
-13
6
-1
-11
3
-13
-1
3
12
1
-10
-14
-2
-15
10
-6
3
-49
-3
10
15
-6
0
-7
9
-4
-8
-12
-4
-17
-15
-12
9
-3
-30
5
1
5
3
-1
12
-1
11
7
-1
-12
5
9
6
-28
6
3
44
8
1
-7
-13
15
-13
-7
0
16
4
-3
9
1
-10
-4
19
4
5
-16
8
1
-38
-9
11
16
13
-13
13
-45
21
-2
-15
-3
9
-7
9
-8
-7
-23
-11
-15
-14
-16
-9
0
-30
20
5
3
-11
2
3
-4
28
-1
-1
-3
-1
24
0
-37
10
7
21
8
-26
12
-27
13
-28
-6
-16
16
4
9
-24
11
-4
-17
5
13
2
-22
-5
-2
-41
-14
5
-13
8
-21
-8
-20
4
-20
15
-5
10
-11
7
-26
-2
-12
-12
6
-6
-15
9
3
-36
0
8
-2
1
-5
19
2
3
18
7
-20
44
7
11
-14
-33
36
-4
-53
12
-5
10
49
-22
3
0
26
-37
-27
-25
5
3
-8
-29
9
-6
-30
-14
-30
3
0
-2
-28
14
-35
-13
-74
4
-5
-17
-38
-11
26
-8
12
-5
-40
-13
-16
-5
8
2
56
-52
-18
-13
-50
-38
-33
-68
-48
4
-15
10
-31
-39
-9
-7
1
-44
81
18
-46
-40
1
18
-4
-34
34
-20
28
-99
18
-36
-39
-23
-11
-49
-43
-15
51
-13
-47
62
-14
-41
-59
59
-38
-6
-55
-90
-55
62
-37
-74
-69
-31
-4
-48
-49
-44
-25
-12
-14
22
56
-67
-33
-38
16
-26
-35
-45
-113
-28
1
6
1
-8
-16
9
-4
7
19
10
-5
-26
-10
-23
22
-53
8
-20
1
-28
-6
-8
-60
6
8
2
-16
-15
33
-38
-36
33
-6
-63
-23
-7
-15
-8
-19
-75
-26
28
7
-10
-90
-22
-8
1
1
-22
-27
-8
-40
3
39
-55
-39
-29
-27
-27
17
-46
-69
26
-25
-10
-31
-31
-19
-14
24
16
22
-12
8
-38
-16
-15
13
9
19
-25
20
41
13
-43
-12
-36
-60
-16
34
9
6
-36
-5
-10
22
-5
2
-17
25
-5
-27
-17
37
-4
-19
22
28
22
-34
-45
-29
-16
21
-28
-19
11
-18
-64
-44
7
19
6
29
31
-25
-12
-63
-3
-7
-57
18
-14
77
36
-36
-127
13
-70
18
8
-40
65
-52
17
6
79
-4
-52
-95
31
-58
8
115
35
-30
28
2
-69
-35
-8
-24
-57
53
-4
15
84
6
62
-1
84
99
-26
-37
-55
7
-98
0
-53
1
12
-121
-21
-102
40
-27
24
-39
99
-20
-92
-31
-14
-16
-41
-11
-35
32
-20
-22
-72
13
-8
10
-25
13
61
-41
-8
26
-1
-1
50
69
-21
62
-7
0
-47
-59
45
-7
-13
-58
-37
-53
-24
-11
-16
-55
71
-25
21
-16
42
53
31
-46
-34
-5
13
45
-13
21
-15
-31
-37
-69
78
-8
23
-17
50
23
-14
-31
-15
-9
-14
35
-22
-6
20
-18
2
-39
26
-53
-7
-19
3
-32
-12
-32
18
-6
-49
-25
-36
40
-23
31
42
-34
-15
-17
-4
-9
-12
-11
-13
10
-15
-19
11
-22
55
-3
-16
11
8
-2
9
-7
-17
18
13
-1
-28
-47
9
13
8
-23
-23
-16
16
-37
-51
-18
35
-14
-14
-33
-12
-5
4
13
-3
-23
36
22
-21
-29
60
-36
2
-22
12
-41
-7
-42
-30
70
-11
15
-21
-69
-33
13
11
-35
4
-56
18
30
-22
-67
38
-4
11
-30
-12
15
-35
-10
56
-4
-36
-16
-2
1
-15
4
-40
-10
20
-14
-3
-39
-57
42
-14
-3
20
-10
39
4
1
-7
10
-11
4
38
-77
-31
-45
22
11
-42
-71
26
8
24
-12
20
-7
-67
0
-22
0
48
-29
23
-18
17
-37
-8
11
-14
4
-4
4
-5
-17
29
-14
-86
13
-16
-15
-32
-26
-43
2
-88
29
23
-8
-16
-61
19
-32
-25
0
-3
3
-39
-4
-10
-27
11
-27
10
5
-37
-30
-12
39
-83
-26
-18
3
-14
-38
-9
-10
4
-3
-23
2
29
15
-15
56
34
-32
-15
1
108
-1
-8
-6
8
-31
18
-37
12
10
-8
4
-32
-33
-37
-20
3
-16
4
-1
26
-50
2
67
-11
-17
8
-6
1
10
-40
-44
-31
28
30
-29
-50
-29
26
-20
22
-36
-34
59
-18
-9
-40
26
13
38
39
6
16
35
-34
-34
127
-47
-3
57
-82
-23
-16
-15
31
101
-83
35
1
-11
-49
0
-15
-12
-60
30
0
-37
-33
42
-26
-51
-18
-6
14
-37
-1
-5
-28
13
-5
-26
-13
2
12
-19
-9
18
-43
-5
21
17
32
15
-35
6
39
-38
-44
-38
6
-8
-8
-10
8
0
34
-51
1
1
-118
8
11
-32
14
-43
-7
-18
25
-57
-4
2
13
11
-6
14
-25
-6
11
-47
-44
18
0
-14
-11
-28
-44
25
-99
38
26
-28
0
-47
-1
-21
-14
11
-4
-9
-60
57
33
-30
-22
53
20
2
-7
-23
-31
0
-40
6
-27
-3
-11
20
-14
4
8
-40
0
-17
-17
41
-32
40
-6
-33
-9
-19
21
15
-14
39
21
10
-35
-35
34
-3
-16
-21
-41
-4
-23
-23
3
-26
-2
-3
-2
-39
-30
34
12
-8
16
3
-13
31
3
-30
-49
30
27
-31
-72
44
4
-49
21
-12
-45
-10
71
-3
-28
41
10
28
107
2
-6
7
-32
-2
-21
-14
-12
66
-54
-40
-18
-1
-6
59
-65
15
-11
81
-31
11
-6
2
-59
23
-21
45
-22
-27
-1
-43
-38
-21
-16
-24
-45
-41
5
6
-30
-32
-26
-11
-6
25
46
-19
-53
-14
0
-32
4
24
-33
45
10
-21
-40
-32
-13
13
7
-48
-16
4
5
-38
41
5
-65
22
22
-86
-7
-4
-20
-19
9
-49
22
-16
45
-15
7
0
-75
-28
-26
-19
8
8
0
-69
-8
-17
-82
-6
-97
19
33
-46
4
-43
-15
-22
0
5
6
7
5
-4
25
1
-13
-5
19
-3
-6
6
8
12
-19
11
15
-17
-3
-7
16
4
-2
0
3
7
6
4
5
0
-9
-6
3
9
14
-15
-8
-16
2
8
-20
-6
7
-2
19
3
-8
3
-15
-13
-14
-14
16
-4
-1
-1
12
-3
8
1
-4
4
6
1
-9
17
-22
0
24
-21
1
25
43
-6
-21
3
-1
34
-14
-13
-30
-3
6
-6
-1
11
19
-2
-29
0
22
15
0
6
-18
-7
21
5
43
34
11
-6
12
-14
5
22
8
12
25
23
7
-19
-29
21
-7
-15
1
-7
6
-6
-2
0
21
13
24
-30
-14
6
35
-7
-6
-1
9
-2
1
-5
2
0
4
7
1
6
10
-4
-3
4
-2
2
12
0
9
9
13
1
15
4
14
10
-17
6
8
13
-2
20
20
15
-2
0
-10
18
-24
-6
15
-2
6
25
-11
-12
-14
5
12
-16
23
-1
0
-25
-1
22
0
-7
4
-2
-14
19
-10
-1
12
-9
23
22
3
-15
-18
-14
10
-14
-1
16
1
2
-6
2
8
7
1
17
0
2
-1
8
-29
13
-7
-15
-3
19
-17
36
-17
-21
-7
-8
-18
-2
40
-5
17
7
-14
0
-17
9
-18
-14
8
-28
1
9
-1
-8
10
12
7
15
39
-19
-6
15
-63
9
38
-13
-13
68
28
18
9
-19
30
8
37
-29
3
18
-34
7
16
57
27
37
-10
26
-8
78
-19
33
-13
-7
22
-66
5
61
36
-54
15
62
-29
24
1
16
71
68
-8
13
-32
33
-4
-30
-28
-37
3
-59
-29
-24
53
11
-57
12
-4
-22
-1
-16
10
-15
3
-5
0
-28
-13
1
27
-8
11
11
56
-42
-11
25
-24
22
-5
18
-16
14
36
13
-13
14
16
17
-18
0
-2
-50
-11
35
36
-18
13
-14
-14
13
-14
-19
66
27
-6
33
-28
1
-21
14
-1
-56
30
3
6
-9
32
10
-31
4
11
-24
-20
2
36
22
-61
-14
-1
-23
3
-33
9
7
3
-4
-7
-21
-35
2
14
-33
-13
3
18
16
13
-13
-6
-54
-34
-1
11
-1
29
7
-5
-63
-12
20
-6
-35
-16
-6
25
5
-54
-5
-11
4
-18
-19
-7
-31
-8
-31
-24
8
-13
-30
-24
12
16
-7
-26
0
-34
47
12
27
-100
-10
-61
-24
11
-30
-9
13
-53
30
-16
-11
-29
-1
-45
-27
-28
-52
65
1
1
20
-1
-75
38
-32
1
-26
34
91
-34
-83
-37
52
-18
-19
-34
-9
27
-29
-29
-11
-28
-26
-21
-113
-24
-43
-44
-63
-27
72
-13
-30
63
-44
83
-3
-11
9
-127
26
32
14
-83
-8
-51
-33
-13
-5
-1
19
-39
20
-35
-13
-39
9
-45
-14
-49
1
18
-31
-4
6
13
-15
41
-42
-16
-25
24
87
-10
-43
-27
15
6
-5
-23
-6
-38
-17
-29
-4
7
-24
-28
-40
-57
4
18
-31
11
4
-30
-19
11
-32
42
-22
26
-9
-56
4
-24
-15
0
-55
7
-1
-14
5
-2
24
-11
-95
-2
-57
-21
39
-26
3
-73
-11
-48
-20
-4
21
14
-7
-13
40
-6
-32
-29
29
-27
-8
-8
-21
67
-26
-23
-14
89
16
6
-58
48
-4
44
16
45
-29
-16
34
41
5
7
-12
-15
11
-40
2
-19
37
33
-10
-45
-17
-11
-54
4
-29
9
-6
-47
50
-20
-87
-36
-50
-73
127
-60
-19
-42
-4
-18
-12
-16
-9
36
-28
86
-29
13
50
-26
-15
8
-29
-25
-17
104
-3
7
-8
98
62
-10
-35
54
-32
15
22
6
-88
-46
5
43
2
-4
3
-43
11
-33
46
-12
46
32
-20
-26
-32
-29
-55
14
-45
-36
-11
-57
30
4
-67
-5
12
-40
93
-65
17
-55
-12
-37
13
-21
-21
38
-12
15
-52
-41
44
-19
-34
12
-23
-53
-17
70
-27
33
38
-5
49
-36
-43
72
-34
-1
-22
1
-44
-42
13
78
8
-27
35
-52
23
-21
69
-2
87
44
-27
-52
9
26
-42
-7
0
64
1
-1
15
-13
9
5
-36
-54
-7
13
1
31
19
-56
2
-16
12
-36
13
-28
15
-15
12
-24
44
-6
20
24
26
64
7
5
-26
52
14
58
-47
25
-37
-9
29
18
13
-10
-21
9
4
46
8
30
36
-5
8
17
37
-9
0
-67
20
36
-4
-3
-14
92
21
-52
-2
-27
13
-13
-30
-90
23
-39
7
5
19
-19
5
-31
-6
-16
8
-14
35
-35
14
-11
16
-38
4
57
28
96
-11
-2
-45
76
3
46
-16
44
-16
-12
43
15
-33
-18
-40
-21
-52
15
-21
63
-21
3
-26
5
16
13
-7
-58
-29
27
-16
-12
-44
40
12
-58
23
-19
35
8
43
-78
30
-16
16
-1
-12
-48
29
-21
-11
5
-45
-4
23
-76
-4
-9
47
-16
-13
-29
5
28
-13
37
-1
15
7
47
-40
56
-29
-16
94
-30
3
11
-29
17
-36
17
40
-10
-28
16
-21
7
28
23
-19
10
-29
27
8
6
-22
20
-19
25
7
-3
46
27
-26
-26
-19
7
-22
-9
7
-24
-16
32
3
-16
3
-2
-2
-38
15
-4
-10
42
-33
47
26
39
-6
-8
-19
-6
28
24
-26
2
-42
14
38
25
-3
-3
-16
14
-7
23
16
-2
25
16
-22
11
-8
17
24
-7
-22
19
-42
-8
15
45
14
7
2
2
28
15
4
-34
1
-12
50
25
20
46
23
-14
-17
-9
4
7
48
-56
1
7
-1
-4
-24
50
24
33
-24
-30
-31
0
12
43
-35
31
-44
-53
20
31
-3
5
-73
-44
8
34
30
16
18
20
11
-12
-13
19
-18
-31
-4
37
-28
0
-12
9
14
-41
-9
6
-4
0
-4
-20
-7
42
-2
42
4
41
41
-2
-20
13
-7
0
21
-93
-6
-1
29
8
4
4
-3
10
-45
7
-26
13
-5
52
-22
21
-47
-30
59
-6
30
51
-57
-9
-16
-1
11
-33
-16
19
-30
3
-12
43
-71
-43
-18
-28
106
-45
0
35
-25
43
-39
5
12
-46
8
27
15
-23
-42
69
-41
-39
12
-44
-34
-5
26
20
5
-23
-1
-38
-36
56
-65
76
-28
-17
-18
-38
50
27
23
16
-17
-33
-11
-23
7
23
-15
-70
-6
-19
15
-33
-28
-29
-27
-57
-27
-40
-24
-14
-50
-7
-33
-1
115
-48
5
28
10
21
-49
-38
8
-31
2
-2
-19
-11
-33
27
-58
-55
17
-50
-8
-6
15
15
32
-16
54
-39
-25
45
-18
14
-28
-36
-32
-45
5
19
-11
-10
-40
-10
-18
-37
17
11
-5
-81
-9
-38
-4
-60
-10
-44
-28
-29
-10
-47
-66
-8
-7
11
-19
-36
101
-24
-25
49
-6
27
-65
-46
8
-52
45
-7
-34
16
-36
25
-31
-56
21
12
-30
28
1
-18
10
7
64
-30
-25
50
-27
7
-37
-7
-5
-42
-16
-14
-3
-47
-20
1
-16
-44
8
-17
-31
-33
22
-32
47
-67
-8
-53
-41
-23
-49
-7
-74
-4
-63
-52
-39
-24
40
-84
5
36
-12
18
10
-1
15
-14
-4
9
27
-29
0
20
14
-18
31
10
8
52
-6
22
0
-18
-29
-36
9
-10
-35
25
-29
6
24
-23
44
5
10
66
-29
-44
-19
-50
-3
39
-27
-37
-53
25
8
-24
3
5
22
-12
-3
-19
-44
39
-21
-32
-9
-54
46
-35
-1
23
-10
-31
-60
27
-25
-47
19
46
-10
-16
-24
31
-28
-58
18
-34
-54
-47
21
-24
-4
6
-15
-41
-49
-15
15
24
44
4
-43
-28
0
-5
-29
17
-38
-32
-52
-45
-15
-1
-3
-37
-57
-52
7
-13
-21
-49
-80
-34
-7
-54
-60
24
-16
-22
4
-16
127
-44
-31
39
-3
-8
-69
6
15
-56
9
31
-32
0
-26
-1
-10
-48
9
-39
-54
-11
12
-62
9
32
26
-11
-24
-16
13
34
-49
-11
-30
0
-32
-9
-31
-2
-19
-12
-38
-8
-23
-30
-35
-14
-29
-4
20
-34
10
-27
-41
-35
-25
5
16
14
-71
-31
-8
12
32
-61
5
15
-20
-8
-4
7
-2
42
4
-5
-50
-32
-10
45
11
22
35
8
-15
46
21
-34
8
-50
-21
-11
14
-26
8
35
-12
-16
34
-26
33
50
13
-4
-57
35
-2
-47
27
-2
-17
-3
-24
54
35
-34
-16
39
24
87
-1
-16
-42
43
-27
-38
-18
-37
18
-28
-10
23
-11
-62
-4
7
-20
-26
29
19
-15
-5
-52
15
5
-2
8
-14
-22
4
18
-25
-2
-59
-13
-23
-18
-19
3
52
75
29
-36
-20
0
-24
12
-8
-47
4
-33
-64
-15
-33
-27
-19
-32
-6
-8
-33
-25
-38
-21
18
6
-31
-38
24
-8
-61
-6
-2
51
-10
-6
22
-16
-37
-15
-1
7
-46
-8
58
-5
24
-21
14
-6
0
-33
13
-52
-3
21
-43
-20
-53
-18
-5
-9
-1
-2
62
-40
27
-35
-12
4
-12
-3
4
-39
-4
-47
-53
-23
-7
-32
-1
4
-28
33
-25
-5
-36
-33
-7
-30
21
1
48
-7
-21
-13
-18
-9
15
16
-10
10
9
1
5
0
-16
-8
17
10
7
-10
-25
22
-12
-9
-7
-9
15
3
-4
-3
-15
7
-17
-3
24
8
-10
4
15
-11
-12
-1
10
13
-4
16
2
-4
-19
2
10
-20
8
-8
-7
-13
-8
13
-4
-6
-12
-4
23
21
10
-35
-12
2
-22
-41
-43
-22
-35
10
1
27
-25
43
-3
-15
-21
27
-24
0
-31
29
-44
-17
-49
-23
63
-25
0
12
0
-8
-6
13
-21
-3
-65
-8
-3
-13
-31
46
13
54
-26
49
48
8
-25
17
-2
-36
-27
12
-4
-11
-26
-48
-30
29
-4
-33
-23
-6
26
0
-13
5
0
37
31
8
4
26
8
-8
34
-17
-68
-19
23
-1
-29
-59
-1
-12
23
14
11
2
-48
11
-19
-3
-3
-37
-7
-6
-4
-2
7
7
-9
6
-19
-31
-1
3
-6
-2
-45
19
-4
4
-14
-14
-15
-8
-81
15
31
-23
13
-93
-27
-9
1
-10
14
-17
-18
29
5
-32
-13
26
5
25
-8
-3
-8
-9
28
17
-25
-3
5
4
5
29
-7
-25
1
-21
-3
44
12
22
-26
6
-11
-10
45
9
-10
20
29
17
-24
-31
16
14
-17
15
-7
2
-31
-3
7
-8
9
-4
-5
-5
-17
-2
12
-10
2
-3
42
4
3
-57
-26
6
-16
-63
-65
-4
-7
3
-29
14
-40
47
37
-9
-14
30
7
10
1
25
4
-20
-111
80
12
20
29
27
1
-11
-16
28
-4
6
-54
-22
-23
72
-24
13
1
18
-35
53
25
23
-45
-10
1
-30
-30
6
7
4
-52
-52
-15
88
-15
-42
-58
-32
-25
-16
12
-22
-25
-1
0
-3
26
57
10
-22
1
-26
-84
-17
14
18
-1
-46
-3
-3
15
-14
-20
-37
-59
3
16
-12
8
0
-13
-31
-16
26
47
23
-6
-25
-19
-67
-15
-2
-17
-11
-13
19
-9
6
-51
-1
-17
11
-103
3
54
-12
31
-127
-38
-25
18
-20
12
-4
-2
17
7
7
-10
9
-4
-7
-9
-3
-20
0
43
4
-6
10
5
6
-6
-4
12
2
-2
-12
-20
13
-15
-1
-1
20
-12
3
17
-16
-8
-2
6
17
-22
-21
8
-5
-18
7
1
-2
-25
-10
-13
-23
9
-2
-3
23
-2
-25
7
1
7
1
-5
0
18
-19
11
-29
-33
-2
5
-11
-32
-8
-17
7
8
-2
15
-14
1
1
24
6
-5
-21
4
6
-1
26
-40
-4
11
-34
24
7
-22
-8
-22
-45
9
20
0
14
-7
1
13
-17
-20
-25
5
10
-9
-27
-36
-11
-25
8
-21
41
-24
-44
5
-23
11
-5
-16
-19
-4
-11
-9
-25
-23
18
11
11
14
7
12
19
-9
4
-25
0
-2
-22
1
2
-18
-19
4
6
-16
-9
-17
-1
8
-3
4
7
-18
6
-16
30
26
-11
2
-5
0
-72
-11
-15
-3
-2
16
-14
1
-10
-38
10
-12
12
1
-11
24
-27
-7
-1
-52
1
10
-1
8
2
-4
11
-44
26
-37
-12
-12
10
38
-5
-10
8
15
3
47
-17
21
-33
-7
-9
-23
-32
-2
7
9
-48
23
9
-24
-37
-14
-12
6
16
-9
26
27
12
-29
20
8
28
-18
9
5
-5
-24
-14
-48
-19
-3
7
-14
19
-1
-40
-45
10
2
-51
-11
-39
-21
-23
9
5
-31
-34
-50
-12
0
22
32
87
-35
-40
-13
-20
-18
-43
-2
-40
36
16
-32
-69
-14
-23
-54
-92
13
26
2
-27
-26
-55
-86
-22
-57
-36
-2
-10
2
3
-8
92
16
-11
-6
-4
-31
-36
-41
-33
-44
-12
-25
20
-31
-37
-98
14
7
-6
-18
19
53
-27
7
-13
8
-6
-52
-8
-14
-6
-8
-4
-19
-26
-8
-28
23
-30
-11
-39
-5
-36
8
17
-17
-13
-4
-14
-8
-5
-25
6
-14
-44
-30
-17
-33
-7
-37
-22
-1
-60
9
64
14
0
-57
-22
-7
-12
-18
-66
32
-5
-20
29
8
2
-56
61
-2
-13
-11
-35
-36
28
-2
-23
-19
14
-53
-30
42
-18
-27
11
-12
-23
-14
16
3
-17
-23
-44
5
31
-20
11
-15
-14
-14
27
45
-32
1
-6
-42
-14
34
-21
-45
-9
23
-4
-34
-25
74
17
-17
-26
-44
45
-23
-9
15
-11
-10
16
-72
22
17
-32
-26
1
13
-33
31
-37
14
32
-44
-10
-18
-59
-20
-12
94
2
-45
-115
-48
-35
34
95
-71
-32
-26
-25
-34
57
6
-58
-53
15
13
75
73
39
-48
-33
-15
4
81
-42
-10
5
44
53
19
2
61
23
6
-12
19
-8
-13
0
102
-52
-50
6
-35
51
-48
7
-47
-66
-85
-38
-40
63
9
-46
-26
-22
-5
-19
-80
-25
-19
-18
-59
-19
-43
8
5
-12
-1
-5
-19
3
-24
-12
-27
19
26
33
127
-18
2
11
-69
17
-24
64
-32
-45
-49
-43
-31
5
-19
39
12
-4
-14
-21
69
29
-33
-3
-39
-18
27
20
60
21
2
-4
-48
19
-13
-28
3
-48
3
12
-2
-19
-50
19
13
-18
11
18
-3
20
-24
-14
-24
5
-6
2
-22
-17
3
-6
-8
2
12
-3
-8
-26
30
-12
-9
30
-54
-6
45
-18
-31
3
8
-2
-38
-9
25
17
-7
-18
31
18
8
-18
-17
-41
-9
-5
12
-6
-27
2
-26
-20
-1
-8
15
-7
9
37
-9
1
-5
-5
-21
10
35
4
3
12
-16
-42
-5
8
2
-27
-20
-44
10
-12
27
6
-22
-8
6
12
-6
4
16
26
-38
8
61
-42
-38
-28
-28
44
-24
-34
6
34
4
-29
9
-25
9
-33
-55
-32
-49
10
-49
15
7
-8
-6
-9
1
-34
-4
-20
10
8
-14
-23
-28
11
-8
-30
-25
-3
-21
17
25
-30
-16
-26
-6
-12
-19
-26
28
-6
19
15
-2
16
43
-21
23
6
3
33
-38
32
-9
-18
-14
-27
-12
-15
-5
-8
-2
20
-20
-21
-43
35
33
-31
-41
26
6
4
3
7
-19
-17
-32
-13
6
-8
14
-8
-5
4
-10
20
19
-12
23
12
13
10
2
1
12
5
-10
4
3
-20
5
2
20
20
13
-31
-5
-5
-23
34
2
10
-18
-3
-10
-7
9
-15
4
-2
23
2
-6
20
12
12
60
9
-19
7
-36
4
-5
-11
-1
-11
-11
-4
-2
4
4
-10
-2
4
31
-7
-9
-12
-24
7
-5
-4
23
2
-6
-23
24
64
14
10
10
-7
-16
1
-5
36
-16
37
13
-7
-5
9
0
26
0
22
2
18
10
-6
22
25
-22
-8
58
19
-8
-5
-10
27
25
22
16
-10
-39
8
12
14
-7
-21
8
-8
-21
-1
-3
8
3
27
-18
0
20
-18
11
-9
-1
4
28
-17
0
2
0
-4
-13
-2
30
-4
-6
13
5
17
-9
6
0
-5
23
5
23
6
-6
30
-7
-2
-9
-17
-18
13
-15
-7
10
-15
2
-11
-23
0
-17
-7
-15
11
-22
-17
5
28
2
-2
0
1
19
-29
-8
24
-9
18
-1
12
-8
50
0
60
-24
-4
-33
-6
-18
28
-16
-16
-43
8
8
25
-26
-13
9
-32
6
-24
45
-25
13
-17
-7
-47
33
-3
18
-28
36
11
-11
-65
-28
44
-8
8
-28
0
20
-29
10
5
-27
-4
-27
-42
16
-38
13
-32
-28
49
-40
-38
4
-1
5
15
48
11
-84
42
-40
28
-34
-20
-37
-14
-22
-6
-14
-22
-50
-9
50
22
-7
8
-42
11
-20
-32
10
9
6
33
-6
-33
70
1
-3
-13
34
64
-26
-21
-54
6
4
54
-19
5
15
-22
-13
43
-7
14
-31
-39
-4
5
-1
-29
14
48
-54
-24
11
67
50
17
-4
23
-110
12
-3
33
-36
-3
-17
-34
-25
4
-14
-49
-27
8
34
-27
-7
5
-16
6
14
-20
2
-6
-3
0
-2
5
38
-3
-7
3
33
31
-14
-21
2
-6
18
3
-16
-14
-13
-18
-49
-20
-8
2
-11
-21
-32
33
1
-28
20
7
-17
-30
1
30
-13
6
-8
11
-44
-8
56
-3
-17
-8
-5
-10
17
-4
-29
10
2
12
-53
5
-12
-7
36
-44
-31
-8
-18
-2
11
-6
-21
-27
-9
5
-3
12
-11
12
-6
-17
-31
-10
-10
-24
-22
-19
-8
-16
-18
-16
9
-6
-17
-45
-15
-25
27
2
-22
1
-9
-20
-10
-5
-67
9
-26
-19
-14
-11
39
-13
-15
13
38
-47
26
-6
-19
9
7
0
-34
-12
3
-16
40
-58
-20
0
-29
-4
-30
-20
-8
2
-36
3
12
-8
-30
-50
1
11
-40
-34
19
-57
-8
-34
-53
-24
-26
-31
-13
-9
-7
-17
-47
-8
-2
36
1
-25
-14
-6
-11
-10
-127
-21
7
-16
28
3
6
-8
-11
12
-5
-20
16
7
-4
-12
0
27
13
-9
-2
-28
15
-14
14
-29
-35
-28
-12
18
8
15
-31
-10
18
7
-21
-29
-8
3
1
14
20
-10
1
-9
-37
-12
-12
-9
-16
-31
10
0
-19
27
-5
6
17
-24
-16
-6
0
-7
-102
-12
4
-11
20
-26
5
-5
23
-13
-6
39
42
-14
4
8
11
36
5
2
-27
-11
-1
13
56
30
10
34
-18
-7
25
-3
-8
-1
38
14
35
-35
19
60
-14
-10
-25
-2
7
-9
16
5
19
8
8
-11
-19
24
30
7
38
-69
-17
-5
-52
9
30
5
-27
28
3
-2
1
4
-6
-19
15
-3
-4
-17
9
-6
6
2
4
21
60
-20
1
24
-20
12
49
18
25
30
8
-5
12
48
-14
-1
10
-1
31
-19
19
60
25
-42
7
2
15
-8
-18
-19
25
30
13
25
-8
17
23
-2
-5
-77
-9
-20
-47
-14
29
-6
-40
-2
-24
-10
9
-8
9
-23
-15
-10
-4
-22
56
1
23
24
-4
23
53
-9
-7
46
-21
18
16
1
7
-19
14
-6
27
-12
-3
0
37
-4
14
-28
19
11
2
-40
22
-5
19
-20
-23
12
42
3
24
4
-4
9
-2
19
19
-77
4
-5
-35
-7
-9
-3
-28
11
0
-5
13
12
23
-11
-35
-19
-51
-12
30
-38
-8
42
18
14
-31
13
-37
6
-8
-42
-109
-17
21
2
-2
-49
-25
-46
-52
4
-19
-25
-6
16
-32
-33
-107
89
-12
-17
-23
1
-7
-8
-77
-20
-22
-20
-12
-38
-20
-31
-10
-28
2
-22
12
-12
-8
-52
97
-24
-18
-3
-96
35
41
-14
-40
4
-50
-25
24
-12
-12
38
-4
21
-43
-4
-16
-14
-55
-34
-64
-20
24
-33
-10
-23
1
-47
-32
-3
-26
-21
-8
30
-10
-62
-85
28
4
-31
-21
-1
-27
-15
-65
-21
-2
-6
-25
-55
-54
-22
-19
-39
-22
6
-3
9
29
-72
127
-26
-16
-12
-85
32
3
-8
-35
-8
-24
-20
39
-18
26
13
-5
12
-54
21
-22
-21
-39
-27
-72
-13
4
-82
0
-15
-11
-16
-39
0
-1
-18
-13
14
-18
-63
-78
36
45
-2
0
-12
-42
-16
-48
-22
29
-23
-13
-23
-52
6
-12
-49
18
-56
15
-24
-21
-60
81
-52
1
15
-76
-26
13
3
29
9
21
-13
24
0
-5
-24
15
-19
0
-16
11
-2
-11
-2
-92
2
-21
3
8
26
-25
37
21
-12
-20
-5
4
-6
-17
13
-1
-64
-25
36
48
-3
26
0
8
-3
-2
33
-13
-5
26
-14
10
37
5
28
-22
28
-36
16
-115
20
5
-16
-8
-7
27
16
16
32
17
-30
-25
-23
-5
5
8
-4
4
14
1
28
-10
0
-72
-2
-40
5
-17
23
-5
31
34
-3
-3
6
5
0
13
23
1
-55
3
43
17
-8
3
12
-10
3
1
6
-22
6
23
-1
-22
13
20
-4
-16
45
-31
-16
-125
33
12
-28
-20
-2
6
-13
21
34
-3
-5
33
3
3
-13
-1
-4
11
-4
-13
12
0
22
-41
-31
-23
-12
-4
33
1
38
22
-4
29
-23
10
13
2
-12
2
-26
-26
40
-4
-5
-20
-12
-5
16
-4
13
3
5
30
29
7
41
22
14
-6
16
-31
-7
-89
22
14
-31
4
19
-9
39
50
-12
-24
6
0
18
-50
-18
-28
-6
-27
34
5
-42
11
-13
-14
2
-24
-31
16
-11
-4
45
-42
-4
-19
-32
17
-22
-26
-57
-19
6
-29
2
-15
-10
-39
7
-9
-15
-37
4
4
16
33
-35
11
-16
-34
-20
-3
9
15
3
4
-11
32
7
-40
5
-25
19
1
-30
-37
-13
3
36
-32
17
-46
-3
11
15
30
27
47
10
-9
38
-31
3
6
-25
-44
44
-30
90
-57
-58
15
14
-25
-18
-27
3
-38
-37
-28
-26
-8
24
-35
-25
-23
10
-17
23
31
-19
-27
15
-26
-13
-9
-25
23
28
33
-43
-24
-3
15
-52
17
24
-8
-10
-2
-8
-13
21
-47
-5
-7
-15
48
-22
-30
5
46
15
4
-19
6
-33
11
-21
-33
-5
8
14
-24
-4
9
-11
24
-23
-3
5
-18
11
9
14
-6
-3
-43
-19
17
-42
13
2
6
-15
27
14
10
10
60
-47
-16
12
8
-4
-4
-53
-75
43
-4
-21
17
-36
-35
-11
28
23
-51
-32
-33
-10
34
85
-19
-42
-35
-35
-31
-5
-29
-18
9
-40
6
55
11
30
18
-29
21
-21
-15
-36
-21
21
-8
-29
-3
-35
-14
-4
-24
-21
-31
-41
0
12
44
-17
-11
-2
-52
-12
-13
-5
15
-45
6
-26
59
-9
-1
14
-12
-40
-4
-68
-84
-20
52
4
11
-78
-71
-56
107
39
-30
20
-57
-5
93
25
11
26
2
104
-30
50
6
127
-70
-49
34
84
-22
-29
-35
0
-65
-92
2
-12
-25
-33
-37
-71
-21
-55
-38
-18
71
-14
-28
-14
-61
24
-34
-25
29
-48
-79
-23
-53
-56
-39
-33
22
-9
14
-17
-19
4
0
23
-42
-16
-15
-18
16
-31
-23
22
1
27
1
-11
24
-20
4
2
-9
-16
3
0
-29
-16
13
50
15
-10
-13
-14
18
0
0
-24
8
-19
-23
-57
11
-42
-5
3
-10
-3
-9
38
-27
-13
51
2
7
12
-42
-41
-21
-63
-27
76
10
-35
34
-34
-16
-28
-2
21
-47
2
-8
16
42
12
-17
18
-29
-37
33
-26
-7
-15
6
-42
-12
-42
10
2
-54
27
27
4
-15
-8
7
15
26
-20
-10
-21
2
-17
17
14
-5
-22
-19
13
13
-46
-9
6
-21
23
-15
4
12
-34
29
1
-4
7
-6
61
10
-41
5
7
-38
-5
43
-8
-29
0
-5
8
41
20
-41
19
-76
-45
85
-13
23
-1
2
-12
13
-67
-6
-8
-6
69
30
34
-32
-9
-39
17
6
-44
-3
-18
19
-46
1
-17
-3
-49
1
-31
4
-1
-33
-15
20
99
6
16
12
-51
-22
-5
-7
-6
-24
26
1
-13
-18
-16
14
6
-13
-3
-48
0
2
0
42
-6
-13
6
-61
-22
19
-11
13
-25
19
-39
-16
-16
-29
-17
22
27
32
-1
-25
46
0
-9
49
-6
24
4
16
-5
-8
-18
34
-14
31
21
-13
-16
-48
8
61
21
16
-11
13
-4
18
24
-4
-16
0
8
14
-21
-10
39
4
3
22
-21
-14
-34
-10
-30
-37
-35
38
29
1
-53
-6
19
-45
34
-4
-50
41
-4
44
47
-50
1
5
-27
0
15
-19
32
-1
-51
-52
15
48
-16
11
-53
-7
15
-37
-51
18
22
20
12
24
-4
11
-48
49
-11
-13
-9
-32
-27
-59
-28
-39
-15
-65
22
-5
-3
31
-29
6
-32
-7
-74
-52
-39
34
-9
-5
-10
30
11
-21
33
-25
-30
18
15
12
25
-4
-27
-16
-14
42
-32
-19
-32
-6
-50
-35
-26
-25
-48
-34
-31
-35
-40
-29
-48
-64
47
-60
8
-49
-46
-5
-28
82
-49
9
-32
0
-61
-29
-43
-106
-5
-31
-26
-20
15
-19
29
1
0
27
-74
-14
-9
13
-60
-18
26
62
12
42
12
-6
-12
-10
32
2
-34
-29
-49
5
13
23
-65
43
-18
44
-17
-28
-25
-4
6
-64
-44
30
-43
-25
61
-27
58
-122
94
-42
-55
-46
-57
41
-45
-3
-91
17
-36
-33
-2
63
-27
-29
16
-24
-18
75
-27
-38
-42
45
16
-48
-4
-41
-11
-34
-41
-12
-27
-55
-25
32
-43
51
-51
63
19
-15
59
-36
-39
-17
-26
-13
59
-11
-66
-75
-24
49
-20
2
-77
-31
-13
-12
-45
-31
32
12
4
27
-48
51
-20
47
-13
-20
58
-56
-36
-36
-17
34
-48
-36
9
21
-22
100
-64
-14
-63
-2
-3
-88
-15
39
-27
14
-17
23
-18
-25
37
-84
-100
35
-61
70
6
10
86
-43
-18
27
-40
-2
22
18
-30
-48
-35
-22
7
-21
-66
-62
-27
-15
-55
-45
-17
-85
-20
7
-81
45
15
68
-18
-58
69
-15
-66
-16
-45
-76
-28
-30
-56
-51
31
41
51
11
-36
-34
-33
-68
9
-4
-85
-66
41
74
37
67
35
-48
19
17
29
21
-69
-43
-25
-4
12
31
-49
-1
-33
4
-12
-56
-55
5
18
-48
-72
20
-67
-21
13
-41
8
-117
54
-46
-26
-109
-5
105
-49
-20
-106
80
-36
-33
17
73
-13
-18
-52
16
-38
5
-13
-33
-23
47
73
-31
-26
4
0
-51
-54
-25
-36
-18
6
9
-16
2
-39
-20
7
-9
49
-15
-28
-31
-10
16
46
-37
-80
-51
-57
8
-32
-13
10
-23
-27
-8
-44
-23
-47
13
0
47
-23
48
-19
-11
9
9
62
-10
-36
1
-1
69
-16
-31
-77
24
-22
39
37
-42
26
4
28
-56
-40
10
-27
-72
-32
-64
-23
-12
3
-33
-18
9
-56
9
4
24
-1
-23
-78
-21
-17
7
15
17
-28
-49
-87
-53
3
-8
0
-23
-25
-8
-47
-22
-48
-72
7
9
-66
13
-15
-5
-4
-38
53
31
-53
-24
-48
66
-36
-33
-16
-38
-10
-24
20
-3
36
-46
-8
-73
18
23
-84
-29
-2
-61
-20
16
35
-43
19
19
3
55
-40
-4
7
-19
-17
46
-52
15
-60
30
-1
-59
-50
-79
16
-42
-4
24
-49
-13
-12
-44
-17
-127
-23
-11
-18
-67
-25
50
-20
3
-30
32
-22
0
-14
1
-16
-12
45
-7
-32
12
-7
22
-19
23
5
-2
-20
33
-15
-11
1
12
-18
-19
27
10
7
-22
43
-11
-4
-23
-13
5
-13
-16
-3
6
1
-14
-18
0
-2
-25
5
-59
0
-22
20
-18
-32
-48
-8
-5
-15
-7
-9
8
3
-35
4
9
-12
-6
-35
-24
-12
-12
-12
-2
-22
-4
-20
19
10
23
-17
-1
-18
-2
13
-31
-43
-10
-34
16
-15
-40
-44
-4
-27
-23
34
-12
-27
-7
-8
30
19
38
3
25
-1
9
-45
28
18
-17
8
1
7
37
-29
-1
-25
19
12
-32
30
-16
-23
-2
12
13
13
-24
-27
-30
-27
-25
-19
-7
-9
-15
5
14
-28
2
16
25
-3
-25
-18
-4
31
-13
-1
16
-23
15
7
14
-39
6
-14
25
-13
2
-34
-32
-10
24
14
-3
3
-12
23
34
-29
-7
-1
27
7
-21
10
19
-7
10
-5
13
-47
0
10
-16
-12
10
21
15
10
-5
-16
11
5
4
-29
-31
-4
-7
-32
-35
1
28
30
-29
-21
27
-6
-13
16
-8
-22
-27
32
-7
-32
-35
-33
17
-16
-26
42
14
-26
-13
-81
-12
-19
-3
-15
5
-32
8
11
-7
-29
-27
21
-79
-2
-49
43
-12
-15
-44
-14
-8
-51
-13
-32
-17
-26
-71
-2
-7
-55
3
-62
-14
-1
-64
20
32
-46
34
53
52
-44
2
13
-1
-24
15
49
-62
-32
-43
-23
-30
15
-13
-73
-53
-11
-1
4
2
0
34
-11
18
-6
127
-13
13
-56
56
14
10
-3
-45
6
25
30
57
-40
-17
-40
4
-41
-18
-27
-14
-67
-19
-1
18
-2
-14
40
-59
46
25
-13
-39
-5
-5
-3
27
-21
3
23
-5
-12
-21
6
11
8
-32
-1
11
18
6
29
26
10
9
13
41
-39
-27
6
-27
6
19
-3
-14
16
-44
21
12
12
-7
-17
-25
-17
10
22
25
49
1
-50
5
-44
11
-21
-3
-25
3
2
11
35
14
31
18
29
12
7
-31
-17
-14
-26
-39
13
-4
25
-9
13
8
26
-27
22
-23
-8
-33
-13
12
-61
4
-39
-6
-16
-14
-7
12
-21
22
18
-22
-18
-53
-20
-36
27
-1
11
0
15
21
-6
-49
-25
-16
34
-17
-21
-27
-33
-21
-23
-10
-17
-5
-22
-26
-2
33
-21
-11
-56
-21
39
-61
65
8
-23
-6
81
-1
-66
-23
-26
-26
-27
12
34
-28
-6
-45
31
-23
-41
-4
-66
-23
1
-14
-20
1
-14
-4
-27
14
0
1
-47
-48
-8
27
66
-8
-21
24
-6
-11
18
-47
22
-30
-33
-73
-29
-23
5
3
13
-49
-6
13
-4
-33
-13
-32
2
-36
-15
-31
25
-12
-41
-9
7
-20
5
-3
9
3
-30
28
-2
-19
9
9
-6
19
-4
16
-9
-25
8
-18
-23
10
3
-14
-10
23
9
-34
-33
-55
9
-17
-2
-1
-6
-20
-18
-19
10
-37
26
-8
-25
-11
-6
-1
3
9
-34
-27
-9
13
-8
9
-26
3
-9
-25
-4
-12
-9
47
25
21
-20
-12
-40
-10
-24
-22
23
-2
0
45
30
-5
-2
-25
29
-14
4
6
5
-3
-2
28
38
-29
21
-26
3
-37
-10
-31
6
16
-27
-39
14
21
-7
0
15
6
-29
-16
-13
29
-10
-2
-1
-29
-4
-20
-34
-26
-8
22
9
-39
36
-49
-2
-25
18
11
-9
11
-29
13
-41
6
-73
-17
-31
3
5
7
7
12
-13
-17
-30
0
-8
-30
-9
1
-43
17
27
0
15
-18
37
-38
-25
-14
22
-13
-43
-9
-40
-5
15
1
-23
-6
-22
-26
-13
9
-24
-9
-9
-28
17
-10
-38
-33
19
6
32
-29
25
-94
10
-27
12
24
20
-14
3
-25
-5
-2
-9
18
9
-4
5
6
12
4
0
-7
26
-23
11
-14
-12
-9
-6
-10
30
-10
33
-15
15
-6
-32
2
-7
-10
-25
-16
-9
-1
-10
13
-4
22
-25
-23
2
2
20
-10
10
0
-8
-52
-21
-22
8
33
23
-2
16
7
10
-14
-3
20
-2
24
-6
3
18
-34
-41
33
4
-4
-16
47
52
-22
-28
-9
10
13
-40
-5
4
-12
-23
4
13
15
-64
-30
9
-27
-17
28
-11
-21
-21
-32
5
41
8
-6
-2
-26
-12
-13
-13
-20
-16
27
10
-33
3
-69
-33
-90
-7
-26
-44
67
-18
-14
-23
-27
-7
8
-70
11
-53
42
22
-29
126
1
-58
-19
46
27
8
-51
-34
-4
78
0
-64
-18
78
-31
-32
62
13
-25
-52
-31
-46
-29
-9
-76
-64
-7
32
1
32
-5
36
-19
21
-4
-39
3
-27
-12
-35
-13
10
-26
-12
-127
-27
-124
107
-31
21
-61
-6
1
-14
13
2
23
-10
-13
-38
-9
12
0
-23
27
18
-22
-5
39
-24
8
-40
21
48
19
8
5
25
-21
-10
-11
-5
-18
-40
-18
-5
0
-5
-7
-3
10
-17
-11
6
14
-11
-8
-14
-30
-9
-6
-9
-6
36
6
-3
-65
6
-31
-31
-82
9
-19
-33
-22
-51
-5
-15
27
-32
10
7
-30
-8
16
-33
-1
13
33
-17
-3
0
-18
25
-5
-19
-19
-33
-4
33
8
24
-10
-26
5
-5
8
12
-8
17
-29
-32
19
-5
8
-34
0
-17
37
-28
-24
0
-71
-2
16
28
-23
-43
12
32
-36
-13
-12
-40
-4
-13
-11
-22
-22
-15
-17
-23
0
-14
7
10
-61
-14
26
-32
24
-43
-1
-49
-15
45
-56
-10
-10
-10
-18
-34
-18
-3
-16
28
-3
-30
11
-18
-7
-12
-5
-10
8
9
-42
10
6
12
-2
6
30
-54
-31
-20
-34
-30
13
4
0
-45
2
61
-12
76
-121
-18
20
-24
53
15
-27
-12
-43
-4
6
-16
18
13
-34
-7
7
17
6
17
-8
-6
-20
5
-36
-21
18
1
7
-2
-14
16
-22
-8
-18
-6
20
21
5
8
-12
-22
-14
10
3
16
-6
-21
-4
-23
-3
-25
-33
-12
0
-25
9
6
-43
16
19
38
-33
-2
-10
-20
-20
10
-2
-9
-20
-30
-18
-41
-60
15
15
-32
-30
-4
15
13
-1
-15
-11
-11
-25
-6
9
5
-20
-28
24
7
38
-1
-3
-27
-36
-2
18
3
-19
6
-22
-28
5
-9
-28
33
-17
-25
-23
27
-9
40
21
-13
-11
-36
-38
-4
-25
-4
30
-6
-61
3
-24
6
-15
-48
0
-67
0
-25
4
-22
-31
-5
-16
10
1
-20
-14
-25
13
-34
5
-22
1
-21
28
2
7
-21
33
-13
39
-11
-7
-35
10
26
32
-24
12
7
-21
24
30
6
0
12
-7
-23
-41
6
-2
17
19
-35
2
-29
-34
-23
-6
36
-55
-24
-40
-10
-14
27
-3
-35
19
-46
-17
-41
-27
-9
-1
6
-34
39
-15
-4
-43
8
-2
-5
-2
-22
11
10
-2
-38
17
-4
29
30
-1
23
15
-36
-3
19
9
-8
-4
-6
-31
-5
22
-15
-10
-4
48
-21
-37
-32
9
23
-16
-21
0
-4
26
-10
-3
-7
-26
24
-37
0
-2
-20
32
2
-16
7
-24
-1
-39
-11
-63
9
-17
-59
10
3
65
103
-53
27
-43
-32
-16
-41
-36
18
-49
-32
7
-4
56
-54
-72
63
-8
11
-30
1
1
-13
-20
-59
14
-25
-34
18
-28
50
-24
56
1
27
4
-35
-25
-3
-52
-13
-53
-30
44
46
-80
-4
-67
-3
18
-36
-76
-56
42
-58
-37
-27
-17
-2
-70
-21
-15
-38
35
-36
-45
-13
-4
-43
17
-42
50
24
-61
-36
20
-19
-8
-15
127
-26
-19
-19
27
-38
-17
-22
-10
-31
17
-3
-39
-25
-5
37
-43
36
-34
-4
-15
-27
9
84
-32
-36
-44
15
-45
-23
-13
-24
18
0
-7
-33
-26
-77
16
-66
-29
6
-11
17
-34
36
-26
-21
9
-8
-32
-20
-2
-30
-11
24
6
-51
-27
-27
-10
19
-37
13
-17
-6
-35
-10
28
-2
2
15
-18
-5
36
-25
-2
-44
8
7
-56
-24
-16
2
-25
-9
0
3
16
-33
19
15
-28
11
-10
-8
47
-42
11
-1
-19
12
-15
-3
-13
1
65
-16
-30
8
-39
43
44
-15
-24
-10
-23
-1
-24
-26
-39
-11
13
-33
19
-10
44
-59
-16
25
5
-58
-60
-39
7
-3
-51
-34
16
-39
37
48
-25
18
-40
6
-17
-24
-25
-5
-16
10
-51
-84
-13
-22
29
12
-65
43
-64
-27
10
-19
-49
-72
0
-18
-80
-20
11
-42
-63
5
-54
15
22
-27
-7
6
-7
-15
-22
-1
-23
-3
-32
-16
46
-43
-43
-11
30
8
-13
4
-2
-9
11
26
-45
21
-17
-20
-36
1
-37
38
-39
-29
-44
-39
-16
-41
20
4
-55
-70
-64
10
-67
-59
-22
-8
-19
-33
8
-3
32
-40
20
-35
-32
0
31
8
-34
4
-20
6
-5
0
-43
-19
28
-9
-16
35
-39
-30
-33
-5
19
-8
-53
20
-25
-5
-18
12
-12
1
-25
51
-39
-14
31
-39
-34
-31
-3
27
-24
-34
-23
-3
-33
-9
-16
-20
-33
-39
3
-5
-34
-7
-32
-16
43
-47
-28
-23
-8
-11
-4
12
1
-12
-30
-58
16
-68
38
-51
35
4
-18
28
-28
-6
-50
-48
3
35
-14
-10
-54
-24
14
-16
-6
41
-3
8
-6
21
56
59
-45
19
86
-34
-36
-20
40
2
-22
-1
-39
-8
-14
27
40
-9
-48
-13
-32
-8
11
-5
-62
-15
-38
13
-27
17
-39
-51
-65
-31
-2
-24
-49
22
37
-72
-40
-51
31
-34
48
-1
-37
19
-4
-3
-41
35
43
34
-21
-7
14
-29
-64
25
37
-50
7
52
-11
62
-33
31
-4
63
-28
-5
0
-47
-35
3
-33
-13
10
18
33
-17
-82
-20
-24
-17
-13
-38
15
-28
-85
14
4
26
-19
-36
-52
4
0
-45
-20
41
29
-42
-95
-9
-33
-8
-8
-18
-10
18
36
27
-18
18
58
9
35
11
-28
24
16
-28
-15
-39
26
19
-47
15
-8
12
9
4
-9
9
-11
-37
-34
-4
-14
-1
-10
-5
28
5
-20
-31
-23
-33
22
-9
49
16
-89
-82
-23
21
-10
-47
-2
-26
-22
-16
-56
26
51
-22
-28
-25
61
-29
-35
-37
-4
-59
66
-46
-2
20
-30
48
-21
-17
-18
49
-57
36
-1
-8
-37
91
17
64
-15
11
57
43
-19
-2
13
35
-19
-1
-66
-29
-11
4
28
-48
-31
10
-51
-45
-1
-30
17
-1
-17
-57
26
12
-52
-2
-93
-5
6
-31
-31
37
-18
-54
-107
-28
34
-21
9
5
-42
9
107
45
-32
9
22
51
-2
3
-9
34
-100
52
1
-41
50
24
-59
8
-19
-36
-44
3
4
8
-7
-17
-11
-23
-51
-32
-69
-45
-19
32
5
-26
-90
-7
-6
-69
84
-43
-66
-71
-24
-34
-33
18
-42
-8
-21
-32
38
-10
-69
-12
-49
-11
1
-8
-47
0
-7
40
43
-5
5
-21
21
-13
-16
4
-27
-15
-1
2
-18
15
127
-101
2
-4
-3
7
-6
-110
31
-1
-11
-28
5
-31
-41
-7
-48
-34
-18
15
-1
-24
-38
-8
5
-61
-2
-1
-14
-68
-63
-21
-22
-13
-6
-30
-13
33
-43
-16
-59
19
-29
8
-10
-22
-50
-13
-10
-55
56
19
-1
9
-36
47
56
10
-67
42
-44
-10
-26
6
-15
-5
-25
-10
-18
8
-14
7
-53
1
-5
18
-29
14
1
-17
-72
-5
28
13
-7
4
-54
-27
-34
10
3
40
14
-50
83
-1
-25
28
50
-25
-47
13
13
-11
-57
-7
12
4
-21
19
-43
15
47
16
34
-11
14
2
-13
-20
-2
41
-47
-5
-27
0
-13
-15
55
-48
-1
16
-22
15
-42
-57
15
23
22
-9
20
-19
-5
-42
-74
-52
-24
43
22
-25
-18
54
-40
15
1
-19
14
-39
7
-26
4
7
53
-12
-7
6
69
5
1
23
24
9
-44
21
-45
12
43
46
-87
-41
23
-19
-8
-50
-60
-12
-16
-54
13
1
-2
-6
60
-46
47
45
-1
-14
-40
-16
35
-8
19
-16
51
-9
-13
-12
-15
-27
-14
11
55
1
69
45
-36
-3
-58
-37
52
-3
-36
-27
26
-16
5
32
35
-1
12
4
1
4
3
3
4
-2
-5
-8
12
7
-6
20
6
-4
-1
4
6
-8
0
-1
-7
-3
-13
-6
-6
-13
2
5
-7
3
-8
1
1
-6
-13
2
-21
-3
7
0
-8
-2
-8
-1
-1
-7
-7
3
17
-10
-10
-3
-4
-5
0
-3
-4
11
3
-8
-7
0
10
11
-2
-1
-5
3
12
9
-9
-7
-4
7
-5
4
3
2
0
2
19
7
9
-7
7
1
-3
-6
-11
3
-18
-6
1
-17
-5
7
12
-8
-18
-4
-16
5
6
5
-7
8
-2
-1
2
7
-10
-1
6
-3
-7
-9
3
-3
4
7
-6
-7
-1
-11
6
13
12
-7
-4
10
-4
3
0
2
-6
-6
-2
-2
-11
-1
3
-3
-10
-1
6
6
2
-4
0
-2
-2
-3
8
-1
-1
-2
-5
1
-13
-7
3
2
-15
3
-10
-9
-1
-4
-12
-7
-3
-4
1
-13
1
5
12
0
-10
-10
6
-17
-9
11
-11
3
-3
-3
-8
-4
-23
4
6
10
11
8
-10
-29
5
-53
-12
8
-5
9
20
4
11
-7
0
-5
4
-2
9
14
-10
-1
1
6
-8
1
-11
7
-12
-3
-9
32
-17
-13
-12
15
-3
-1
-10
0
6
-8
4
11
-8
-10
-2
9
19
4
5
-1
-14
-8
-19
0
-25
-10
-48
5
-21
15
11
-11
1
3
-2
-21
25
-127
5
-3
-7
16
0
-6
38
-3
3
-35
25
-7
-32
3
8
2
-8
-3
10
1
-8
36
-3
-5
25
59
-18
2
-4
-23
-18
-9
-16
-16
-24
-12
-2
12
-8
-4
-4
-27
6
-7
33
-10
6
-7
-44
-1
-19
9
-81
5
-5
-8
-5
20
-23
-5
-12
18
0
-44
15
2
-5
3
-1
-6
25
-11
-1
-3
-4
-2
-19
4
-5
6
1
-4
-11
10
-7
-8
-4
-23
19
15
-6
-7
-9
1
-10
-10
8
-9
7
-6
8
3
1
13
-1
-8
-4
-12
-14
-9
1
11
-35
6
-1
-2
-17
19
-19
0
1
-14
-30
-4
19
39
-3
-16
2
-11
1
2
-13
-6
-9
-2
19
2
8
-30
-1
2
-29
-11
27
25
7
-23
1
8
13
24
-5
-10
-29
-6
-14
3
6
3
-15
-5
14
6
-21
-2
-57
-21
8
14
-10
8
-9
-15
-47
3
-10
16
41
12
16
-7
-22
3
-2
-30
-29
-21
42
31
-2
32
-4
-76
8
8
-14
19
-49
6
11
20
3
-9
-16
41
-18
-23
13
18
-10
14
2
-47
2
5
-64
-40
-11
-5
0
3
-21
37
-10
31
-31
-17
-27
-30
-46
-23
-1
11
-13
1
-50
-14
-84
107
-23
22
-32
29
51
-20
-7
-12
-4
-13
-27
-17
15
5
20
-42
7
-5
8
-3
3
-5
-25
-19
6
-11
17
19
3
-2
31
-5
-16
-11
6
-2
6
3
-2
-8
-25
24
-12
-5
-15
-13
13
-7
11
0
-60
20
-19
15
4
9
2
4
-43
6
20
-10
-35
51
-23
17
-1
4
2
8
23
99
-76
-11
26
39
4
-1
4
35
-42
-48
-9
-48
-46
12
2
-50
-3
-5
-24
-2
5
-38
90
-26
4
3
18
-15
-55
-3
-20
-8
-8
0
43
-34
7
-17
52
16
-2
3
6
-8
-32
-13
1
-3
8
-2
32
-23
5
-20
22
28
-21
-37
-19
13
20
7
-86
96
-76
41
26
-6
46
-25
-49
59
16
21
-16
-59
-48
102
-5
5
-50
24
-23
72
-15
-47
71
-33
-10
-50
25
-33
-58
5
63
-24
-86
15
60
-9
-26
-27
-21
6
-6
-11
-20
-23
-52
-2
14
-25
21
35
30
-17
-41
-61
39
58
6
29
-43
23
6
-21
-1
75
-24
16
21
3
-22
-4
-10
-14
34
-27
-30
-31
-14
7
13
32
-20
-12
-20
85
8
-17
-32
-57
-17
-36
-25
-85
-45
-8
-13
-35
-36
-27
4
-21
-41
24
-50
-31
15
-16
6
8
-53
-24
-31
-53
47
-10
3
44
-5
-33
7
13
34
-56
-14
-8
4
8
-42
40
-85
-25
26
112
-3
-25
-27
-16
-10
-43
-38
-30
-41
-6
-25
29
4
-19
10
-59
37
15
-20
-36
24
-28
4
-9
-49
-7
-40
-14
-4
0
29
6
60
3
74
-16
-17
-23
23
-5
-5
-43
-13
53
16
-24
-49
-27
-68
11
-21
2
-9
-35
-43
-52
6
27
-87
58
-103
-24
69
83
57
3
-34
-11
-48
-2
-81
-47
-81
-4
-41
127
-62
-14
43
-28
-15
-31
-23
-75
-23
-45
-2
-12
-47
-19
-69
12
-66
1
1
-33
48
-13
95
33
-32
-40
-47
28
-70
7
-16
-8
-16
-7
4
-25
-71
13
-13
39
-45
18
-25
-7
-49
-7
-31
32
-95
-31
-24
67
-29
-5
-49
-40
-28
27
-35
25
-36
-2
-75
36
0
8
-5
39
-3
-46
-36
-29
-3
-42
-53
-48
-35
-15
24
-24
-40
-19
-43
-31
-29
62
-18
-23
-56
-40
-44
30
-52
34
-25
-21
-2
-93
51
-18
-82
-31
-11
21
-53
-15
-3
-45
21
-7
34
-22
-38
13
0
-5
20
-25
-12
4
-22
-32
-57
7
-14
-22
-19
126
30
-47
-24
-50
22
4
-48
7
-13
-81
-4
7
-60
65
-5
-38
25
-24
-35
-36
15
-15
39
-33
-39
18
-25
3
57
-56
-41
34
-38
-1
-52
-7
-76
-16
11
-2
13
-20
-58
-63
9
-3
65
4
-70
-26
-8
72
60
-38
-25
-29
-2
-49
-76
-19
-6
-57
-60
43
-22
-55
10
-39
-28
-48
-18
-49
-67
-32
-8
11
-80
29
-16
-47
18
-15
9
-55
24
-24
102
-3
-32
-27
-31
58
-41
-32
-26
-3
-61
-31
-39
-50
-47
94
-27
28
-67
57
-40
-69
-50
-58
45
-12
-70
-28
-18
38
-25
-3
-54
6
-19
-45
-27
0
-19
-48
-107
-30
8
-13
28
-37
-13
-61
29
35
0
0
-24
2
-60
74
-27
-29
-3
-5
-15
-40
-15
-2
50
-59
-39
-14
-37
35
-10
39
-15
-8
-61
-35
-12
-52
-119
7
45
44
-17
17
-14
-30
-23
-10
-7
-6
10
-1
-15
3
38
1
-17
-8
6
18
-13
-4
-7
12
19
4
33
3
-3
7
6
2
9
-6
5
3
24
4
-5
1
-10
10
8
-5
-8
4
9
4
-2
-3
0
1
6
9
7
9
0
-15
20
-15
4
-10
11
24
2
12
12
8
3
-5
11
-10
-1
-9
16
9
-11
8
-24
-16
5
-10
8
1
-10
-6
8
3
2
9
22
-3
-9
12
1
-3
2
-6
1
-4
10
-2
-5
5
-9
8
11
-1
9
-4
12
6
-11
-4
7
-4
6
0
3
12
-5
-17
4
-1
-2
0
7
1
2
0
11
1
-4
-6
-4
-4
-2
-10
11
5
-13
8
46
6
14
2
-1
14
16
-2
-3
6
1
1
35
9
1
12
14
0
0
8
12
-15
8
-3
-3
12
4
14
19
-8
12
2
13
-5
-11
2
15
9
-1
2
9
13
3
-18
7
-14
-9
-6
17
8
7
2
4
6
-8
-6
3
14
-11
6
15
-14
-8
-5
69
3
-11
-10
13
20
5
1
-28
2
24
0
2
8
12
7
1
-8
5
2
-6
5
29
7
6
10
-3
6
-1
24
-3
1
23
7
-1
0
-10
16
12
3
-4
2
-5
-14
14
-88
-8
-3
-15
7
20
25
-24
11
25
-2
-6
-5
-21
9
6
-11
-11
7
36
-3
-17
1
6
21
5
-2
-21
-3
-14
10
2
13
8
11
16
-12
15
5
-2
2
-5
2
4
17
2
13
6
1
3
-12
17
11
-7
1
-4
6
22
3
-2
8
10
-8
4
-72
-8
-7
-10
7
6
17
-11
10
12
-10
-2
16
3
11
-4
-8
-7
2
77
-2
-12
-4
-4
28
2
-2
-33
5
-14
4
-17
7
15
6
32
-4
10
9
8
-5
7
12
3
25
4
-1
16
10
16
-2
14
17
-13
2
3
16
14
-3
-1
-3
8
-8
12
-87
-5
-20
-18
-1
15
13
-8
7
-6
-4
-24
-14
-8
-8
-12
7
-10
-21
-8
3
17
7
15
-38
-22
20
-5
0
9
-18
-127
-19
6
20
-7
-12
-10
-10
-49
7
-27
-12
4
-17
-1
-15
-82
-12
-1
8
-4
-7
1
-22
-27
7
-6
-11
-15
-25
-6
-3
6
46
-10
-8
-24
-16
-17
-4
4
-21
7
-14
7
-5
-1
-9
-11
14
-3
-10
16
4
7
-12
11
-21
-16
6
-1
4
-6
-17
-95
-10
1
-28
2
2
-1
-11
-34
6
-22
-17
5
-23
0
-11
-43
-16
4
3
-13
0
-8
-11
-27
10
-6
-6
-19
-26
-3
3
4
29
5
0
-36
-17
2
-8
-10
-4
1
-21
-8
-10
-7
-3
-19
1
-6
-8
-3
0
5
3
2
-46
-4
-19
-10
-6
3
-14
-122
-12
-7
-59
-1
-1
7
-17
-22
-8
5
-10
2
-21
-3
-28
-48
-8
11
2
-15
-3
-24
-13
-20
-12
-7
-16
-25
-38
-3
-7
0
44
15
-10
-21
-22
-20
1
8
-14
3
-3
0
-31
14
-26
17
-55
54
-15
-9
10
-83
-60
106
-25
-7
-61
-16
31
-60
-47
-47
-16
-71
-127
-29
-45
-18
-23
46
4
20
-79
4
-60
-29
-14
22
91
15
-52
-39
53
-67
65
-17
-53
-28
1
6
38
54
-23
0
-68
24
-15
-66
-55
-12
-34
-52
-2
-31
-61
-19
1
9
-49
-10
-40
-14
22
56
-5
-19
-55
43
-64
5
-12
10
6
-50
-22
-23
33
-23
-6
-5
-39
11
-10
20
-23
-1
-1
28
-28
-53
-13
-39
-74
6
-41
22
56
14
8
2
-33
-21
-31
2
-14
50
11
-69
60
22
-18
-38
-11
-29
-12
-38
-2
-43
-12
-49
-15
15
-12
-31
-38
-47
26
18
-11
7
-9
-9
-59
-28
4
58
-19
5
-18
-25
-16
-11
8
-12
-5
23
-23
-15
6
4
-12
-12
-25
-33
44
-6
-2
-53
-2
-13
28
16
-16
32
-7
-26
-34
-4
-36
15
89
-46
24
-4
-21
-38
-26
-41
-10
-13
20
-47
23
-65
-51
15
7
25
-35
37
-32
-15
5
-64
-26
56
55
-9
2
-5
-30
6
-26
30
44
-31
-74
-8
-46
-17
38
-10
24
61
-71
7
-8
-31
-33
34
114
-32
-50
6
5
-65
-10
-21
-10
-59
5
-38
103
43
-28
24
-68
0
-27
-5
-17
6
-32
-20
-18
13
-35
-51
-4
-5
-17
-26
-24
-15
24
44
-26
1
-43
12
29
7
87
7
-21
-30
23
-22
24
2
1
-25
-34
5
22
-73
12
40
-14
66
5
-48
-9
20
-12
-17
-39
34
12
-7
-3
-9
16
-53
-11
-33
19
20
-14
-49
1
25
-10
32
50
-14
-14
34
-54
-26
8
4
16
-7
-10
-17
-27
-46
10
8
4
-16
14
7
47
23
49
28
-10
4
12
-32
-13
-8
-17
25
-12
37
-26
-9
10
21
15
7
-9
-37
38
-3
-28
-47
-9
-22
36
10
2
-26
4
0
-13
-26
-14
-44
-4
-34
-12
22
31
-1
-11
-29
-13
70
11
3
12
2
-56
32
29
11
-32
43
1
-6
13
-64
5
27
13
5
-1
21
-21
53
-23
3
24
-17
-83
11
-14
-26
34
39
7
39
-88
-25
-25
-43
-71
42
76
-27
-37
-4
28
-79
56
-41
-19
-31
-5
-37
20
10
14
30
-57
7
-18
-38
-22
-8
-38
-4
-22
2
-75
25
-12
-30
34
17
-36
-8
-2
43
-18
-7
-9
-16
22
2
62
21
-13
-4
-21
-36
30
-3
-25
-15
-8
-21
-11
-20
35
38
-10
23
-36
4
-12
-7
-33
-7
-22
15
-30
-39
48
29
-12
-24
-13
-18
5
19
-7
-52
-12
1
-12
19
57
-12
-4
44
-49
-24
1
26
39
-33
-20
-37
-42
17
-14
10
-11
-17
6
5
36
26
65
35
4
-5
-4
-34
-1
-13
-7
-4
0
54
-51
-5
22
52
28
-18
-24
3
-36
2
-14
-14
-17
-4
-16
-26
16
6
-12
-3
-10
5
-25
12
11
-35
-37
5
2
-16
31
28
5
53
-33
-11
12
9
18
-32
20
-45
-15
10
30
-14
-27
5
-13
-28
-5
44
-8
-26
-1
-33
21
-19
-23
-20
14
-15
5
-19
-7
2
8
27
34
-17
-7
0
64
-38
-10
-54
-3
-67
-51
-57
-22
28
-2
1
21
9
-37
-31
-20
-8
20
-21
20
22
-14
59
-30
-57
-31
-4
-40
-28
24
-20
-2
-27
-7
-10
50
12
-12
-15
-41
16
-18
39
-28
0
-4
-14
-29
-30
-2
120
25
-34
-12
-23
10
-42
-17
2
-54
-9
-12
-34
21
-59
-45
-50
13
-96
-47
-18
-63
-27
-54
-3
-24
-25
-36
28
-41
-77
48
-14
-11
31
-20
14
19
-3
-98
2
-42
-54
9
-34
-15
22
-20
-30
-11
-7
9
-35
-1
46
20
4
-80
33
-16
-28
-3
-42
49
44
-13
-12
3
-36
20
-32
45
-13
-51
6
2
-15
-45
-32
-25
9
-4
-36
-27
1
-20
-7
-15
-7
-24
-69
-32
67
-66
-4
39
-51
-40
1
-72
-30
-23
-14
-52
20
-41
-48
12
-14
-9
-58
67
40
18
11
-34
-18
-13
-20
39
26
-20
5
12
-27
-19
-4
-34
-12
4
-13
-21
-26
-27
23
-15
37
21
-32
6
-15
53
-21
-16
-65
10
-53
-16
-10
-14
-4
-23
20
-17
-37
-9
-20
2
-21
-10
15
21
-5
19
50
-9
-33
-20
-16
-61
-21
55
-25
-21
-45
1
-32
127
64
-14
-28
-31
47
21
-14
-34
40
6
-21
-19
8
-41
56
-2
-23
-28
-5
18
-7
-42
37
-62
-16
13
-48
-24
-12
-51
-59
7
-56
-30
-25
1
-66
-39
13
-31
-10
-14
-8
-44
-63
-11
-27
-6
-5
-34
21
19
-66
-126
4
-77
4
64
-18
-24
56
17
-46
20
19
-5
2
10
74
25
-31
11
28
-41
-60
12
-12
27
-10
-37
-28
-48
-26
0
27
-18
39
-60
-10
-52
5
-65
60
-58
-26
-5
58
-16
-16
5
-17
-2
11
9
-62
-10
-18
-51
-7
-3
-42
37
28
-83
14
-34
-64
-5
21
-45
-2
-18
3
4
-53
43
19
-16
-18
2
-13
-5
-4
33
-15
-86
4
-2
36
-36
-24
-2
64
-35
3
-29
-3
-14
-6
-22
12
-11
-42
-26
-7
35
-14
17
-6
-7
-52
-10
10
8
-33
-25
2
-34
-28
-15
-34
10
-16
-32
4
-9
-55
-7
-24
-42
-34
-31
10
-34
1
30
-27
-8
-15
1
-17
5
19
13
-11
34
66
38
-54
12
14
-33
44
-22
10
-17
62
-14
-32
-24
2
57
-10
-35
43
-71
-30
-13
-37
-1
6
-14
-33
9
-78
-24
-46
18
-62
-15
22
-48
-17
-35
-34
-7
-71
-30
-23
-27
-13
-56
-7
-23
-27
-43
-1
-30
25
12
-27
45
25
5
-33
-22
-6
8
27
1
12
-5
-13
42
4
-52
-5
31
-28
18
-14
0
6
-16
-16
21
-14
-34
2
-56
-26
-43
2
-54
14
-46
-23
-13
77
1
-24
33
-34
16
21
1
-50
-28
-66
-13
2
-23
-37
10
49
-45
-23
-4
-30
-10
30
-14
31
2
-1
-3
1
-2
-9
-3
19
5
0
1
-8
-3
1
5
0
1
-2
-2
0
5
-5
8
-7
0
-2
2
-2
2
10
1
4
-5
-4
-1
1
6
-7
1
-7
-3
-2
0
7
-1
-4
-6
2
-1
3
-4
-20
-7
2
-6
1
2
2
-5
-5
3
-8
2
-4
3
-5
-3
3
-9
-2
-2
35
5
-11
0
2
-7
-8
-3
5
2
-7
-4
8
6
-8
-1
-12
3
-3
5
1
-4
7
-2
17
1
3
6
4
-2
-9
-2
5
-2
2
4
5
-4
-4
2
-7
9
6
-1
-21
0
-2
-12
-3
10
4
-5
-5
0
-2
1
-11
4
-1
-2
-2
1
-7
1
-8
1
13
2
4
6
-7
-1
4
-5
-9
4
-10
10
-6
-7
-25
-4
6
-3
9
0
-127
4
3
14
0
12
-3
-27
-4
-6
5
9
-4
-3
6
-3
2
-5
-3
5
-4
-4
-10
0
2
-9
1
8
6
1
-8
10
-10
-2
-1
2
-3
-8
2
-3
-5
-4
-5
9
1
5
-2
4
-1
-1
-10
-1
-3
-6
1
2
3
5
-2
0
-6
2
-7
-3
13
6
-3
-7
-4
-1
-13
-6
-2
8
1
-1
-2
-5
3
-8
-5
-6
0
-3
-1
-1
-18
1
-6
3
-1
8
-4
0
-1
6
-2
6
2
3
0
0
-5
-5
0
-5
12
2
-8
4
-1
5
-4
-1
1
7
2
1
4
5
1
0
-5
5
0
-2
0
0
9
-4
12
-3
-8
9
-6
-15
1
4
4
0
-3
-4
7
-9
-13
2
-3
-1
-2
-1
-22
4
-9
-2
0
5
-1
6
6
5
-3
5
-9
4
-6
-4
4
0
-8
-5
-19
-3
17
-1
0
13
-1
-5
1
-4
-6
7
-1
1
-9
6
-15
-6
4
-3
2
-5
-112
1
1
11
-6
8
-6
-35
-1
-5
5
1
-6
0
6
-2
0
0
-6
2
-4
-8
0
-1
-8
-7
2
3
-2
3
-10
3
-4
2
8
4
-4
-8
-7
9
-9
-6
19
2
-4
-2
-8
4
-2
-1
-6
-2
-3
-6
-14
-1
5
8
0
6
-5
-3
-5
-4
16
5
5
-11
1
6
-10
-5
3
-1
2
3
-2
-2
-1
1
1
2
7
1
-10
-4
-19
-3
0
-7
-2
3
-9
-3
-2
1
-8
0
1
-1
-6
5
-3
-1
1
-4
37
-1
-2
-11
0
1
-4
-7
-4
2
3
7
-7
1
7
0
-5
5
1
3
-1
-4
13
5
17
-3
-2
13
-2
-9
3
0
4
-2
2
1
4
-12
5
-4
6
4
-4
2
-28
0
-4
-5
-14
6
4
-5
7
-1
-6
1
-3
1
-2
-5
-4
1
-12
1
1
-4
33
2
1
16
7
-1
0
0
2
8
-10
3
-6
10
-17
-7
-5
-5
5
-10
-123
2
10
22
-11
-5
-5
-36
-3
-7
1
-1
0
5
-5
-2
5
-6
0
7
-4
-8
0
-16
-3
-14
-11
0
-2
-3
0
4
-9
1
11
4
-3
9
-6
-5
-5
13
-6
4
3
-11
19
-30
-5
15
0
2
-3
-9
1
-14
0
14
-12
-5
8
4
17
-12
-127
7
-7
-7
-9
11
-12
-3
11
13
-16
-13
17
-15
8
7
-9
2
12
-27
-1
-8
-12
-7
27
-9
-14
6
2
-10
-19
-7
23
6
-22
-37
1
-22
-18
4
-37
23
51
-18
-18
9
-14
-20
23
-39
-48
-4
-2
-19
4
-6
-24
-32
-3
-16
3
-13
-95
8
-121
-37
-17
45
-21
-12
16
-78
-13
28
-14
4
-27
9
7
-10
-1
-3
-7
-33
-63
-29
107
54
-20
-7
-4
-24
-4
-39
20
-4
8
-51
-38
-7
-6
-4
-1
12
-33
6
59
-40
-35
18
16
4
22
-10
-29
33
1
-8
40
1
-6
-45
-2
-3
-19
-29
33
-1
47
-24
7
-9
7
10
-11
13
-20
5
26
28
-30
8
-4
17
23
-4
-6
-2
1
-34
-50
-28
14
-14
-1
6
2
-17
0
21
-6
-16
-16
8
-20
6
5
-17
12
-18
-61
3
1
5
12
3
-4
5
5
0
-7
-4
-21
-11
-3
4
-12
12
25
18
4
-24
-70
11
-17
-25
8
-18
-5
-11
10
-7
5
-10
10
-23
0
-6
-21
-16
10
-14
-9
-2
-15
0
3
-12
-19
13
9
-13
-21
-17
64
9
5
-33
3
-6
-17
-7
-15
6
-4
-24
-4
12
-15
-11
-1
-14
-26
-12
-7
-16
-9
7
-18
-36
-8
-1
-15
4
-75
9
-90
-9
-12
9
-16
-6
27
-66
-8
5
-3
-17
-27
-3
-3
-6
7
-12
-7
-23
-47
-21
57
23
1
0
-36
-8
2
-18
3
2
-1
-35
-18
21
-44
25
8
-15
-13
-8
-6
-46
-18
9
-6
28
23
-2
-17
24
-25
-13
-1
-13
7
-24
32
22
11
-5
28
3
34
-10
33
1
12
12
-22
-20
-13
11
5
41
-32
0
9
14
42
3
-11
5
25
-5
-45
-12
23
3
-24
10
18
17
14
10
3
-3
9
18
-8
8
4
9
17
-15
9
7
13
7
4
9
-4
15
19
0
-17
3
-13
-17
14
25
-5
-2
29
12
7
-28
-98
2
0
-7
0
-30
-5
5
13
-6
15
0
28
11
-3
-16
-12
-4
-8
2
-7
-11
-11
-15
5
-10
-6
23
-19
-4
-2
-12
33
23
3
-39
13
-4
-11
-21
9
-4
67
-29
-11
-18
-28
-4
-14
-32
-14
0
52
-13
-8
-4
8
-44
-18
-19
-26
-31
-102
6
-110
-35
-11
17
-18
-2
23
-70
-4
-19
-1
7
-24
17
-2
-12
3
-38
-20
-4
-38
-23
102
35
-13
-3
-19
-27
-29
-31
16
-34
-19
-49
-4
14
-16
16
-2
-22
-5
19
58
-14
-18
20
20
18
18
-2
-11
20
2
-8
8
11
6
-32
27
21
5
-2
53
15
51
-25
41
-8
24
13
-18
48
-9
16
9
23
-40
0
-9
10
6
0
-10
21
9
31
-54
-24
4
10
-39
-7
-10
2
35
-13
6
-10
-4
-38
-6
-58
-26
-24
-44
-18
-9
-1
33
-34
41
-4
-15
-47
-24
-27
-39
-52
-78
-22
56
12
1
6
25
-10
58
25
25
-38
-3
-23
-11
42
19
18
-38
-21
-15
22
-20
-18
14
-64
-20
-9
-18
-16
-1
-46
14
-36
-31
-20
-33
-8
20
-36
-10
-7
12
-53
-22
2
-20
-40
-3
-20
11
-28
60
-6
-23
-26
49
-39
3
-46
32
-46
-38
-36
-36
-39
19
29
-27
12
36
3
12
42
-11
-11
-26
-7
-7
40
24
-19
-34
-28
-61
-15
-15
22
-21
-66
4
-10
-53
-26
-21
-45
-60
-40
-43
5
-1
-33
-25
-31
-13
-21
-12
-33
-18
2
-55
-13
-41
-39
-27
0
27
-31
49
-39
14
-60
-23
-18
-46
-19
-33
-54
-45
-16
41
-44
-39
1
-6
-25
-22
49
-27
-3
-20
6
3
9
-7
-12
-20
-2
-58
-43
6
26
-10
-63
22
-47
-45
12
-39
-24
39
-27
-69
0
-11
-28
-32
-34
-34
24
-20
-15
8
-25
-33
-10
-34
-23
24
-31
11
-25
-19
-55
21
32
8
-32
-4
-24
-25
-34
-31
4
22
35
-3
16
40
-17
35
24
42
7
-22
-27
-26
47
31
30
-37
-20
-30
15
13
-47
34
-59
-33
-32
-51
-6
-34
-63
6
-21
-27
15
-8
-29
-25
-18
-19
-15
-54
-47
-41
0
-55
-16
-12
-44
82
-71
62
-34
-34
12
30
-70
-20
-30
71
-26
-50
-42
-53
-37
58
-10
-10
35
-11
-56
24
6
47
31
-28
27
-4
21
-34
0
-71
-37
-20
-38
-48
-29
-11
-103
-34
-28
-50
-19
-64
-107
-49
-73
-27
-6
20
-49
-71
-81
-69
-50
-37
-7
-15
1
-56
-11
-46
-36
-9
-18
33
-32
19
-17
41
-67
-19
-45
3
-46
-46
-68
33
-20
105
-41
-49
-8
-20
-47
2
16
-30
-5
-42
7
-2
15
-41
-18
-44
-36
-29
-47
-32
-4
-29
-101
-25
-49
-63
46
-57
-6
15
-83
-43
-9
-10
-46
-32
-51
-71
15
-7
-36
0
-53
-12
48
-3
48
-32
-42
-15
-8
42
-16
-33
44
14
-40
15
-10
-33
-50
7
5
8
-24
-13
37
27
14
20
-7
65
9
-50
-30
-33
11
41
-2
-25
-44
-38
53
69
-37
6
-19
-30
-16
-44
-3
-69
-70
-6
-13
-41
39
0
-30
-25
2
-6
-50
-41
-32
-48
-64
-20
30
-19
72
-24
-62
75
90
60
13
-50
-79
6
-14
16
-43
-23
-67
-26
24
27
-39
-47
127
13
-44
26
34
60
-9
-53
-23
36
-1
1
-37
-70
-24
-20
-21
-55
-78
-31
5
-63
-18
-47
-7
-78
-75
-87
-20
-71
72
-56
-60
-59
33
-8
-93
74
-44
-19
-64
-53
8
-42
48
-58
-44
14
-17
47
3
-25
-34
-7
-74
36
-47
-10
-42
107
-15
49
-3
91
26
-39
-40
17
12
11
-25
-70
28
-3
3
-39
3
-31
-2
-33
-52
-41
-10
-46
-52
-63
0
-68
62
-37
58
-19
-97
-51
8
-62
-57
-34
34
54
-48
15
-54
-44
59
-22
8
-73
-73
-7
-17
-45
-22
11
10
-9
-14
10
-32
14
29
25
-56
-17
-70
-49
3
35
-14
-75
-73
9
-10
-104
-48
-11
19
-20
25
-115
-22
23
-14
-116
-32
-21
32
-46
-8
-13
-1
13
-94
-101
-59
-12
-16
49
18
-11
-38
-55
17
-21
44
-9
-28
-27
-24
-13
-38
-60
-45
-12
-15
0
-14
-6
48
-27
-30
15
-25
-35
-6
11
-22
-10
57
-48
-20
10
8
0
-55
7
-26
-1
62
-26
-11
47
9
-88
16
16
27
-53
-16
-25
15
9
-47
-38
-35
9
-35
-24
-44
-46
-36
-44
-10
-38
-64
-36
1
20
87
6
-16
9
-2
1
-20
-26
-1
5
-3
-33
-11
-9
28
-23
-43
36
2
-19
-19
5
-10
-18
61
-8
-37
-11
2
-9
-7
-19
-29
4
39
-23
-28
37
6
0
-3
4
-16
10
17
-25
-32
-23
-68
35
-26
16
-4
24
-16
-14
-1
-65
-33
-13
-69
12
11
8
53
-12
19
25
58
-61
-38
-62
-36
15
-2
-7
36
-66
-20
56
28
-22
-25
-62
-10
-76
33
-27
34
-53
-118
11
-25
-69
-22
127
-28
12
-41
-7
-88
45
-7
59
60
124
1
56
-39
-5
41
-72
-10
-1
-21
-5
33
112
-30
8
-2
-46
-14
-96
-72
-81
17
-32
60
-67
55
-79
15
-20
-40
1
-49
12
-25
52
-30
-33
-47
-55
3
-15
-24
-69
-2
-54
22
-8
94
-80
-23
-28
-2
2
-39
27
24
44
22
-15
-63
89
4
32
-27
10
47
102
-12
-15
-1
22
-28
22
-70
-74
7
1
-5
-22
-5
-18
-46
-39
-9
-15
-30
-32
88
-86
51
-41
41
-11
-16
12
-62
-12
-30
27
12
1
-23
-14
-20
8
31
-7
-19
21
36
1
62
-17
14
-17
-12
41
-15
12
35
18
-12
-34
18
32
-8
19
-22
2
6
88
30
-11
-12
38
12
-17
-34
-28
-9
-31
76
-12
-16
-8
-42
-4
24
12
-49
34
15
-36
52
-5
-3
-34
-1
0
3
-7
16
-20
9
-40
-29
-14
25
6
6
-47
-1
-67
27
-34
22
-42
-49
4
-19
-12
6
-20
13
-1
-22
-6
-55
29
-7
45
25
-1
-11
60
-12
-1
14
-28
-9
3
1
-85
-12
38
-43
10
27
-11
-13
-40
-13
-56
38
12
-18
6
21
-31
-34
-36
-10
-3
-12
-20
-11
29
13
-12
-11
-28
11
-6
-17
-39
-8
-35
-4
-11
12
-4
25
3
0
-17
2
2
36
-25
-3
-18
-15
38
-42
-21
-25
-39
1
35
2
-8
-26
32
-9
13
-54
-81
8
-18
24
-3
14
-13
-7
2
-12
19
-10
-24
11
-44
-9
12
-14
-28
-15
30
-22
-13
-43
12
6
-7
8
-19
-7
17
-8
-3
-31
-22
32
12
-3
12
8
0
9
33
16
33
-18
-13
22
-30
0
27
-18
-3
20
14
23
-7
11
0
-18
16
-19
-21
-45
-6
16
7
48
-11
-27
-26
-20
17
-18
34
-39
13
8
-12
16
6
-60
-36
-20
78
-51
-49
0
-42
17
-11
-24
39
-17
18
-39
-29
6
-93
-60
65
-24
-38
-109
9
7
-12
-70
-22
24
47
-70
-16
-30
-28
7
19
-47
86
-63
12
-21
-47
26
126
-25
-45
6
-34
-69
60
-8
34
-57
-39
-39
-45
-24
-13
-28
-11
-36
-47
64
8
-46
-59
-12
-53
-71
-26
-67
29
-28
7
-22
22
24
11
-16
-69
6
-32
-56
-74
16
-28
-81
-20
7
-13
-62
-18
19
24
6
-45
0
-18
-28
-52
-10
100
-68
7
14
-28
31
2
-39
-34
-46
-34
-10
97
0
-20
-51
-35
12
-85
-12
-27
-26
8
52
-57
16
-8
-5
-6
-35
-92
-23
3
-52
22
16
13
9
-6
-48
-37
-24
-25
6
-41
17
-80
-39
-40
0
5
-7
15
19
-14
6
33
45
-49
19
32
-20
-22
-21
8
0
-6
43
1
-24
19
-36
0
29
-5
15
2
100
-39
11
4
-24
-88
19
-6
-14
-3
2
-2
-21
-18
26
14
111
13
-37
-53
116
25
-26
-57
-29
19
-18
-13
-26
-43
-46
-113
-7
48
13
-33
-72
8
-61
-5
-24
30
-10
22
-84
-52
-1
-19
-40
6
2
96
-60
-54
19
-37
-14
43
-9
-55
39
-34
4
99
-23
8
-63
-34
-38
-5
-64
-55
-62
-57
-49
-2
32
-9
-8
-41
22
58
-62
-62
73
77
-13
-8
-20
65
48
-38
-50
-34
-37
-56
-78
-61
4
10
-78
-41
-20
-31
-76
4
62
-1
-23
-83
-4
-1
-47
-11
-29
69
-51
-34
33
4
-26
65
-39
-66
-63
-31
-26
101
-53
-6
-30
-56
35
-12
-67
-39
-36
-54
15
-65
85
-1
59
-16
11
-31
-53
10
-24
69
7
38
4
19
25
-51
-53
-24
-15
39
-33
-78
-44
6
13
-4
13
88
-59
-32
51
15
30
-65
-12
27
-23
-56
-52
13
32
-42
6
40
3
127
-8
-28
-46
-28
71
-25
3
-18
-25
-20
9
-1
-72
16
-36
-5
-3
-58
54
10
-38
48
10
-93
5
19
8
-14
-56
-2
16
-26
-27
-4
17
-21
-19
34
49
-21
-21
-36
31
13
-17
-36
-41
-56
-85
-54
-1
-8
40
-35
6
-72
2
-12
-37
-29
14
-10
9
-118
-16
42
67
1
37
-62
46
-9
30
3
-47
11
-9
-71
-6
43
-74
52
-79
46
-13
16
4
-22
-58
1
99
16
-21
-4
30
19
-17
-13
-10
-14
-16
-22
-36
-75
17
-27
-16
15
-2
-1
-32
-29
-24
-79
-26
-32
-12
49
-12
7
20
19
-43
-27
26
-17
-2
-73
-44
-17
17
-13
36
11
-30
-12
39
-21
14
34
-47
-99
59
-44
-43
-16
-5
2
6
-39
13
64
-10
-8
74
16
-1
13
33
35
42
-70
-17
21
19
-69
-24
-31
15
-16
61
8
19
34
-75
-26
7
-58
-12
-22
-1
82
-41
16
-25
-15
2
-45
-54
25
1
72
-44
-7
-53
-41
32
-54
-25
-5
19
-30
83
5
-98
40
17
-49
-23
-21
2
6
-32
55
7
8
-80
-33
10
-6
11
-65
-33
39
-57
23
-57
46
1
-28
6
19
-24
45
-40
-5
-46
-24
10
-30
-13
-36
-39
-17
-61
-6
-15
-29
10
-16
-42
-17
-18
-73
-37
45
-3
-54
42
-51
14
-17
-24
-61
5
2
-39
-14
-31
-28
14
-28
-47
64
31
41
3
-1
-21
-9
-41
-60
-1
-8
12
-31
-9
-8
-55
-20
-11
-61
-44
-34
8
-46
39
-39
-67
22
-25
39
52
37
-8
-9
-28
-23
-31
68
-21
58
6
2
-64
35
6
-27
5
44
-60
-52
-35
-25
36
58
-17
-24
30
-22
-59
-65
-58
-19
-43
22
-52
-16
10
-38
21
28
26
-31
22
-23
-36
40
23
28
4
-17
-41
-21
-8
-33
-32
-59
4
-110
14
-55
-33
-10
5
-4
-6
32
3
-22
21
-48
-25
100
-62
13
38
70
-57
-22
-35
23
-27
19
-28
-16
-54
-18
-16
-16
7
14
-16
-58
-31
-14
-38
10
-55
-26
5
-26
3
1
-23
41
36
73
-72
-74
3
36
31
-80
-35
63
8
-38
-14
-25
-9
-30
1
48
44
59
-46
-11
-47
-5
67
-45
-36
-8
-36
-18
-2
-28
-30
7
0
94
-4
-10
-42
-43
7
45
20
-41
-31
-22
-18
9
-71
-28
-37
14
-40
15
-24
15
0
-48
-45
63
10
6
-33
-38
45
52
-51
-26
91
49
24
-5
-30
14
-11
-43
-5
-51
-37
-71
-32
-54
62
-31
-64
-25
-54
46
46
37
-39
67
-52
-30
-81
39
-34
60
-1
96
-40
44
20
-29
13
39
-15
-54
-16
-51
-22
-87
-24
-10
-15
-12
-84
-29
-57
-13
-7
9
-31
-13
4
-54
31
-7
-5
-29
66
26
-16
58
11
50
2
-49
-21
-53
-23
-20
-40
-12
-5
-67
-2
-16
-12
-31
-24
-12
-41
-14
28
12
-9
-25
-55
46
-59
-34
11
62
-6
-25
-35
-18
-8
-29
-4
-23
-20
-61
-70
-105
72
12
-20
-25
-66
25
-13
1
-72
-18
14
-3
38
10
53
4
48
23
-9
-47
21
-12
42
-60
-3
31
55
-61
-29
-46
-5
-48
-39
3
-9
24
-52
-8
-47
46
123
-111
-25
29
53
-39
51
-39
-43
4
-28
17
5
-34
-17
-29
-33
-11
13
-19
-26
24
-55
-48
-83
-64
-27
50
-6
-10
-28
15
-12
16
-22
74
-25
11
-43
-80
-13
113
-25
-14
124
5
24
29
-24
20
17
-48
85
-48
-1
-120
116
-67
-8
-82
-46
-20
-58
4
15
-35
-45
37
-51
-48
-44
-19
-35
69
-31
85
17
24
31
-57
-39
13
23
-42
45
-20
17
-127
-34
-8
-10
29
-67
-96
-29
21
6
18
-30
-11
-25
-14
-33
-13
-42
-44
18
12
77
19
2
21
-16
-41
-39
14
46
-8
-23
-19
52
-41
-34
2
-19
-61
-8
-3
-56
-25
-21
1
-43
-46
-34
-50
-60
-27
-1
46
-99
-45
10
-19
-2
-73
-22
-43
20
-21
-26
-126
106
18
-34
-48
-46
-28
12
-59
6
-65
-9
2
-26
-16
10
-10
1
-35
-79
-68
4
-5
-38
24
38
-31
-24
-29
-33
-29
18
-3
-33
-69
-4
31
-24
-34
-23
-12
-52
45
-1
45
28
17
-34
-34
18
-88
51
65
2
-29
5
-64
63
27
-26
4
-29
-28
-92
-46
19
-3
-20
42
-33
-43
-34
-16
-41
33
101
-8
38
-7
11
-6
-32
12
-47
-47
-29
-10
-26
15
42
-27
-19
-39
1
-48
23
1
-13
-31
8
31
2
-61
-22
-29
-16
31
-56
1
16
0
-33
-35
-15
-75
-3
49
-17
-37
24
-17
-3
-20
-5
51
-6
1
-59
-4
52
-39
8
44
-8
-96
-23
-7
66
1
5
9
-40
-9
-20
-12
-51
14
-44
-35
8
-24
30
-29
-28
0
-2
-58
35
-13
63
-12
-75
114
-5
2
12
-51
7
25
10
55
-19
-52
-87
-13
-31
-20
-37
-48
8
-13
-23
-30
-11
-1
-28
-35
-9
9
-16
-3
15
47
96
-8
12
-19
11
-13
-7
-23
29
-55
-86
0
-82
-28
32
-26
4
20
-7
43
-24
39
-7
-28
-18
12
68
31
2
-44
28
12
54
-72
46
-53
40
-59
-22
-10
-47
49
56
19
28
-27
3
-35
8
-22
15
62
29
-9
-39
-53
57
-24
-6
-14
15
-39
41
-22
-17
-10
-22
88
47
-15
-62
6
-26
-45
20
-48
16
-22
-33
-35
-31
19
-5
-58
-33
60
-38
-17
-30
-34
0
23
34
-5
71
33
49
-12
18
-39
60
-127
-15
-12
2
35
22
-60
-6
-35
31
-55
-36
-12
-40
19
9
-40
29
-17
10
-34
-34
14
15
-49
42
-48
69
0
-18
83
17
-55
-33
12
58
-102
-45
-23
-77
0
-23
-24
-27
-17
-56
-54
8
45
9
-27
29
-54
-17
-26
7
-39
86
-21
-55
79
16
-33
8
-9
4
27
2
52
-44
-23
-58
-23
-18
-24
-18
-23
13
-30
-14
-34
66
5
13
-11
-34
-15
-32
-24
45
-11
110
20
3
35
4
24
-35
3
39
-25
-69
-23
-87
-16
-17
-15
-46
19
-19
42
-14
23
8
10
-6
13
33
48
26
-17
4
6
34
-24
-24
26
34
17
28
-30
-28
3
14
-44
-17
-2
-27
-29
6
25
-12
-20
-18
-17
-7
31
-5
-43
-51
-4
14
-48
90
-15
5
5
-39
-2
1
31
-84
-54
-29
-28
-6
17
-25
24
-21
-14
-43
0
2
10
-19
22
25
-7
4
17
11
-26
-30
17
59
67
-12
-12
-25
-12
40
10
36
-33
-21
31
58
5
-15
-10
-12
-40
-63
31
0
-11
-23
1
-17
2
15
-22
-33
-44
-12
-29
27
5
2
-11
4
-55
-6
13
-71
-32
-23
-85
-24
-21
-41
22
-12
-38
-13
-38
6
29
-9
24
4
9
-9
-17
-16
-46
-6
7
-6
-17
-43
13
8
-61
-45
5
12
-37
9
28
-21
12
0
-4
-21
-33
-30
19
29
-17
17
-5
14
16
2
-18
-30
-71
-63
11
-32
1
19
-1
18
33
7
32
-34
9
-9
-30
-7
20
-22
-67
-22
18
-5
-22
10
-5
32
-40
-9
-9
-46
-36
-19
-18
5
-6
-16
-51
21
-79
-14
7
6
-2
15
-31
-38
-61
33
-72
-7
25
5
-7
-13
-70
-32
-7
17
-23
-26
-10
-32
29
-20
-1
-4
-21
-17
-20
-6
13
-95
-12
-19
-82
-32
-8
11
-41
-24
-23
-30
-47
-40
24
5
12
-32
-20
39
-52
1
-6
-27
-21
-31
37
-41
3
-9
-6
-9
-17
-15
2
-19
38
11
-12
1
-51
19
-61
-5
30
-64
-13
1
-36
4
1
31
-35
-37
-10
-37
5
-15
-15
10
-43
-27
-35
-3
-5
-119
-49
-7
-47
-55
9
-27
-26
-26
29
-2
-41
-13
42
-10
-13
-2
-29
13
-47
16
-19
-2
14
-39
28
-17
-8
19
22
-12
-77
-21
-32
-52
-26
12
13
-7
-29
10
-25
-2
23
-55
-11
-23
-36
8
4
20
-32
-17
-13
-27
-7
-24
-36
-3
-18
-37
-23
15
23
-94
-36
-9
-39
-52
-5
-6
-12
2
17
-12
-55
8
-24
12
-6
-8
-18
56
127
-7
-18
-35
17
-34
-4
6
-28
8
-19
-3
32
0
-9
5
-4
-18
-4
-16
11
27
3
2
12
5
-12
0
-20
9
-26
-28
15
16
11
6
19
-7
5
1
-9
48
22
-43
10
7
32
5
5
21
-21
20
-55
21
-3
-11
-20
-6
-40
11
3
-25
-40
23
110
-15
-2
-56
10
-44
27
12
-20
31
-62
18
84
16
-14
19
0
-9
-12
50
71
-18
-17
-8
14
31
6
-6
17
-9
-13
-26
17
3
-2
-15
-1
10
25
3
-16
13
18
-9
-25
7
-2
24
-1
-1
38
23
-45
11
-15
2
-23
-1
41
-20
2
-19
-21
-11
92
19
-6
-36
37
-48
8
15
-34
31
-40
35
-20
2
-20
-18
20
-9
-8
-14
11
-16
-3
0
-6
-5
-7
13
3
-18
20
-3
18
23
-6
-9
19
6
44
13
-8
15
1
-15
7
30
6
-44
40
24
17
5
-26
17
20
9
13
-20
33
20
40
-12
-13
37
35
-14
-6
7
13
32
-8
0
-9
-8
-6
-6
17
-9
4
-19
-5
-5
-7
21
-47
25
35
-22
-8
-16
-15
20
13
37
-11
-19
33
-22
-2
-21
-4
-34
-22
10
15
41
-1
-12
-6
5
14
-18
11
39
16
-7
-23
-18
23
-5
-13
8
35
20
12
14
-25
11
18
-7
-18
19
7
66
30
5
-31
-31
-24
17
19
-9
37
-1
-24
-13
21
4
2
-1
-6
-13
-5
43
-12
-9
29
5
-1
-23
13
-26
-10
-32
4
-26
-8
5
4
-11
-14
-6
-55
-5
-7
9
-15
22
60
1
22
21
-12
-8
-8
25
-2
-11
12
-28
-9
0
12
-3
-6
5
-12
43
21
4
-25
20
24
-2
4
-38
-4
-12
1
-19
-17
0
-40
-21
-26
-18
-11
3
6
7
8
-13
11
-16
39
-19
-36
-29
18
-6
-7
-5
-14
31
-19
0
-13
16
-12
-26
25
49
8
-11
12
-29
7
-14
15
-1
8
-5
-29
18
-9
-5
15
-1
-45
-31
-14
8
-31
-17
4
0
-16
-25
-1
-24
4
-9
7
16
7
8
-32
-14
-14
12
-12
-8
2
15
-11
-28
-6
-18
14
1
1
12
-3
5
-9
25
29
13
-14
-16
3
8
-14
4
1
8
-1
-10
-3
-7
22
-4
-18
22
-14
-5
-19
13
-16
-11
-43
-48
50
57
3
26
-13
2
-32
-10
-5
2
-27
14
-17
10
-61
1
12
20
6
16
39
4
-5
21
12
24
3
18
3
-6
25
10
-15
44
-7
-5
40
0
31
56
15
-25
-44
-50
5
-18
9
-10
16
5
-46
25
-69
-5
37
15
5
-10
-13
4
-23
-17
20
27
-9
-46
-2
9
-24
-24
14
-24
-14
-23
8
-12
3
-18
23
13
-10
-3
-20
-10
19
0
-11
-15
-5
-14
-17
-18
-12
-12
32
10
-14
3
1
4
-6
33
1
-2
-20
10
-14
44
-23
9
13
-4
9
-23
-8
-33
1
5
-2
-5
-18
-7
-6
9
-16
5
38
33
-42
-31
-5
-7
3
-17
-28
-1
-4
-18
28
-35
-3
-15
46
-39
4
16
-20
-13
15
1
-24
-19
-11
33
-26
-13
21
-13
-5
-8
27
7
17
17
-12
18
-7
18
-14
-5
2
-9
-17
-2
10
-3
-5
-24
-5
-24
39
6
-30
14
-32
-2
1
63
2
16
-38
-88
15
18
31
-8
20
44
-11
-28
-18
25
-30
14
-30
11
-127
34
14
32
63
38
-13
34
-32
19
5
5
-3
6
-11
84
-12
-8
-9
33
-16
22
40
-18
11
36
24
-7
-50
-36
48
4
-24
-10
42
62
-83
30
-114
25
35
8
-1
-7
-15
-5
-28
-13
49
51
-14
-53
6
-25
-33
-51
-17
-30
-5
-20
0
-16
14
-25
48
-8
-18
-2
-29
8
15
-8
-20
2
5
-24
-11
-7
-21
-32
-1
-27
-13
-15
3
-14
-14
21
-25
-11
-32
11
1
27
-31
-6
13
-19
3
17
-13
-32
24
3
-11
1
18
-14
20
20
-8
-10
31
-7
-9
33
-10
29
-12
-2
-20
-8
-7
2
-1
-24
-6
-20
13
11
3
5
-14
-1
8
31
-9
-4
-15
10
-14
-18
-4
-16
-10
-18
7
-31
-7
-5
0
5
17
14
-8
-11
11
-5
-16
-4
23
15
4
10
12
-18
3
1
9
-7
-2
-11
9
28
15
5
-32
-24
4
-11
16
20
-3
-31
-16
-19
0
41
-22
-24
19
-23
-30
3
0
4
-16
-12
-8
18
-18
1
-12
-18
-23
0
-20
29
2
-18
-6
-19
-15
-8
16
0
29
40
-9
-21
-48
36
2
12
11
-5
22
-20
-63
-3
-33
6
19
7
6
-7
-9
4
10
-8
20
25
-5
41
12
-4
-17
-3
1
-21
2
3
-17
-31
-5
-23
2
-1
-7
-8
-14
6
7
-20
-13
-7
1
-39
8
-14
3
-23
9
-24
7
-35
-4
-2
-20
10
-3
-6
-11
-4
12
30
-35
2
17
-21
-7
-2
11
-19
5
10
-9
-10
3
-18
-35
-3
-1
34
13
-6
-1
-9
21
1
-19
-17
17
-9
6
-22
2
-25
8
-25
-3
-28
-43
-33
-31
-7
-9
-28
52
12
2
1
-10
6
-2
-23
-17
-26
34
-13
10
-21
-13
9
-4
39
-31
11
18
5
-21
-13
0
-15
-58
-24
-17
0
18
0
-50
-16
-55
-21
-23
-4
14
44
45
-13
3
-18
12
-6
-9
-48
3
-20
12
2
-18
-42
42
-13
-32
-11
-23
-32
-59
-14
10
-14
64
9
16
0
-17
-13
13
-6
-42
9
-12
14
6
-56
11
-18
-25
25
-22
-4
-2
5
-49
-1
-42
-28
-29
-24
-13
15
-18
8
1
20
-13
-2
-24
-3
-4
-15
0
-1
39
-4
8
10
41
-29
-1
-31
14
-3
-14
-4
-21
6
6
-40
-18
-14
-25
-4
-17
-34
23
-18
-25
-9
5
13
-25
-31
-22
-5
-32
-21
31
-31
4
21
-33
-13
-8
42
23
-28
-16
4
-16
-31
-30
-7
-9
13
2
1
-40
-21
-33
-38
-44
-10
3
39
33
-23
-39
-15
40
2
-59
2
11
-18
33
37
-7
-40
38
-38
-22
-23
-17
-5
-17
9
7
-46
21
30
-14
-3
6
-12
24
17
-2
-30
46
14
-13
-51
-1
-10
-14
60
-27
-16
14
4
-25
-57
-55
-40
-9
-36
-49
6
-6
1
-36
-30
-79
-50
-57
-5
14
61
94
0
-28
-12
25
4
-79
-17
19
-11
-12
80
-16
-40
74
26
-9
32
-20
17
41
9
-4
-31
30
-1
24
2
12
-12
32
127
-28
7
8
22
16
-96
6
-9
-36
77
7
-22
-22
-12
6
-85
-88
-20
15
25
-55
64
-27
37
-2
-23
27
-34
-45
-9
7
-35
17
-20
-4
-7
-2
22
-36
-38
10
-19
12
-13
-14
-23
-19
55
7
-27
-22
3
21
16
-23
-21
-15
2
8
-5
22
10
-1
5
-49
10
-52
-18
0
-57
6
-12
-51
25
16
54
17
-31
-19
-19
-33
-39
-6
6
-30
38
-17
-9
-13
-39
16
-21
-37
0
-26
17
-4
-31
-34
13
20
-11
-28
-2
-14
-19
34
13
1
-13
1
-37
8
-2
-10
-14
-29
12
10
7
-3
2
-13
-10
-7
30
-10
-4
-14
-18
29
-18
-18
-8
2
-1
-6
9
-12
-25
-3
-10
-24
-52
-36
-24
-13
-10
-7
11
-40
-27
-23
-23
22
-51
-69
18
-52
-6
31
-5
-45
7
-6
-16
-55
2
7
-38
4
43
-16
-46
46
-1
-17
-11
-14
6
56
3
-42
14
-2
14
-4
-29
3
19
10
33
-34
9
61
-10
-18
-50
18
-42
-41
0
-19
-2
-27
19
3
-87
-37
-23
35
0
-6
36
-34
9
-51
-31
24
-32
-56
-1
-21
3
8
11
-24
7
-26
15
-49
-26
-25
-7
-5
6
-23
-16
-17
-1
-29
-15
28
4
-10
18
-61
6
-32
-5
-19
-4
24
2
15
3
-40
6
-34
-36
-11
-15
16
-12
-32
2
-43
9
29
9
-28
-31
-28
-20
-10
-13
-3
15
13
-24
-7
-69
-39
46
-40
20
45
6
-56
36
44
68
24
-18
-23
-15
-6
-47
-21
48
-16
26
53
-39
-33
-8
-34
-19
45
56
22
-71
51
-53
42
-29
-50
-12
-22
52
-7
-54
2
-4
-24
79
4
4
-23
31
19
9
52
5
6
-53
-34
-41
-64
46
-32
14
-8
1
44
-95
-67
23
-20
-36
-44
-6
17
39
64
-51
-1
109
16
-127
-69
48
-50
45
55
-35
62
45
31
28
-14
-15
89
-57
-64
-50
32
-21
2
72
39
-55
-50
-3
-29
-31
17
-31
-46
89
-17
59
-26
27
-15
-10
-17
-2
5
-50
9
-7
-58
61
-4
-81
-20
-110
-120
-33
26
16
-45
-9
-35
-36
-11
-20
58
-57
-11
88
-28
-50
-32
-12
-27
-62
42
-21
47
14
-3
23
-48
18
94
-39
-32
-70
-10
33
6
8
34
15
-36
-28
-60
-31
28
-28
-45
21
-50
16
-28
-14
-51
60
27
-92
-70
22
34
-15
54
-22
0
-48
11
-58
-64
-27
-52
43
-26
-20
22
23
-18
-12
-9
0
-11
-25
72
-18
10
-40
-55
59
36
-21
42
-54
28
35
-38
-8
57
-24
18
-101
38
6
-44
-71
7
58
-43
20
12
-7
22
19
-62
47
-46
21
-41
11
60
-2
22
-71
-15
81
-23
-47
2
34
6
4
-35
-44
-34
-84
-31
-9
13
-14
-69
-48
32
-10
18
4
18
12
43
-29
-23
8
-46
-2
110
-40
18
28
-35
21
-3
-23
112
-70
-4
-43
-6
13
18
100
61
16
-51
-21
-13
0
-42
-18
-72
29
12
-21
-1
-1
-40
5
-26
-61
-67
-28
6
-33
57
-29
-21
-48
-55
-121
-37
-47
46
-9
-31
31
27
-31
21
14
1
-35
2
32
-21
-21
-22
-64
-12
-11
26
6
-27
-3
-24
-32
-5
7
82
-63
19
-1
-28
-17
45
32
24
-7
-24
-73
-45
-37
-43
-46
-33
56
14
-2
3
12
-24
-22
3
-45
-40
-21
58
-20
0
10
-42
-25
13
18
-1
-58
-50
19
-12
29
-22
48
-50
-6
-12
-23
18
-21
-58
-56
5
-60
-50
-34
38
-11
22
-60
24
17
80
-21
9
-51
42
-40
47
-44
9
-38
60
17
4
-8
56
80
-20
43
-51
21
-3
5
-23
39
27
16
23
-16
-43
10
6
1
-39
7
-30
-20
-47
-45
-14
-26
-46
-1
29
68
-84
6
11
-1
47
-20
24
13
15
3
-14
-40
-31
0
58
-48
-1
7
-53
18
98
-47
24
-88
55
-42
10
-51
27
95
64
-30
-1
-56
66
15
-47
17
-31
61
53
-6
13
79
-11
10
-22
-19
-54
-26
25
-17
7
9
-34
-28
-60
-72
-29
23
-56
24
-63
70
-12
-42
-5
8
39
37
-5
17
-48
32
0
-72
21
2
37
8
-24
-40
-8
7
36
-26
2
-69
19
-33
11
-32
0
70
-10
-30
23
-87
30
-3
-11
5
0
22
26
10
19
40
-4
5
-18
8
-5
-14
4
11
-30
1
-3
-15
-16
26
8
-19
28
7
9
29
23
-22
-34
-19
-29
5
-3
-4
-3
4
-7
5
-30
1
-6
-16
-21
-33
7
-2
1
8
-3
13
-8
-23
-28
-12
-14
6
-16
16
-6
-9
-12
7
-4
5
-4
-14
-3
-6
22
0
-18
-21
26
-45
7
-14
-17
-13
4
-19
-16
13
-16
-16
2
5
16
-7
-15
14
18
-17
62
-3
-4
-4
11
-27
-17
4
-6
8
-2
-8
36
-20
-16
2
-17
-2
-16
17
-2
-4
6
11
4
0
-8
9
3
5
-8
-15
21
12
-2
0
-10
0
-1
-13
35
-6
-13
-5
-34
-1
4
-26
14
23
-20
-1
-22
14
-21
-6
9
18
3
-17
25
1
9
-22
30
6
-11
-2
21
8
-6
16
-24
-5
-27
7
12
-10
-20
-17
-19
-8
-19
3
-13
-7
-4
-5
-3
3
-13
7
-5
-22
-19
-15
0
-1
10
3
-9
-11
0
-8
26
-10
-12
-17
2
-7
-13
-10
30
21
-30
-2
1
7
-4
9
6
-32
18
15
16
22
14
-20
-33
-19
-29
-23
-4
-28
6
-12
16
-1
-23
4
18
-11
-5
-18
7
4
41
16
14
15
2
-18
-22
-13
3
2
13
1
-1
-11
-14
6
-23
-11
5
-23
-2
15
-13
12
-16
8
9
-52
12
-5
-23
-22
6
-5
-14
29
-24
-11
1
-9
-16
-9
7
6
20
9
65
-19
8
-45
-7
-16
-12
-5
6
20
-9
-4
29
-1
-4
12
-26
-14
3
1
10
-9
9
11
21
-1
-6
3
17
-2
7
-29
6
15
5
17
16
-31
2
-7
-3
23
1
20
-41
-14
-1
-28
6
19
-28
-5
-21
1
-31
-22
13
8
-18
-6
10
5
22
-7
4
2
6
-32
6
-5
-6
3
-8
12
-26
3
1
7
-10
-1
-18
-8
-22
-9
-5
-12
-9
-1
3
0
-6
5
7
-39
0
-14
3
8
2
-2
16
-18
4
-7
-7
6
11
16
-4
-7
-9
-3
7
6
-15
-5
-8
25
-1
-6
1
-39
8
17
1
3
-6
13
-3
15
-44
-12
-12
-35
-10
7
-8
22
-21
31
-19
-12
6
-21
-3
-3
36
8
19
18
19
-23
-17
5
10
-7
27
18
29
25
-32
10
-9
-2
-22
-10
-3
1
-21
2
-20
15
-12
-84
13
-26
-80
-26
36
15
-51
23
14
2
-32
-19
-19
-5
-30
-28
-14
19
127
39
4
-8
-22
-14
-41
24
17
3
-11
47
-21
6
45
19
3
29
12
2
38
-9
25
-3
33
17
-3
-6
8
-9
26
26
-30
22
5
17
1
-39
6
4
-10
24
-2
32
-55
-69
-25
-50
-46
-5
-27
32
-67
3
-9
-3
-9
-11
-27
-2
-9
-16
-9
11
61
7
19
13
-13
4
-15
11
15
11
-21
27
-29
10
2
19
16
4
-13
-10
10
-37
13
-4
13
13
4
-13
5
-29
27
-3
-29
-6
8
-1
15
-4
-24
-3
-37
1
-9
8
-9
-61
-25
-15
-44
-29
-30
20
-42
16
-7
3
-30
-8
-15
-7
-16
-29
-25
-15
23
-12
-12
72
-26
15
-42
-20
-5
40
-57
-37
-33
39
19
-15
-33
-5
25
-35
-25
-17
11
-11
-8
19
-19
-16
-63
-33
-14
-24
-23
53
-17
57
-16
19
33
12
-41
-2
-4
-3
-23
35
-22
-12
-12
-30
-57
42
10
-33
-27
-16
28
15
10
-2
-11
37
12
5
-26
1
10
-22
10
-19
-20
6
15
-30
-15
-44
10
-5
8
1
-63
8
-31
2
0
-15
-7
-8
-5
4
-7
-5
35
15
-2
17
-14
-38
-8
-8
-8
-2
-18
18
-8
16
5
48
-17
-45
-49
12
8
-23
-3
-70
-18
1
1
-13
-1
-4
20
-1
-2
-6
-13
-3
0
11
4
3
2
21
5
-9
-7
-16
21
4
4
3
-14
-2
-1
22
-1
6
0
10
3
-19
3
-2
1
-28
-6
8
-17
3
-12
8
-19
10
-12
3
-3
10
-5
11
3
-7
-5
20
-7
-9
8
-15
2
24
0
-21
-9
-8
2
-65
-48
-9
-21
-35
-65
-7
53
0
-29
-45
-31
24
-3
-62
-27
22
-45
11
-17
31
7
-21
-36
127
-38
1
-10
30
-14
-34
-9
51
-6
6
-20
-47
-22
50
-5
28
-17
-10
-6
16
16
24
-44
23
-7
-11
-25
29
-11
9
-75
-25
-12
33
23
-46
-47
-36
-1
10
37
-1
-28
-1
11
-2
2
19
2
-4
5
-29
-17
10
-1
-11
-30
-38
-5
-1
-1
-9
-113
-38
-47
8
32
-21
20
4
-25
-36
7
2
45
27
3
-26
-11
-68
-28
-3
-14
-11
-29
6
-14
-8
-24
45
-7
-23
-82
-6
51
-16
17
-80
-30
-12
-1
-20
-7
13
3
-4
-13
0
7
-3
1
18
-10
-7
1
4
-5
-10
-18
-6
6
-2
2
-1
-5
-2
7
15
3
-1
-6
-4
-1
-1
-19
0
0
-34
-11
13
0
18
3
-3
-5
7
-12
11
0
-14
-8
-2
4
5
-2
13
-4
-7
13
-19
8
29
-1
-1
0
3
0
-22
14
-19
-27
-2
2
-3
-10
-8
-21
-1
6
-8
25
-22
-5
-2
19
16
26
-7
20
4
-21
19
-23
6
-1
-13
0
11
-5
29
-21
-27
11
1
7
10
-11
14
5
-21
-7
-13
20
9
-27
-3
-24
14
-21
25
-22
12
-28
-28
11
-30
12
-13
-16
3
-9
12
21
0
-28
-3
12
15
-11
-11
-11
-3
-9
-16
-19
9
-10
-27
-6
2
-25
-8
-18
-6
-51
-16
-7
2
5
-4
-10
13
-24
-17
8
10
27
2
13
-4
4
-53
-19
-23
-4
-6
11
-8
8
-21
-1
7
-8
-14
-6
-4
14
-23
-7
13
-15
0
6
2
1
3
-13
-3
3
1
3
1
-12
-4
-13
9
5
9
-14
2
-12
-6
0
-13
0
10
-2
-12
-12
11
0
-9
