2
-37
9
-14
-15
41
-25
-68
10
9
-17
-17
-3
6
60
-49
11
-30
-10
-43
-36
26
-12
-74
37
-51
-1
26
-33
45
65
-53
-11
-5
-1
-58
-29
13
15
-52
9
-24
-5
31
-41
57
47
-21
18
41
-3
31
0
-61
22
9
-13
-24
-35
-16
17
-64
-12
67
38
69
-29
71
-17
-125
35
12
-13
-47
-57
10
24
-127
6
43
-17
41
-28
34
-13
-73
44
1
-14
-3
-16
-22
20
-85
-21
23
-33
-10
19
-10
23
11
-23
20
-7
12
38
-52
18
46
17
44
-6
-32
14
1
28
24
-17
31
-8
1
28
-35
-13
36
-2
30
-32
-18
23
-1
36
40
3
19
-9
16
27
-27
-17
13
35
17
-1
38
-20
-2
-17
-127
45
-15
22
37
27
11
1
117
-9
94
-55
59
-33
-57
-13
-98
-31
-69
-40
9
-4
-75
12
19
-12
-1
34
-88
-3
13
-3
101
-35
-10
48
-14
-16
7
-20
-64
36
-80
24
74
-24
-16
50
-112
-20
14
64
21
38
55
25
82
3
124
-56
125
-25
-96
-13
-109
-17
-52
-40
9
21
-63
16
94
-19
23
-3
-16
37
-22
-25
22
3
-10
-31
16
-46
-15
-2
-16
10
-78
6
56
-32
25
-29
-38
-5
10
14
-15
17
8
10
13
29
74
-19
71
-3
-44
-25
-96
-18
-39
21
-2
15
-15
2
102
-18
47
4
19
4
-43
-26
-15
32
-20
-36
7
0
-12
4
46
-4
-29
-16
6
-28
-9
-16
-15
5
56
-37
3
-26
15
-35
10
-27
58
-24
67
16
24
2
-83
-45
-5
-6
30
-12
-25
12
0
12
60
33
16
40
14
12
-33
-39
-71
42
15
30
22
32
12
67
22
17
-127
-50
7
0
70
26
4
25
-40
69
-39
30
6
-9
-52
-41
-49
2
-21
-29
92
39
52
-59
-23
-6
-22
-58
-45
-79
29
-18
103
-10
30
-33
-100
-43
14
-9
15
-47
26
10
-34
-22
81
29
26
21
-17
-9
6
-6
30
13
2
3
37
49
14
91
-12
17
-79
-32
-18
33
51
16
25
33
-19
46
7
-23
14
54
-61
-11
-49
24
-13
-19
47
26
32
-33
-3
7
-61
-9
-7
-31
-24
-22
11
-30
67
0
-3
-2
-62
-27
20
-1
12
-11
3
68
12
23
44
-27
65
33
-35
16
-65
-18
-11
3
29
20
2
53
32
-22
52
-10
16
36
-1
53
-60
-53
-6
23
-20
2
-17
51
45
-12
29
-21
64
-31
-64
2
12
34
-19
11
72
54
-7
-8
13
11
41
0
59
15
-101
14
23
124
-51
38
90
-5
-81
21
9
-2
34
-17
55
6
-21
30
-57
102
-17
12
60
-30
-58
1
-9
-65
29
-36
-6
-100
-37
-14
4
30
55
1
40
28
-5
-127
-32
-39
34
-75
115
-112
2
-49
-1
28
91
-79
5
46
-5
-109
-53
-8
30
-73
35
-103
20
-34
22
19
22
-74
-5
61
-63
-103
-77
9
11
28
25
17
-1
60
0
12
-30
35
30
-30
-25
76
-41
-22
0
35
39
2
-7
19
58
-4
25
0
-1
-25
-29
-17
-25
-1
1
-13
21
10
8
-30
65
1
14
-33
2
16
-17
-40
-10
-40
-4
18
94
-51
-31
-28
40
-14
29
-45
10
-5
-69
-102
38
-16
-30
-69
-24
0
-11
-71
54
-57
3
-72
-30
65
90
-54
9
35
-12
-53
-127
56
6
3
6
-9
-41
-13
-40
36
91
24
41
14
-21
-74
-113
17
8
-34
28
-42
54
-14
-46
43
91
15
53
73
-26
15
-93
37
-9
-3
53
1
-22
24
26
27
64
79
-5
-38
2
23
6
-14
5
64
-4
54
-17
24
22
-12
5
68
15
-50
-25
-43
-43
-18
41
-40
-31
-40
1
-18
14
-6
-44
2
-56
-13
-80
44
-24
8
72
-21
62
13
11
-66
105
49
-4
4
-3
53
31
39
27
46
7
33
53
49
13
23
-36
7
22
104
111
26
70
-92
-40
28
-89
64
-45
20
-41
29
-98
-30
-43
-8
45
-86
64
-66
-106
-60
64
-44
-74
-38
-21
-44
-49
-42
-107
-11
-69
-48
-120
82
-38
-39
121
-35
8
25
17
-65
127
49
-17
8
-35
3
0
-27
1
40
78
16
49
40
-5
55
22
74
41
16
55
-13
76
-87
-22
74
-70
35
-18
38
-18
49
-23
-50
-50
-25
30
-47
45
-5
-64
-94
-8
17
-25
-43
-7
-82
6
-66
-33
-45
-55
-14
-7
19
-16
31
-11
-12
-19
-29
1
41
-16
-14
25
35
26
-43
1
-9
21
50
14
-21
47
-82
55
19
-67
40
-1
-14
-6
19
-7
-21
-14
-6
31
-64
27
34
-1
-37
14
-3
-20
4
6
-13
-1
40
-17
9
8
-15
-30
-29
10
33
46
-32
7
19
3
-3
5
31
-12
-16
21
-37
38
-54
4
14
2
16
4
4
-14
62
-6
2
-11
-55
-3
-17
2
45
-42
-25
75
-56
19
15
-18
38
-2
-20
-24
-17
6
37
-20
-17
-8
41
-18
-19
-15
-28
9
56
-8
-61
-24
-63
-8
-2
20
-22
-12
-13
5
46
-34
-52
24
127
-12
-82
-15
-71
-12
80
3
61
-22
-51
64
-16
14
-38
30
0
14
2
-127
-12
-36
-7
-35
29
-9
1
4
12
100
17
49
-9
-37
-5
27
-24
-42
-15
-65
-2
-15
8
-28
-8
-40
36
-16
-23
11
-33
60
21
68
-19
-22
8
-30
-19
-21
13
-83
-9
19
17
-15
25
-20
-38
-7
10
-40
2
-20
-32
-14
18
-5
20
-20
27
-50
-2
113
-22
65
-1
-13
-49
-30
-31
-34
24
-87
20
-31
-4
-14
-8
103
27
83
47
27
8
-39
0
-12
8
-90
0
27
-7
-30
3
29
-4
51
-3
-31
-16
-22
-31
3
39
-34
40
-35
19
-28
-21
96
-4
54
-9
-6
-9
-14
12
-13
-8
-64
13
27
-5
3
1
39
10
9
25
6
16
-11
31
12
-39
-28
-5
71
-27
-19
24
-15
51
-6
-45
-9
-3
17
-6
-24
28
-4
16
2
32
9
12
-13
4
10
-9
22
52
-37
-3
45
0
-13
39
38
-15
6
15
-8
-19
16
127
2
3
2
-10
1
10
7
15
16
-53
26
9
-3
34
4
-70
-12
-87
34
-49
-64
26
-1
-20
-40
55
-14
12
3
32
-10
-60
-20
103
-7
-16
42
9
0
16
26
19
27
-10
11
-29
9
89
-23
12
-10
-26
15
-7
3
8
8
-56
6
43
-5
33
14
-23
-13
-79
27
-18
-70
-4
9
-21
-3
39
1
27
5
35
-12
-75
6
38
31
-28
8
20
20
23
11
45
-10
-16
4
-6
11
61
2
43
13
7
-6
22
21
16
24
48
8
6
29
-24
6
29
40
72
-21
-38
79
-20
14
52
54
-85
-32
7
-29
-63
-11
109
-33
22
11
23
-44
-95
-2
-40
26
15
-29
-11
13
24
-13
-32
68
-52
9
2
-39
47
13
19
-2
24
15
37
-10
-21
-27
81
5
66
-35
27
32
-72
-11
6
22
-127
-49
18
39
-6
-20
52
-29
-87
71
24
-95
-36
16
-57
-30
69
-10
6
8
27
-27
-98
40
-60
-28
16
10
49
-8
31
13
-56
6
36
8
-24
-13
84
-3
22
1
21
35
-110
-11
-31
-4
-65
-34
18
22
53
-15
-43
-8
-93
41
22
-91
34
26
-15
-34
51
16
-16
3
7
-12
-100
39
17
4
35
72
24
-14
29
40
10
4
-68
-3
-29
25
30
6
42
20
-28
-6
1
-8
22
-81
5
-60
16
30
-9
60
35
53
-11
-93
2
-41
-53
-42
-28
53
-9
32
-25
-56
-3
-95
-44
20
-1
51
20
5
12
23
20
49
-1
-7
-26
22
17
6
17
-13
9
-2
-31
-11
-4
13
67
-86
-20
-83
72
58
15
58
37
91
-36
-69
24
-27
-60
-74
-70
83
-49
50
54
-88
57
-127
-66
6
-32
57
39
17
5
23
67
67
2
40
-14
8
-41
-1
31
-1
25
-13
-64
-3
13
14
37
-87
3
-39
-10
49
-19
24
37
24
7
-56
-36
-13
-19
-106
-62
67
-25
37
34
-26
-8
-113
-28
-25
13
20
-18
20
-24
15
48
38
10
22
73
67
42
18
43
28
20
-3
26
-14
69
11
74
89
-19
-35
83
-26
-14
-6
62
20
53
-22
16
45
-53
21
-10
72
-72
-33
-21
-65
-77
-30
-5
-44
4
1
2
1
-127
38
-23
-19
-78
-25
58
-64
-60
1
15
-18
37
35
9
2
-86
90
-15
83
19
-85
11
-11
-120
-59
-18
-84
-21
3
-44
-7
-91
75
-11
-69
109
-56
-45
56
-2
-50
-66
-36
-33
-85
-43
-12
64
-49
32
-75
31
-36
14
13
-64
-5
-9
-19
-24
9
-55
27
-5
-43
20
-60
24
-14
19
36
25
-36
-12
-11
-31
-12
-27
6
66
-63
-12
-22
-63
-10
-15
42
50
12
40
22
26
38
48
-3
22
55
16
67
25
1
-5
15
-25
-24
19
45
62
29
-25
20
-26
12
24
-11
4
-14
-47
-10
-1
-10
9
42
-3
-22
18
14
-62
-8
-2
18
-85
36
-15
-24
16
26
20
17
-105
27
27
-112
29
-45
-25
-68
24
8
-8
12
-12
-6
18
27
19
-6
11
-4
6
6
18
6
45
-18
-14
3
27
-53
10
48
52
-44
10
61
-46
-2
32
2
-127
31
3
-31
64
46
71
17
-113
4
-7
-88
-46
-34
-10
-16
3
-16
11
-7
-11
1
-4
9
-11
18
-5
-40
13
-5
3
44
67
5
-14
26
-7
-14
14
46
36
-21
3
87
-17
15
23
13
-87
-17
-27
-3
29
-4
109
-19
-102
-41
30
-32
-106
-25
-17
-17
-2
26
-44
-57
2
-32
-11
-42
-5
50
22
-33
-21
39
47
-16
50
-52
56
64
30
16
0
0
-13
-71
-20
-21
32
-56
-26
-17
-16
37
-60
4
-1
-41
-15
2
3
23
10
-3
-2
-1
-16
53
28
-8
66
45
20
-28
24
-17
-6
-56
-28
-27
-1
-41
21
-5
-45
12
-127
17
17
-38
-29
3
1
22
28
-23
-7
-11
-41
17
-6
-43
28
-11
-7
-3
16
2
-13
-6
-3
-11
-15
19
26
-1
8
-3
12
31
-3
-8
7
-12
-1
-22
14
-15
-21
-27
-52
28
9
24
-31
-39
1
-55
0
-13
-6
31
21
0
-29
33
54
31
-9
-6
-32
23
10
6
36
1
22
-5
-4
2
20
-15
11
-31
-12
7
41
-3
39
7
1
25
13
6
13
48
16
14
24
31
0
0
40
6
51
4
-2
38
16
5
20
31
8
12
48
25
-27
-14
44
19
56
4
32
32
-19
20
22
24
11
11
72
27
29
-25
-66
-45
-90
-22
-24
-17
10
-24
-100
-23
-39
-16
-75
-55
5
-41
-59
-57
-117
8
6
-21
24
-40
-63
17
-34
0
-50
-48
-3
-35
-47
-23
-127
-20
-22
-23
19
-65
-35
0
-41
2
-78
-48
-21
-5
5
12
43
-3
11
24
8
10
48
-35
27
-17
57
32
15
1
7
-8
35
-4
19
21
32
9
15
5
16
-3
38
16
7
10
-7
6
30
-22
48
15
16
-3
5
-35
7
18
44
23
-19
9
8
12
14
3
22
-68
12
-5
-69
-34
36
-25
30
69
-57
-58
77
-3
58
-45
-5
-77
-27
-35
30
5
0
25
10
-17
-83
-34
51
18
-45
-1
43
-4
-65
0
100
-34
99
-30
-28
14
-16
36
5
-13
65
8
3
-39
-25
-15
-61
-10
42
26
-4
46
-33
-9
56
-27
92
-10
17
-51
0
-30
118
11
0
11
16
-106
-117
-85
38
75
-8
39
56
20
-99
-42
119
-32
112
-46
-62
-8
-19
-18
-5
-27
-13
12
34
6
-51
19
-55
9
-7
29
-5
5
-45
44
44
-12
35
-1
-6
-34
-1
12
57
9
-13
-7
11
-94
-127
-55
-12
55
-13
52
4
58
-86
-7
76
-20
62
-50
-18
-41
