// per-channel right-shift amount
39
39
40
39
40
40
40
42
44
44
44
44
44
44
44
43
39
39
40
40
40
40
40
43
44
44
44
44
44
43
43
42
39
39
40
39
40
40
40
41
44
44
44
44
44
44
43
43
39
39
40
39
40
40
40
43
44
44
44
44
44
44
43
43
