-1
8
-37
2
2
9
7
65
-41
127
2
4
3
-3
-3
1
39
55
2
4
4
-34
62
8
-42
1
-2
3
3
4
-52
-82
-1
3
2
-2
9
0
4
2
-1
-1
1
6
-34
7
2
9
-105
2
-121
7
63
4
0
16
0
-38
6
-26
2
5
1
5
-1
6
-61
3
1
7
5
64
13
127
3
2
3
-4
-3
0
-16
55
3
4
5
-38
-12
59
-45
1
-1
4
2
8
-47
-104
-2
3
2
0
9
1
3
5
-1
0
1
5
-36
7
2
7
47
2
52
7
91
5
0
14
1
21
5
-26
2
6
1
5
-1
8
47
5
4
2
7
-53
20
-92
4
3
5
-3
-4
1
-17
-17
2
5
7
-96
-25
127
-88
1
-3
7
3
9
-3
55
-4
4
4
3
13
2
4
8
0
0
4
8
94
10
4
7
53
4
57
10
-101
5
0
16
4
20
4
-40
3
8
3
6
0
6
33
5
5
-3
3
-40
16
-74
3
1
4
1
-3
3
-8
-39
2
3
5
-9
-11
-115
40
2
-1
2
1
3
127
46
0
3
5
9
12
3
2
3
1
1
5
9
19
4
3
1
32
4
30
7
-22
2
0
6
6
12
1
-65
4
6
4
5
0
3
42
10
5
0
2
-27
5
-56
2
0
5
4
-50
6
-3
-31
4
2
7
127
-7
-18
74
3
3
4
-3
1
14
44
6
3
9
10
6
5
1
6
2
2
6
7
-8
0
2
1
5
4
20
3
-26
1
1
-11
8
2
3
2
6
5
5
5
3
7
21
4
3
-3
-4
-18
0
-41
-3
-1
11
10
5
-3
-3
-22
-2
-4
-2
77
-5
-18
48
4
2
1
-3
-7
-15
56
1
-1
20
3
-12
5
-8
0
6
2
6
5
0
-8
0
-7
6
4
4
1
-17
-2
2
-16
5
-1
-6
127
-31
-3
3
0
8
1
-2
5
-2
-4
-3
-9
-5
-21
-7
-3
-38
4
76
-3
-2
-11
-8
-9
-8
32
-5
-17
14
3
0
-5
-2
-3
6
35
-2
-4
-38
-1
-15
-1
14
1
6
3
2
0
-3
-6
-4
-8
-4
3
-2
-7
-10
-3
1
-10
-5
-1
-4
127
-3
-8
-2
-8
-4
-12
-2
-65
-20
-13
-14
-23
-5
-47
-13
-11
-19
-5
3
-9
0
-26
-11
-7
-20
51
-12
-42
86
-12
1
-17
-5
-15
-23
57
0
-15
-26
-14
-39
-15
-33
-8
-8
-4
-22
-27
-12
-21
-13
-23
-19
-13
-23
-29
-32
-12
-3
-28
-20
-8
-11
127
-3
-22
-17
-23
-20
-127
-45
-93
-67
-41
-53
-49
-23
-108
-23
-28
-24
-21
-13
-24
8
-57
-24
-39
-75
-83
-24
-107
5
-44
5
-59
-9
-60
-96
-22
5
-42
-37
-63
-104
-50
-51
-86
-32
-25
-76
-122
-46
-59
-40
-52
-82
-73
-85
-105
-77
-43
-10
-72
-77
-37
-39
-83
-5
-82
-54
-84
-19
-127
-44
-88
-67
-42
-55
-55
-22
-122
-26
-29
-20
-19
-10
-24
8
-63
-23
-41
-74
-88
-26
-111
6
-45
6
-59
-11
-64
-92
-15
6
-42
-33
-65
-111
-48
-50
-84
-33
-24
-77
-126
-44
-61
-40
-55
-82
-75
-86
-107
-84
-44
-9
-80
-75
-39
-40
-104
-1
-83
-54
-84
-17
-115
-32
-76
-58
-38
-52
-57
-17
-127
-22
-26
-13
-15
-6
-20
8
-65
-19
-36
-65
-63
-27
-104
27
-39
7
-51
-10
-59
-70
11
7
-37
-24
-58
-98
-41
-45
-75
-29
-20
-67
-114
-36
-56
-35
-50
-69
-67
-72
-95
-83
-40
-7
-75
-63
-37
-36
-92
4
-73
-46
-70
-14
-101
-21
-64
-47
-33
-48
-58
-12
-127
-19
-22
-6
-10
-2
-15
7
-65
-15
-31
-54
-35
-26
-94
47
-32
8
-43
-10
-53
-47
35
7
-31
-16
-50
-83
-32
-39
-66
-24
-15
-55
-98
-28
-50
-28
-44
-56
-57
-59
-81
-79
-36
-5
-70
-50
-32
-31
-76
9
-62
-38
-57
-12
-91
-12
-53
-39
-29
-45
-59
-8
-127
-16
-19
0
-6
0
-12
6
-64
-12
-26
-46
-8
-26
-87
69
-27
9
-36
-9
-47
-28
57
8
-27
-9
-43
-70
-26
-34
-57
-21
-11
-47
-85
-21
-46
-23
-38
-45
-49
-50
-71
-77
-32
-3
-65
-40
-29
-28
-62
13
-52
-32
-47
-8
-76
-2
-39
-28
-25
-41
-59
-3
-127
-12
-16
8
-1
4
-8
5
-64
-9
-21
-36
22
-26
-79
89
-19
10
-28
-8
-42
-7
80
8
-20
0
-36
-56
-17
-28
-48
-16
-6
-34
-72
-13
-40
-16
-32
-32
-40
-38
-58
-74
-27
-1
-60
-27
-25
-24
-45
17
-41
-22
-34
-5
-64
8
-25
-17
-21
-37
-61
2
-127
-8
-12
16
4
7
-4
4
-64
-5
-16
-27
53
-25
-72
114
-12
11
-20
-7
-37
13
100
8
-14
9
-29
-42
-9
-22
-38
-11
-1
-23
-59
-7
-34
-10
-27
-19
-31
-27
-46
-70
-22
2
-56
-15
-22
-20
-26
21
-30
-14
-22
-1
-40
17
-7
-2
-13
-27
-53
5
-108
-2
-6
25
10
11
2
3
-56
0
-8
-12
90
-19
-53
127
-1
12
-8
-5
-26
33
105
8
-5
19
-16
-18
2
-13
-21
-3
6
-5
-35
0
-21
-1
-16
-4
-17
-12
-24
-55
-13
6
-41
2
-16
-12
6
22
-13
-2
-5
-47
3
0
3
-76
9
71
13
2
10
1
70
0
-2
-1
2
-2
56
5
-61
4
0
5
5
-1
-35
-2
2
-2
9
3
-1
32
1
-1
5
9
4
1
2
2
1
1
118
2
6
-51
5
1
1
3
6
4
-8
-24
73
4
40
4
0
0
-15
-74
-127
-50
4
0
3
-32
5
73
14
1
10
1
-20
0
-2
0
2
-2
59
4
25
5
0
4
7
0
-39
-1
3
53
10
3
0
-31
1
-1
3
9
3
1
6
2
1
2
127
2
6
-65
7
3
1
3
7
5
82
-26
74
3
40
4
0
0
51
-100
65
-72
10
0
6
-5
4
-77
16
2
14
0
-38
1
-1
-1
2
-3
-20
4
28
7
0
5
9
1
-86
-2
3
-26
10
5
2
-13
2
-1
7
14
4
2
13
3
1
3
-75
4
7
74
9
11
4
5
9
7
-8
-35
-46
4
-32
4
0
0
127
58
71
32
8
1
5
127
-2
-44
1
0
12
3
-2
1
0
0
3
0
-50
1
21
6
2
1
9
1
-12
-2
3
-9
2
4
4
2
3
2
7
12
3
3
9
4
1
3
-83
4
4
45
5
10
7
7
11
7
-32
-49
-56
3
-34
2
0
1
-117
50
30
66
6
2
3
19
-1
-23
-14
0
7
8
-4
3
5
1
3
1
-29
-3
19
6
3
-3
8
1
127
0
6
-11
-6
1
5
6
6
5
4
3
0
2
1
5
2
11
-55
-1
6
26
3
-1
4
5
10
6
-12
6
-32
3
-12
3
2
3
-1
40
4
41
0
0
1
7
-3
-16
-14
-2
-1
4
-7
3
9
2
-3
1
-15
-4
-1
-2
6
-4
-6
2
87
3
2
-6
-11
1
4
-4
3
8
-4
-3
4
-3
-7
0
-15
8
-36
-1
-4
13
-5
-6
1
1
-11
2
-10
127
-19
12
-10
-4
2
1
-12
47
4
33
-6
-2
-3
3
-1
-8
-7
3
-9
-1
-5
5
-1
0
-3
0
-7
-5
-6
-2
3
-4
-11
4
37
1
7
-4
-9
-1
-1
-2
-3
3
-13
-9
2
-2
-7
-32
-4
-2
-19
-2
-6
2
-6
-6
-4
-5
-17
-5
-9
127
-10
21
-5
-9
-2
0
-14
28
-4
98
-56
-11
-43
-49
-22
-26
-36
-10
-81
-22
-20
-13
-12
-5
-23
6
-35
-17
-30
-20
-21
-19
-59
-9
24
2
-45
-16
-33
-35
-30
2
-46
-20
-39
-79
-55
-18
-46
-21
-9
-68
-68
-21
-41
-27
-40
-38
-34
-46
-64
-49
-41
127
-43
-43
-13
-27
-9
-9
-64
32
-55
-2
-106
-29
-97
-102
-45
-35
-54
-29
-127
-33
-31
-49
-25
-14
-29
14
-51
-23
-53
-86
-52
-24
-96
-28
-108
6
-69
-21
-47
-76
-68
7
-46
-52
-56
-123
-61
-42
-81
-18
-6
-79
-97
-45
-68
-59
-63
-74
-66
-90
-95
-78
-64
-81
-63
-106
-15
-37
-20
-32
-92
-37
-95
9
-100
-26
-91
-88
-44
-39
-56
-25
-127
-32
-32
-45
-21
-12
-27
14
-57
-23
-51
-82
-49
-24
-93
-25
-103
8
-65
-23
-48
-71
-62
8
-42
-50
-57
-120
-57
-37
-78
-15
0
-74
-110
-42
-67
-50
-62
-69
-63
-84
-94
-79
-68
-89
-70
-104
-19
-35
-19
-30
-90
-21
-87
36
-96
-23
-84
-72
-44
-47
-59
-24
-127
-33
-34
-43
-18
-9
-25
15
-65
-23
-48
-83
-48
-25
-89
-24
-84
9
-65
-25
-49
-66
-56
10
-39
-47
-56
-118
-56
-35
-77
-11
5
-72
-127
-39
-67
-41
-64
-65
-59
-79
-90
-78
-72
-88
-79
-106
-24
-33
-18
-29
-90
2
-83
61
-75
-16
-65
-44
-38
-49
-54
-19
-111
-30
-31
-32
-13
-5
-20
14
-64
-19
-38
-70
-37
-22
-72
-18
-51
9
-53
-25
-43
-50
-40
11
-31
-35
-47
-100
-46
-24
-63
-4
10
-57
-127
-30
-58
-25
-56
-50
-46
-61
-73
-68
-65
-73
-77
-91
-25
-27
-14
-22
-77
28
-62
88
-58
-9
-47
-20
-33
-51
-50
-15
-95
-26
-28
-23
-8
0
-16
13
-63
-16
-31
-59
-28
-20
-60
-13
-15
9
-43
-24
-37
-36
-25
12
-24
-25
-38
-84
-37
-15
-50
2
15
-44
-127
-21
-50
-12
-49
-37
-34
-44
-59
-58
-61
-56
-76
-80
-26
-21
-11
-16
-67
51
-48
121
-38
-1
-26
6
-27
-53
-46
-10
-80
-22
-24
-11
-2
5
-10
11
-62
-13
-23
-47
-17
-17
-43
-6
28
9
-33
-24
-31
-19
-9
13
-15
-12
-28
-68
-27
-4
-36
9
21
-29
-127
-12
-41
2
-42
-22
-21
-26
-40
-48
-54
-36
-77
-65
-28
-15
-6
-8
-56
74
-33
127
-13
7
-1
26
-16
-41
-33
-4
-50
-14
-15
4
4
9
-3
8
-48
-8
-12
-28
-2
-11
-20
1
67
8
-17
-18
-19
0
9
11
-5
3
-13
-39
-12
7
-16
14
21
-10
-100
-1
-25
13
-27
-5
-5
-5
-14
-28
-36
-4
-59
-38
-23
-7
0
2
-36
76
-14
127
7
14
23
36
-7
-33
-21
1
-25
-7
-6
19
10
13
4
5
-37
-3
-4
-11
15
-6
-1
10
101
6
-3
-12
-9
17
24
10
5
19
1
-17
2
15
0
20
20
9
-78
7
-11
20
-14
8
8
12
8
-11
-20
38
-44
-14
-17
0
8
14
-17
69
1
-1
-120
0
-80
0
-3
-18
14
5
8
48
4
-52
-7
16
1
-2
29
63
28
5
2
2
4
2
0
-3
4
14
15
3
4
-2
2
-42
-5
127
-1
-68
-87
-1
-1
1
6
3
8
2
60
5
-32
6
8
8
0
0
79
1
4
5
1
-35
6
0
0
-1
76
0
-88
0
1
17
12
4
8
49
3
-62
-6
-13
1
-2
27
-17
27
6
2
2
5
2
1
-2
5
12
13
3
3
-2
3
-28
-1
127
0
-77
71
0
0
2
5
3
9
2
82
4
-39
5
7
8
4
0
77
2
4
6
1
-32
6
0
-1
-2
91
1
-10
4
18
27
16
6
16
-77
2
-111
-7
-16
0
-2
39
-26
43
9
4
-1
9
4
2
-4
15
-7
14
8
5
-2
5
-103
-1
-109
1
103
92
1
0
7
9
6
14
6
-86
6
127
7
12
11
8
0
-58
6
5
6
1
-49
11
2
4
0
26
2
127
6
5
5
5
-1
11
-20
2
14
2
-8
4
-1
-20
-12
-39
6
4
4
4
3
2
1
1
-9
0
6
4
0
3
33
6
-64
3
53
-4
0
1
5
8
1
4
4
-24
3
-17
4
9
5
4
0
-44
6
-2
1
2
-68
6
3
10
1
-1
5
57
7
3
3
-13
-2
10
-18
-1
119
12
-106
2
-1
-34
2
-31
5
7
-2
8
5
5
3
-2
-10
-17
8
4
3
5
127
17
-66
7
19
-10
2
1
5
8
-1
-4
2
-36
3
21
5
4
1
3
1
-43
11
2
0
2
-2
4
7
13
4
-7
9
24
8
-3
-4
-19
-8
-7
-9
2
106
21
-11
1
2
-26
-3
-15
-4
19
3
1
-3
7
4
-2
-5
-12
11
8
3
2
44
11
-51
8
0
-8
6
4
6
2
0
-9
-1
-22
-2
18
0
-3
-3
1
3
-30
6
0
-2
-20
127
-4
5
2
8
-5
6
24
-2
-6
-2
-10
0
-20
-3
-4
31
2
107
-5
2
-13
-12
-10
-10
-40
0
-8
-19
1
0
-5
-3
-7
-2
4
-2
-6
14
1
-25
2
6
-10
7
4
0
-2
10
-9
-6
-10
5
-7
6
-7
-13
-6
1
-13
-4
-3
-8
-2
127
-10
1
-6
3
-16
-22
10
-7
-5
-5
-9
-1
-16
-5
-4
57
0
74
-4
0
-12
-6
-9
-8
-12
-6
18
-8
-2
1
-7
-3
-9
-33
-27
-1
-5
11
-2
-23
-4
9
-11
1
-1
-6
-8
-7
-10
-5
-12
-4
-5
10
-12
-14
-4
-1
-15
-7
-4
-4
2
127
-8
-4
-6
-22
-127
-35
-87
-65
-40
-67
-47
-30
-87
-21
-29
-15
-23
-3
-24
11
-58
-22
-38
-67
-22
-26
-108
-11
-46
3
-58
-5
-47
-80
-73
5
-42
-62
-58
-104
-54
7
-100
-36
-27
-79
-111
-56
-57
-38
-63
-83
-73
-114
-99
-58
-43
-15
-69
-79
-29
-34
0
-53
-75
-53
-79
-20
-127
-29
-81
-62
-40
-71
-52
-25
-100
-23
-28
-39
-24
-18
-22
13
-59
-22
-38
-66
-15
-24
-100
-6
-45
4
-56
-5
-46
-72
-63
6
-41
-67
-61
-110
-51
7
-99
-35
-26
-76
-113
-50
-56
-36
-66
-75
-72
-107
-98
-61
-44
-13
-72
-76
-27
-34
6
-104
-74
-49
-75
-19
-127
-27
-58
-58
-38
-72
-55
-25
-97
-26
-28
-12
-20
-11
-21
14
-64
-24
-43
-64
-9
-23
-99
-2
-44
6
-54
-7
-49
-68
-60
8
-40
-50
-58
-125
-48
23
-100
-34
-24
-71
-110
-50
-56
-35
-73
-74
-66
-107
-96
-60
-43
-12
-81
-73
-28
-34
11
-94
-73
-46
-70
-16
-114
-22
-26
-47
-32
-66
-52
-22
-83
-27
-24
19
-14
-2
-17
13
-63
-23
-43
-55
-2
-19
-87
2
-38
6
-46
-8
-48
-57
-51
8
-34
-27
-50
-127
-40
37
-90
-30
-19
-60
-95
-44
-50
-29
-74
-65
-53
-96
-84
-53
-38
-10
-82
-61
-26
-30
15
-72
-62
-37
-56
-13
-102
-17
4
-37
-27
-59
-48
-19
-69
-28
-20
51
-7
7
-13
12
-62
-21
-43
-46
5
-15
-76
6
-32
7
-38
-10
-45
-46
-41
8
-29
-4
-42
-127
-31
48
-79
-25
-15
-49
-81
-38
-43
-23
-73
-56
-42
-85
-71
-45
-32
-7
-83
-48
-24
-26
18
-47
-52
-29
-42
-9
-89
-11
33
-26
-21
-52
-45
-16
-55
-29
-16
84
-1
16
-10
11
-61
-19
-43
-37
13
-12
-64
11
-24
8
-30
-11
-43
-35
-31
8
-23
21
-34
-127
-22
59
-69
-20
-10
-38
-66
-32
-37
-16
-72
-46
-31
-73
-60
-38
-27
-5
-83
-35
-22
-22
22
-17
-41
-21
-28
-5
-75
-5
66
-13
-15
-44
-42
-12
-39
-31
-11
127
7
29
-5
10
-60
-17
-43
-26
23
-7
-51
17
-15
10
-20
-12
-40
-20
-18
8
-15
52
-24
-127
-11
68
-56
-13
-3
-22
-49
-24
-29
-9
-70
-33
-17
-57
-45
-29
-21
-1
-83
-19
-19
-18
26
26
-28
-9
-11
-1
-50
1
71
-2
-7
-29
-30
-7
-21
-24
-6
127
10
31
-2
7
-44
-12
-33
-14
23
-3
-31
17
-6
8
-10
-10
-29
-7
-6
6
-8
60
-13
-99
-2
60
-37
-6
1
-9
-29
-14
-18
-2
-52
-19
-6
-35
-27
-18
-12
2
-65
-6
-14
-12
22
50
-15
-1
1
1
4
1
2
2
-77
6
81
-62
7
-30
4
0
-58
-1
72
-2
31
3
11
24
0
5
6
0
3
49
-65
4
85
0
-1
-1
-53
-2
83
11
-86
1
6
-43
-29
-68
8
0
-104
0
13
10
6
-1
127
3
4
-1
17
-108
3
-17
1
1
5
4
6
1
4
1
3
3
23
6
81
23
7
-3
4
1
0
0
-38
-1
30
3
9
59
0
4
7
0
3
-20
-49
3
87
1
-1
-1
-80
-2
84
10
-105
2
8
-45
-31
-63
8
1
41
0
11
9
5
0
127
4
4
-1
15
70
3
86
1
1
5
3
5
2
8
1
6
4
62
8
-64
29
12
9
2
2
-6
0
-20
0
39
2
8
115
1
3
9
1
4
-21
105
1
-88
5
1
-2
32
-1
-127
13
70
3
13
-125
-43
-57
13
6
40
3
8
10
4
4
-81
6
4
-1
16
86
6
-17
1
1
8
3
6
2
7
1
6
5
11
3
-47
14
12
18
1
2
-5
1
0
0
-26
0
-2
-127
2
1
7
1
4
-8
48
-2
-44
4
3
0
12
3
-32
8
45
3
4
15
-50
111
11
2
27
4
-1
1
0
7
-65
5
1
-1
6
69
2
-18
1
1
4
2
4
2
7
2
4
2
2
-2
-31
2
4
16
2
2
39
2
-6
-1
-37
4
-3
-21
2
1
7
2
10
-4
-6
-1
-27
6
8
0
84
4
-9
2
28
3
0
127
5
67
12
3
25
4
-5
-2
3
10
-56
6
5
-2
-13
-78
-1
-15
2
3
4
2
-1
4
-1
-1
1
0
0
-5
-13
1
-8
6
-3
4
42
0
-4
-1
-19
-7
-6
-15
4
-7
-6
-1
0
-4
-2
-3
-14
0
5
-1
43
6
-10
-9
29
-1
-7
54
127
17
-13
0
1
0
-6
-6
-2
3
-35
-2
-3
-8
-15
-36
-3
-10
1
3
-2
2
4
-20
-6
-1
-2
1
-4
-9
-7
-2
-12
0
-6
6
21
-1
-4
0
-10
-5
-7
-11
2
-5
-10
3
-33
-3
-6
-2
-8
-1
1
-1
11
3
-7
-11
19
-1
-7
31
127
2
-17
-2
-7
3
-6
-4
-4
-3
-20
-6
-7
3
-11
-19
-6
-7
0
1
-1
3
11
-11
-37
-8
-29
-44
-18
-25
-28
-6
-50
-15
-19
-10
12
-6
-11
3
-29
-13
-22
-36
-11
-13
-39
-4
-21
-1
-27
-6
-26
-22
-18
0
4
-11
-23
-52
41
-13
-31
70
127
-24
-54
-14
-30
-37
-28
-28
-23
-28
-50
-32
-19
2
-38
-39
-14
-27
-5
-9
-7
-44
-20
-7
-100
-25
-83
-62
-39
-43
-52
-17
-101
-37
-31
-47
-47
-15
-21
11
-49
-18
-37
-60
-41
-20
-84
-22
-19
5
-55
-4
-45
-68
-60
8
-65
-44
-45
-102
-4
-40
-71
-61
-127
-105
-104
-39
-61
-39
-54
-68
-58
-81
-87
-66
-38
5
-68
-40
-21
-45
-21
-31
-84
-53
-99
-3
-87
-22
-72
-52
-32
-39
-53
-12
-84
-30
-26
-42
-40
-12
-19
11
-46
-13
-34
-54
-36
-16
-73
-19
-13
6
-40
-3
-46
-57
-51
9
-50
-37
-44
-86
16
-35
-62
-45
-127
-78
-91
-33
-50
-33
-48
-62
-50
-68
-89
-56
-31
8
-63
-30
-19
-41
-20
-29
-71
-45
-89
0
-79
-19
-64
-46
-26
-37
-62
-6
-76
-26
-23
-39
-34
-9
-18
11
-49
-11
-34
-53
-31
-15
-66
-17
-7
8
-29
-2
-54
-51
-45
10
-34
-32
-50
-81
44
-31
-57
-24
-127
-48
-83
-30
-40
-29
-48
-58
-45
-62
-104
-52
-29
13
-62
-21
-18
-43
-19
-28
-68
-41
-85
4
-70
-16
-55
-40
-20
-34
-70
-1
-66
-19
-19
-36
-26
-7
-16
11
-52
-8
-35
-53
-27
-13
-58
-15
-1
11
-16
-2
-62
-43
-37
11
-17
-26
-55
-72
77
-27
-52
5
-127
-12
-73
-25
-29
-25
-46
-53
-40
-52
-118
-46
-26
18
-61
-13
-16
-44
-18
-26
-65
-37
-82
10
-54
-11
-40
-30
-12
-28
-75
6
-51
-12
-14
-31
-14
-3
-14
11
-52
-4
-33
-50
-20
-10
-45
-12
8
13
-1
-1
-68
-31
-25
12
6
-17
-58
-60
109
-21
-43
40
-114
31
-58
-18
-15
-19
-42
-45
-31
-37
-127
-37
-20
23
-56
-5
-13
-44
-16
-23
-56
-29
-74
14
-35
-5
-24
-18
-4
-21
-71
11
-33
-3
-8
-22
-1
1
-11
9
-46
-1
-28
-43
-12
-7
-30
-8
15
12
13
-1
-66
-18
-13
11
27
-8
-54
-43
127
-14
-31
69
-85
65
-38
-10
-2
-11
-34
-33
-20
-20
-120
-25
-14
25
-44
3
-10
-38
-12
-18
-41
-19
-56
17
-9
2
0
-4
5
-9
-63
14
-10
5
0
-9
15
6
-4
7
-40
4
-20
-32
1
-2
-8
-2
21
13
23
0
-57
1
4
10
43
7
-42
-19
127
-3
-13
102
-51
100
-10
0
12
-2
-22
-16
-5
1
-107
-9
-5
26
-31
4
-4
-29
-6
-9
-22
-8
-33
20
10
8
20
7
10
1
-51
13
7
11
7
3
30
10
2
5
-34
8
-12
-22
12
1
9
2
26
13
26
0
-45
16
16
8
55
20
-30
0
110
5
1
127
-6
122
13
8
22
4
-12
-1
8
17
-89
4
2
26
-18
-3
1
-19
-1
0
-5
1
-13
